<unk>	0
▁the	-3.06562
▁of	-3.38468
▁and	-3.59225
▁in	-3.88801
▁a	-4.11111
▁to	-4.127
▁with	-4.59646
▁was	-4.74345
s	-4.78176
▁is	-4.79549
▁for	-4.84578
▁1	-4.95489
▁	-5.06046
▁0	-5.09911
▁2	-5.19162
▁that	-5.2107
▁as	-5.28386
▁by	-5.37663
▁were	-5.42905
▁3	-5.44169
▁on	-5.4436
▁this	-5.46069
▁be	-5.48344
▁are	-5.51127
▁or	-5.60526
▁c	-5.61701
▁from	-5.64286
▁an	-5.70086
▁5	-5.72257
▁4	-5.76999
▁patients	-5.79735
ing	-5.8056
▁at	-5.82658
ed	-5.90978
▁s	-5.95582
▁not	-5.95823
▁have	-5.96629
1	-5.96845
2	-5.97782
▁patient	-5.98271
▁it	-6.05687
▁6	-6.06401
▁we	-6.07616
▁no	-6.13381
▁which	-6.16478
▁been	-6.23517
▁has	-6.2524
▁7	-6.27135
▁after	-6.31876
▁8	-6.329
▁10	-6.35088
▁case	-6.35105
▁figure	-6.3906
▁can	-6.40812
▁study	-6.41148
▁h	-6.41297
a	-6.42859
▁these	-6.43892
▁et	-6.4418
▁al	-6.46061
▁may	-6.47346
▁also	-6.48984
▁our	-6.51057
▁treatment	-6.51944
▁9	-6.53637
▁all	-6.55124
▁there	-6.57742
▁had	-6.5842
d	-6.60264
ly	-6.61299
▁p	-6.62357
▁but	-6.63385
▁cells	-6.64797
▁data	-6.64841
e	-6.65288
▁other	-6.65794
▁disease	-6.6758
3	-6.69558
▁reported	-6.69647
▁b	-6.70454
▁n	-6.73993
▁t	-6.74506
▁more	-6.75034
▁clinical	-6.75871
▁one	-6.75953
▁using	-6.78149
▁such	-6.78998
▁fig	-6.80778
▁between	-6.81191
▁cases	-6.82006
▁their	-6.82301
y	-6.83539
▁used	-6.84074
▁however	-6.84532
▁e	-6.84662
▁cell	-6.85812
▁l	-6.86644
▁showed	-6.88695
▁most	-6.8921
▁two	-6.90722
c	-6.92152
▁left	-6.92563
▁i	-6.92676
▁right	-6.93261
▁than	-6.93747
▁12	-6.94512
▁d	-6.95151
▁during	-6.9644
▁results	-6.9907
4	-6.99187
▁diagnosis	-7.01988
▁high	-7.02139
▁associated	-7.02534
▁first	-7.03137
▁years	-7.03608
▁both	-7.04653
▁only	-7.05053
▁time	-7.06997
▁studies	-7.07328
▁authors	-7.08092
▁he	-7.08657
▁health	-7.08928
▁normal	-7.09781
▁well	-7.09805
▁blood	-7.10251
▁they	-7.12011
▁g	-7.12053
▁11	-7.12089
▁performed	-7.12194
▁m	-7.13528
▁who	-7.14113
▁research	-7.14503
▁year	-7.14842
▁found	-7.15135
▁tumor	-7.16243
▁15	-7.16353
▁due	-7.1688
▁should	-7.16933
▁report	-7.17473
▁use	-7.18706
▁up	-7.19658
▁into	-7.2028
▁risk	-7.21002
b	-7.21035
▁its	-7.21338
▁when	-7.22256
▁present	-7.24647
▁based	-7.24745
▁any	-7.25202
▁20	-7.27874
▁analysis	-7.28859
▁mg	-7.2896
▁non	-7.29197
▁group	-7.29204
▁13	-7.29839
▁his	-7.3172
▁cancer	-7.33091
▁14	-7.33127
▁table	-7.34029
▁could	-7.3416
▁age	-7.35035
▁revealed	-7.35305
▁surgery	-7.3551
n	-7.36508
▁will	-7.37351
▁ct	-7.37794
▁including	-7.3782
5	-7.37858
▁medical	-7.38954
▁f	-7.39128
▁therapy	-7.39385
▁infection	-7.39425
▁r	-7.40615
▁without	-7.41072
▁interest	-7.41146
▁new	-7.42127
▁de	-7.42158
▁some	-7.42367
▁she	-7.42447
▁examination	-7.4276
▁months	-7.42915
▁her	-7.43952
▁different	-7.44111
▁significant	-7.44408
▁mm	-7.44671
▁because	-7.44984
▁16	-7.45011
▁type	-7.45844
▁over	-7.46137
▁number	-7.46317
▁pain	-7.46668
▁history	-7.47147
▁18	-7.4806
▁day	-7.48354
▁old	-7.48913
▁tissue	-7.49634
▁symptoms	-7.49767
6	-7.50171
▁increased	-7.50533
▁within	-7.50653
▁common	-7.50686
▁o	-7.51443
▁if	-7.52441
▁positive	-7.52775
▁mass	-7.54
▁care	-7.54087
▁through	-7.54124
▁three	-7.54406
▁level	-7.54973
▁important	-7.55108
▁although	-7.5535
o	-7.55484
▁surgical	-7.55576
al	-7.57227
▁about	-7.57501
r	-7.57932
▁related	-7.58684
▁control	-7.59007
▁low	-7.59117
▁findings	-7.59218
▁further	-7.60017
▁levels	-7.61208
▁rate	-7.61498
l	-7.62141
▁protein	-7.62263
▁30	-7.62647
▁days	-7.62799
▁system	-7.62813
▁17	-7.63202
▁cm	-7.63527
▁while	-7.6474
▁described	-7.64813
▁human	-7.64955
g	-7.65128
▁factors	-7.65437
▁rare	-7.66034
▁ml	-7.66075
i	-7.66191
▁under	-7.66243
▁following	-7.66923
▁total	-7.67017
7	-7.67095
▁each	-7.67201
▁small	-7.67204
▁lower	-7.67386
▁hospital	-7.67393
▁presented	-7.68118
es	-7.68178
▁like	-7.68239
▁observed	-7.68538
▁many	-7.69601
▁article	-7.69681
▁specific	-7.70595
▁large	-7.70918
▁x	-7.71321
m	-7.7159
▁lesions	-7.7183
▁out	-7.71928
▁introduction	-7.71989
▁those	-7.72529
▁methods	-7.72702
▁would	-7.7273
▁negative	-7.73705
▁primary	-7.74113
▁50	-7.74396
▁among	-7.75023
▁severe	-7.75089
▁development	-7.75521
▁test	-7.75578
▁did	-7.76298
▁discussion	-7.76604
▁gene	-7.76718
▁100	-7.77616
▁acute	-7.77683
▁compared	-7.78405
h	-7.78533
8	-7.78596
▁multiple	-7.78961
▁lesion	-7.79015
▁evidence	-7.79016
▁syndrome	-7.79208
▁imaging	-7.7923
▁25	-7.79418
▁several	-7.79709
▁potential	-7.80126
▁function	-7.80265
▁cd	-7.80268
▁shown	-7.80355
▁19	-7.80391
▁cause	-7.81637
▁information	-7.81649
▁long	-7.81747
t	-7.82165
▁work	-7.82327
▁artery	-7.82816
▁early	-7.83279
▁per	-7.83368
▁therefore	-7.83786
▁response	-7.84193
▁genome	-7.84466
▁follow	-7.8472
▁very	-7.85291
▁considered	-7.85325
▁before	-7.85565
▁mean	-7.85875
▁k	-7.86038
▁treated	-7.87148
▁support	-7.87215
▁abdominal	-7.88004
▁effects	-7.88132
▁bone	-7.88239
▁available	-7.88262
▁obtained	-7.88393
▁so	-7.88908
▁skin	-7.8919
▁presence	-7.89573
▁higher	-7.90183
▁anti	-7.90366
▁24	-7.91435
▁management	-7.91649
▁activity	-7.91742
▁post	-7.91764
▁showing	-7.92171
▁role	-7.92298
▁v	-7.92408
▁even	-7.92467
▁then	-7.9256
▁similar	-7.93519
▁effect	-7.93519
▁identified	-7.93523
▁children	-7.93657
▁seen	-7.9391
▁renal	-7.93974
▁where	-7.9451
▁known	-7.94997
er	-7.95416
▁population	-7.95473
▁review	-7.96917
▁since	-7.97236
▁literature	-7.97429
▁possible	-7.97565
▁drug	-7.9775
▁40	-7.97759
▁body	-7.97977
▁size	-7.98298
ic	-7.98387
▁second	-7.98514
▁pressure	-7.98591
▁liver	-7.98736
▁same	-7.98879
9	-7.98985
▁changes	-7.99219
▁area	-7.99291
▁thus	-7.99609
▁lung	-7.99772
▁expression	-7.99887
▁increase	-8.00321
▁serum	-8.0058
▁brain	-8.00659
▁chronic	-8.00828
▁addition	-8.01258
▁made	-8.0146
us	-8.01628
▁diseases	-8.01834
p	-8.01845
▁being	-8.02011
▁virus	-8.02205
▁weeks	-8.03013
▁u	-8.03204
▁chest	-8.03415
▁range	-8.0342
▁less	-8.03428
▁developed	-8.03599
▁university	-8.04083
▁do	-8.04212
▁often	-8.04214
▁pulmonary	-8.04304
▁approach	-8.04388
f	-8.04407
▁dna	-8.04538
▁result	-8.04605
▁published	-8.04823
▁mri	-8.06704
▁single	-8.06872
▁complete	-8.07174
▁given	-8.07181
▁life	-8.07371
▁include	-8.07381
▁previous	-8.07455
▁complications	-8.07913
▁scan	-8.07925
▁model	-8.08341
▁genes	-8.08517
▁conclusion	-8.08689
▁demonstrated	-8.08769
▁part	-8.0914
▁consent	-8.09639
▁groups	-8.09745
▁cardiac	-8.10737
▁usually	-8.10844
▁presentation	-8.10856
▁included	-8.11108
▁heart	-8.11131
▁j	-8.11976
▁method	-8.11989
▁recent	-8.12065
▁site	-8.12185
▁factor	-8.12745
▁respectively	-8.12787
▁region	-8.13968
▁samples	-8.14652
▁need	-8.15271
▁reports	-8.15594
▁tumors	-8.15619
▁tomography	-8.15621
▁according	-8.15702
▁la	-8.15773
▁loss	-8.16069
▁contrast	-8.16185
▁period	-8.16214
▁general	-8.16311
▁major	-8.16333
10	-8.1658
▁muscle	-8.16798
▁21	-8.16989
▁dl	-8.17436
▁how	-8.17456
▁sequence	-8.1751
▁side	-8.17611
▁upper	-8.17928
▁initial	-8.17959
▁previously	-8.18014
▁conflict	-8.18224
▁male	-8.18274
▁procedure	-8.18626
▁might	-8.18661
▁growth	-8.18836
▁standard	-8.19031
▁min	-8.19837
▁60	-8.20187
▁injury	-8.2054
▁co	-8.20946
▁laboratory	-8.20984
▁incidence	-8.21732
▁oral	-8.21939
▁dose	-8.22041
▁various	-8.22071
▁features	-8.22208
▁significantly	-8.22332
▁wall	-8.22459
▁anterior	-8.22523
▁diagnosed	-8.22679
▁un	-8.23275
▁22	-8.23368
▁four	-8.23627
▁acid	-8.23871
▁process	-8.24049
▁few	-8.24289
▁images	-8.24317
▁induced	-8.24319
▁diabetes	-8.24448
▁end	-8.24479
▁pre	-8.24609
▁biopsy	-8.24857
th	-8.24934
▁interests	-8.25059
▁mortality	-8.25587
▁us	-8.25641
▁inflammatory	-8.25963
▁respiratory	-8.26096
▁quality	-8.26115
▁23	-8.26116
▁confirmed	-8.2623
▁caused	-8.26245
▁conditions	-8.26632
▁shows	-8.2698
▁species	-8.27495
▁000	-8.27894
▁value	-8.28088
▁followed	-8.2827
▁journal	-8.28319
▁effective	-8.2872
▁show	-8.28826
▁manuscript	-8.28833
▁term	-8.28859
▁diagnostic	-8.29149
▁local	-8.29331
▁association	-8.29353
▁hiv	-8.29406
▁women	-8.29517
▁current	-8.29534
▁physical	-8.29681
▁family	-8.29823
▁infections	-8.29832
▁re	-8.29898
▁usa	-8.2994
▁form	-8.30406
▁failure	-8.30699
is	-8.30872
▁lead	-8.31084
▁national	-8.31112
▁condition	-8.31143
▁provide	-8.31175
▁eye	-8.31651
▁structure	-8.32102
x	-8.32311
▁free	-8.32438
▁additional	-8.32933
▁areas	-8.33421
▁female	-8.33525
▁another	-8.3379
▁involved	-8.33949
▁medicine	-8.33977
▁good	-8.34347
▁parameters	-8.34399
▁required	-8.34544
▁y	-8.3458
▁secondary	-8.34601
▁view	-8.35258
▁central	-8.35309
▁ii	-8.35572
▁department	-8.35608
▁publication	-8.35889
▁conflicts	-8.35975
▁none	-8.36088
▁especially	-8.36551
▁carcinoma	-8.36843
▁later	-8.3699
▁still	-8.37039
▁computed	-8.37039
▁evaluation	-8.3722
▁detected	-8.37411
▁knowledge	-8.37531
11	-8.37726
▁author	-8.38176
▁open	-8.38266
▁complex	-8.38276
▁95	-8.38412
▁breast	-8.38739
▁image	-8.38879
▁paper	-8.38911
▁weight	-8.39035
k	-8.39101
▁genetic	-8.39222
▁fluid	-8.39351
▁vascular	-8.39356
▁postoperative	-8.39521
▁molecular	-8.40421
▁dr	-8.40629
▁received	-8.40994
▁coronary	-8.41071
▁likely	-8.4162
▁bilateral	-8.4165
▁proteins	-8.4178
▁reduction	-8.41947
▁occur	-8.42023
▁posterior	-8.42054
▁05	-8.42274
▁against	-8.4251
▁course	-8.42607
▁line	-8.43432
▁here	-8.43439
▁them	-8.43478
▁done	-8.43596
▁28	-8.43744
▁nerve	-8.44536
▁technique	-8.44839
▁sample	-8.44856
▁change	-8.44982
▁defined	-8.44994
12	-8.45031
▁values	-8.45339
▁80	-8.45454
▁competing	-8.45825
▁prior	-8.46088
▁better	-8.46448
▁public	-8.46466
▁prevalence	-8.46469
▁flow	-8.46744
▁immune	-8.47198
▁recently	-8.47357
▁systemic	-8.4745
▁kg	-8.47669
▁along	-8.4788
▁drugs	-8.47915
▁whether	-8.48245
▁reduced	-8.48371
▁stage	-8.48457
▁35	-8.48699
▁field	-8.48788
▁tests	-8.49236
▁pcr	-8.49271
▁26	-8.49382
▁what	-8.49416
▁strain	-8.4963
▁z	-8.49643
▁isolated	-8.49659
▁material	-8.49838
▁resistance	-8.50145
▁order	-8.50223
▁either	-8.50401
▁90	-8.5055
▁despite	-8.50606
▁survival	-8.50648
▁involvement	-8.50698
▁month	-8.50757
▁limited	-8.51123
▁source	-8.51464
▁resection	-8.51493
▁main	-8.51502
▁surface	-8.51709
▁difficult	-8.52111
▁suggested	-8.5218
▁outcome	-8.52426
▁countries	-8.52518
▁head	-8.52601
▁improved	-8.52613
▁does	-8.52874
▁il	-8.5288
▁version	-8.52963
▁27	-8.53102
▁underwent	-8.53294
▁now	-8.53372
▁white	-8.53431
▁decreased	-8.53685
▁measured	-8.54046
▁provided	-8.54456
▁point	-8.54565
▁final	-8.5471
▁state	-8.54877
▁access	-8.55015
▁http	-8.55028
▁70	-8.55227
▁formation	-8.55317
▁45	-8.55733
▁onset	-8.56025
▁people	-8.5626
in	-8.56384
▁issue	-8.56565
▁signs	-8.56833
▁world	-8.56907
▁chemotherapy	-8.56925
▁difference	-8.57181
▁direct	-8.57301
▁exposure	-8.57393
▁mice	-8.57459
▁volume	-8.57517
▁taken	-8.57562
▁absence	-8.57585
▁causes	-8.57621
▁malignant	-8.57636
▁poor	-8.57874
▁hours	-8.57961
▁noted	-8.57977
▁lateral	-8.58123
▁impact	-8.58331
▁trauma	-8.58402
▁water	-8.58458
▁hand	-8.58477
▁short	-8.58742
▁bleeding	-8.58953
▁fever	-8.59075
▁approximately	-8.5936
▁criteria	-8.5984
▁remains	-8.60259
▁mild	-8.60267
▁rates	-8.60301
▁conducted	-8.60363
▁death	-8.60442
▁viral	-8.60646
▁phase	-8.60779
▁supported	-8.60828
▁third	-8.60863
▁sequences	-8.60929
▁commonly	-8.60999
▁disorders	-8.61175
▁full	-8.61232
▁neck	-8.62004
▁best	-8.62067
▁ultrasound	-8.62101
▁improvement	-8.62123
▁length	-8.62327
▁see	-8.6235
▁via	-8.62427
▁outcomes	-8.62474
▁help	-8.62479
▁intervention	-8.62484
▁therapeutic	-8.62822
▁subjects	-8.62889
▁kidney	-8.63067
▁five	-8.63117
▁recurrence	-8.63554
▁score	-8.6374
▁reaction	-8.63865
▁individuals	-8.63884
▁arrow	-8.63959
▁culture	-8.64364
▁center	-8.64429
▁program	-8.64504
▁functional	-8.64522
▁around	-8.64778
st	-8.64862
▁status	-8.65015
▁week	-8.65155
▁admission	-8.65215
▁scientific	-8.65327
▁count	-8.65425
▁pattern	-8.65511
▁last	-8.65547
▁least	-8.65673
▁emergency	-8.65752
▁must	-8.65864
▁example	-8.66022
▁position	-8.66145
▁original	-8.66201
▁assessment	-8.66224
▁lymph	-8.66245
▁stress	-8.66276
▁science	-8.66467
▁ca	-8.66787
▁regarding	-8.6683
▁appropriate	-8.66984
▁bp	-8.66997
▁above	-8.67013
▁funding	-8.67125
▁cyst	-8.67299
▁mechanisms	-8.67562
▁practice	-8.67674
▁mechanism	-8.67747
▁29	-8.67782
▁differences	-8.67948
▁suggest	-8.67997
um	-8.68032
▁37	-8.68052
▁future	-8.68067
▁increasing	-8.68171
▁experimental	-8.6827
▁past	-8.68592
▁2013	-8.68637
▁plasma	-8.68875
▁background	-8.68954
▁ventricular	-8.69451
▁location	-8.69612
▁inflammation	-8.69689
▁systems	-8.69717
▁highly	-8.7006
▁index	-8.70143
▁improve	-8.70208
▁distal	-8.70256
▁peripheral	-8.70332
▁2014	-8.70449
▁active	-8.70958
▁clear	-8.70993
▁supplementary	-8.71111
▁started	-8.71171
▁states	-8.71219
▁types	-8.71247
▁resulting	-8.71275
▁rna	-8.7135
▁vein	-8.71354
▁36	-8.71399
13	-8.7142
▁48	-8.71785
▁administration	-8.71791
▁collection	-8.7185
▁leading	-8.7189
▁average	-8.71961
▁financial	-8.71975
▁set	-8.72157
▁soft	-8.72164
able	-8.72186
▁overall	-8.72202
▁tract	-8.72571
▁75	-8.72716
▁affected	-8.72958
▁33	-8.73142
▁32	-8.73158
▁materials	-8.73204
▁healthy	-8.73234
▁2012	-8.73245
▁characterized	-8.73317
▁infected	-8.73392
▁le	-8.73696
▁visual	-8.7383
▁characteristics	-8.74265
▁mutations	-8.74318
▁six	-8.74576
▁individual	-8.74593
▁combination	-8.74727
▁lack	-8.74904
▁magnetic	-8.74965
▁daily	-8.74997
▁reference	-8.75009
▁testing	-8.75094
▁declare	-8.75346
▁detection	-8.75361
▁en	-8.75468
▁needed	-8.75507
▁collected	-8.75753
▁ratio	-8.75962
▁prevent	-8.75964
▁membrane	-8.75985
▁vs	-8.76098
▁red	-8.76374
▁grade	-8.76525
▁aortic	-8.76877
▁furthermore	-8.77047
▁receptor	-8.77213
▁31	-8.77264
▁34	-8.77346
▁sites	-8.77393
▁section	-8.77478
▁bowel	-8.77541
▁elevated	-8.7755
on	-8.78248
▁consistent	-8.78319
▁target	-8.78447
▁design	-8.78572
▁much	-8.78644
▁2015	-8.78677
▁times	-8.78726
▁radiation	-8.78919
▁metastasis	-8.79307
▁useful	-8.7957
▁activation	-8.79686
▁man	-8.79747
▁production	-8.79786
▁identify	-8.79872
▁mutation	-8.80103
▁catheter	-8.80126
▁duration	-8.80161
▁sequencing	-8.80215
▁novel	-8.80279
▁thyroid	-8.80384
▁greater	-8.80974
▁critical	-8.81033
▁intra	-8.81045
▁procedures	-8.81205
▁international	-8.81253
▁pregnancy	-8.81323
▁disorder	-8.81338
▁hypertension	-8.8136
v	-8.81414
▁indicated	-8.81827
▁focus	-8.81904
▁resonance	-8.81941
▁glucose	-8.82473
▁events	-8.82473
▁particularly	-8.826
▁occurs	-8.82962
▁united	-8.82998
▁read	-8.83111
▁light	-8.83211
▁relevant	-8.83263
▁distribution	-8.83324
▁established	-8.83375
▁abdomen	-8.83448
▁conclusions	-8.83456
▁ms	-8.83486
▁trials	-8.83873
▁strains	-8.83996
▁applied	-8.84011
▁series	-8.84017
▁global	-8.84019
▁determine	-8.84088
▁insulin	-8.84097
▁38	-8.84139
▁every	-8.84235
▁2010	-8.84286
▁key	-8.84436
▁2008	-8.84519
▁models	-8.84551
▁approved	-8.8483
▁scale	-8.84881
▁develop	-8.84885
▁necessary	-8.85084
▁tube	-8.85127
▁temperature	-8.85147
▁training	-8.85194
▁air	-8.853
▁doi	-8.85337
▁young	-8.85624
▁rapid	-8.85652
▁trial	-8.85653
▁china	-8.85707
▁bladder	-8.85739
▁frequency	-8.85761
▁internal	-8.85775
▁001	-8.85808
▁finding	-8.85832
▁informed	-8.85918
▁understanding	-8.8595
▁benign	-8.8607
▁concentration	-8.86084
w	-8.86138
▁antibodies	-8.86158
▁content	-8.86246
▁community	-8.86323
▁whole	-8.86343
▁analyzed	-8.86388
▁having	-8.86465
▁fracture	-8.86578
▁2011	-8.86617
▁located	-8.86659
▁2016	-8.86778
▁2009	-8.8717
▁antibody	-8.87274
▁underlying	-8.87278
▁make	-8.87286
▁back	-8.87313
▁differential	-8.87361
▁fact	-8.87377
▁w	-8.87521
▁ray	-8.87758
▁iv	-8.87899
▁determined	-8.87914
▁median	-8.88059
▁experience	-8.8819
▁structures	-8.88215
▁gastric	-8.88227
▁frequently	-8.88388
▁damage	-8.88398
▁invasive	-8.88643
▁evaluated	-8.88662
▁techniques	-8.88834
▁109	-8.89309
ity	-8.89386
▁child	-8.89494
▁joint	-8.8962
▁way	-8.89685
▁involving	-8.8973
▁moreover	-8.90162
▁india	-8.90227
▁space	-8.904
▁agents	-8.90419
▁sub	-8.90449
▁importance	-8.90533
▁reduce	-8.90626
▁self	-8.90723
▁repair	-8.90835
▁cervical	-8.91075
▁whereas	-8.91103
se	-8.91205
▁participants	-8.91224
▁ci	-8.91262
▁particular	-8.91474
▁arterial	-8.9162
▁signal	-8.91624
▁multi	-8.91632
q	-8.91633
▁wide	-8.91665
▁metastatic	-8.91731
▁referred	-8.91999
▁social	-8.92039
▁operative	-8.92049
▁nature	-8.92089
▁written	-8.92159
▁screening	-8.92196
▁65	-8.92241
▁independent	-8.92253
▁food	-8.92257
▁recommended	-8.9232
▁cystic	-8.92422
▁venous	-8.92503
▁ph	-8.92591
▁200	-8.92617
▁cellular	-8.92696
▁spinal	-8.92731
▁able	-8.92903
▁injection	-8.92932
▁containing	-8.92958
▁currently	-8.92967
▁declared	-8.93062
▁proximal	-8.93302
▁regions	-8.93315
▁until	-8.93367
ation	-8.93569
▁reflections	-8.93648
▁01	-8.93816
▁adult	-8.93873
▁decrease	-8.93985
▁admitted	-8.94087
▁animal	-8.9425
▁correct	-8.94272
▁occurred	-8.94418
▁relatively	-8.94425
▁obstruction	-8.94546
▁become	-8.94863
▁relationship	-8.94876
▁sensitivity	-8.94945
▁abnormal	-8.9519
▁rather	-8.95196
▁complication	-8.95222
▁men	-8.95487
▁statistical	-8.95646
▁interesting	-8.95724
▁subsequent	-8.95766
▁abnormalities	-8.95813
▁iii	-8.9596
▁education	-8.96073
▁unit	-8.96291
▁tissues	-8.9635
▁removed	-8.96365
▁guidelines	-8.96389
▁progression	-8.96408
▁cost	-8.9665
▁developing	-8.96726
▁infectious	-8.96799
▁placed	-8.96969
▁dysfunction	-8.97206
▁enhanced	-8.97381
▁resolution	-8.97464
▁diffuse	-8.97497
▁proposed	-8.9752
▁removal	-8.97581
▁adults	-8.97865
▁120	-8.97953
▁dependent	-8.97969
▁biological	-8.98499
▁55	-8.98538
▁st	-8.98586
▁une	-8.98726
▁estimated	-8.98759
▁you	-8.98762
▁prevention	-8.98932
▁recurrent	-8.98992
▁neurological	-8.99176
▁efficacy	-8.99184
▁contributions	-8.99219
▁adverse	-8.99307
▁pet	-8.99308
▁vessels	-8.99391
▁next	-8.99748
▁middle	-8.99878
▁special	-8.99889
▁defect	-8.99917
▁asymptomatic	-8.99981
14	-9.00059
▁prognosis	-9.00165
▁host	-9.00256
▁online	-9.00297
▁clinically	-9.00332
▁urinary	-9.00486
▁39	-9.00516
▁grant	-9.00586
▁bacterial	-9.00602
▁intravenous	-9.00625
▁institute	-9.00627
▁upon	-9.00743
▁fat	-9.00956
▁operation	-9.01043
▁articles	-9.0107
▁icu	-9.01532
▁across	-9.01565
▁essential	-9.0206
▁successful	-9.02201
▁problems	-9.02218
▁metabolic	-9.02294
▁comparison	-9.02351
▁carried	-9.02393
ally	-9.02444
▁figures	-9.0253
▁diameter	-9.02709
▁congenital	-9.02745
▁animals	-9.02805
▁recovery	-9.02833
▁influenza	-9.02911
▁q	-9.02924
▁99	-9.02979
▁origin	-9.03098
▁provides	-9.0331
▁advanced	-9.03347
▁segment	-9.0351
▁pro	-9.03525
▁na	-9.037
▁yet	-9.03758
▁org	-9.03818
▁natural	-9.04042
▁sinus	-9.04045
▁tb	-9.04056
▁weighted	-9.04071
▁majority	-9.04087
▁swelling	-9.04185
▁graft	-9.04222
▁42	-9.04269
▁correlation	-9.04278
▁cannot	-9.04307
▁generally	-9.04343
▁2017	-9.04423
▁cardiovascular	-9.04443
▁binding	-9.0457
▁appearance	-9.04613
▁my	-9.04632
▁partial	-9.04722
▁project	-9.04995
▁avoid	-9.05043
▁ability	-9.05044
▁67	-9.05124
▁editor	-9.05277
▁pathway	-9.05305
▁monitoring	-9.05311
▁finally	-9.05337
▁www	-9.05507
▁cavity	-9.05545
▁identification	-9.05567
▁staining	-9.05662
▁urine	-9.05875
▁problem	-9.05935
▁far	-9.06172
▁though	-9.06289
▁responses	-9.0635
▁valve	-9.06388
▁edema	-9.06509
▁date	-9.06556
▁technology	-9.06644
▁clinic	-9.06704
▁combined	-9.06744
▁46	-9.06767
▁oxygen	-9.0697
▁students	-9.06996
▁thank	-9.07226
▁cross	-9.07348
▁hepatic	-9.07352
▁mental	-9.07389
▁conventional	-9.07557
▁cerebral	-9.07596
▁possibility	-9.07677
▁44	-9.0773
▁des	-9.07819
▁unknown	-9.07926
▁angiography	-9.08033
▁hyper	-9.08249
gastrointestinal	-9.08305
▁studied	-9.08406
▁woman	-9.08417
▁pathology	-9.08483
▁56	-9.08494
▁mainly	-9.08609
▁derived	-9.08763
▁presenting	-9.08951
▁solution	-9.09012
▁72	-9.09022
▁selected	-9.09127
▁transmission	-9.09184
▁together	-9.09247
▁safety	-9.09291
▁analyses	-9.09303
▁suspected	-9.09741
▁application	-9.09788
▁necrosis	-9.09831
▁excision	-9.09889
▁detect	-9.09969
▁contact	-9.1003
▁resistant	-9.10213
▁antibiotics	-9.10278
▁certain	-9.10303
z	-9.10352
▁close	-9.10425
▁tested	-9.10645
▁viruses	-9.10775
▁superior	-9.10915
▁describe	-9.11012
▁below	-9.11023
▁uk	-9.11048
▁japan	-9.11491
▁marked	-9.11498
▁subsequently	-9.11499
▁stable	-9.11577
▁products	-9.11603
▁evaluate	-9.11765
▁43	-9.11813
▁late	-9.12004
▁moderate	-9.12067
▁expressed	-9.12197
▁researchers	-9.1268
▁colleagues	-9.12716
▁extensive	-9.12935
▁simple	-9.12964
▁stem	-9.13012
▁setting	-9.13171
▁discharged	-9.13188
▁00	-9.13385
▁lymphoma	-9.13404
▁myocardial	-9.13454
▁controlled	-9.13581
▁sp	-9.1365
▁making	-9.13745
▁stroke	-9.13782
▁protocol	-9.13808
▁software	-9.14041
j	-9.14048
▁solid	-9.14059
▁baseline	-9.14151
▁routine	-9.1425
▁stent	-9.14275
▁antigen	-9.14308
▁led	-9.14467
▁consist	-9.14538
▁just	-9.14584
▁accession	-9.1471
▁suggests	-9.14806
▁tuberculosis	-9.14872
▁almost	-9.14882
ical	-9.149
▁leads	-9.14924
▁ng	-9.15074
or	-9.15118
▁hemorrhage	-9.15164
▁mr	-9.15258
▁2007	-9.15299
▁41	-9.15313
▁once	-9.15368
▁85	-9.15393
▁micro	-9.154
▁malignancy	-9.1541
▁deep	-9.15603
en	-9.15658
▁initially	-9.15722
▁sd	-9.15886
▁hence	-9.15913
▁wound	-9.15944
▁humans	-9.15989
▁completely	-9.1608
▁environmental	-9.16094
▁rarely	-9.1619
▁immunohistochem	-9.16254
▁assess	-9.16355
▁allow	-9.16472
▁endoscopic	-9.16513
▁external	-9.16568
▁suggesting	-9.16619
▁lobe	-9.16625
▁administered	-9.16686
▁sex	-9.16727
▁pancreatic	-9.16913
▁bacteria	-9.16956
▁correction	-9.17098
▁reviewed	-9.17258
▁performance	-9.17262
▁terms	-9.17334
▁colon	-9.17397
▁isolates	-9.17412
▁markers	-9.1745
▁remained	-9.17488
▁larger	-9.17515
▁base	-9.17588
▁signaling	-9.1761
▁great	-9.17629
▁mmhg	-9.17631
▁relative	-9.17704
▁component	-9.17732
▁epithelial	-9.17741
▁nil	-9.17805
▁members	-9.17844
▁real	-9.17882
▁frequent	-9.17944
▁strong	-9.18172
▁investigation	-9.18249
▁metastases	-9.18437
▁account	-9.18484
▁acquired	-9.18604
▁benefit	-9.18651
▁causing	-9.18753
▁typical	-9.1876
▁room	-9.18892
▁basis	-9.18948
▁achieved	-9.18955
▁64	-9.18981
▁measures	-9.19024
0	-9.1903
▁refinement	-9.19108
▁preoperative	-9.19364
▁society	-9.19388
▁47	-9.19409
▁58	-9.19417
▁approaches	-9.19548
▁play	-9.19708
▁anesthesia	-9.19786
▁affect	-9.19823
▁degree	-9.19868
▁laparoscopic	-9.19907
ers	-9.19964
▁forms	-9.20027
▁activities	-9.20296
▁progressive	-9.20313
▁amount	-9.20533
▁retinal	-9.20591
ve	-9.20653
▁pd	-9.20674
▁delivery	-9.2068
▁alternative	-9.20694
▁me	-9.20777
▁bio	-9.20827
▁responsible	-9.20952
▁aneurysm	-9.21009
▁cutaneous	-9.21096
▁mediated	-9.21183
▁flap	-9.21224
▁choice	-9.21255
▁services	-9.21304
▁assessed	-9.21318
▁error	-9.21406
▁organ	-9.21453
▁assay	-9.21608
▁antibiotic	-9.21745
▁includes	-9.21868
▁reconstruction	-9.21951
▁intestinal	-9.22098
▁require	-9.22174
15	-9.22176
▁52	-9.22354
▁genomic	-9.22495
▁resulted	-9.2257
▁mechanical	-9.22592
▁processes	-9.22735
▁cl	-9.22833
▁54	-9.22872
▁atrial	-9.22982
▁pediatric	-9.23002
▁issues	-9.23007
▁tool	-9.23149
▁needle	-9.23232
▁strategies	-9.23383
▁called	-9.23394
▁indicate	-9.23403
▁continued	-9.23404
16	-9.23406
▁step	-9.23453
u	-9.23541
▁severity	-9.23546
▁action	-9.23749
▁environment	-9.23804
▁potentially	-9.23818
▁surveillance	-9.23967
▁cord	-9.23976
▁school	-9.24066
▁node	-9.2409
▁directly	-9.24095
▁68	-9.24206
▁controls	-9.24225
▁du	-9.24238
▁down	-9.2426
▁typically	-9.2433
▁57	-9.24345
▁decision	-9.24455
▁nodes	-9.24519
▁66	-9.24684
▁face	-9.24788
▁96	-9.24953
▁note	-9.24977
▁attention	-9.25001
▁cycle	-9.25056
▁thought	-9.25076
▁network	-9.25096
▁sepsis	-9.25098
▁mmol	-9.25114
▁morbidity	-9.25216
an	-9.25281
▁tumour	-9.25286
▁exercise	-9.25318
▁points	-9.25329
▁unique	-9.25599
▁cysts	-9.25751
▁populations	-9.25796
▁density	-9.25805
▁proliferation	-9.25809
▁take	-9.25811
▁understand	-9.25978
▁axial	-9.26047
▁thoracic	-9.26062
▁successfully	-9.26113
▁block	-9.2617
▁motor	-9.26208
▁injuries	-9.26272
▁calculated	-9.26275
▁needs	-9.26278
▁investigated	-9.26309
▁intensity	-9.26311
▁crystal	-9.26492
▁appears	-9.26639
▁illness	-9.26661
▁2018	-9.26866
▁59	-9.26873
▁49	-9.26874
▁inferior	-9.26923
▁database	-9.26971
▁represent	-9.27066
▁pathological	-9.2708
▁spread	-9.27109
▁device	-9.2738
▁alone	-9.27402
ous	-9.27451
▁variable	-9.27709
▁calcium	-9.27789
▁power	-9.27876
▁numbers	-9.28135
▁vaccine	-9.28141
▁dissection	-9.28257
▁subject	-9.2828
▁others	-9.28366
▁interventions	-9.28424
▁98	-9.28531
▁half	-9.28621
▁minutes	-9.28785
▁focal	-9.2882
▁spontaneous	-9.2882
▁medium	-9.2888
▁perform	-9.29063
▁expected	-9.29125
▁53	-9.29128
▁contains	-9.29356
▁strategy	-9.2942
▁specimen	-9.29506
▁energy	-9.29714
▁double	-9.29722
▁examined	-9.29726
▁78	-9.29738
▁2005	-9.29782
▁histological	-9.29956
▁nasal	-9.30019
▁place	-9.30032
▁csf	-9.30105
▁influence	-9.30199
▁find	-9.30257
▁rupture	-9.30296
▁2006	-9.30331
▁investigations	-9.30389
▁concentrations	-9.3042
▁team	-9.30508
ia	-9.30713
▁widely	-9.30808
▁class	-9.30876
▁occurrence	-9.30906
▁physicians	-9.30986
▁increases	-9.3102
▁nuclear	-9.31052
▁earlier	-9.31097
▁birth	-9.31139
▁hepatitis	-9.31448
▁requires	-9.31479
▁igg	-9.31508
▁functions	-9.31731
▁means	-9.31776
▁duct	-9.31945
▁root	-9.32325
ion	-9.32348
▁approval	-9.32371
▁always	-9.32485
▁components	-9.32538
▁aim	-9.32717
▁airway	-9.32767
re	-9.32857
20	-9.32964
▁intensive	-9.33129
▁longer	-9.33206
▁63	-9.33252
est	-9.33261
me	-9.33343
▁continuous	-9.33348
▁sign	-9.33379
▁experiments	-9.33389
▁pleural	-9.3346
▁black	-9.33515
▁persistent	-9.33624
▁pathways	-9.33692
▁agent	-9.33696
▁pelvic	-9.33852
▁added	-9.33852
▁62	-9.33883
▁acknowledgement	-9.33984
▁stenosis	-9.3413
▁except	-9.34143
▁characteristic	-9.34179
▁return	-9.34184
▁home	-9.34258
▁classification	-9.34399
▁pneumonia	-9.34452
▁experienced	-9.34531
▁already	-9.34585
▁search	-9.34756
▁treat	-9.34774
▁working	-9.34786
▁kit	-9.34864
▁file	-9.3487
▁reactive	-9.34871
▁layer	-9.34917
ta	-9.34943
▁biology	-9.34956
▁corrected	-9.34973
▁american	-9.35007
▁properties	-9.35015
▁ethics	-9.35037
▁51	-9.35051
▁healthcare	-9.35057
▁gland	-9.35126
ii	-9.35129
▁draft	-9.35309
▁near	-9.35428
▁alcohol	-9.3544
▁maintain	-9.35552
▁committee	-9.35573
▁86	-9.35646
▁delayed	-9.35658
▁foundation	-9.35929
▁corresponding	-9.35986
▁release	-9.36004
▁maximum	-9.36124
▁depression	-9.36275
▁compound	-9.36515
▁medication	-9.36543
▁gas	-9.36572
▁rt	-9.36636
▁knee	-9.36687
▁efforts	-9.36712
▁context	-9.36783
▁amino	-9.36784
▁germany	-9.36813
▁seems	-9.36877
▁regard	-9.36928
▁dental	-9.36993
▁versus	-9.37045
▁93	-9.37091
▁statistically	-9.3737
▁clearly	-9.37458
▁safe	-9.37484
▁lv	-9.37516
▁73	-9.37523
▁femoral	-9.37524
▁89	-9.37574
▁400	-9.37576
▁lines	-9.37817
▁address	-9.37881
▁fistula	-9.37893
▁inter	-9.37894
▁500	-9.37965
▁variety	-9.37978
▁com	-9.3799
▁question	-9.3804
▁observation	-9.38079
▁behavior	-9.38157
▁inhibition	-9.38232
▁profile	-9.3825
▁statement	-9.38259
▁mid	-9.38319
▁appeared	-9.38413
▁basic	-9.38516
▁compression	-9.38518
19	-9.38526
extremely	-9.38568
▁challenge	-9.38602
▁69	-9.38723
▁designed	-9.38725
▁documented	-9.38762
▁les	-9.38833
▁intraoperative	-9.38834
▁preparation	-9.38838
▁probably	-9.38874
▁demonstrate	-9.38943
▁spine	-9.38953
▁remain	-9.39026
ate	-9.39031
▁little	-9.39064
▁depend	-9.39118
▁questions	-9.39163
▁taking	-9.39248
▁abscess	-9.39259
▁throughout	-9.39297
▁patterns	-9.39317
▁eyes	-9.39413
▁facial	-9.39425
▁mo	-9.39488
man	-9.39499
▁vitro	-9.39549
▁angle	-9.39551
▁119	-9.3956
▁contribute	-9.39702
▁providing	-9.39754
▁plant	-9.39839
▁off	-9.39856
▁cohort	-9.39861
53	-9.39954
▁88	-9.40027
▁appear	-9.40089
▁marrow	-9.40119
▁enhancement	-9.40121
▁manifestations	-9.40409
▁deficiency	-9.40493
▁serious	-9.40499
▁mucosa	-9.4051
▁immediately	-9.40553
▁fractures	-9.40605
▁limb	-9.40658
▁di	-9.40792
▁thrombosis	-9.40794
▁interaction	-9.40935
▁adequate	-9.40976
▁97	-9.40983
▁uptake	-9.40992
▁shock	-9.41085
▁pathogenesis	-9.41152
▁treatments	-9.41253
▁recorded	-9.41326
▁hernia	-9.41407
▁reads	-9.41467
▁differentiation	-9.41479
▁incision	-9.41483
▁produced	-9.41498
▁inhibitors	-9.41538
▁uncommon	-9.41653
min	-9.41671
▁mouse	-9.41692
▁drainage	-9.417
▁survey	-9.41738
▁measurements	-9.41852
▁vision	-9.42007
▁cultures	-9.42033
▁linked	-9.42034
▁ma	-9.42056
▁ethical	-9.42127
▁interval	-9.42142
▁event	-9.42173
▁generated	-9.42209
▁contributed	-9.42407
▁perforation	-9.42416
▁obesity	-9.42528
▁molecules	-9.43034
▁learning	-9.43138
▁76	-9.43149
▁vitamin	-9.4315
▁consider	-9.4331
▁rapidly	-9.43426
▁synthesis	-9.43441
▁surrounding	-9.43567
▁discharge	-9.43702
▁spectrum	-9.43792
ine	-9.43798
ized	-9.43882
▁sensitive	-9.44021
▁extension	-9.44043
▁classified	-9.44046
▁generation	-9.44159
▁symptomatic	-9.44294
▁matrix	-9.44336
▁94	-9.44384
▁measuring	-9.44468
▁transplantation	-9.44484
▁interactions	-9.44608
▁cognitive	-9.44673
▁ch	-9.44705
▁country	-9.44745
▁etiology	-9.44763
▁adjacent	-9.44788
▁74	-9.44816
▁own	-9.44826
▁basal	-9.44929
▁million	-9.44945
▁ventilation	-9.44947
▁females	-9.44992
▁success	-9.45004
▁regression	-9.45158
▁ocular	-9.45162
▁atypical	-9.45248
▁61	-9.45305
▁service	-9.45395
▁south	-9.45433
▁arteries	-9.45458
▁aspect	-9.45645
▁fibrosis	-9.45681
▁recognized	-9.457
▁represents	-9.45719
▁numerous	-9.45847
▁regulation	-9.45868
▁temporal	-9.45963
▁repeated	-9.45965
▁infarction	-9.46019
▁minimal	-9.46021
▁european	-9.46035
▁defects	-9.46058
▁adenocarcinoma	-9.46183
▁panel	-9.46225
echocardiography	-9.46239
▁seven	-9.46626
▁thickness	-9.46641
ma	-9.46653
▁papers	-9.46761
▁indeed	-9.46769
▁excluded	-9.4681
▁males	-9.47059
▁korea	-9.47145
▁go	-9.47162
▁trans	-9.47296
▁84	-9.4731
▁reflect	-9.47339
▁option	-9.47359
▁sufficient	-9.47567
▁again	-9.47573
▁easily	-9.47611
▁suggestive	-9.47669
▁nm	-9.47739
▁promote	-9.4774
▁measurement	-9.47772
▁platelet	-9.47816
▁specimens	-9.47933
▁77	-9.47945
▁considering	-9.48058
▁unusual	-9.48105
▁enzyme	-9.48107
▁teeth	-9.48121
▁diabetic	-9.48178
▁fully	-9.48188
▁est	-9.48216
▁additionally	-9.48251
▁82	-9.48292
▁infiltration	-9.48343
▁2004	-9.48405
▁aspects	-9.48509
▁tools	-9.48581
▁variables	-9.48686
▁compounds	-9.48703
▁prostate	-9.48708
▁rest	-9.48715
▁vivo	-9.48721
▁smoking	-9.48731
17	-9.48789
▁acknowledgments	-9.48802
▁melanoma	-9.49031
▁capacity	-9.4907
▁regular	-9.49093
▁medial	-9.49098
▁arrows	-9.49193
▁headache	-9.49221
▁exposed	-9.49222
▁endothelial	-9.49268
▁reason	-9.49299
▁hydrogen	-9.49362
▁ovarian	-9.49365
▁radiotherapy	-9.49465
▁hip	-9.49552
▁axis	-9.49598
▁foreign	-9.49613
▁arm	-9.49791
▁selection	-9.4982
▁optimal	-9.4986
▁growing	-9.49908
▁product	-9.4994
▁rule	-9.50016
▁nucleotide	-9.50194
▁eight	-9.50244
▁receptors	-9.50293
▁blue	-9.50312
▁older	-9.50371
▁83	-9.50389
▁allows	-9.50397
▁structural	-9.50445
▁distinct	-9.50462
▁produce	-9.50489
ization	-9.50523
▁domain	-9.50526
▁hypothesis	-9.50538
▁chain	-9.50577
▁organization	-9.50684
▁prolonged	-9.50895
▁transcription	-9.50898
▁variant	-9.50919
▁measure	-9.50924
▁movement	-9.50973
▁metabolism	-9.50984
▁therapies	-9.50985
▁scores	-9.51019
▁aged	-9.51067
▁79	-9.51095
le	-9.51148
▁neurons	-9.51185
▁gender	-9.51194
▁mentioned	-9.51274
ar	-9.51288
▁true	-9.51307
▁prepared	-9.51372
▁linear	-9.5152
▁aorta	-9.51767
▁creatinine	-9.51841
▁doses	-9.51959
▁placement	-9.52098
▁hair	-9.52115
▁became	-9.52119
▁act	-9.52174
▁extent	-9.52177
▁sciences	-9.52436
▁significance	-9.52502
▁87	-9.52532
▁mixed	-9.52579
▁03	-9.52669
▁medications	-9.5268
▁meta	-9.52682
▁2000	-9.52704
▁confirm	-9.52755
▁nodules	-9.52767
▁neuro	-9.52856
▁se	-9.52857
▁stimulation	-9.52865
▁extra	-9.52954
▁71	-9.53004
▁worldwide	-9.53022
▁hemoglobin	-9.53217
▁detailed	-9.53263
▁reactions	-9.53296
▁closure	-9.53306
▁presents	-9.53358
▁aggressive	-9.53361
ch	-9.53417
▁sodium	-9.53544
ment	-9.53547
▁believe	-9.53558
▁subcutaneous	-9.53588
▁chromosome	-9.53598
▁establish	-9.53635
▁inhibitor	-9.538
▁explain	-9.53831
▁canal	-9.53907
to	-9.53912
▁mostly	-9.53961
▁color	-9.54004
▁achieve	-9.54042
▁92	-9.54043
▁percentage	-9.54265
▁chemical	-9.54315
▁broad	-9.54321
▁stay	-9.54509
▁stain	-9.54514
▁ra	-9.5463
ca	-9.54632
▁predicted	-9.54906
▁replacement	-9.54943
▁genbank	-9.55022
▁accurate	-9.55035
▁board	-9.5533
▁02	-9.55334
▁core	-9.5548
▁modified	-9.55529
▁variation	-9.55533
▁details	-9.55566
at	-9.5564
▁specifically	-9.55689
▁sources	-9.55699
▁unclear	-9.55701
▁kinase	-9.55709
▁episodes	-9.55814
▁excellent	-9.55827
▁vessel	-9.55869
▁optic	-9.5598
▁li	-9.56024
co	-9.56027
▁book	-9.56084
▁exact	-9.56087
▁options	-9.56142
id	-9.56249
▁indicates	-9.56268
▁plus	-9.56297
▁coverage	-9.56327
▁predict	-9.56331
▁randomized	-9.5649
▁par	-9.56572
▁parents	-9.56607
▁autoimmune	-9.56624
▁policy	-9.56642
▁symptom	-9.56691
▁highest	-9.56713
▁para	-9.56779
▁media	-9.56841
▁laser	-9.56871
▁green	-9.56873
▁occlusion	-9.56892
▁iu	-9.56916
▁04	-9.57008
▁discussed	-9.57064
▁organs	-9.57178
▁elderly	-9.57189
▁cancers	-9.57203
▁evolution	-9.57287
▁units	-9.57306
▁resources	-9.57319
▁fold	-9.57465
▁pa	-9.57635
▁vomiting	-9.57742
▁peak	-9.5775
▁ventricle	-9.57936
21	-9.57978
▁visit	-9.57992
▁sometimes	-9.58129
▁communication	-9.58222
▁writing	-9.5829
it	-9.58339
▁benefits	-9.58352
▁aspiration	-9.58415
50	-9.58418
▁lymphocytes	-9.58504
▁81	-9.5859
▁burden	-9.58659
▁clinicians	-9.58767
▁indicating	-9.58866
▁video	-9.58886
▁reporting	-9.58889
▁limitations	-9.5898
▁regional	-9.59003
▁contribution	-9.59142
▁ensure	-9.59378
▁marker	-9.59455
▁invasion	-9.59535
os	-9.59752
▁extraction	-9.59766
▁cut	-9.59781
▁ten	-9.59869
nt	-9.59885
▁staff	-9.59952
▁150	-9.60005
▁fusion	-9.60022
▁er	-9.60072
▁apparent	-9.6011
▁twice	-9.60135
▁summary	-9.602
▁demonstrating	-9.60235
▁activated	-9.60262
▁repeat	-9.60328
é	-9.60343
▁existing	-9.6039
▁ischemic	-9.60456
▁extracted	-9.60509
▁entire	-9.60549
▁specificity	-9.60557
▁diet	-9.60843
▁reasons	-9.60961
▁insertion	-9.60963
▁muscles	-9.61155
ive	-9.61172
▁follows	-9.6121
▁smooth	-9.61272
01	-9.61298
▁effusion	-9.61327
▁assembly	-9.6146
▁peri	-9.61519
▁editorial	-9.6157
te	-9.61583
▁ago	-9.61599
▁sleep	-9.61678
▁disclosure	-9.61691
▁traditional	-9.61788
▁purpose	-9.61799
▁stomach	-9.61834
▁nor	-9.61856
▁fetal	-9.61898
▁technical	-9.62043
▁reducing	-9.62095
▁instead	-9.621
▁availability	-9.62113
▁programs	-9.62292
▁occurring	-9.62387
▁differ	-9.62432
▁exist	-9.62476
▁proportion	-9.62526
▁map	-9.62547
▁ring	-9.62686
▁radiograph	-9.62764
▁md	-9.62773
▁investigate	-9.62938
▁residual	-9.62945
ness	-9.62956
▁living	-9.6328
▁hormone	-9.63371
▁objective	-9.63394
▁fast	-9.63427
▁infusion	-9.63522
▁fixed	-9.63648
▁strongly	-9.63692
▁america	-9.63719
▁hard	-9.63766
▁br	-9.63852
▁wild	-9.63894
▁retrospective	-9.639
▁displacement	-9.63905
▁hour	-9.63948
▁pathogens	-9.63954
▁appendix	-9.64018
▁challenges	-9.64149
▁beta	-9.64154
▁anemia	-9.6416
34	-9.64202
▁induction	-9.64389
▁giant	-9.64492
▁introduced	-9.64606
▁neural	-9.64678
▁carotid	-9.64701
▁induce	-9.64738
▁ultrasonography	-9.64744
▁africa	-9.64757
▁portion	-9.64795
▁receive	-9.64808
▁managed	-9.6483
▁phenotype	-9.64878
▁fine	-9.64956
▁2003	-9.64967
▁lumbar	-9.65177
▁motion	-9.65265
▁immediate	-9.65279
▁tooth	-9.6532
▁unremarkable	-9.65335
▁physician	-9.65387
▁radiological	-9.6551
▁surgeon	-9.65515
▁gram	-9.65528
▁journals	-9.65558
▁closed	-9.65655
▁pulse	-9.65698
▁300	-9.65774
▁institutional	-9.65848
▁why	-9.65852
▁adrenal	-9.65858
▁receiving	-9.65973
▁progress	-9.66031
▁slow	-9.66076
▁toxicity	-9.66194
▁name	-9.66283
▁vital	-9.66341
▁prospective	-9.66343
ne	-9.6649
▁esophageal	-9.66553
▁topical	-9.66605
▁foot	-9.66641
▁delay	-9.66706
23	-9.66781
▁pg	-9.67021
▁college	-9.67024
▁your	-9.67038
▁give	-9.67136
▁weakness	-9.6724
▁slightly	-9.67318
▁failed	-9.67371
▁yield	-9.6743
▁variants	-9.67463
▁chief	-9.67542
▁ecg	-9.67567
▁processing	-9.67585
▁remaining	-9.67587
▁toward	-9.67622
▁corneal	-9.67658
▁turn	-9.677
▁ischemia	-9.67805
▁dilated	-9.6782
▁citation	-9.67832
▁balance	-9.67941
▁91	-9.68016
▁maintained	-9.68019
▁effectiveness	-9.68069
▁shaped	-9.68079
▁localized	-9.68099
▁coding	-9.68161
▁immuno	-9.68162
▁targeted	-9.68162
▁bmi	-9.68211
▁malaria	-9.68216
▁surgeons	-9.68243
▁initiated	-9.68317
▁squamous	-9.68366
▁commercial	-9.684
▁distance	-9.68418
▁focused	-9.68427
▁towards	-9.68438
▁leg	-9.68529
▁divided	-9.68571
▁extended	-9.68691
de	-9.68718
▁hematoma	-9.68776
▁peer	-9.68837
istopathological	-9.68938
▁sided	-9.69037
▁atom	-9.6904
▁outbreak	-9.69053
▁arthritis	-9.69067
▁concept	-9.69109
▁concern	-9.69121
▁limits	-9.69233
▁plan	-9.69354
▁intracranial	-9.69369
▁transfer	-9.69473
▁healing	-9.6948
▁died	-9.69487
▁disc	-9.69499
▁centers	-9.69502
▁fraction	-9.69534
▁pelvis	-9.69539
▁ex	-9.69586
▁am	-9.69587
▁2019	-9.69706
▁hospitals	-9.6975
▁know	-9.69835
▁implant	-9.69917
▁suspicion	-9.70067
▁peritoneal	-9.70091
na	-9.70099
▁pi	-9.70199
▁discuss	-9.70266
▁nervous	-9.70271
▁iron	-9.70407
▁migration	-9.70415
▁prominent	-9.7047
▁facilitate	-9.70539
▁gross	-9.70671
▁relation	-9.71005
▁relationships	-9.71127
▁start	-9.71143
▁uterine	-9.71181
▁itself	-9.71237
▁reveal	-9.71372
▁asthma	-9.71393
▁impairment	-9.71418
▁accuracy	-9.71466
▁matter	-9.71482
▁pr	-9.71545
▁challenging	-9.71589
▁ha	-9.71636
▁coli	-9.7166
▁ill	-9.71688
▁lipid	-9.71746
▁primarily	-9.71964
▁completed	-9.7197
▁infants	-9.72049
▁rs	-9.72174
▁personal	-9.7225
▁hr	-9.72291
▁conservative	-9.72371
▁rv	-9.72447
▁feature	-9.72515
▁strength	-9.72552
▁composed	-9.72625
▁january	-9.72686
97	-9.72697
▁donor	-9.72709
▁text	-9.72748
ies	-9.72836
▁resolved	-9.72907
▁raised	-9.73221
▁terminal	-9.73263
▁outside	-9.73291
ated	-9.73301
▁th	-9.73336
no	-9.73475
▁traumatic	-9.73508
▁seem	-9.73578
22	-9.73617
▁western	-9.73622
ant	-9.73747
▁never	-9.73846
▁fixation	-9.73867
▁scans	-9.73868
▁ulcer	-9.74083
▁percutaneous	-9.7415
▁spindle	-9.74163
▁comprehensive	-9.7423
▁complicated	-9.74357
▁epithelium	-9.74497
▁exhibit	-9.74658
▁proper	-9.74672
▁contained	-9.74673
▁deaths	-9.74678
▁difficulty	-9.74742
▁psychiatric	-9.74768
▁guided	-9.74809
▁centre	-9.74826
▁systematic	-9.7489
itis	-9.7512
▁ns	-9.75398
▁ad	-9.75414
▁settings	-9.75432
▁look	-9.75522
▁susceptibility	-9.75714
▁involves	-9.75798
▁intake	-9.75798
▁crucial	-9.7582
▁list	-9.75877
▁antimicrobial	-9.75926
▁interpretation	-9.75939
▁etc	-9.75956
▁masses	-9.75992
▁respect	-9.76057
▁gradually	-9.76089
▁situation	-9.76154
▁title	-9.76361
▁differentiated	-9.76379
▁minor	-9.76496
▁fdg	-9.76519
▁bodies	-9.7661
▁bi	-9.76614
▁awareness	-9.76616
▁anomalies	-9.7675
▁vaccination	-9.76806
et	-9.76825
▁round	-9.76843
ur	-9.76877
▁arising	-9.76937
▁implementation	-9.76996
▁serve	-9.77008
▁pathogen	-9.77058
▁treating	-9.77081
▁bile	-9.77087
▁tip	-9.77134
▁memory	-9.77177
▁tend	-9.77226
▁electro	-9.77286
▁digital	-9.77288
▁cycles	-9.77332
▁demonstrates	-9.77333
▁too	-9.77362
▁elements	-9.77373
▁06	-9.77384
▁obtain	-9.77405
▁person	-9.77527
▁mother	-9.77554
▁rang	-9.77571
▁recognition	-9.77579
▁stages	-9.77585
▁absent	-9.77811
▁art	-9.78019
▁undergoing	-9.78156
▁accumulation	-9.78191
as	-9.78192
▁acids	-9.78204
▁impaired	-9.78314
▁errors	-9.78349
▁requiring	-9.78584
▁identity	-9.78596
▁starting	-9.78765
▁height	-9.78769
▁continue	-9.78797
▁applications	-9.78807
ry	-9.78813
▁allowed	-9.78867
▁cough	-9.78869
▁beyond	-9.78908
▁ablation	-9.78928
▁hg	-9.78932
▁enzymes	-9.78959
▁gi	-9.79009
▁mucosal	-9.7901
▁os	-9.79016
▁transplant	-9.79057
▁regulatory	-9.79058
▁vaginal	-9.79141
▁picture	-9.79187
▁branch	-9.79221
▁similarly	-9.79285
▁implantation	-9.79312
▁yellow	-9.79371
▁childhood	-9.79398
▁correlated	-9.7947
▁sudden	-9.79518
▁mitral	-9.79531
▁devices	-9.79594
▁isolation	-9.79665
▁inserted	-9.79697
▁cluster	-9.79775
▁hospitalization	-9.79793
▁poly	-9.79845
▁initiation	-9.79883
▁reverse	-9.79952
▁cortical	-9.80004
▁maternal	-9.80017
ra	-9.80069
▁elevation	-9.80235
▁supporting	-9.80309
▁parts	-9.80521
▁physiological	-9.80556
▁consumption	-9.8056
▁reach	-9.80621
▁tnf	-9.80758
▁perfusion	-9.80785
▁load	-9.80835
ian	-9.80948
▁oct	-9.81003
▁makes	-9.81007
tic	-9.81031
▁indian	-9.8104
▁superficial	-9.81046
▁description	-9.81132
▁regimen	-9.8118
▁brown	-9.812
max	-9.81297
ul	-9.81299
▁2002	-9.81481
▁transferred	-9.81486
▁08	-9.81499
▁government	-9.81591
▁october	-9.81631
▁hcv	-9.81649
▁affects	-9.8165
▁rats	-9.81696
▁goal	-9.81751
ie	-9.81755
▁anatomical	-9.81811
▁chamber	-9.81816
▁seizures	-9.81846
▁mitochondrial	-9.81979
ac	-9.81988
▁live	-9.82051
▁diarrhea	-9.82059
▁improving	-9.82084
▁gain	-9.82108
▁enhance	-9.82126
▁otherwise	-9.8216
▁organisms	-9.82179
▁entity	-9.8223
▁nevertheles	-9.82333
▁decades	-9.82338
▁cp	-9.82366
▁adjuvant	-9.82414
am	-9.82461
▁workers	-9.82507
▁scar	-9.82549
▁targets	-9.82807
▁cov	-9.8281
▁cas	-9.82868
▁mellitus	-9.8287
▁threshold	-9.83047
▁get	-9.83059
▁ed	-9.8321
▁easy	-9.83314
▁accepted	-9.83323
▁formed	-9.83342
▁prompt	-9.83346
▁thin	-9.83354
▁nearly	-9.83357
▁possibly	-9.83417
▁costs	-9.83436
▁emerging	-9.83496
▁nodule	-9.83568
▁enlarged	-9.83582
▁fatal	-9.83584
▁genomes	-9.83603
▁septic	-9.83722
▁iran	-9.83814
ick	-9.83826
▁bar	-9.83861
▁undergo	-9.83889
18	-9.84021
▁fungal	-9.84024
▁extending	-9.8403
▁replication	-9.84032
▁shape	-9.84074
▁persons	-9.84134
▁dimensional	-9.84175
▁microscopy	-9.84228
▁systolic	-9.84232
▁pm	-9.8435
▁massive	-9.84408
▁thrombus	-9.84417
▁ifn	-9.84509
▁enter	-9.84534
▁cr	-9.84537
▁plate	-9.84545
▁sections	-9.84598
▁coronal	-9.84646
rs	-9.84707
▁attributed	-9.8473
▁portal	-9.84775
nd	-9.84926
▁affecting	-9.85089
▁helpful	-9.85123
▁tendon	-9.85167
sis	-9.85204
▁phenomenon	-9.85325
▁intact	-9.85381
▁guide	-9.85383
▁nuclei	-9.85421
▁protection	-9.85449
▁iliac	-9.85488
ci	-9.85591
▁spleen	-9.85647
▁probability	-9.85666
▁output	-9.85735
▁fourth	-9.85766
▁tachycardia	-9.85805
▁smaller	-9.85858
▁concluded	-9.85883
▁peptide	-9.85896
▁complaints	-9.85924
▁irregular	-9.85989
▁decided	-9.86038
▁economic	-9.86039
▁bypass	-9.86067
▁agreement	-9.86159
▁planning	-9.8617
di	-9.86173
▁steroid	-9.86332
▁atoms	-9.86374
▁mixture	-9.86383
▁lumen	-9.86418
▁technologies	-9.86429
▁page	-9.86453
▁topic	-9.86522
▁intubation	-9.86527
▁selective	-9.86531
▁abbreviations	-9.8656
▁closely	-9.86606
▁frontal	-9.8662
▁poorly	-9.86656
▁07	-9.86733
▁covered	-9.86775
▁compare	-9.8685
▁accompanied	-9.86872
▁bias	-9.86925
▁minute	-9.86955
▁quantitative	-9.86979
▁recommendations	-9.87001
▁2001	-9.87017
▁illumina	-9.87057
mm	-9.87085
▁110	-9.87146
▁beneficial	-9.87146
▁magnification	-9.87159
▁signals	-9.8721
▁entry	-9.87226
▁isolate	-9.87233
▁sac	-9.8725
▁genotype	-9.87533
▁forward	-9.87607
▁leukemia	-9.87631
▁af	-9.87649
▁hypo	-9.87652
▁sensory	-9.87726
▁altered	-9.87848
▁separate	-9.87864
iv	-9.8795
▁dynamic	-9.87987
ton	-9.88015
▁risks	-9.88115
▁endoscopy	-9.88189
▁microscopic	-9.883
the	-9.88304
▁09	-9.88316
▁apoptosis	-9.88383
▁depth	-9.88418
▁vertebral	-9.88509
▁top	-9.8854
▁sexual	-9.88654
▁targeting	-9.88705
▁france	-9.88745
▁evident	-9.88775
▁institution	-9.88783
▁operating	-9.88808
▁radical	-9.88862
▁academic	-9.88968
▁morphology	-9.89001
▁skeletal	-9.89067
▁abnormality	-9.89116
▁submitted	-9.89143
▁cranial	-9.89236
▁apply	-9.89243
▁generalized	-9.89251
▁rise	-9.8926
ol	-9.89332
▁stability	-9.8937
rd	-9.89481
▁electronic	-9.89489
▁enough	-9.89551
▁mediastinal	-9.89571
▁pancreas	-9.89642
▁margin	-9.89703
▁mi	-9.89709
▁alpha	-9.89747
▁bond	-9.89752
▁outpatient	-9.89841
▁rectal	-9.90024
▁deviation	-9.90043
▁definitive	-9.90053
▁extremities	-9.90059
▁inhibit	-9.90068
▁nf	-9.90068
▁trunk	-9.9012
▁gel	-9.90123
▁1000	-9.90136
▁nine	-9.90139
▁member	-9.90148
▁maintenance	-9.90201
▁planned	-9.90288
▁sampling	-9.90329
▁unfortunately	-9.90343
▁pt	-9.90357
▁inclusion	-9.90366
▁canada	-9.90455
▁biochemical	-9.90602
▁met	-9.9063
▁absorption	-9.90749
▁critically	-9.90832
▁sagittal	-9.90912
▁aid	-9.90942
▁arch	-9.90965
▁examinations	-9.90973
▁substantial	-9.91018
▁plants	-9.91039
▁malignancies	-9.91088
▁changed	-9.91114
▁maxillary	-9.91126
▁accompanying	-9.91205
▁supply	-9.91229
▁dm	-9.91308
▁band	-9.9137
▁mode	-9.91489
▁europe	-9.91508
▁chinese	-9.91552
▁thereby	-9.91587
el	-9.91698
▁contain	-9.91771
▁classical	-9.91861
▁crp	-9.91899
▁brazil	-9.91941
▁gold	-9.91968
▁eosin	-9.92015
▁copy	-9.92093
▁fish	-9.92099
▁biliary	-9.92163
▁funded	-9.92376
▁ab	-9.92391
▁generate	-9.92563
▁junction	-9.92565
▁doppler	-9.92568
▁aware	-9.92604
▁balloon	-9.9264
▁manner	-9.92673
▁heterogeneous	-9.92682
▁recovered	-9.92737
▁acquisition	-9.92741
▁cholesterol	-9.92748
▁secretion	-9.92761
▁questionnaire	-9.92846
▁annual	-9.9305
▁predominantly	-9.93092
▁saline	-9.93107
▁check	-9.93145
▁cortex	-9.93171
▁uneventful	-9.93175
▁acuity	-9.93192
▁wave	-9.93193
▁standards	-9.93231
▁ongoing	-9.93275
▁producing	-9.93287
▁performing	-9.93312
▁macrophages	-9.93335
▁ap	-9.93387
il	-9.93409
▁resected	-9.93426
▁arrest	-9.93464
▁pan	-9.9347
▁shoulder	-9.93498
▁molecule	-9.93503
▁channel	-9.93627
▁inguinal	-9.9366
▁tree	-9.93665
▁transverse	-9.93671
▁pe	-9.93697
▁fundus	-9.93718
▁consensus	-9.93728
▁diverse	-9.93739
▁latter	-9.93821
▁fl	-9.93829
▁share	-9.93867
▁limit	-9.93878
▁explained	-9.93965
▁expansion	-9.94014
▁theory	-9.94039
▁library	-9.94098
▁nt	-9.941
▁threatening	-9.94161
▁editors	-9.94248
▁postoperatively	-9.94301
▁hb	-9.944
▁dis	-9.9442
▁force	-9.94437
▁nausea	-9.94471
▁cc	-9.94551
▁deposited	-9.94563
▁steroids	-9.94658
ts	-9.94717
▁carbon	-9.9472
▁task	-9.94729
▁circulation	-9.94809
▁thickening	-9.94858
▁valuable	-9.94887
▁atrium	-9.94913
▁identifying	-9.94933
▁calcification	-9.95105
▁professional	-9.95115
▁dominant	-9.9514
▁families	-9.95262
▁discovered	-9.95279
▁involve	-9.95322
▁annotation	-9.95358
▁concerns	-9.95386
▁chi	-9.95482
▁cytoplasm	-9.95566
▁fields	-9.95588
▁observations	-9.95618
▁suture	-9.95646
▁zone	-9.95746
▁quite	-9.95802
▁sponsorship	-9.9581
▁consequences	-9.95831
▁mir	-9.95871
▁dorsal	-9.95879
▁histopathologic	-9.95943
cl	-9.95959
▁au	-9.961
▁fibrous	-9.96114
▁sa	-9.96118
▁embolization	-9.96149
▁actin	-9.96168
▁yes	-9.96193
▁visible	-9.96199
▁transport	-9.96416
▁capsule	-9.96532
ad	-9.96606
▁discovery	-9.9661
▁prescribed	-9.96619
▁extract	-9.96682
▁polymerase	-9.96728
▁confidence	-9.96739
ge	-9.96781
▁complain	-9.96885
▁link	-9.96913
▁sequenced	-9.96929
▁intermediate	-9.97079
▁ear	-9.97096
▁curve	-9.97107
▁raw	-9.97108
▁transient	-9.97171
▁percent	-9.97191
▁lungs	-9.9726
▁pregnant	-9.97281
▁splenic	-9.97344
▁unilateral	-9.97406
ri	-9.97413
▁gallbladder	-9.97471
▁advances	-9.97497
▁lip	-9.97554
▁opening	-9.97579
▁cu	-9.97584
haps	-9.97736
▁anxiety	-9.97739
▁careful	-9.97762
▁histopathology	-9.97819
▁suitable	-9.97882
▁developmental	-9.97919
▁feeding	-9.97923
▁december	-9.98038
▁movements	-9.98066
▁ectopic	-9.98082
▁distributed	-9.98092
▁definition	-9.9826
▁assisted	-9.98294
▁prognostic	-9.98316
▁transformation	-9.98329
▁efficient	-9.98357
▁cytokines	-9.98367
▁lab	-9.98492
▁document	-9.98574
▁limbs	-9.9865
▁web	-9.98661
▁toxic	-9.98688
▁cdc	-9.98725
▁dyspnea	-9.98729
▁ck	-9.98748
▁north	-9.98814
▁june	-9.98881
▁pseudo	-9.98894
▁scientists	-9.98918
▁obvious	-9.98981
▁metal	-9.98989
▁118	-9.98999
▁genus	-9.99055
▁applicable	-9.99108
▁diffusion	-9.99213
▁phylogenetic	-9.99241
▁distress	-9.99241
▁remission	-9.99331
▁van	-9.99362
▁epidemic	-9.99381
▁increasingly	-9.99422
▁permanent	-9.9944
▁student	-9.99554
▁mouth	-9.99605
▁assays	-9.99641
▁aids	-9.99686
▁partially	-9.99691
▁consideration	-9.99791
▁atrophy	-9.99807
▁gave	-10.0002
▁plane	-10.0007
▁march	-10.0016
▁created	-10.0027
▁125	-10.0032
▁spp	-10.0044
▁pathogenic	-10.0049
▁stained	-10.0057
▁vector	-10.0058
▁sir	-10.0061
▁african	-10.0062
▁oxidative	-10.0067
▁organism	-10.0073
▁collagen	-10.0082
▁photo	-10.0093
▁symmetry	-10.0095
▁susceptible	-10.0111
▁beginning	-10.0112
▁meeting	-10.0115
▁aging	-10.012
▁ir	-10.0121
▁mind	-10.0125
▁reliable	-10.013
▁anatomy	-10.0131
▁highlights	-10.0144
▁neither	-10.0148
▁comparing	-10.0158
▁episode	-10.0159
▁dilatation	-10.0163
▁city	-10.0167
▁methyl	-10.0182
▁el	-10.0188
▁depends	-10.0188
▁pp	-10.0188
▁intracellular	-10.0194
▁promising	-10.0199
▁nih	-10.0204
▁liquid	-10.0219
▁predictive	-10.0222
▁neonatal	-10.0237
▁understood	-10.0239
▁practices	-10.0246
fig	-10.0247
▁si	-10.0247
▁italy	-10.0249
▁platform	-10.0254
▁minimum	-10.0257
▁mrna	-10.0264
ter	-10.0273
▁idiopathic	-10.0276
▁guidance	-10.0279
ct	-10.028
▁ko	-10.0286
▁decade	-10.0291
ro	-10.0295
▁employed	-10.0296
▁diversity	-10.031
▁apical	-10.0316
▁declaration	-10.0322
▁alterations	-10.0339
▁sense	-10.0348
▁anastomosis	-10.0348
▁regulate	-10.035
▁professor	-10.035
▁orbital	-10.0353
▁papillary	-10.0357
ni	-10.0359
▁infant	-10.0364
▁ga	-10.0367
▁patch	-10.0369
▁sarcoma	-10.037
▁da	-10.0385
▁experiment	-10.0388
▁records	-10.039
▁teaching	-10.0392
▁rash	-10.0401
▁radiographic	-10.0402
▁radial	-10.0404
▁distinguish	-10.0411
▁sent	-10.0417
▁immunity	-10.043
▁come	-10.043
▁dense	-10.0438
▁kept	-10.0439
▁false	-10.044
▁endemic	-10.044
▁modern	-10.0442
▁largely	-10.0442
▁express	-10.0447
▁attached	-10.0456
▁hematoxylin	-10.0456
▁neoplasm	-10.0461
▁radiographs	-10.0466
▁gc	-10.0467
▁cns	-10.0468
▁rich	-10.0469
▁protective	-10.0474
▁reviews	-10.0475
▁excessive	-10.0478
▁integrated	-10.0479
▁max	-10.0483
▁skills	-10.0484
▁inc	-10.0499
▁language	-10.0511
▁tr	-10.0512
▁shift	-10.0513
▁australia	-10.052
son	-10.0525
▁shunt	-10.0526
▁inside	-10.053
▁veins	-10.0531
▁ac	-10.0532
▁hemodynamic	-10.0551
▁tri	-10.0558
▁microbial	-10.0562
▁wr	-10.0564
▁loop	-10.0567
▁placebo	-10.0572
▁fragment	-10.0573
▁whom	-10.058
▁optical	-10.0583
▁mandibular	-10.0587
▁session	-10.059
▁mutant	-10.06
▁effort	-10.0601
▁ni	-10.0603
ably	-10.0604
▁scheme	-10.0611
▁plastic	-10.0625
▁thick	-10.0631
▁largest	-10.064
▁manifestation	-10.0642
▁fatty	-10.0647
ist	-10.0648
▁emission	-10.0649
▁younger	-10.0652
▁mar	-10.0653
▁modalities	-10.0656
▁margins	-10.0657
▁transfusion	-10.0662
▁macular	-10.0662
▁psychological	-10.0665
▁electron	-10.0666
▁fo	-10.0667
▁put	-10.067
▁proven	-10.0674
▁rehabilitation	-10.0675
▁250	-10.0679
▁create	-10.068
▁tenderness	-10.0681
▁0001	-10.069
▁advantage	-10.0713
100	-10.0715
▁paired	-10.0718
▁mature	-10.0725
▁neoplastic	-10.0728
▁cited	-10.0729
▁parallel	-10.0729
▁steps	-10.0734
▁pericardial	-10.0734
▁plays	-10.0736
▁supplement	-10.0741
▁remove	-10.0742
▁implications	-10.0745
▁missing	-10.0749
▁nodular	-10.0758
▁mobile	-10.0759
▁refractory	-10.076
▁arise	-10.0763
▁aimed	-10.0768
▁ureter	-10.077
▁variations	-10.0772
▁relapse	-10.0778
▁va	-10.0779
▁hpv	-10.0791
▁assistance	-10.0798
▁drain	-10.0805
▁compliance	-10.0807
▁probe	-10.0807
▁laparotomy	-10.0815
▁recommend	-10.0822
istry	-10.0824
30	-10.0835
▁neuronal	-10.0864
▁equal	-10.0866
▁exhibited	-10.087
▁endo	-10.0871
▁painful	-10.0874
▁108	-10.0877
▁plaque	-10.0879
▁cold	-10.0913
▁buffer	-10.0922
▁lymphadenopathy	-10.093
▁consequently	-10.0938
▁direction	-10.0939
▁exchange	-10.094
▁fit	-10.0943
▁users	-10.0955
▁adjusted	-10.096
▁nutrition	-10.0967
▁tongue	-10.0968
▁eventually	-10.097
▁hope	-10.0972
24	-10.0985
▁glands	-10.0992
▁intermittent	-10.0999
▁alveolar	-10.1007
▁kind	-10.1007
▁lactate	-10.1011
▁localization	-10.1026
▁gap	-10.1027
▁rural	-10.1031
▁attempt	-10.1033
▁histology	-10.1036
40	-10.1037
▁boy	-10.1038
▁estimate	-10.1045
▁auto	-10.1046
ab	-10.1051
▁coagulation	-10.1057
▁code	-10.1059
▁enhancing	-10.1063
▁obstructive	-10.1065
▁epidural	-10.1072
▁distant	-10.1072
▁diagnoses	-10.108
▁segments	-10.1081
▁asia	-10.1082
▁pathologic	-10.1088
▁extremity	-10.109
▁noticed	-10.1096
▁mb	-10.1097
▁primers	-10.1099
▁uterus	-10.1099
▁elisa	-10.1103
▁port	-10.1116
▁sc	-10.1121
▁em	-10.1133
▁ultimately	-10.1138
▁encountered	-10.1139
yl	-10.1144
▁prediction	-10.1145
▁ligament	-10.1146
▁mesenteric	-10.1147
▁professionals	-10.1149
▁widespread	-10.1152
▁variability	-10.1153
▁enlargement	-10.1154
▁lost	-10.1155
▁decline	-10.1155
▁egfr	-10.1157
▁think	-10.1158
▁vaccines	-10.1162
▁advantages	-10.1165
▁trend	-10.117
ism	-10.117
▁esophagus	-10.1178
▁mapping	-10.1178
▁incomplete	-10.1181
▁opportunity	-10.1192
▁transition	-10.1196
▁july	-10.1197
▁outbreaks	-10.1204
▁came	-10.1208
▁sustained	-10.1209
▁aureus	-10.121
ps	-10.1213
▁respond	-10.1216
con	-10.1217
▁serial	-10.1217
cc	-10.1221
▁comparable	-10.1222
▁equivalent	-10.1228
▁amplification	-10.1232
▁palpable	-10.1239
▁exam	-10.124
▁dans	-10.1242
▁hands	-10.1248
▁september	-10.1255
▁preventing	-10.126
▁pancreatitis	-10.1266
▁resource	-10.1268
00000000	-10.1269
▁biopsies	-10.1279
▁participate	-10.128
▁algorithm	-10.128
▁born	-10.1282
▁listed	-10.1286
▁firm	-10.1292
▁herein	-10.1302
▁eu	-10.1302
oc	-10.1303
▁april	-10.1303
▁beside	-10.1303
▁offer	-10.1304
▁filled	-10.1304
▁ki	-10.1312
▁preferred	-10.1313
▁constant	-10.1314
▁fatigue	-10.1325
▁ministry	-10.1338
▁restricted	-10.1342
▁dual	-10.1343
▁heat	-10.1346
▁reading	-10.1348
▁novo	-10.1356
▁protocols	-10.1374
▁oil	-10.1375
▁refer	-10.1375
▁nd	-10.138
▁english	-10.1383
▁hearing	-10.1386
▁diagnose	-10.1393
▁gut	-10.1393
pa	-10.1393
▁run	-10.142
▁chance	-10.1431
▁demographic	-10.1439
▁doctors	-10.1443
▁dengue	-10.1449
▁considerable	-10.1455
▁stated	-10.1455
▁publications	-10.1457
▁tumours	-10.1465
▁121	-10.1467
▁ne	-10.1468
▁potassium	-10.1469
▁travel	-10.1471
▁longitudinal	-10.1472
age	-10.1488
▁acknowledge	-10.1488
▁vi	-10.1489
▁modality	-10.1492
▁epidemiological	-10.1493
▁concomitant	-10.1499
▁assembled	-10.1505
▁cmr	-10.1505
25	-10.1511
▁took	-10.1512
▁differentiate	-10.1517
▁ways	-10.1521
▁examine	-10.1536
▁explore	-10.1541
▁concerning	-10.1546
▁extracellular	-10.1549
less	-10.1552
▁lens	-10.1558
▁epidemiology	-10.1559
▁lc	-10.1562
▁finger	-10.1594
▁newly	-10.1597
▁hla	-10.1599
ial	-10.1604
▁random	-10.1606
▁fibers	-10.1621
▁framework	-10.1621
▁began	-10.1628
▁ncbi	-10.1631
▁inner	-10.1634
▁fragments	-10.1639
▁neurologic	-10.164
▁puncture	-10.1644
▁revision	-10.1645
▁regulated	-10.1648
▁raise	-10.1654
▁border	-10.166
▁saturation	-10.166
▁format	-10.1665
▁aneurysms	-10.1672
▁seizure	-10.1676
▁counts	-10.1678
▁tobacco	-10.1684
▁hemorrhagic	-10.1684
▁him	-10.1691
▁rrna	-10.1695
▁sars	-10.1699
▁japanese	-10.1702
▁believed	-10.1704
▁august	-10.1709
▁breath	-10.1717
▁lu	-10.1727
▁nucleus	-10.1729
▁pure	-10.1737
▁phosphate	-10.174
▁roles	-10.1748
▁bony	-10.1751
▁fall	-10.1757
▁sheath	-10.176
▁avec	-10.1767
▁reached	-10.1773
▁id	-10.1776
▁midline	-10.178
▁contigs	-10.178
▁division	-10.178
▁mers	-10.1794
▁situ	-10.1794
▁injected	-10.1796
ner	-10.1797
▁describes	-10.1797
▁bruker	-10.1799
▁rhythm	-10.1801
▁composition	-10.1804
▁effectively	-10.1809
▁representative	-10.1824
ectomy	-10.1829
▁excised	-10.1837
▁degradation	-10.1849
▁favorable	-10.1851
▁wire	-10.1859
ba	-10.1859
▁behavioral	-10.1862
▁exploration	-10.1866
ary	-10.1868
▁consecutive	-10.1875
▁wrote	-10.1876
▁consisting	-10.1881
▁conclude	-10.1886
▁column	-10.1892
▁dislocation	-10.1907
▁axillary	-10.1911
▁car	-10.1911
▁importantly	-10.1913
▁channels	-10.1914
▁oh	-10.1915
▁scalp	-10.1917
▁neutrophils	-10.192
ium	-10.1922
▁constitute	-10.1925
▁visualization	-10.1931
▁cover	-10.1935
▁ion	-10.1941
▁represented	-10.1942
vi	-10.1942
▁worsening	-10.1943
▁evaluat	-10.1943
▁biomarkers	-10.1948
▁becomes	-10.1948
li	-10.1954
▁office	-10.1955
▁positivity	-10.1965
▁albumin	-10.1966
▁implemented	-10.1967
▁spatial	-10.1967
▁ho	-10.1983
▁participated	-10.1984
▁stone	-10.1984
ms	-10.1989
▁statistics	-10.1995
▁wt	-10.2003
▁yeast	-10.2004
▁vary	-10.2005
▁readers	-10.2008
▁plain	-10.201
▁neoplasms	-10.2011
▁province	-10.2031
▁corticosteroids	-10.2036
▁rat	-10.2046
▁milk	-10.2047
▁efficiency	-10.2049
▁geometry	-10.2052
▁solitary	-10.2056
▁dry	-10.2063
▁extend	-10.2064
▁cartilage	-10.2065
da	-10.2068
▁instability	-10.2069
▁retroperitoneal	-10.2072
cm	-10.2072
▁dialysis	-10.2073
▁weak	-10.2079
▁industry	-10.2079
▁reviewers	-10.208
▁identical	-10.2089
▁perspective	-10.2092
▁isotropic	-10.2097
▁hcc	-10.2103
▁circulating	-10.2104
▁highlight	-10.2108
▁im	-10.211
▁clusters	-10.2119
▁colorectal	-10.2122
33	-10.2124
▁1999	-10.2129
▁vasculitis	-10.2131
▁addressed	-10.2132
▁mn	-10.2145
▁epi	-10.2148
▁septal	-10.2151
▁agree	-10.2152
▁abundant	-10.2157
▁nc	-10.2167
▁korean	-10.217
mg	-10.2172
▁limitation	-10.2178
▁precise	-10.2187
▁directed	-10.2191
▁today	-10.2197
▁descending	-10.2199
▁dark	-10.2199
▁encoding	-10.2202
▁locations	-10.2203
▁wang	-10.2207
▁outer	-10.221
▁slight	-10.2217
▁networks	-10.222
▁dynamics	-10.222
▁reveals	-10.2221
▁delivered	-10.2224
▁dc	-10.2233
▁exclusion	-10.2236
▁infiltrate	-10.2237
▁embolism	-10.2238
▁abuse	-10.2243
▁tracheal	-10.2245
▁mono	-10.2252
▁integrity	-10.2253
▁normally	-10.226
▁apex	-10.2262
▁deletion	-10.2264
▁rotation	-10.2265
▁facilities	-10.2267
▁monitor	-10.2272
27	-10.2275
▁computer	-10.2282
▁po	-10.2286
▁leakage	-10.2295
▁organic	-10.2303
▁adenoma	-10.2311
▁ce	-10.2317
▁allergic	-10.2319
▁epilepsy	-10.2319
▁please	-10.232
▁180	-10.232
▁ar	-10.2322
▁deposition	-10.2328
▁speed	-10.2329
▁carefully	-10.233
▁fundamental	-10.2331
▁revised	-10.2332
38	-10.2336
▁pc	-10.2338
ap	-10.2343
▁eosinophilic	-10.2348
▁gm	-10.2349
▁views	-10.2353
la	-10.2354
▁held	-10.2359
▁ag	-10.2365
▁council	-10.2365
▁antigens	-10.2374
▁monoclonal	-10.2376
▁educational	-10.2378
▁interstitial	-10.238
▁av	-10.2383
▁comparative	-10.2389
ability	-10.239
▁prevalent	-10.2391
▁monitored	-10.2395
▁conference	-10.2402
▁san	-10.2415
▁stromal	-10.2415
▁radio	-10.2419
▁cultured	-10.2421
▁east	-10.2424
▁apart	-10.2424
▁asked	-10.2424
▁clearance	-10.2425
▁allele	-10.2426
▁enrolled	-10.243
▁gov	-10.2432
▁degeneration	-10.2437
▁west	-10.2442
▁layers	-10.2443
▁complexes	-10.2444
▁november	-10.2446
▁equally	-10.2446
▁angiogram	-10.2454
▁vertical	-10.2454
▁belong	-10.2457
▁separated	-10.2459
▁angles	-10.246
▁stopped	-10.2461
▁obese	-10.2466
▁soil	-10.2468
▁sle	-10.2468
▁lymphatic	-10.2476
▁undergone	-10.2482
▁stroma	-10.2496
▁sets	-10.2497
▁ec	-10.2502
▁oncology	-10.2503
▁domains	-10.2505
▁actually	-10.2505
▁estimation	-10.2514
▁input	-10.2517
one	-10.252
▁complement	-10.2524
▁cap	-10.2526
▁estimates	-10.2549
▁publish	-10.2551
▁tolerance	-10.2558
▁photograph	-10.256
▁fa	-10.2561
▁answer	-10.2568
▁private	-10.2572
▁bronchial	-10.2574
▁nail	-10.2578
▁igm	-10.2581
▁route	-10.2581
▁nk	-10.2582
▁exclude	-10.2583
▁fresh	-10.2585
▁disability	-10.2594
▁sheldr	-10.2601
▁income	-10.2608
▁ankle	-10.2613
▁difficulties	-10.2614
▁ranges	-10.2626
▁adhesion	-10.2628
▁subtype	-10.2628
▁dogs	-10.2629
▁solutions	-10.2635
▁suffering	-10.2635
▁implicated	-10.2636
▁echo	-10.2642
ns	-10.2656
em	-10.2665
▁grants	-10.2671
45	-10.2673
ised	-10.2673
▁occasionally	-10.2674
▁branches	-10.2676
▁parenchyma	-10.2686
ler	-10.2691
▁illustrate	-10.2697
▁suffered	-10.2697
▁select	-10.2704
ce	-10.2704
▁scc	-10.2709
▁chemistry	-10.2711
▁gp	-10.2713
▁log	-10.2714
▁denied	-10.2726
rt	-10.2729
▁determination	-10.2743
▁restriction	-10.2744
▁consequence	-10.275
▁erythema	-10.2754
▁necrotic	-10.2755
▁hyperplasia	-10.2756
▁testicular	-10.276
▁inhibitory	-10.2762
▁felt	-10.2764
▁bound	-10.2764
oid	-10.2765
▁vena	-10.2773
▁intestine	-10.2773
▁incubated	-10.2774
▁synthetic	-10.2779
▁definite	-10.279
▁diastolic	-10.28
▁dx	-10.2802
▁fr	-10.2806
▁nerves	-10.2816
▁histologic	-10.2817
characterization	-10.282
▁classic	-10.2822
▁twenty	-10.2826
▁absolute	-10.2829
▁bones	-10.283
▁highlighted	-10.2831
▁varying	-10.2835
▁duodenal	-10.2847
▁fossa	-10.2851
▁publisher	-10.2851
▁primer	-10.2851
▁controversial	-10.2852
▁bed	-10.2856
▁106	-10.2859
▁practical	-10.286
▁define	-10.2864
▁actual	-10.2865
▁standardized	-10.2874
ir	-10.2875
▁intervals	-10.2877
▁shared	-10.2888
cr	-10.2889
▁9300	-10.289
▁nano	-10.289
▁103	-10.2894
▁sh	-10.2909
▁former	-10.2913
▁remarkable	-10.2914
▁unlike	-10.2919
▁century	-10.2919
▁icd	-10.292
▁quadrant	-10.2926
▁mesh	-10.293
▁maps	-10.2932
▁modification	-10.2934
▁fibrillation	-10.2936
▁anomaly	-10.2936
▁endovascular	-10.2945
▁forming	-10.2945
▁simultaneously	-10.2947
▁released	-10.295
▁torsion	-10.2951
▁surprising	-10.2952
▁123	-10.2956
▁protect	-10.2959
▁pas	-10.2964
▁ta	-10.2968
▁retention	-10.297
▁visits	-10.2972
▁lupus	-10.2974
ent	-10.2975
▁op	-10.2978
▁urban	-10.2979
▁agar	-10.2981
▁helped	-10.2982
▁hbv	-10.2986
ish	-10.2991
▁cava	-10.2996
▁oxford	-10.3003
▁neuropathy	-10.3008
ga	-10.3015
▁associations	-10.3018
▁suppression	-10.302
▁native	-10.302
▁incorrect	-10.302
▁laboratories	-10.302
▁assessing	-10.3024
▁ground	-10.3024
▁dermis	-10.3024
▁edge	-10.303
mol	-10.303
▁examples	-10.3033
▁joints	-10.3033
▁press	-10.3036
▁kingdom	-10.3037
▁130	-10.3039
▁cerebellar	-10.3051
▁activate	-10.3057
if	-10.3062
▁soon	-10.3063
▁feedback	-10.3064
▁instance	-10.3067
▁gr	-10.3072
▁neutrophil	-10.3077
▁ros	-10.3077
▁kim	-10.3079
▁subjected	-10.3084
▁meningitis	-10.3084
ek	-10.3089
▁profiles	-10.3093
▁hz	-10.3094
▁asian	-10.3095
▁600	-10.3102
▁extreme	-10.3109
▁chapter	-10.3115
▁recombinant	-10.3118
▁filling	-10.3121
▁away	-10.3122
▁sn	-10.3122
▁categories	-10.3124
▁ou	-10.3127
▁communities	-10.3128
▁pituitary	-10.3131
▁septum	-10.3133
▁bd	-10.3134
▁license	-10.3134
▁ever	-10.314
▁skull	-10.3141
▁positions	-10.3155
▁manual	-10.316
▁intraocular	-10.3161
▁manufacturer	-10.3162
ling	-10.3163
▁internet	-10.3165
▁programme	-10.3171
▁spss	-10.3176
▁brought	-10.3177
▁kb	-10.3179
▁presentations	-10.319
▁idea	-10.3201
▁barrier	-10.3202
▁sun	-10.3205
▁cytokine	-10.3208
▁utilized	-10.3208
▁parameter	-10.3209
▁flexion	-10.3212
▁plasmid	-10.3212
lin	-10.3213
ti	-10.3213
▁intense	-10.3213
▁behind	-10.3219
tre	-10.3222
▁ideal	-10.3225
▁drawn	-10.3226
ae	-10.3227
▁likelihood	-10.3244
si	-10.3245
lectrocardiogram	-10.3254
▁february	-10.3257
▁objectives	-10.3259
▁fluorescence	-10.3259
▁mitotic	-10.3265
▁fe	-10.3265
▁sur	-10.3273
▁pharmacological	-10.3277
▁reduces	-10.3278
▁transmitted	-10.3279
▁ge	-10.3281
▁opinion	-10.3283
▁mrsa	-10.3284
▁fifth	-10.3286
▁user	-10.3294
▁gradient	-10.3297
▁reproductive	-10.3305
▁deficits	-10.3308
▁resuscitation	-10.3308
▁copd	-10.331
▁plaques	-10.3328
▁equipment	-10.333
▁140	-10.3332
▁institutions	-10.3333
▁explanation	-10.3335
▁screen	-10.3339
mi	-10.3342
▁dietary	-10.3345
mo	-10.3347
▁usual	-10.3347
br	-10.335
▁determining	-10.3358
▁updated	-10.3361
▁capillary	-10.3361
▁varied	-10.3365
▁destruction	-10.3365
▁namely	-10.3367
ex	-10.3369
▁neutral	-10.3371
▁gestation	-10.3371
▁particles	-10.3373
▁cytoplasmic	-10.3375
▁117	-10.3382
31	-10.3384
▁contents	-10.3386
▁atomic	-10.3387
▁vp	-10.3389
▁heparin	-10.339
▁echocardiogram	-10.3393
▁sized	-10.3402
▁cat	-10.3403
▁investigators	-10.3407
▁indirect	-10.3407
▁eus	-10.3409
▁ascending	-10.3416
per	-10.3428
▁exon	-10.3443
▁excess	-10.3446
▁residents	-10.3451
ance	-10.3452
▁pneumoniae	-10.3457
▁conduction	-10.3457
▁situations	-10.3458
▁105	-10.3459
▁accordance	-10.3459
▁detail	-10.346
▁colonic	-10.3465
▁instrument	-10.3469
go	-10.3473
▁discomfort	-10.3473
▁night	-10.3485
▁category	-10.3494
▁bring	-10.3497
▁parasite	-10.3499
▁injections	-10.351
▁girl	-10.3512
▁infect	-10.3513
▁feasible	-10.3514
bp	-10.3514
▁periods	-10.3515
▁advised	-10.3517
▁lee	-10.3517
▁alignment	-10.3521
▁cf	-10.3523
▁interact	-10.3526
▁1998	-10.3526
▁add	-10.3528
▁replaced	-10.3528
▁indication	-10.3528
▁purified	-10.353
▁providers	-10.353
▁nonspecific	-10.3531
▁insufficiency	-10.3534
▁cataract	-10.3535
osis	-10.3536
thrombocytopenia	-10.3544
▁facility	-10.3546
▁adherence	-10.3546
▁genetics	-10.3549
▁autosomal	-10.3552
▁codes	-10.3555
▁shorter	-10.3557
▁tension	-10.3559
▁analyze	-10.3565
▁ranged	-10.357
▁names	-10.357
ha	-10.3573
32	-10.3576
▁vas	-10.3585
▁letter	-10.359
▁breathing	-10.3596
▁displayed	-10.36
▁faculty	-10.3614
▁vegf	-10.3615
▁compatible	-10.3619
▁confirmation	-10.3631
▁regardless	-10.3632
▁methodology	-10.3632
▁driven	-10.3633
▁insights	-10.3634
▁colonoscopy	-10.3635
▁perception	-10.3638
▁retrograde	-10.3644
▁glass	-10.3646
▁hypotension	-10.3646
▁antiviral	-10.3654
▁lacking	-10.3656
▁integration	-10.3664
▁bilirubin	-10.3671
▁ulcers	-10.3673
▁prosthesis	-10.3674
▁pv	-10.368
pe	-10.368
▁expressing	-10.3684
▁indications	-10.3687
▁epidermal	-10.3696
▁leak	-10.3697
▁square	-10.3703
001	-10.3706
▁validated	-10.3707
▁representing	-10.3709
▁proved	-10.371
▁immunoglobulin	-10.371
▁disseminated	-10.3714
ley	-10.3717
▁exists	-10.3718
▁record	-10.3722
ana	-10.3726
▁offers	-10.373
▁keep	-10.3737
▁sclerosis	-10.3745
▁aml	-10.3745
▁insufficient	-10.3755
▁relief	-10.3759
▁similarity	-10.3762
be	-10.3765
▁alt	-10.377
▁heterogeneity	-10.3771
▁sectional	-10.3775
▁normalized	-10.3776
▁beats	-10.3779
▁collaboration	-10.3781
ten	-10.3782
▁tc	-10.3782
▁smear	-10.3783
▁urgent	-10.3786
▁decreasing	-10.3794
▁databases	-10.3796
▁nitrogen	-10.38
▁announcement	-10.3803
▁chosen	-10.3807
ot	-10.3814
▁hospitalized	-10.3815
▁prednisolone	-10.3817
▁cardiomyopathy	-10.3818
▁adolescents	-10.383
▁mol	-10.3832
▁contributing	-10.3832
56	-10.3841
▁trained	-10.3841
▁subtypes	-10.3849
▁blast	-10.385
▁deformity	-10.3853
▁disruption	-10.3854
▁erythematous	-10.3861
▁prone	-10.3862
▁nurses	-10.3866
▁mv	-10.3874
▁stop	-10.388
▁pharmaceutical	-10.3888
▁editing	-10.3894
▁od	-10.3895
▁attempts	-10.3896
▁coefficient	-10.3898
▁tubular	-10.3901
▁mesenchymal	-10.3903
▁patent	-10.3904
▁glaucoma	-10.3904
▁cad	-10.3905
▁ejection	-10.3912
▁click	-10.3914
▁charge	-10.3918
po	-10.392
▁conserved	-10.3922
▁wbc	-10.3923
▁causative	-10.3924
▁duodenum	-10.3928
▁decisions	-10.3928
mmunosuppressive	-10.3933
▁pandemic	-10.3934
▁implement	-10.3935
▁sputum	-10.3935
▁genital	-10.3937
▁membranes	-10.3937
▁themselves	-10.3941
ai	-10.3942
▁rp	-10.3943
bl	-10.3944
▁heavy	-10.3949
▁publishing	-10.3952
▁tail	-10.3952
▁degrees	-10.3953
▁inadequate	-10.3955
▁changing	-10.3956
▁originally	-10.3956
▁connective	-10.396
▁allergy	-10.3964
▁promoting	-10.3965
▁ltd	-10.397
▁regurgitation	-10.397
▁sarcoidosis	-10.3972
▁retina	-10.398
▁velocity	-10.3983
▁slowly	-10.3986
▁pathophysiology	-10.3994
28	-10.3997
▁ligand	-10.3997
▁cytology	-10.4
▁existence	-10.4003
▁anatomic	-10.4008
63	-10.4009
▁encode	-10.4014
▁translation	-10.4015
▁principles	-10.4019
▁minimally	-10.402
▁uniform	-10.4025
▁pdf	-10.4036
▁connected	-10.4037
▁unlikely	-10.4038
▁anticoagulation	-10.4042
▁aims	-10.4048
▁robust	-10.4051
▁hygiene	-10.4065
▁hd	-10.4067
▁radiography	-10.407
▁award	-10.4075
▁salivary	-10.4076
▁computational	-10.4079
▁array	-10.4086
▁window	-10.4095
▁planes	-10.4095
▁anaesthesia	-10.4095
▁complaint	-10.4103
▁conversion	-10.4104
▁comments	-10.4105
▁con	-10.4109
▁histologically	-10.411
▁independently	-10.4111
▁ascites	-10.4113
ase	-10.4115
▁narrow	-10.4118
▁net	-10.412
▁timely	-10.412
▁participation	-10.4123
ut	-10.4124
▁trigger	-10.4125
▁hu	-10.4126
▁netherlands	-10.4127
▁dysplasia	-10.4131
▁detachment	-10.4139
▁bearing	-10.4143
▁recruitment	-10.415
▁nmr	-10.4154
▁potent	-10.4155
▁incorrectly	-10.4161
▁uv	-10.4163
▁pump	-10.4164
ph	-10.4172
57	-10.4173
▁1997	-10.4175
▁varies	-10.4178
▁urea	-10.4182
▁1996	-10.4191
▁staging	-10.4192
▁baby	-10.4201
▁offered	-10.4204
▁requirements	-10.4211
▁rcc	-10.4213
▁endocrine	-10.4213
▁limiting	-10.4216
▁eeg	-10.4216
▁mandible	-10.4224
▁grown	-10.4225
▁accounts	-10.4228
▁preliminary	-10.4237
▁assigned	-10.4238
▁spontaneously	-10.4238
▁want	-10.4239
▁dataset	-10.424
▁substrate	-10.4241
▁tertiary	-10.4244
▁phosphorylation	-10.4251
▁nursing	-10.4259
▁walking	-10.426
▁179	-10.426
▁simultaneous	-10.4272
▁morphological	-10.4272
▁sterile	-10.4275
▁contamination	-10.4281
▁ivc	-10.4285
▁brief	-10.4289
▁gait	-10.4291
▁urethral	-10.4296
99	-10.4303
ating	-10.4306
▁candidate	-10.4308
▁explored	-10.4311
▁acceptable	-10.4313
▁emphasize	-10.4315
▁genomics	-10.4315
▁foci	-10.4318
▁evolutionary	-10.432
▁cure	-10.4331
▁thigh	-10.4332
▁disclose	-10.4333
▁107	-10.4338
▁display	-10.4341
▁topics	-10.4343
▁attempted	-10.4345
▁familial	-10.4348
▁fu	-10.4352
▁validation	-10.4353
▁vancomycin	-10.4353
▁rheumatoid	-10.4356
▁cmv	-10.4364
▁consultation	-10.437
ata	-10.437
▁confirming	-10.4373
▁wish	-10.4374
▁conduct	-10.4375
bi	-10.4378
▁estrogen	-10.4384
▁migraine	-10.4404
▁policies	-10.4406
▁standing	-10.4406
▁probable	-10.441
▁palsy	-10.441
▁emergence	-10.4414
▁electrical	-10.4415
▁amounts	-10.4418
▁ef	-10.4419
▁propose	-10.442
▁constrained	-10.4426
▁discontinued	-10.4439
▁schizophrenia	-10.444
▁owing	-10.4441
▁gh	-10.4441
gen	-10.4445
▁giving	-10.4446
▁retro	-10.4449
▁sessions	-10.445
pro	-10.4451
▁reflux	-10.4453
ative	-10.4464
▁passed	-10.4465
▁sm	-10.4466
▁plates	-10.447
▁surround	-10.4473
▁continues	-10.4474
▁endocarditis	-10.4476
▁mini	-10.4477
▁endogenous	-10.4485
▁syndromes	-10.4485
ina	-10.4486
▁insight	-10.4486
▁helps	-10.4488
▁vitreous	-10.4493
▁revealing	-10.4498
▁ku	-10.4502
▁comment	-10.4503
▁prophylaxis	-10.4505
▁muscular	-10.451
▁chromatin	-10.4511
▁adipose	-10.4514
▁abstract	-10.4514
▁stimulate	-10.4519
▁thorough	-10.452
▁super	-10.4521
▁emotional	-10.4525
▁fiber	-10.4532
▁fasting	-10.4533
▁dosage	-10.4533
▁ethanol	-10.4534
▁incubation	-10.4537
▁doing	-10.4537
▁improvements	-10.4545
ip	-10.4546
▁ingestion	-10.4548
▁1107	-10.455
▁scanning	-10.4555
▁call	-10.4557
ene	-10.4558
izing	-10.4561
▁experts	-10.4566
▁fewer	-10.4567
▁completion	-10.4568
▁interferon	-10.4569
▁expanded	-10.4569
▁dermal	-10.4574
▁dementia	-10.4577
▁stat	-10.4587
▁positron	-10.459
▁transthoracic	-10.459
▁match	-10.4591
ag	-10.4594
▁scope	-10.4594
▁stool	-10.4597
▁aspirin	-10.4599
▁1990	-10.4599
tous	-10.4599
▁huge	-10.4619
▁platelets	-10.462
▁prof	-10.4624
▁agency	-10.4631
▁lymphoid	-10.4637
▁files	-10.464
▁manifest	-10.4642
▁timing	-10.4642
▁complexity	-10.465
▁sutures	-10.4654
▁lad	-10.4659
▁pass	-10.466
table	-10.4664
26	-10.4668
▁pneumothorax	-10.4671
▁correlations	-10.4673
ard	-10.4677
▁premature	-10.4682
▁chen	-10.4682
▁interface	-10.4693
▁mic	-10.4694
▁enable	-10.4695
▁worse	-10.4695
▁mis	-10.4697
▁mc	-10.4699
▁cirrhosis	-10.4709
ultidisciplinary	-10.471
▁deficient	-10.4715
▁sharp	-10.4718
▁sensation	-10.4722
▁capable	-10.4722
▁recognize	-10.4723
▁ps	-10.4734
▁ka	-10.4734
▁rf	-10.4738
res	-10.4746
▁visualized	-10.4746
▁gamma	-10.4748
we	-10.4752
ane	-10.4755
▁salt	-10.4758
▁preserved	-10.4759
▁items	-10.4763
▁intellectual	-10.4763
▁pseudoaneurysm	-10.4764
▁malformations	-10.4771
▁onto	-10.4771
▁elbow	-10.4773
▁induces	-10.4776
ite	-10.4779
▁expert	-10.4782
▁simply	-10.4782
ella	-10.4784
▁implants	-10.4786
▁forearm	-10.4786
▁doctor	-10.4788
▁104	-10.4792
▁malformation	-10.4794
▁instructions	-10.4795
▁instruments	-10.4796
▁park	-10.4801
ty	-10.4803
▁staphylococcus	-10.4803
▁sperm	-10.4804
▁substance	-10.4805
▁femur	-10.4808
▁connection	-10.481
▁med	-10.4816
▁peptides	-10.4819
▁oxide	-10.4827
▁routinely	-10.4832
▁said	-10.4833
crystallographic	-10.4833
▁choroidal	-10.4834
▁utility	-10.4838
▁engineering	-10.4838
▁consciousness	-10.4839
▁122	-10.4844
▁pairs	-10.4848
▁horizontal	-10.4853
▁wrist	-10.4855
▁carry	-10.4856
▁translational	-10.4857
▁surgeries	-10.4861
▁words	-10.4862
▁deficit	-10.4867
▁pedicle	-10.4872
▁160	-10.4883
▁workup	-10.4884
▁fc	-10.4898
▁granuloma	-10.4903
▁hot	-10.4904
tion	-10.4914
▁laparoscopy	-10.4914
▁move	-10.4915
▁palliative	-10.4915
▁cerebrospinal	-10.4917
▁looking	-10.4921
▁cultural	-10.4922
▁accordingly	-10.4924
gi	-10.4924
▁practitioners	-10.4941
▁hypertrophy	-10.4942
▁usage	-10.4946
ck	-10.4946
▁virulence	-10.4959
tr	-10.496
▁takes	-10.4963
▁mediastinum	-10.4965
su	-10.4966
▁fair	-10.4971
90	-10.4972
▁meet	-10.4975
▁pl	-10.4978
▁dear	-10.4989
▁biomedical	-10.4989
▁subclavian	-10.4993
▁functioning	-10.4996
▁quickly	-10.5001
▁transcriptional	-10.5002
▁odds	-10.5004
▁nose	-10.501
up	-10.501
▁hypoxia	-10.5011
▁decreases	-10.5011
▁tolerated	-10.5015
▁trachea	-10.5018
▁diaphragm	-10.502
▁endometrial	-10.502
▁named	-10.502
▁follicular	-10.502
▁rr	-10.5025
▁relevance	-10.5025
▁gray	-10.5028
▁preventive	-10.503
▁visceral	-10.5033
immunodeficiency	-10.5036
▁dissemination	-10.5043
▁assist	-10.5053
▁kidneys	-10.5055
▁referral	-10.5058
▁blunt	-10.5067
▁becoming	-10.5071
▁ip	-10.5071
▁psoriasis	-10.5073
▁ward	-10.5079
▁sigmoid	-10.508
▁bottom	-10.5084
▁zero	-10.5085
▁psa	-10.5086
▁sizes	-10.5089
▁minimize	-10.5091
▁feel	-10.5094
▁principal	-10.5096
sp	-10.5099
hi	-10.5105
▁supports	-10.5106
▁stimuli	-10.5107
▁iop	-10.5107
▁carcinomas	-10.5107
▁pacing	-10.5109
ke	-10.5117
▁big	-10.512
▁describ	-10.5123
▁ovary	-10.5132
▁nutritional	-10.5132
ka	-10.5133
▁overcome	-10.5133
▁hf	-10.5136
▁gives	-10.5149
▁gy	-10.5161
▁manage	-10.5162
ko	-10.5168
▁semi	-10.5193
▁greatly	-10.5194
▁ebv	-10.5196
▁era	-10.5197
dm	-10.5197
▁ve	-10.5199
▁predominant	-10.5199
▁supportive	-10.5199
▁psychiatry	-10.5208
io	-10.5216
▁comorbidities	-10.5223
▁analysed	-10.523
▁blind	-10.5231
▁sedation	-10.5234
▁genotypes	-10.5238
▁sma	-10.5242
▁tender	-10.5243
ho	-10.5252
▁yielded	-10.5257
by	-10.5258
▁donors	-10.5262
▁influenced	-10.5272
▁pb	-10.5275
▁atp	-10.5282
▁interpreted	-10.5285
▁submission	-10.5286
▁diverticulum	-10.5287
▁york	-10.5289
ide	-10.5294
▁zhang	-10.5302
▁deliver	-10.5306
▁perceived	-10.531
▁grateful	-10.5313
▁weekly	-10.5314
▁collapse	-10.5316
▁projects	-10.5319
stored	-10.5326
▁rectum	-10.5327
▁molar	-10.5329
▁filter	-10.5332
▁deterioration	-10.5333
▁lin	-10.5338
▁occipital	-10.5352
▁physiology	-10.5354
od	-10.5357
▁thermal	-10.5359
▁till	-10.5361
▁affiliations	-10.5361
▁climate	-10.5363
ea	-10.5366
▁formal	-10.537
mann	-10.5372
▁116	-10.5372
▁actions	-10.5372
▁bilaterally	-10.5373
▁missed	-10.5377
▁grow	-10.5379
▁reasonable	-10.5385
▁modulate	-10.5386
▁trust	-10.5395
▁width	-10.54
▁hypothesized	-10.54
ak	-10.5401
▁pack	-10.5402
so	-10.5404
▁granulomatous	-10.5405
▁subset	-10.5406
▁randomly	-10.5408
▁ic	-10.5413
▁umbilical	-10.5419
▁claims	-10.5419
▁untreated	-10.5423
▁artificial	-10.5429
▁testis	-10.5435
▁sought	-10.5437
▁passage	-10.5445
▁rib	-10.545
▁goals	-10.5452
▁building	-10.5456
▁deposits	-10.5458
llowing	-10.5462
▁box	-10.5464
▁attack	-10.547
▁retained	-10.5471
▁undertaken	-10.5471
▁uc	-10.5471
▁experiences	-10.5472
▁mac	-10.5475
36	-10.5476
▁fund	-10.5479
ari	-10.5489
▁opportunities	-10.5495
▁phosphatase	-10.5498
▁compartment	-10.5498
▁pour	-10.5506
▁frozen	-10.5507
▁1995	-10.551
▁frame	-10.5516
▁aki	-10.5518
ani	-10.5519
▁parietal	-10.5522
▁prepare	-10.5522
▁modifications	-10.5524
▁mp	-10.5529
▁chromosomal	-10.5531
▁mammalian	-10.5533
▁ulceration	-10.5536
mer	-10.5541
▁emerged	-10.5543
▁ev	-10.555
▁sec	-10.5552
68	-10.5572
▁ht	-10.5582
▁hosts	-10.5586
land	-10.5586
▁bal	-10.5586
▁law	-10.5588
▁myeloid	-10.5589
▁palate	-10.559
▁transparency	-10.559
▁gestational	-10.5591
▁necessarily	-10.5591
▁putative	-10.5593
▁occupational	-10.5598
▁caucasian	-10.5598
▁bronchoscopy	-10.5602
▁np	-10.5603
▁uses	-10.5604
he	-10.5605
▁pole	-10.561
▁plos	-10.5616
▁institutes	-10.5617
42	-10.5617
▁controlling	-10.5622
▁maximal	-10.5628
▁amyloid	-10.5632
▁ver	-10.5635
▁stones	-10.5635
▁amplified	-10.5642
▁pubmed	-10.5657
▁stimulating	-10.566
▁responsibility	-10.5663
op	-10.5666
▁hemodialysis	-10.5677
ted	-10.5681
▁dysphagia	-10.5686
▁decompression	-10.569
▁demand	-10.5692
▁assumed	-10.5696
▁supplementation	-10.5696
▁disappeared	-10.57
▁speech	-10.5705
▁fungi	-10.571
fa	-10.5715
▁domestic	-10.5716
▁union	-10.5721
▁virtual	-10.5721
▁rh	-10.5723
▁drive	-10.5728
▁cleft	-10.5739
▁fashion	-10.5741
▁capture	-10.5742
▁115	-10.5742
ens	-10.5743
wi	-10.5744
▁lifestyle	-10.5756
▁que	-10.5764
que	-10.5765
▁cho	-10.5766
▁thorax	-10.5769
▁te	-10.577
▁pigment	-10.5772
pt	-10.5773
▁nr	-10.5774
▁pacemaker	-10.5775
▁dead	-10.5776
▁qui	-10.5779
▁zn	-10.5782
▁promoter	-10.5797
▁says	-10.5799
▁achiev	-10.5804
▁arranged	-10.5807
▁diagnos	-10.5807
▁sharing	-10.581
▁market	-10.5812
▁inversion	-10.5813
▁ventral	-10.5815
▁duplication	-10.5816
▁penile	-10.5819
▁universal	-10.582
▁observational	-10.5821
▁parent	-10.5823
▁french	-10.5823
▁unnecessary	-10.5825
▁expertise	-10.5826
▁overly	-10.5829
▁obtaining	-10.583
▁concurrent	-10.5833
▁elimination	-10.5835
▁iris	-10.5836
▁scenario	-10.5836
▁cytotoxic	-10.5841
▁vt	-10.5842
▁parasites	-10.5842
▁formula	-10.5844
▁accurately	-10.5844
▁pci	-10.5845
▁viable	-10.5845
▁contralateral	-10.5849
▁responded	-10.585
▁house	-10.5857
▁package	-10.586
pi	-10.5862
▁hybrid	-10.5863
▁gadolinium	-10.5869
▁1371	-10.5875
▁lymphocyte	-10.5879
lo	-10.588
▁diffractometer	-10.5881
oma	-10.5883
line	-10.5883
▁tropical	-10.5884
ec	-10.5886
▁labeled	-10.5887
▁ref	-10.5895
▁pair	-10.59
fi	-10.5901
▁mobility	-10.5908
▁courses	-10.591
▁hba	-10.5911
▁satisfactory	-10.5914
ins	-10.5916
▁ba	-10.5923
▁catheterization	-10.5925
tra	-10.5935
▁sf	-10.5942
▁acting	-10.5944
▁cement	-10.5949
▁copies	-10.5949
▁segmental	-10.5952
ology	-10.5954
▁germ	-10.5956
▁phenotypes	-10.5956
▁polymorphism	-10.5958
▁1128	-10.5959
hl	-10.5961
▁drop	-10.5961
▁eg	-10.5962
▁acc	-10.5964
▁learn	-10.5965
ini	-10.597
▁spain	-10.5972
▁advice	-10.598
▁recruited	-10.5983
▁del	-10.599
▁john	-10.5992
▁adopted	-10.5993
ensis	-10.5999
▁summarized	-10.6
▁popular	-10.6002
▁fda	-10.6005
▁painless	-10.6011
▁interview	-10.6016
▁tibial	-10.6017
▁pilot	-10.6021
▁screened	-10.6028
▁perioperative	-10.6029
▁methylation	-10.6031
▁saudi	-10.6035
hr	-10.604
▁febrile	-10.6043
▁cv	-10.6049
▁ureteral	-10.6051
▁immunological	-10.6053
▁readily	-10.6055
▁eating	-10.6057
▁mark	-10.6059
▁microscope	-10.6059
▁coupled	-10.6062
▁processed	-10.6064
▁html	-10.6068
▁sea	-10.6068
▁eyelid	-10.6072
▁references	-10.6075
▁element	-10.6079
der	-10.6079
▁locally	-10.6083
▁ras	-10.6085
▁embryonic	-10.609
isation	-10.6101
▁front	-10.6104
▁bacterium	-10.6106
▁website	-10.6107
▁encephalitis	-10.6108
▁pay	-10.6112
▁bo	-10.6113
▁deal	-10.6117
▁tg	-10.6119
▁articular	-10.6119
▁chromosomes	-10.6119
▁pylori	-10.612
▁originat	-10.612
▁toxin	-10.6121
▁acknowledgment	-10.6124
▁behaviors	-10.6127
▁simulation	-10.6128
▁neuroendocrine	-10.6134
▁mt	-10.6138
▁tear	-10.614
▁ige	-10.6144
▁thermo	-10.6147
▁elsewhere	-10.6158
▁immunocompromis	-10.616
▁beam	-10.6164
▁macro	-10.6171
▁blocks	-10.6176
▁distances	-10.6176
▁flaps	-10.618
▁uiso	-10.619
▁flexible	-10.6193
▁cornea	-10.6194
do	-10.6197
▁hydroxy	-10.6198
▁lamp	-10.6198
▁feet	-10.62
▁ages	-10.62
▁mycobacterium	-10.62
▁separation	-10.6201
▁spaces	-10.6203
▁sugar	-10.6206
▁papules	-10.6208
▁creative	-10.6209
▁purposes	-10.6212
▁dilation	-10.6217
and	-10.6218
▁anal	-10.6221
▁autopsy	-10.6223
▁don	-10.6227
fc	-10.6229
▁taiwan	-10.6232
▁creating	-10.6235
▁cam	-10.6236
▁composite	-10.6238
▁david	-10.6244
tri	-10.6256
▁appendicitis	-10.6259
▁anesthetic	-10.6261
▁constructed	-10.6262
▁spectra	-10.6266
▁atherosclerosis	-10.6277
▁republic	-10.6285
▁hypothyroidism	-10.6288
▁es	-10.6288
▁syn	-10.6289
▁let	-10.6295
▁fetus	-10.63
▁request	-10.6302
ique	-10.6303
uc	-10.6306
▁trends	-10.6307
▁operated	-10.6308
▁km	-10.6311
ung	-10.6315
▁suicide	-10.6317
▁seconds	-10.6318
▁withdrawal	-10.6333
ities	-10.6335
▁002	-10.6336
tin	-10.6338
▁sound	-10.6343
ft	-10.6354
▁thereafter	-10.6362
▁herniation	-10.6363
▁cyp	-10.6363
▁800	-10.6365
▁periodic	-10.6366
▁elective	-10.6368
▁screw	-10.6373
▁california	-10.6376
▁circumscribed	-10.6379
▁cuff	-10.6382
▁sports	-10.6382
▁herpes	-10.6384
▁storage	-10.6386
▁submucosal	-10.6392
▁esr	-10.6392
▁pigs	-10.6394
▁disclosed	-10.6394
▁tight	-10.6402
minotransferase	-10.6402
▁debridement	-10.6407
▁fecal	-10.6409
▁positioned	-10.6412
▁fascia	-10.6413
▁lt	-10.6414
im	-10.6415
67	-10.6415
▁clean	-10.6416
▁124	-10.6421
▁tried	-10.6422
▁leukocyte	-10.6422
▁hydatid	-10.6425
▁chloride	-10.6427
▁qualitative	-10.643
▁été	-10.6431
▁lot	-10.6433
▁favor	-10.6434
▁cardiopulmonary	-10.6434
41	-10.6435
▁tubes	-10.644
▁hormonal	-10.6444
▁hematuria	-10.6446
▁agreed	-10.6446
▁bcl	-10.6451
▁environments	-10.6452
▁bat	-10.6453
▁neuron	-10.6455
▁satisfaction	-10.6455
▁datablock	-10.6455
▁dehydrogenase	-10.6459
▁regimens	-10.646
▁avoided	-10.6462
▁autophagy	-10.6467
ducing	-10.6469
▁acidosis	-10.6474
▁178	-10.6475
▁flat	-10.6478
▁manipulation	-10.6486
▁salmonella	-10.6492
▁proceed	-10.6493
▁senior	-10.6495
un	-10.6499
▁peritonitis	-10.6515
▁southern	-10.6515
▁synovial	-10.6516
▁logistic	-10.6518
pp	-10.6525
▁cent	-10.6535
▁debate	-10.6537
▁machine	-10.6538
▁rarity	-10.6542
▁pbs	-10.6545
amine	-10.6551
▁overview	-10.6557
▁autologous	-10.6558
chi	-10.656
va	-10.6562
▁larvae	-10.6563
▁residues	-10.6567
mb	-10.6569
▁visited	-10.6573
▁legs	-10.6573
act	-10.6576
▁ards	-10.6578
▁innate	-10.6579
▁oblique	-10.658
▁sem	-10.6581
▁alter	-10.6581
▁inform	-10.6582
▁ti	-10.6584
▁synaptic	-10.6585
▁mal	-10.6586
▁mask	-10.6588
▁surgically	-10.6589
▁accessor	-10.6593
▁ep	-10.6593
mp	-10.66
▁vol	-10.6601
▁track	-10.6613
▁die	-10.6615
▁intrinsic	-10.662
▁radiology	-10.6623
▁immunotherapy	-10.6624
▁overlap	-10.6625
▁remov	-10.6632
▁contributes	-10.6636
▁career	-10.6637
iii	-10.6638
cyclophosphamide	-10.664
▁seed	-10.6641
of	-10.6649
▁mh	-10.6649
▁frequencies	-10.6654
▁prednisone	-10.6656
▁initiative	-10.6661
▁equation	-10.6663
▁theoretical	-10.6665
▁director	-10.6666
▁clinician	-10.6666
▁tsh	-10.6682
▁rank	-10.6685
ence	-10.6685
▁surfaces	-10.6686
▁flu	-10.6689
▁accident	-10.6697
▁floor	-10.6697
▁phenotypic	-10.6698
▁requirement	-10.6699
▁dedicated	-10.6699
ster	-10.67
ome	-10.6706
▁arms	-10.6708
43	-10.6708
▁accessible	-10.6709
▁oval	-10.6712
▁adaptive	-10.6714
▁legal	-10.6715
ure	-10.672
▁su	-10.6723
▁intussusception	-10.6727
▁nucleic	-10.6734
▁wi	-10.6736
▁keeping	-10.6737
▁comparisons	-10.6739
▁attacks	-10.674
▁acts	-10.6745
▁prophylactic	-10.6746
▁alkaline	-10.6749
▁stimulated	-10.675
▁annotated	-10.675
▁mu	-10.6751
matched	-10.6753
▁phage	-10.6756
▁automated	-10.6757
▁bands	-10.6759
▁tokyo	-10.6762
▁crystals	-10.6764
ang	-10.6769
ors	-10.677
▁jugular	-10.6771
▁going	-10.6777
▁mimic	-10.6778
▁aberrant	-10.6787
▁erythrocyte	-10.68
▁covering	-10.6802
▁sporadic	-10.6803
▁organized	-10.6805
▁announc	-10.6808
▁fear	-10.6814
▁ligation	-10.6815
▁ipsilateral	-10.6818
▁smoke	-10.6821
▁hypoglycemia	-10.6825
▁bipolar	-10.6834
▁gb	-10.6837
▁bind	-10.6838
▁ace	-10.6838
▁tendency	-10.684
▁iga	-10.6841
▁reaching	-10.6841
▁accounting	-10.6851
▁yu	-10.6853
tt	-10.6855
▁periodontal	-10.686
▁coordination	-10.6868
▁mandatory	-10.6871
ier	-10.6871
▁1038	-10.688
▁hole	-10.6883
▁voltage	-10.6885
ée	-10.6891
▁grafting	-10.6894
▁corticosteroid	-10.6894
▁ser	-10.6894
▁dermatitis	-10.6897
▁marginal	-10.6898
▁promotion	-10.6899
▁tricuspid	-10.6902
▁discontinuation	-10.6905
▁roots	-10.6907
▁forces	-10.6909
ula	-10.6915
▁figs	-10.6916
za	-10.6918
▁gingival	-10.692
▁128	-10.6922
▁rituximab	-10.6926
▁mf	-10.6927
▁innovative	-10.6927
▁respondents	-10.6927
▁nephrectomy	-10.6931
▁respective	-10.6932
ham	-10.6936
▁wood	-10.6936
▁hematological	-10.6936
▁prove	-10.6938
▁endotracheal	-10.6939
▁myeloma	-10.6939
▁medicines	-10.694
▁parathyroid	-10.6943
▁modeling	-10.6944
▁meq	-10.6947
▁solve	-10.6947
▁characterize	-10.6952
▁incidentally	-10.6953
▁orbit	-10.6959
▁phd	-10.6963
▁017	-10.6964
▁hall	-10.6972
▁111	-10.6973
▁cosmetic	-10.6974
▁architecture	-10.6977
▁alert	-10.6979
▁sentence	-10.698
▁recipient	-10.6981
▁causal	-10.6983
▁buccal	-10.6984
▁attend	-10.6984
▁soluble	-10.699
▁lp	-10.699
▁ldl	-10.6992
▁tyrosine	-10.6997
▁iatrogenic	-10.7
ino	-10.7001
▁interested	-10.7004
▁myocardium	-10.7011
▁develops	-10.7013
▁say	-10.7014
▁018	-10.7016
▁tp	-10.7032
▁thanks	-10.7032
▁homeostasis	-10.7033
▁traction	-10.7034
del	-10.7041
▁pipeline	-10.7042
▁build	-10.7044
▁supra	-10.7046
▁scattered	-10.7046
▁managing	-10.7052
ll	-10.7055
les	-10.7056
▁contraction	-10.7056
▁mitochondria	-10.7058
▁noise	-10.7062
▁laryngeal	-10.7065
▁ri	-10.7066
▁northern	-10.7068
▁hyperintense	-10.7069
▁bronchus	-10.7077
▁lowest	-10.7078
▁scheduled	-10.7081
▁microorganisms	-10.7084
▁ro	-10.7086
▁pathologies	-10.7086
▁extensively	-10.7095
▁interventional	-10.7095
mmunosuppression	-10.7096
▁registered	-10.7099
af	-10.7099
▁circular	-10.7101
▁bovine	-10.7106
▁seek	-10.7106
▁ckd	-10.7108
▁implanted	-10.7111
▁adaptation	-10.7113
▁fingers	-10.7113
ose	-10.7118
ki	-10.7119
▁locus	-10.7124
▁contaminated	-10.7126
▁calcified	-10.7127
▁registry	-10.7132
▁tunnel	-10.7136
▁road	-10.7136
▁occasional	-10.7142
▁cholecystectomy	-10.7143
▁fibroblasts	-10.7144
den	-10.7146
▁bc	-10.7147
▁tgf	-10.7147
▁ventilator	-10.7149
▁organizations	-10.7152
▁orientation	-10.7153
▁liu	-10.7158
▁smart	-10.7164
▁coronavirus	-10.7165
▁consolidation	-10.7168
▁jaundice	-10.7169
▁bundle	-10.7171
▁lives	-10.7172
▁prosthetic	-10.7172
▁oa	-10.7179
▁antioxidant	-10.7184
▁ileum	-10.7186
▁war	-10.7191
▁subgroup	-10.7192
▁stimulus	-10.7197
▁triggered	-10.7199
▁embedded	-10.7207
▁hemangioma	-10.7208
▁retinopathy	-10.7211
▁cattle	-10.7212
▁variance	-10.7214
▁reliability	-10.7215
▁gt	-10.7221
▁volumes	-10.7232
▁barriers	-10.7237
▁preservation	-10.7237
▁vast	-10.7237
▁syphilis	-10.7238
▁cisplatin	-10.7244
▁fisher	-10.725
▁operations	-10.7252
▁cast	-10.7253
▁clinics	-10.7257
bo	-10.7258
▁126	-10.7263
▁gd	-10.7263
▁disturbances	-10.7263
▁ruptured	-10.7267
▁properly	-10.7268
▁drinking	-10.7274
▁flank	-10.7277
▁genomea	-10.728
▁leaves	-10.7284
▁sounds	-10.7285
▁epigenetic	-10.7286
ber	-10.7286
▁predictor	-10.7291
▁mothers	-10.7294
▁london	-10.7295
▁ulnar	-10.7295
▁burn	-10.7296
▁dog	-10.7298
▁ones	-10.7301
▁walls	-10.7305
▁snps	-10.7306
▁adhesions	-10.7309
▁penicillin	-10.731
▁abscesses	-10.7321
▁methotrexate	-10.7326
▁epidermis	-10.7334
▁rim	-10.7334
▁downstream	-10.7335
▁polyp	-10.7338
▁pale	-10.7339
▁substances	-10.7342
▁bl	-10.7342
▁derivatives	-10.7342
wa	-10.7347
▁attachment	-10.7348
▁zinc	-10.7349
lu	-10.7352
▁ica	-10.736
▁film	-10.7361
du	-10.7362
▁ie	-10.7362
▁advance	-10.7366
▁warfarin	-10.7366
▁plexus	-10.7369
▁utilization	-10.737
▁hong	-10.7373
▁works	-10.7377
▁paralysis	-10.7379
▁grafts	-10.738
▁persisted	-10.7381
▁master	-10.7382
▁affinity	-10.7382
▁dys	-10.7385
▁granular	-10.7385
ng	-10.7387
▁compromise	-10.7393
all	-10.7396
▁ecmo	-10.7397
▁district	-10.7398
▁slit	-10.7401
ya	-10.7404
activating	-10.7404
▁metabolites	-10.7404
▁fluids	-10.741
▁waves	-10.7416
▁versions	-10.7417
▁magnitude	-10.7421
▁synthesized	-10.7421
▁lasting	-10.7422
▁moving	-10.7424
▁running	-10.7433
▁datasets	-10.7436
inflammatory	-10.7439
▁genetically	-10.7441
▁112	-10.7441
▁path	-10.7442
▁ends	-10.7444
▁moderately	-10.7448
▁biomarker	-10.7452
▁coherence	-10.7452
▁company	-10.7457
▁inability	-10.7458
▁personnel	-10.7466
▁extracts	-10.7469
▁adding	-10.7473
▁improves	-10.7476
▁correlate	-10.7479
▁object	-10.7483
▁switzerland	-10.7483
▁thickened	-10.7485
▁endometriosis	-10.7487
▁prevented	-10.7497
▁sci	-10.7501
▁inherited	-10.7501
▁dendritic	-10.7502
▁word	-10.7503
▁lineage	-10.7507
▁fluorescent	-10.7507
▁opposite	-10.7517
▁snp	-10.7521
▁volunteers	-10.7524
▁reader	-10.7527
▁emphasis	-10.7529
▁analytical	-10.7532
▁links	-10.7534
tz	-10.7538
▁comprising	-10.7539
▁interleukin	-10.754
▁warranted	-10.7541
▁bm	-10.7543
▁bridge	-10.7544
▁adapted	-10.7545
65	-10.7546
▁precision	-10.7547
▁german	-10.7547
▁hypertensive	-10.755
▁candidates	-10.7554
▁dimensions	-10.7555
▁temporar	-10.7556
▁split	-10.7563
▁comes	-10.7563
▁passive	-10.7563
▁regeneration	-10.7564
▁progressed	-10.7566
▁concepts	-10.7568
au	-10.7568
▁noninvasive	-10.7574
▁tlr	-10.7575
ano	-10.7576
▁orf	-10.7589
▁candida	-10.759
▁disturbance	-10.759
ml	-10.7596
▁lesser	-10.7606
▁antifungal	-10.7607
▁palpation	-10.7609
▁validity	-10.761
▁subunit	-10.7613
▁arrhythmias	-10.7617
▁aeruginosa	-10.7619
▁cytokeratin	-10.7619
▁hp	-10.7629
▁dye	-10.763
▁dopamine	-10.7632
sen	-10.7639
▁construction	-10.7643
▁washed	-10.7644
ah	-10.7649
▁indicator	-10.765
▁diagnostics	-10.7659
▁titer	-10.7664
▁libraries	-10.7667
ou	-10.7667
av	-10.7671
▁eosinophils	-10.7675
▁harm	-10.7678
▁loading	-10.7679
▁remote	-10.7683
▁inappropriate	-10.7686
▁adjust	-10.7688
▁yr	-10.7691
▁classes	-10.7697
▁lipoma	-10.7698
▁eastern	-10.7698
71	-10.77
▁clarify	-10.7707
▁regularly	-10.7708
▁inhibits	-10.7709
▁eggs	-10.7715
▁irradiation	-10.7717
▁graduate	-10.7718
▁ask	-10.7725
▁hdl	-10.7726
▁plot	-10.7732
▁representation	-10.7736
▁foods	-10.7737
▁df	-10.7742
▁heterozygous	-10.7743
▁powerful	-10.7745
▁got	-10.7745
▁authorship	-10.7748
200	-10.775
▁alk	-10.7751
ans	-10.7757
▁auditory	-10.7758
▁tables	-10.7758
▁electrophoresis	-10.7758
men	-10.7758
▁canine	-10.7762
▁profound	-10.7762
▁cox	-10.7765
▁investigating	-10.7769
▁ductal	-10.777
▁michael	-10.777
om	-10.777
▁019	-10.777
▁microbiology	-10.7775
▁desired	-10.7777
▁restoration	-10.778
▁reactivity	-10.778
▁lps	-10.7781
▁ideas	-10.7784
▁cdna	-10.7785
▁produces	-10.7788
▁guideline	-10.7791
▁sca	-10.7792
▁ratios	-10.7794
▁somatic	-10.7796
▁pseudomonas	-10.7796
▁encourage	-10.7804
berg	-10.7806
▁phases	-10.7816
▁impossible	-10.7819
▁chapters	-10.7824
▁wounds	-10.7824
▁colitis	-10.7827
▁observe	-10.7832
▁hemi	-10.7832
▁quantification	-10.7834
▁birds	-10.7838
▁principle	-10.7843
▁oriented	-10.7849
▁suspicious	-10.785
▁clock	-10.7853
▁ophthalmic	-10.7853
▁amyloidosis	-10.7855
▁neonates	-10.7856
▁girls	-10.7856
▁suffer	-10.786
▁greatest	-10.7864
▁depletion	-10.7865
▁erosion	-10.7873
▁sedimentation	-10.7875
▁labor	-10.7877
▁blockade	-10.7878
▁cortisol	-10.7879
▁advancement	-10.788
▁correctly	-10.7881
▁hodgkin	-10.7881
▁reversible	-10.7882
▁newborn	-10.7883
▁survivors	-10.7883
▁bis	-10.7884
▁rca	-10.7887
▁behaviour	-10.7889
▁cessation	-10.7896
▁infertility	-10.7897
ile	-10.7902
▁geographic	-10.7906
ura	-10.7909
▁rd	-10.791
▁vesicles	-10.7911
▁pad	-10.7912
▁conjunctival	-10.7912
▁partners	-10.7913
▁acetate	-10.7915
▁loci	-10.7916
▁cats	-10.7916
▁analgesia	-10.7917
ting	-10.792
▁102	-10.7922
▁borne	-10.7923
▁carrying	-10.7932
▁pf	-10.7933
▁colored	-10.7935
▁resolve	-10.7937
▁went	-10.7942
▁son	-10.7942
▁101	-10.7944
ron	-10.7944
▁wa	-10.7945
▁individually	-10.7945
▁prescription	-10.7946
▁curves	-10.7946
▁father	-10.7948
▁ligands	-10.7958
▁empirical	-10.7963
▁race	-10.797
▁serological	-10.797
▁col	-10.7971
ib	-10.7974
▁gradual	-10.7974
▁comprised	-10.7975
▁construct	-10.7977
▁progressively	-10.7978
▁remodeling	-10.798
▁insert	-10.7985
▁stricture	-10.7986
▁immunization	-10.7989
▁specialist	-10.799
▁app	-10.7992
▁touch	-10.7995
▁evolved	-10.7998
▁bacteremia	-10.7998
▁osteoporosis	-10.7998
▁polyps	-10.7999
▁possess	-10.8002
lan	-10.8004
▁uncertain	-10.8007
▁expect	-10.8008
▁scrotal	-10.8012
▁coil	-10.8015
▁sector	-10.8015
pd	-10.8016
opathy	-10.8016
rp	-10.8017
▁complementary	-10.802
fe	-10.8021
pv	-10.803
▁unstable	-10.8031
▁ultra	-10.8032
▁blocking	-10.8035
pr	-10.8044
▁mention	-10.8047
▁triple	-10.8051
▁filtered	-10.8052
▁vulnerable	-10.8053
▁calcifications	-10.8059
▁polymorphisms	-10.8062
▁bioinformatics	-10.8063
▁emphysema	-10.8066
▁dexamethasone	-10.8067
▁attenuated	-10.8068
▁hsp	-10.8068
▁job	-10.8069
ize	-10.8073
▁cumulative	-10.8074
▁detectable	-10.808
▁sensor	-10.8083
▁ft	-10.8084
▁positioning	-10.8085
▁subjective	-10.8087
▁paediatric	-10.8089
▁stents	-10.8091
▁crc	-10.8092
▁rad	-10.8097
▁fellowship	-10.8101
▁adolescent	-10.8106
▁resemble	-10.8109
mc	-10.8109
▁urethra	-10.8114
▁alleles	-10.8114
▁han	-10.8119
▁island	-10.8121
▁encephalopathy	-10.8124
▁mega	-10.8124
▁translocation	-10.8125
▁maturation	-10.8129
▁recommendation	-10.8131
▁morning	-10.8139
▁persistence	-10.814
az	-10.814
02	-10.8148
▁eliminate	-10.8156
ox	-10.8159
▁indicators	-10.816
▁worked	-10.8162
▁carriers	-10.8163
▁stiffness	-10.8163
▁penis	-10.8163
▁sympathetic	-10.8165
▁substantially	-10.8166
ong	-10.8171
▁005	-10.8172
ev	-10.8174
▁faster	-10.8174
▁incidental	-10.8174
▁val	-10.818
▁poisoning	-10.818
▁contrary	-10.8182
han	-10.819
▁infiltrating	-10.82
▁smokers	-10.8204
▁entities	-10.8205
▁proliferative	-10.8206
▁placenta	-10.8206
▁predisposing	-10.8214
▁label	-10.8218
▁bag	-10.8221
▁opioid	-10.8223
▁injured	-10.8225
▁conception	-10.8232
▁multifocal	-10.8234
▁gu	-10.8234
▁mucin	-10.8245
▁checked	-10.8246
▁veterinary	-10.8247
▁intravascular	-10.8248
▁impression	-10.8249
▁notable	-10.8249
▁sr	-10.825
▁dural	-10.8257
▁homogeneous	-10.8258
▁hysterectomy	-10.8259
▁detector	-10.826
▁reproduction	-10.8266
▁lymphocyti	-10.8268
▁really	-10.8269
ell	-10.8275
▁priority	-10.8281
▁los	-10.8293
▁fibrin	-10.8297
▁diaphragmatic	-10.8297
▁embryo	-10.8298
hypersensitivity	-10.8301
ls	-10.8305
▁infective	-10.8305
▁dried	-10.8312
▁combin	-10.8313
▁lobes	-10.8314
▁peg	-10.8315
▁stabilization	-10.8317
▁mdr	-10.8319
▁begin	-10.832
▁pap	-10.8321
▁monthly	-10.8322
▁computerized	-10.8324
▁ciprofloxacin	-10.8329
▁collateral	-10.833
▁glomerular	-10.8337
▁loose	-10.8338
▁cvd	-10.8339
▁resident	-10.8342
gr	-10.8346
▁attenuation	-10.8346
▁narrowing	-10.8349
▁unexpected	-10.835
cy	-10.836
▁manuscripts	-10.8368
▁ast	-10.8368
▁pool	-10.8372
▁schools	-10.8372
▁sparing	-10.8378
▁bite	-10.8378
ee	-10.8383
ig	-10.8386
▁bonds	-10.8388
▁mood	-10.839
▁prenatal	-10.8393
▁valid	-10.8396
▁consistently	-10.8401
▁hold	-10.8408
▁114	-10.8409
▁chemicals	-10.8416
▁consultant	-10.8417
▁modify	-10.8417
▁innovation	-10.8418
▁motility	-10.8419
▁foramen	-10.842
▁1994	-10.8423
fluorescence	-10.8424
▁supplemental	-10.8425
▁operatively	-10.8431
ru	-10.8433
▁expensive	-10.8437
▁confusion	-10.8438
▁viability	-10.8438
▁hi	-10.844
▁amplitude	-10.8441
▁osteomyelitis	-10.8441
▁plantar	-10.8447
▁colonies	-10.8449
▁epigastric	-10.8449
▁sum	-10.845
▁served	-10.8458
▁spite	-10.8461
▁thirty	-10.8462
ography	-10.8469
▁escherichia	-10.847
▁coordinates	-10.8472
gs	-10.8472
▁1980	-10.8472
▁yang	-10.8481
▁mas	-10.8485
▁lymphomas	-10.8487
▁insurance	-10.8488
▁pulp	-10.8488
▁emergent	-10.849
▁pleomorphic	-10.8491
▁parotid	-10.8493
▁loops	-10.8493
▁brachial	-10.8498
▁dramatic	-10.8499
▁streptococcus	-10.8502
▁jo	-10.8505
▁registration	-10.8505
▁reflex	-10.8506
▁rod	-10.8508
▁bank	-10.8509
▁cavernous	-10.851
▁abundance	-10.8517
▁apologize	-10.8519
▁tick	-10.852
▁elastic	-10.8521
▁scarring	-10.8521
▁cannula	-10.8524
▁mildly	-10.8524
▁throat	-10.8524
ists	-10.8526
▁003	-10.8528
▁alteration	-10.8528
▁nar	-10.8529
▁hereditary	-10.853
▁spot	-10.853
▁sides	-10.8539
▁rigid	-10.8541
▁pus	-10.856
▁penetrating	-10.8563
▁proteinuria	-10.8564
uk	-10.8565
79	-10.8566
▁geometric	-10.8567
▁lethal	-10.8576
▁mediate	-10.8583
▁fractional	-10.8584
▁gall	-10.8589
▁ld	-10.8589
▁mutants	-10.8595
▁turkey	-10.8596
▁supine	-10.8596
▁113	-10.86
▁inhibited	-10.86
▁diminished	-10.8605
▁exclusively	-10.8606
▁necrotiz	-10.8613
▁res	-10.8613
▁displaced	-10.8616
▁gastro	-10.8618
▁conceal	-10.8619
▁recipients	-10.8626
▁infiltrates	-10.8629
ert	-10.863
ep	-10.8633
▁paul	-10.8636
▁presumed	-10.864
▁tee	-10.864
51	-10.8645
▁unles	-10.8648
▁suppress	-10.865
▁consistency	-10.8651
ei	-10.8652
▁agencies	-10.8656
▁dissected	-10.8659
▁land	-10.8659
▁fail	-10.8661
▁briefly	-10.8666
▁curative	-10.8667
▁assume	-10.8667
▁continuing	-10.867
▁springer	-10.8671
▁enables	-10.8672
▁dramatically	-10.8677
▁worsened	-10.8679
kin	-10.8681
▁pressures	-10.8686
▁preoperatively	-10.8687
▁predictors	-10.8691
▁pigmented	-10.8692
▁alanine	-10.8695
▁powder	-10.8697
▁qiagen	-10.8699
▁server	-10.8701
▁outflow	-10.8707
▁dependence	-10.871
▁tan	-10.8713
▁dd	-10.8714
▁damaged	-10.8717
wise	-10.8723
▁troponin	-10.8723
▁slice	-10.8725
▁scoring	-10.8731
▁ig	-10.8734
▁roche	-10.8736
▁concerned	-10.8737
ita	-10.8739
▁combinations	-10.8744
rin	-10.8745
▁kd	-10.8746
000	-10.875
▁eid	-10.8751
▁titers	-10.8752
ld	-10.8761
▁ortho	-10.8765
▁jaw	-10.8765
▁modulation	-10.8766
▁170	-10.8773
▁sigma	-10.8773
▁nh	-10.8778
▁industrial	-10.878
▁latest	-10.8784
▁utiliz	-10.8786
▁pregnancies	-10.8786
44	-10.8787
▁cre	-10.8788
▁metformin	-10.8789
▁anova	-10.8791
▁walk	-10.8791
▁135	-10.8791
▁der	-10.8795
▁epithelioid	-10.88
▁arrival	-10.8801
▁ul	-10.8806
▁cea	-10.8809
▁oxidation	-10.8815
▁defense	-10.8816
▁multivariate	-10.8816
▁chart	-10.8817
▁eruption	-10.8818
▁jia	-10.8819
▁recessive	-10.882
▁hundred	-10.8827
▁safely	-10.8827
▁hsv	-10.883
▁establishment	-10.8833
oh	-10.8838
▁tetra	-10.8849
▁016	-10.8852
▁vectors	-10.8853
▁download	-10.8856
▁descriptive	-10.8861
▁rsv	-10.8868
▁nsclc	-10.8869
▁envelope	-10.8869
▁regulating	-10.8874
▁apr	-10.8876
▁entirely	-10.8884
▁caution	-10.8885
▁tm	-10.8887
▁infarct	-10.8888
▁illustrated	-10.8891
▁hydro	-10.8893
▁federal	-10.8893
▁uveitis	-10.8897
ix	-10.8897
▁ducts	-10.89
▁avian	-10.8906
▁sw	-10.8907
▁algorithms	-10.8907
▁ny	-10.8909
▁crisis	-10.8912
▁introduce	-10.8913
▁bad	-10.8913
▁aqueo	-10.8918
▁bevacizumab	-10.8919
▁celiac	-10.8923
▁strict	-10.8924
▁che	-10.8926
▁circumstances	-10.8928
▁était	-10.893
net	-10.8935
▁graph	-10.8936
▁sont	-10.8936
▁rely	-10.8938
ik	-10.894
▁tremor	-10.8942
estimating	-10.8945
▁accessibility	-10.8947
▁dsm	-10.8949
▁overlapping	-10.8949
▁nephropathy	-10.8956
▁mer	-10.8963
▁edited	-10.8965
▁paid	-10.8966
▁appearing	-10.8966
▁constipation	-10.8967
▁methanol	-10.8967
▁rectus	-10.897
70	-10.8972
▁atypia	-10.8977
▁grew	-10.8979
▁opened	-10.898
▁catheters	-10.8986
▁mirnas	-10.8987
▁sheep	-10.8991
▁blot	-10.8991
▁intraoral	-10.8993
▁political	-10.8996
cu	-10.8996
▁camp	-10.9
▁pigmentation	-10.9
▁bases	-10.9005
▁hev	-10.9006
▁cesarean	-10.9012
▁accidental	-10.9013
▁ihc	-10.902
▁anticoagulant	-10.9022
▁sixth	-10.9026
▁cg	-10.9027
▁surveys	-10.9027
▁attending	-10.9027
▁calculation	-10.9027
▁leaving	-10.9029
▁177	-10.9031
▁apoptotic	-10.9036
▁neighbor	-10.9039
▁spin	-10.9041
▁rnas	-10.9043
▁saint	-10.9046
▁recombination	-10.9053
▁compromised	-10.9057
▁disclosures	-10.9058
▁healed	-10.9059
▁bacilli	-10.9061
▁alzheimer	-10.9062
▁tasks	-10.9066
emia	-10.9069
▁inferred	-10.9069
▁cooperation	-10.9069
▁overexpression	-10.9074
fr	-10.9075
▁hormones	-10.9077
▁ice	-10.9077
▁built	-10.9077
▁proof	-10.9078
▁creation	-10.908
lic	-10.9081
▁degenerative	-10.9082
▁star	-10.9083
▁spots	-10.9086
▁rays	-10.9086
▁associate	-10.9086
▁provision	-10.9087
▁ja	-10.9091
▁gained	-10.9091
▁tibia	-10.9108
▁coma	-10.9108
▁radiologic	-10.9111
▁iso	-10.9113
▁colony	-10.9125
▁hs	-10.9129
▁parasitic	-10.9131
▁contacts	-10.9134
▁illnesses	-10.9142
▁hernias	-10.9144
▁comprises	-10.9144
▁cleavage	-10.9145
▁brazilian	-10.9153
▁propofol	-10.9154
▁retrieval	-10.9159
▁retraction	-10.9161
▁globally	-10.9161
▁intravitreal	-10.9162
▁examin	-10.9163
▁microbiota	-10.9163
▁neurology	-10.9164
▁stenting	-10.9164
▁coming	-10.9166
▁ulcerat	-10.9167
▁gal	-10.9172
▁intended	-10.9173
▁exert	-10.9174
▁ataxia	-10.9175
▁hydrocephalus	-10.9177
▁exception	-10.9178
▁binds	-10.918
▁ganglion	-10.9182
▁feasibility	-10.9186
ef	-10.919
▁distension	-10.9191
og	-10.9195
▁arises	-10.9197
▁historical	-10.9197
▁substitution	-10.92
▁pin	-10.9201
▁trimester	-10.9203
▁iodine	-10.9204
fs	-10.9213
▁drafting	-10.9214
▁ceftriaxone	-10.9218
▁reconstructed	-10.9218
09	-10.9218
▁ré	-10.9219
▁expanding	-10.9219
▁belonging	-10.9226
▁dilution	-10.9229
our	-10.9229
▁alopecia	-10.9231
▁angiotensin	-10.9234
▁barr	-10.9241
▁easier	-10.9246
dr	-10.925
▁thousand	-10.9253
▁swab	-10.9253
▁ganglia	-10.927
▁threat	-10.9273
▁denv	-10.9273
▁scintigraphy	-10.9279
▁inherent	-10.9281
mes	-10.9282
▁spike	-10.9284
▁lh	-10.9284
▁entitl	-10.9287
▁mirna	-10.93
fl	-10.9302
▁solvent	-10.9303
▁uni	-10.9305
▁exposures	-10.9306
▁exercises	-10.9306
▁nurse	-10.9307
▁season	-10.9309
▁atcc	-10.9312
▁autonomic	-10.9315
▁jurisdiction	-10.9315
microenvironment	-10.9316
▁worth	-10.9316
▁generating	-10.9319
▁exclud	-10.9321
▁cervix	-10.9323
▁neo	-10.9325
ada	-10.9328
▁martin	-10.9328
▁serology	-10.9333
▁anomalous	-10.9334
▁forced	-10.9343
▁jan	-10.9344
▁hl	-10.9349
▁macroscopic	-10.9352
▁recording	-10.9353
ogenic	-10.9356
▁warrant	-10.9358
▁preterm	-10.9359
▁fourier	-10.9364
▁overnight	-10.9364
ue	-10.9365
▁1016	-10.9366
▁edition	-10.9367
▁shotgun	-10.9376
ris	-10.9378
▁hyperglycemia	-10.938
▁switch	-10.9386
▁gs	-10.9387
▁postulated	-10.939
▁131	-10.9393
▁retrospectively	-10.9395
▁camera	-10.9395
▁ebola	-10.9396
▁confin	-10.9397
np	-10.9398
▁suspect	-10.9398
gg	-10.94
▁vehicle	-10.9407
▁monocytes	-10.9414
▁etiologies	-10.9416
▁depressive	-10.9425
48	-10.9429
▁ds	-10.9432
▁implie	-10.9433
▁oedema	-10.9442
▁objects	-10.9447
jo	-10.9447
▁supervision	-10.9451
▁termed	-10.9453
▁cha	-10.9454
▁tap	-10.9456
▁dimension	-10.9456
▁silicone	-10.946
▁fed	-10.9462
lar	-10.9464
▁schwannoma	-10.9466
▁contract	-10.947
▁arrhythmia	-10.9472
▁hybridization	-10.9472
▁sweden	-10.9473
▁separately	-10.9474
▁approximate	-10.9475
genic	-10.9476
▁effector	-10.9476
▁rejection	-10.9481
▁proximity	-10.9483
▁murine	-10.9485
▁ccd	-10.9489
▁parenchymal	-10.9498
▁augment	-10.9501
▁mammary	-10.9502
▁accept	-10.9512
▁127	-10.9517
▁sam	-10.9518
▁corpus	-10.9523
▁sinuses	-10.9524
▁ru	-10.9529
mt	-10.9531
▁geographical	-10.954
▁stranded	-10.9543
▁robotic	-10.9544
nes	-10.9549
ov	-10.9551
▁sequelae	-10.9554
▁lavage	-10.9554
▁positively	-10.9556
▁bacillus	-10.9557
▁coat	-10.956
▁contig	-10.9563
▁academy	-10.9564
▁traits	-10.9568
rc	-10.957
▁1993	-10.9575
▁companies	-10.9577
▁hc	-10.9579
▁thumb	-10.9579
▁rb	-10.958
▁hypoplasia	-10.9581
▁db	-10.9582
▁ks	-10.9586
▁squares	-10.9586
▁abc	-10.9589
▁notes	-10.9594
▁fna	-10.9595
▁subtle	-10.9596
▁pointed	-10.9596
▁forceps	-10.9596
▁aspartate	-10.9597
▁sb	-10.9598
▁precursor	-10.9601
▁bt	-10.9602
ger	-10.9602
▁dura	-10.9602
▁ethnic	-10.9605
▁ldh	-10.9606
▁relate	-10.9607
▁seeking	-10.9608
▁embryos	-10.961
▁mon	-10.961
▁handle	-10.9611
▁reservoir	-10.9613
▁moved	-10.9613
▁vimentin	-10.9616
▁testosterone	-10.9616
▁haemorrhage	-10.9618
form	-10.962
ker	-10.9627
▁nonetheless	-10.9634
▁afford	-10.9636
elli	-10.9642
▁considerably	-10.9645
▁cardiology	-10.9645
▁ana	-10.9646
▁serous	-10.9647
▁sk	-10.9648
▁row	-10.9648
▁oxygenation	-10.9651
▁template	-10.9654
▁incorporated	-10.9657
▁probes	-10.9658
▁boston	-10.9659
▁fp	-10.9661
▁smith	-10.9661
▁counseling	-10.9662
▁chromatography	-10.9664
▁taper	-10.9671
75	-10.9673
▁moment	-10.9675
aire	-10.9675
▁pone	-10.9676
▁cytometry	-10.9677
▁actively	-10.968
▁assessments	-10.9682
▁considerations	-10.9684
▁chair	-10.9689
▁categorized	-10.9689
▁tracheostomy	-10.969
▁print	-10.969
▁quantify	-10.9693
▁wiley	-10.9697
▁copper	-10.9697
▁sl	-10.9697
che	-10.9702
▁resting	-10.9706
▁unrelated	-10.9706
▁constru	-10.9708
▁collect	-10.9708
▁gaps	-10.9709
▁distinguished	-10.971
▁kill	-10.9713
▁egg	-10.9715
▁somewhat	-10.9716
▁arteriovenous	-10.9716
▁fused	-10.9718
▁angio	-10.9719
▁continuously	-10.972
▁tt	-10.9728
▁defining	-10.9728
▁lo	-10.9729
ons	-10.9732
▁shaft	-10.9734
▁fb	-10.9734
ire	-10.9738
▁radius	-10.974
▁analyzing	-10.9743
▁colonization	-10.9746
▁hemoptysis	-10.9753
▁traditionally	-10.9756
▁nevus	-10.9757
87	-10.9759
▁microarray	-10.9759
cp	-10.9759
▁zika	-10.976
ato	-10.9762
▁bas	-10.9763
▁appropriately	-10.9764
▁145	-10.9767
▁asymmetric	-10.9771
▁misdiagnosed	-10.9772
ves	-10.9773
▁feed	-10.9779
▁depict	-10.9781
▁9600	-10.9782
▁configuration	-10.9785
▁sera	-10.9792
▁transcripts	-10.9793
▁freely	-10.9794
▁hy	-10.9798
▁anaerobic	-10.9799
▁004	-10.9799
▁ball	-10.9801
▁exciting	-10.9803
ica	-10.9805
▁granulomas	-10.9806
▁departments	-10.9807
▁piece	-10.981
▁fluorescein	-10.9821
▁prostatic	-10.9826
▁swine	-10.9828
▁discrete	-10.983
▁try	-10.9832
▁rose	-10.9833
▁photographs	-10.9836
▁lge	-10.9838
▁conceiv	-10.9843
tu	-10.9843
▁declined	-10.9844
▁pig	-10.9845
▁sole	-10.9845
▁influences	-10.9847
▁counter	-10.9849
▁eligible	-10.9852
▁sch	-10.9854
▁originated	-10.986
▁bars	-10.986
▁projection	-10.9864
▁pacific	-10.9864
▁twin	-10.987
▁theories	-10.9881
nn	-10.9881
▁ibd	-10.9884
▁ensuring	-10.9886
▁viewed	-10.9892
▁preceding	-10.9892
ola	-10.9896
▁suppressed	-10.9897
▁participant	-10.9899
▁trna	-10.99
▁striking	-10.9902
▁ot	-10.9903
▁elucidate	-10.9909
▁symbol	-10.991
▁neuromuscular	-10.9918
▁president	-10.9921
▁immature	-10.9922
▁household	-10.9923
▁blockers	-10.9924
out	-10.9924
▁affiliation	-10.9927
day	-10.9928
▁refused	-10.9931
▁solely	-10.9932
▁ke	-10.9933
▁codon	-10.9934
▁purification	-10.9936
▁sequential	-10.9937
▁partner	-10.9938
▁tau	-10.9938
▁chains	-10.994
▁essentially	-10.994
▁clone	-10.9944
▁seasonal	-10.9947
▁copyright	-10.9949
▁plans	-10.9952
▁juvenile	-10.9954
▁driving	-10.9956
▁places	-10.9957
▁harvested	-10.9958
▁igf	-10.996
▁adopt	-10.996
▁ham	-10.9962
▁quick	-10.9962
▁yields	-10.9963
▁fibro	-10.9964
▁mix	-10.9966
▁myc	-10.9967
▁official	-10.997
▁adequately	-10.9974
▁reflected	-10.9976
▁vo	-10.9977
▁something	-10.9977
▁guaranteed	-10.998
▁periphery	-10.9981
▁refined	-10.9982
ically	-10.9983
▁perspectives	-10.9985
▁agonist	-10.9987
▁tte	-10.9987
ori	-10.9988
▁wider	-10.9988
▁certify	-10.9989
▁scales	-10.9997
▁conservatively	-11
60	-11.0001
ill	-11.0004
▁usg	-11.0004
▁expand	-11.0015
▁hematopoietic	-11.0019
▁shortness	-11.002
▁circuit	-11.0024
eb	-11.0025
▁globe	-11.004
▁angiogenesis	-11.0043
▁biotechnology	-11.0051
▁angina	-11.0052
▁cutting	-11.0053
▁intercostal	-11.0058
▁htlv	-11.0068
▁ercp	-11.0069
▁repetitive	-11.007
▁specialists	-11.007
▁brca	-11.0073
▁seq	-11.0075
▁structured	-11.0079
▁meaning	-11.0081
▁musculoskeletal	-11.0082
▁miseq	-11.0082
▁span	-11.0083
▁commission	-11.009
300	-11.0093
▁hypotheses	-11.0094
▁sv	-11.0095
eri	-11.0095
62	-11.0097
▁bedside	-11.0105
▁neurodegenerati	-11.0106
▁collecting	-11.0107
▁circumference	-11.0113
▁om	-11.0116
▁things	-11.012
▁shi	-11.0127
▁indices	-11.0127
▁nodal	-11.0129
▁thrombotic	-11.0131
▁thailand	-11.0137
cv	-11.0137
▁akt	-11.0138
▁amputation	-11.0138
▁default	-11.0139
▁aligned	-11.0142
▁ob	-11.0144
ement	-11.0145
▁meat	-11.0146
▁discussions	-11.0148
88	-11.0153
▁ticks	-11.0155
▁fractions	-11.0157
▁permission	-11.0159
▁commentary	-11.0167
▁calculat	-11.0167
▁talk	-11.0168
▁zoonotic	-11.017
led	-11.017
▁pink	-11.0173
▁stand	-11.0176
▁aerobic	-11.0178
▁wu	-11.0181
▁arabia	-11.0182
▁histone	-11.0184
par	-11.0185
▁antiretroviral	-11.0189
▁129	-11.0189
▁fruit	-11.0196
▁borders	-11.0199
▁socioeconomic	-11.0199
▁spring	-11.0201
▁preclinical	-11.0203
▁ib	-11.0207
▁naturally	-11.0212
▁calculate	-11.0212
▁relatives	-11.0213
▁mosquito	-11.0215
▁diluted	-11.0216
▁infrastructure	-11.022
▁peter	-11.0221
▁electrode	-11.0221
▁handling	-11.0223
▁cardio	-11.0228
ise	-11.0229
▁colour	-11.0229
▁mammals	-11.0232
▁strand	-11.0234
▁neighbour	-11.0238
▁linkage	-11.0239
▁tracking	-11.024
▁whil	-11.0242
▁gfp	-11.0246
▁mail	-11.0247
▁substrates	-11.0249
▁requested	-11.0249
▁wrong	-11.025
▁ddbj	-11.0251
▁subarachnoid	-11.0251
▁acceptance	-11.0253
▁aesthetic	-11.0255
▁formulation	-11.0256
lv	-11.0258
▁qrs	-11.0259
▁criterion	-11.0261
▁obstruct	-11.0262
▁lining	-11.0264
▁excretion	-11.0268
▁sealed	-11.0268
▁rm	-11.0272
95	-11.0272
▁farm	-11.0276
▁interference	-11.0278
▁meaningful	-11.0279
▁oc	-11.0282
▁mexico	-11.0284
▁leaf	-11.0284
▁adapt	-11.0286
▁enriched	-11.029
▁mast	-11.0293
▁warm	-11.0294
▁scoliosis	-11.0294
▁dp	-11.0295
▁edu	-11.0295
▁emerg	-11.0295
▁marine	-11.0301
▁035	-11.0301
▁orally	-11.0304
▁british	-11.0305
▁myxoid	-11.0305
▁orifice	-11.0309
▁bpm	-11.0312
▁pod	-11.0313
▁switched	-11.0314
▁ont	-11.0315
▁penetration	-11.0315
▁peritoneum	-11.0315
▁learned	-11.0322
▁interfere	-11.0322
▁retrieved	-11.0323
▁choose	-11.0332
▁converted	-11.0333
▁inspection	-11.0336
▁pouch	-11.0337
81	-11.0339
▁refine	-11.0342
▁specified	-11.0343
bio	-11.0347
▁filtration	-11.035
▁plasticity	-11.0352
▁175	-11.0354
▁coupling	-11.0355
▁pose	-11.0355
▁admissions	-11.0355
otomy	-11.0357
▁contour	-11.036
▁conducting	-11.0361
ful	-11.0365
▁nigeria	-11.0365
▁suppressor	-11.0366
▁subdural	-11.0369
▁orthopedic	-11.0376
▁cn	-11.0377
▁consuming	-11.0382
▁bu	-11.0384
▁adenosine	-11.0384
▁conjunction	-11.0386
▁macrophage	-11.0389
▁teratoma	-11.0389
▁lived	-11.039
▁pn	-11.0393
▁pen	-11.0393
▁emphasized	-11.0398
▁glycemic	-11.0401
▁determinants	-11.0407
▁aggregation	-11.0408
▁transgenic	-11.0408
▁carcinoid	-11.041
▁agricultural	-11.0416
▁predominance	-11.0422
nu	-11.0423
▁break	-11.0426
▁played	-11.0427
▁repaired	-11.0434
▁adjustment	-11.0437
▁participat	-11.0438
▁correlates	-11.0441
▁digestive	-11.0441
▁mcg	-11.0443
▁fertility	-11.0443
▁apache	-11.0443
▁complaining	-11.0449
bb	-11.0451
▁2020	-11.0453
▁iol	-11.0453
▁lowering	-11.0457
▁dermatology	-11.0458
▁groin	-11.0473
35	-11.0477
▁stock	-11.0478
▁boys	-11.0483
▁015	-11.0483
▁temperatures	-11.0484
29	-11.0485
▁unchanged	-11.049
▁leukocytosis	-11.0498
▁ia	-11.0498
▁incident	-11.0502
▁neovascular	-11.0505
cif	-11.0507
▁microvascular	-11.0511
▁herbal	-11.0514
▁archives	-11.052
▁pca	-11.0521
▁anca	-11.0521
▁cml	-11.0524
▁rc	-11.0525
▁qt	-11.0526
▁indicative	-11.053
▁getting	-11.0531
▁myo	-11.0532
▁straight	-11.0532
aa	-11.0535
▁mann	-11.0536
▁spect	-11.0538
▁reviewing	-11.0539
▁0000	-11.0541
▁brainstem	-11.0541
▁pla	-11.055
▁depress	-11.0557
iz	-11.0559
▁encodes	-11.056
▁percentile	-11.0563
▁190	-11.0563
▁syncope	-11.0564
▁nl	-11.0571
▁lane	-11.0572
sup	-11.0573
▁gauge	-11.0575
▁clamp	-11.0576
▁neuroscience	-11.0577
end	-11.058
▁hepatocellular	-11.0581
eh	-11.0584
▁eosinophilia	-11.0584
time	-11.0584
▁acs	-11.0588
tis	-11.059
▁restore	-11.0597
ér	-11.0598
▁thinking	-11.0599
▁cytological	-11.0599
cal	-11.0603
▁programmes	-11.0604
▁parkinson	-11.0604
▁ppm	-11.0604
▁hit	-11.0605
way	-11.0607
▁mimicking	-11.0607
ité	-11.061
▁anonymity	-11.0611
▁proton	-11.0613
▁allograft	-11.0614
▁neglected	-11.0614
▁lamina	-11.0614
▁spectral	-11.0615
▁sah	-11.0617
fer	-11.0618
▁1186	-11.0619
▁nucleotides	-11.0623
▁price	-11.0626
▁transesophageal	-11.0629
▁vocal	-11.0632
▁cta	-11.0636
▁antagonist	-11.0639
▁rice	-11.064
▁serotype	-11.064
rr	-11.064
▁adherent	-11.0642
ran	-11.0644
▁stratifi	-11.0646
▁immunocompetent	-11.0659
▁thomas	-11.067
▁scrotum	-11.0672
▁gen	-11.0673
▁lengths	-11.0675
▁vl	-11.0676
▁caspase	-11.0676
▁lies	-11.0677
▁spo	-11.0678
▁circle	-11.0682
▁arrowhead	-11.0684
▁england	-11.0685
▁paragraph	-11.0685
▁instances	-11.0686
her	-11.0687
▁sensing	-11.0689
▁bolus	-11.069
▁centres	-11.0692
▁nations	-11.0693
▁recall	-11.0701
▁declares	-11.0704
▁overweight	-11.071
▁silver	-11.0711
while	-11.0715
▁1992	-11.0715
▁monoclini	-11.0715
amp	-11.0716
▁thoracotomy	-11.0722
▁paradigm	-11.0722
▁appreciate	-11.0723
▁hcg	-11.0723
▁quantity	-11.0724
▁vagina	-11.0727
▁resorption	-11.0733
isup	-11.0737
ji	-11.0737
▁collaborative	-11.0739
▁congestion	-11.074
▁county	-11.0742
lam	-11.0743
▁lump	-11.0743
▁slides	-11.0744
▁alive	-11.0744
▁attributable	-11.0746
▁carries	-11.0748
▁suspension	-11.0749
▁intraperitoneal	-11.0752
▁islands	-11.0753
▁particle	-11.0753
▁intramuscular	-11.0754
▁quantified	-11.0755
▁sta	-11.0756
evascularization	-11.0756
ili	-11.0757
idae	-11.0759
▁scanner	-11.0763
▁nanoparticles	-11.0766
▁350	-11.0773
▁mutated	-11.0774
▁conservation	-11.0776
▁latent	-11.0783
▁mathematical	-11.0783
rum	-11.0785
▁shelxl	-11.0785
▁agriculture	-11.0791
▁residue	-11.0793
▁bur	-11.0795
▁explorator	-11.0796
▁retardation	-11.0796
▁bcc	-11.0802
▁nothing	-11.0803
▁atherosclerotic	-11.0806
▁motif	-11.0807
ram	-11.0812
▁circumferential	-11.0813
▁700	-11.0813
▁bats	-11.0815
▁293	-11.0819
▁trees	-11.0822
▁attractive	-11.0825
▁intravenously	-11.0828
▁tone	-11.0835
thylprednisolone	-11.0837
▁checkpoint	-11.0838
▁notion	-11.0839
tal	-11.0841
▁preserve	-11.0842
▁conscious	-11.0846
▁traffic	-11.0846
▁follicles	-11.0849
cher	-11.0852
▁panels	-11.0854
fo	-11.0856
▁survive	-11.0857
▁ln	-11.0858
▁compress	-11.0859
yn	-11.086
▁responsive	-11.0861
▁protease	-11.0863
▁sulfate	-11.0864
▁magnesium	-11.087
▁familiar	-11.0871
▁curvature	-11.0873
▁sitting	-11.0873
▁investigator	-11.0874
▁spreading	-11.0879
▁hypoechoic	-11.0881
▁deeper	-11.0882
▁deemed	-11.0884
▁bright	-11.0886
▁addiction	-11.0886
▁rbc	-11.0887
▁harmful	-11.0888
▁carbohydrate	-11.0889
▁chez	-11.089
▁waste	-11.0893
▁suppli	-11.0895
▁extensor	-11.0897
▁drops	-11.0903
▁chicago	-11.0904
▁stump	-11.0904
▁crohn	-11.0904
▁autoantibodies	-11.0906
physiological	-11.0906
▁screws	-11.0906
▁cis	-11.0907
▁spectrometry	-11.091
▁exacerbation	-11.0911
▁clones	-11.0912
▁pooled	-11.0912
▁perivascular	-11.0915
sch	-11.0915
▁teams	-11.0917
▁sampled	-11.0918
▁scaffolds	-11.0918
▁vasculature	-11.0919
▁epidemiologic	-11.092
▁billion	-11.092
▁jun	-11.0923
osa	-11.0924
▁advisory	-11.0929
▁dec	-11.093
▁summer	-11.0932
▁enabled	-11.094
eg	-11.0942
▁notice	-11.0944
▁robert	-11.0945
▁consulted	-11.0948
▁unsuccessful	-11.0955
▁imatinib	-11.0959
▁guidewire	-11.0961
▁converse	-11.0964
▁canals	-11.0969
▁014	-11.0969
▁notch	-11.0971
▁mineral	-11.0972
▁cutoff	-11.0973
▁mhc	-11.0973
▁congress	-11.0975
▁verified	-11.0977
▁prolapse	-11.0977
ux	-11.0979
▁enteric	-11.0979
▁chicken	-11.0982
▁annually	-11.0987
▁ueq	-11.099
▁horn	-11.0992
▁serotonin	-11.0995
ow	-11.1
▁claim	-11.1001
▁reflexes	-11.1003
▁distended	-11.1004
▁resin	-11.1004
▁escape	-11.1006
▁pleura	-11.1011
amide	-11.1013
▁relaxation	-11.1015
ified	-11.1016
▁025	-11.1016
▁cohorts	-11.1019
▁argue	-11.1019
▁spent	-11.102
▁mediators	-11.1021
kar	-11.1021
▁fly	-11.1022
▁clonal	-11.1023
▁phenyl	-11.1023
▁240	-11.1024
▁sonography	-11.1024
▁seal	-11.1025
▁presumably	-11.1026
vo	-11.1027
hu	-11.1028
▁protected	-11.1029
▁hetero	-11.1031
▁commercially	-11.105
▁dt	-11.1051
▁dosing	-11.1052
▁undergraduate	-11.1053
▁osseous	-11.1054
▁methodological	-11.1055
▁summarize	-11.1055
▁secreted	-11.1057
▁throughput	-11.1059
▁cb	-11.106
▁uncertainty	-11.106
▁lm	-11.1062
▁leadership	-11.1063
▁braf	-11.1068
▁ali	-11.1069
▁communicate	-11.1069
▁irritation	-11.1069
▁incontinence	-11.1071
▁dcs	-11.1071
▁pao	-11.1071
▁iqr	-11.1074
tubated	-11.1077
▁aromatic	-11.1078
▁regulator	-11.1078
▁apc	-11.1079
▁hypothermia	-11.1082
▁clot	-11.1082
400	-11.1083
▁nosocomial	-11.1089
▁headaches	-11.109
▁replace	-11.1091
▁fibrotic	-11.1099
har	-11.1101
▁designated	-11.1102
▁mtor	-11.1104
▁permits	-11.111
piratory	-11.1111
▁impacts	-11.1115
▁plasmids	-11.1118
▁tailor	-11.1125
▁demonstration	-11.1134
▁homozygous	-11.1141
▁depicted	-11.1149
▁impair	-11.1154
▁trade	-11.1155
▁176	-11.1157
▁sans	-11.1157
▁aneurysmal	-11.1158
chocardiographic	-11.1161
▁patches	-11.1164
ja	-11.1167
▁gist	-11.1168
▁trace	-11.117
▁splenectomy	-11.117
▁hematologic	-11.1172
▁kong	-11.1173
▁funds	-11.1175
▁odontogenic	-11.118
▁arc	-11.1182
▁mk	-11.1183
oli	-11.1185
▁occupy	-11.1186
▁pollution	-11.1186
▁falls	-11.1188
▁saliva	-11.119
▁automatic	-11.119
▁parenteral	-11.1191
▁irrigation	-11.1191
▁bh	-11.1197
▁phenomena	-11.1198
▁bradycardia	-11.1202
cap	-11.1204
▁murmur	-11.1205
▁disrupt	-11.1205
▁dealing	-11.1207
002	-11.1208
▁appetite	-11.1209
▁nipple	-11.1209
▁fill	-11.121
▁imply	-11.1218
▁affiliated	-11.1219
▁twelve	-11.1223
▁sand	-11.123
▁johnson	-11.1231
▁opacities	-11.1232
▁exogenous	-11.1234
▁intrauterine	-11.1239
▁forest	-11.1239
▁normalization	-11.1242
▁preference	-11.1248
▁omentum	-11.1248
▁item	-11.1249
▁saw	-11.125
▁transformed	-11.1251
▁denmark	-11.1255
▁beijing	-11.1255
▁sheets	-11.1255
▁grey	-11.1257
▁draw	-11.1259
▁occult	-11.1259
▁pth	-11.1263
▁smears	-11.1263
rk	-11.1264
▁overload	-11.1266
▁highlighting	-11.1266
▁efficiently	-11.1272
▁smoker	-11.1279
▁directions	-11.1284
▁optimization	-11.1285
▁exertion	-11.1289
▁fentanyl	-11.1289
ach	-11.129
▁encouraged	-11.1292
▁broader	-11.1295
▁auc	-11.1296
▁accelerated	-11.1296
▁biochemistry	-11.1296
▁king	-11.1298
▁auteurs	-11.1298
▁traitement	-11.1299
▁static	-11.1302
▁subretinal	-11.1303
▁urticaria	-11.1305
▁electrolyte	-11.1307
ator	-11.1308
▁dic	-11.1309
pc	-11.1309
▁mechanistic	-11.131
▁profit	-11.1311
▁mca	-11.1313
▁usefulness	-11.1315
▁flexor	-11.1315
▁salvage	-11.1315
tm	-11.132
▁engagement	-11.132
for	-11.1321
▁pol	-11.1321
600	-11.1322
▁negatively	-11.1323
▁sure	-11.1326
▁opportunistic	-11.1326
▁stains	-11.133
▁luminal	-11.1332
▁encapsulated	-11.1337
▁reality	-11.1338
▁exit	-11.1339
▁null	-11.135
▁tbi	-11.1351
▁extravasation	-11.1359
▁initiate	-11.136
▁von	-11.1365
▁138	-11.1367
▁450	-11.1367
▁mastectomy	-11.1368
▁blindness	-11.1369
▁persist	-11.1374
comp	-11.1374
▁originate	-11.1376
78	-11.1377
▁debris	-11.1377
▁reperfusion	-11.1384
▁synchronous	-11.1386
▁mitosis	-11.1387
▁security	-11.1389
86	-11.1391
▁curriculum	-11.1396
▁microbiological	-11.1398
▁nutrient	-11.1401
▁survived	-11.1401
▁lipoprotein	-11.1403
▁intriguing	-11.1403
▁uncontrolled	-11.1405
▁kappa	-11.1406
▁voice	-11.1412
▁fungus	-11.1414
▁tamponade	-11.1421
▁mere	-11.1421
▁property	-11.1422
▁scars	-11.1423
▁attribution	-11.1424
▁chose	-11.1426
61	-11.1426
▁um	-11.1431
▁socio	-11.1434
▁habits	-11.1438
▁alternatively	-11.144
▁atresia	-11.1442
▁imbalance	-11.1445
▁orange	-11.1449
▁endothelium	-11.1452
▁ineffective	-11.1452
▁rising	-11.1459
▁svc	-11.1459
stat	-11.1462
▁cor	-11.1462
▁specialize	-11.1463
▁opacity	-11.1468
▁purchased	-11.1469
▁developments	-11.147
▁cbd	-11.147
▁react	-11.147
▁hydronephrosis	-11.147
69	-11.1471
field	-11.1477
▁sarcomas	-11.1477
▁permeability	-11.1481
▁births	-11.1486
rh	-11.149
▁leiomyoma	-11.1495
▁eradication	-11.1496
▁ea	-11.15
▁microbiome	-11.1501
▁connections	-11.1501
▁confirms	-11.1502
▁stabilized	-11.1503
▁scaffold	-11.1507
▁steady	-11.1508
▁histiocytes	-11.1508
▁graphics	-11.151
▁anteroposterior	-11.151
▁encouraging	-11.1513
▁ivig	-11.1517
▁je	-11.1518
▁authorities	-11.1519
▁pocket	-11.1519
▁postpartum	-11.152
▁leukocytes	-11.152
▁differentiating	-11.1522
▁coexist	-11.1524
ey	-11.1525
▁commitment	-11.1525
▁1991	-11.1526
▁ventilated	-11.1527
val	-11.1529
med	-11.153
▁lipids	-11.1533
▁multiplex	-11.1535
▁definitions	-11.1537
▁136	-11.1537
▁vitrectomy	-11.1548
hn	-11.1549
▁carrier	-11.155
vs	-11.1551
▁centered	-11.1559
▁similarities	-11.1561
▁evaluations	-11.1563
▁acl	-11.1564
▁integrate	-11.1566
▁ol	-11.157
zi	-11.157
80	-11.157
▁measles	-11.1571
tor	-11.1573
▁uncomplicated	-11.1576
▁reagent	-11.1579
▁difficile	-11.1581
▁atrophic	-11.1587
▁triggers	-11.1588
▁nov	-11.1589
▁crt	-11.1593
▁arthroplasty	-11.1598
▁combine	-11.1598
▁pericardium	-11.16
▁specialty	-11.16
zo	-11.1602
▁rast	-11.1603
▁serologic	-11.1604
▁vertebrae	-11.1611
▁diagram	-11.1612
▁sacral	-11.1614
ena	-11.1615
▁shifted	-11.1616
▁protrud	-11.1616
▁ophthalmology	-11.1619
pl	-11.1623
▁shelxtl	-11.1626
off	-11.163
▁agenesis	-11.1631
▁fev	-11.1634
▁posture	-11.1635
▁documentation	-11.1636
▁fitness	-11.1637
▁neoplasia	-11.164
▁canadian	-11.1643
▁subgroups	-11.1644
▁int	-11.1648
▁cup	-11.165
▁155	-11.1652
▁rep	-11.1653
▁interpret	-11.1656
ius	-11.1657
▁leave	-11.166
▁zikv	-11.1664
▁adulthood	-11.1664
▁neutraliz	-11.1665
▁mcc	-11.1669
▁doubt	-11.1669
▁business	-11.1674
bu	-11.1676
ala	-11.1677
nc	-11.1681
▁verbal	-11.1682
▁write	-11.1685
iu	-11.1686
▁ease	-11.1689
▁lag	-11.1689
▁military	-11.169
▁maxilla	-11.1695
cn	-11.17
▁suite	-11.1704
▁antenatal	-11.1705
▁submit	-11.1707
▁cholecystitis	-11.1712
▁146	-11.1712
▁respiration	-11.1712
▁recurrences	-11.1713
▁inpatient	-11.1714
dropped	-11.1716
mar	-11.1717
▁nitric	-11.1718
ense	-11.1719
▁mononuclear	-11.1719
▁modest	-11.1724
▁winter	-11.1725
▁coordinated	-11.1726
▁hypointense	-11.1731
▁rules	-11.1733
▁clustering	-11.1737
▁peep	-11.1738
▁poultry	-11.1738
▁ai	-11.1741
▁labeling	-11.1745
▁shear	-11.1746
fin	-11.1747
▁porcine	-11.1748
▁foster	-11.1755
▁intention	-11.1758
84	-11.176
▁swabs	-11.1766
▁questionnaires	-11.1774
▁inhalation	-11.1775
▁jak	-11.1776
▁inoculated	-11.1777
▁hm	-11.1779
▁sustain	-11.1779
▁dissolv	-11.1781
▁fire	-11.1782
sm	-11.1783
ks	-11.1783
▁wedge	-11.1785
▁assumption	-11.1786
▁mel	-11.1788
▁omitted	-11.1789
▁peaks	-11.1789
▁karyotype	-11.1789
▁schematic	-11.1792
▁multidrug	-11.1794
▁cities	-11.1794
▁hypertrophic	-11.1795
▁athletes	-11.1795
▁hemisphere	-11.1796
▁captured	-11.1796
▁operator	-11.1798
▁elucidated	-11.1801
▁signed	-11.1804
▁mmp	-11.181
▁aspergillus	-11.1811
mon	-11.1812
▁palatal	-11.1816
▁cerebellum	-11.1818
▁subclinical	-11.1818
▁reagents	-11.182
▁pres	-11.1822
▁yellowish	-11.1827
▁tablet	-11.1832
▁reversed	-11.1833
▁utilize	-11.1834
qui	-11.1836
▁rescue	-11.1839
▁lid	-11.1841
▁sal	-11.1845
uff	-11.1847
▁popliteal	-11.1848
▁tu	-11.185
▁electrolytes	-11.185
▁defective	-11.1851
▁optimized	-11.1852
▁inoculation	-11.1853
parathyroidism	-11.1855
cat	-11.1869
ara	-11.1871
▁hemostasis	-11.1872
▁engage	-11.1872
72	-11.1873
▁helsinki	-11.1876
▁shortly	-11.1877
▁purulent	-11.1879
▁rabies	-11.188
▁pronounced	-11.1886
▁suction	-11.1888
▁edges	-11.1888
▁dihedral	-11.1889
▁cognition	-11.1898
▁initiating	-11.1898
▁intrahepatic	-11.1899
▁commenced	-11.1906
▁homology	-11.1906
▁137	-11.1908
▁caudal	-11.191
▁infancy	-11.1911
▁knockout	-11.1911
▁lifetime	-11.1912
▁haemoglobin	-11.1912
▁capsular	-11.1913
▁societies	-11.1913
▁email	-11.1913
▁oppos	-11.1915
▁ethyl	-11.1915
▁daughter	-11.1916
▁dioxide	-11.1918
▁elle	-11.1922
▁024	-11.1927
▁voluntary	-11.1928
▁042	-11.1929
▁mapped	-11.193
▁nj	-11.1933
▁dizziness	-11.1933
ria	-11.1935
lp	-11.1939
▁assistant	-11.1939
▁evolving	-11.194
▁conflicting	-11.1941
▁administer	-11.1947
▁fio	-11.1947
▁facilitated	-11.1956
▁erythematosus	-11.1957
▁crown	-11.1958
▁slide	-11.1958
▁irreversible	-11.1961
▁dvt	-11.1968
▁orthodontic	-11.197
▁welfare	-11.197
agg	-11.197
▁mercury	-11.1972
▁hplc	-11.1975
▁pct	-11.1978
▁bcva	-11.198
▁rpe	-11.1981
▁faced	-11.1984
▁packing	-11.1988
▁pah	-11.1988
▁lb	-11.1989
06	-11.1991
▁045	-11.1992
▁audit	-11.1993
▁conjunctiva	-11.1994
▁experienc	-11.1997
▁closer	-11.1998
▁resembling	-11.1999
▁supplements	-11.2
▁progesterone	-11.2001
rn	-11.2002
▁burns	-11.2003
▁swallowing	-11.2006
▁jp	-11.2008
▁monotherapy	-11.2009
▁zones	-11.2017
▁israel	-11.2019
▁sternal	-11.2019
▁rab	-11.2022
▁meningioma	-11.2027
▁nucleoli	-11.2031
gh	-11.2032
39	-11.2035
▁gag	-11.204
▁hyponatremia	-11.2041
▁133	-11.2042
▁sustainable	-11.2043
▁icp	-11.2043
▁enzymatic	-11.2044
▁cabg	-11.2046
▁exceed	-11.2046
▁jejunum	-11.2046
▁1970	-11.2051
ova	-11.2057
▁passing	-11.2058
52	-11.206
▁dimer	-11.2063
ny	-11.2066
▁enabl	-11.2076
▁ossification	-11.2076
gene	-11.2079
▁acknowledged	-11.208
47	-11.2081
▁tuberculous	-11.2082
rb	-11.2088
▁incorporate	-11.2091
▁chemo	-11.2091
▁opinions	-11.2095
▁promise	-11.2095
▁inadvertent	-11.2096
ser	-11.2097
▁examen	-11.21
▁hilar	-11.2106
▁antiplatelet	-11.2108
▁transcript	-11.211
▁homogenous	-11.2111
let	-11.2115
gc	-11.2116
▁anorexia	-11.2116
▁sin	-11.2116
tc	-11.2118
▁drosophila	-11.2118
▁dé	-11.2122
▁chd	-11.2124
▁forty	-11.2124
▁parental	-11.2124
▁analgesic	-11.2125
▁trait	-11.2125
▁augmentation	-11.2133
▁patency	-11.2136
virus	-11.2137
▁ions	-11.2137
▁genotyping	-11.2141
▁hematocrit	-11.2143
▁iranian	-11.2146
▁038	-11.2147
str	-11.2148
▁asd	-11.2149
▁concentrated	-11.2151
▁polypoid	-11.2152
▁appreciated	-11.2153
▁pages	-11.2155
▁ami	-11.2161
gl	-11.2161
▁remnant	-11.2163
▁liposarcoma	-11.2163
▁hh	-11.2164
dh	-11.2166
port	-11.2175
▁mosquitoes	-11.2179
▁precede	-11.218
▁tcr	-11.218
art	-11.2181
aga	-11.2181
▁pk	-11.2184
▁pharmacokinetic	-11.2184
▁exceeding	-11.2184
▁cascade	-11.2185
▁acetyl	-11.2188
▁technological	-11.2191
▁royal	-11.2192
▁randomised	-11.2195
▁endodontic	-11.2196
raising	-11.2196
cul	-11.2197
▁023	-11.22
▁waiting	-11.2201
▁leprosy	-11.2206
▁volvulus	-11.2211
▁sparse	-11.222
▁catalytic	-11.2221
dt	-11.2222
▁possibilities	-11.2224
▁pac	-11.2227
▁crest	-11.2232
▁simulated	-11.2235
▁041	-11.2235
▁splenomegaly	-11.2237
▁makers	-11.224
▁welcome	-11.2241
▁reversal	-11.2243
▁bifurcation	-11.2247
▁specifications	-11.2247
▁mirror	-11.2249
▁zoster	-11.2252
▁ste	-11.2256
my	-11.2259
▁myocarditis	-11.2259
▁dressing	-11.2263
▁meetings	-11.2267
▁pakistan	-11.2269
▁lobulated	-11.227
▁clavicle	-11.2272
▁gcs	-11.2273
▁é	-11.2275
▁cpr	-11.2278
▁1987	-11.2283
▁cannulation	-11.2285
▁rabbit	-11.2288
▁flair	-11.2289
▁initiatives	-11.2291
▁mucino	-11.2292
▁134	-11.2293
▁feeling	-11.2293
ich	-11.2295
▁macula	-11.2295
▁insect	-11.2297
▁invariant	-11.2297
▁latency	-11.2297
▁correspond	-11.2298
▁006	-11.2298
▁remarkabl	-11.2299
73	-11.23
▁answers	-11.23
▁lichen	-11.2301
gon	-11.2301
▁rings	-11.2307
dis	-11.2309
▁encounter	-11.2312
07	-11.2319
▁story	-11.2324
▁afp	-11.2326
▁ccr	-11.233
▁doxorubicin	-11.233
▁homologous	-11.2331
▁mad	-11.2331
▁dib	-11.2331
▁cigarette	-11.2331
▁cyto	-11.2333
▁reactivation	-11.2336
▁rcts	-11.2341
▁broken	-11.2342
▁angiographic	-11.2343
▁ren	-11.2343
▁windows	-11.2347
▁glycoprotein	-11.2349
▁scd	-11.2356
▁ordered	-11.2357
ken	-11.2361
▁sick	-11.2366
▁discrimination	-11.2366
▁confer	-11.2367
▁blocked	-11.2368
▁antibacterial	-11.2369
▁fistulas	-11.2369
rm	-11.2369
ze	-11.237
▁inheritance	-11.2371
▁suggestions	-11.2372
▁drained	-11.2376
▁132	-11.2377
▁resultant	-11.2378
▁ox	-11.2378
▁inactivation	-11.238
▁pcv	-11.2381
▁cif	-11.2381
▁040	-11.2383
▁ls	-11.2385
▁shed	-11.2392
ew	-11.2394
rna	-11.2395
▁fm	-11.2396
▁fi	-11.2399
▁hallmark	-11.24
120	-11.2401
▁aspirate	-11.2402
▁nlm	-11.2404
▁037	-11.2405
▁tab	-11.2408
over	-11.241
▁emboli	-11.241
▁lingual	-11.2411
▁falciparum	-11.2415
▁stronger	-11.2417
▁medicinal	-11.2421
▁alp	-11.2424
▁scarce	-11.2426
▁bun	-11.2429
▁metallic	-11.2431
▁urology	-11.2433
▁043	-11.2438
▁tacrolimus	-11.2446
▁sds	-11.2447
rio	-11.2452
adi	-11.2456
ami	-11.2459
gt	-11.2461
▁truly	-11.2466
▁texas	-11.2467
▁worm	-11.2469
aki	-11.2473
elle	-11.2473
des	-11.2474
▁amphotericin	-11.2474
▁scenarios	-11.2476
▁032	-11.2476
ants	-11.2477
▁clinique	-11.2479
▁lie	-11.2479
▁cyclosporine	-11.2481
▁typing	-11.2482
▁dissect	-11.2484
▁placental	-11.2485
▁connectivity	-11.2485
package	-11.2486
▁youth	-11.2487
▁washing	-11.2495
▁prothrombin	-11.2498
▁gl	-11.25
▁biosynthesis	-11.25
▁9700	-11.2504
ug	-11.2505
▁numerical	-11.2507
▁linking	-11.2508
▁hemangiomas	-11.251
▁speculate	-11.251
▁139	-11.251
▁rec	-11.2513
ible	-11.2513
ash	-11.2522
▁qol	-11.2522
▁disciplines	-11.2524
trioventricular	-11.2526
▁evidenced	-11.2531
▁mesentery	-11.2532
▁communicating	-11.2532
▁048	-11.2535
▁overdose	-11.2541
scs	-11.2548
▁nmol	-11.2549
▁endobronchial	-11.255
▁provider	-11.255
▁scleral	-11.255
▁supervis	-11.2551
medullary	-11.2552
▁accumulate	-11.2552
▁hazard	-11.2556
▁lytic	-11.2557
▁italian	-11.2558
▁arg	-11.2563
▁embl	-11.2567
▁unexplain	-11.2568
▁eb	-11.2571
66	-11.2579
▁characteris	-11.2583
▁256	-11.2584
▁dentistry	-11.2587
▁lvef	-11.2588
▁accomplished	-11.259
▁cpb	-11.2593
▁custom	-11.2593
▁swollen	-11.2594
avi	-11.2598
▁blocker	-11.26
▁lysis	-11.2603
▁ur	-11.2604
▁psychosocial	-11.2605
tro	-11.2608
▁cite	-11.2611
▁engaged	-11.2611
▁gct	-11.2614
▁transfect	-11.2617
▁begins	-11.2625
▁vap	-11.2628
db	-11.2628
▁mobilization	-11.2629
▁sister	-11.263
▁tomographic	-11.2631
▁microbes	-11.2633
vel	-11.2633
▁restraints	-11.2637
▁keratin	-11.2646
▁tracer	-11.2647
▁nasopharyngeal	-11.2649
▁hemolytic	-11.2655
ros	-11.2658
▁distinction	-11.2659
▁auscultation	-11.2663
▁confounding	-11.2663
▁fd	-11.2667
▁hemo	-11.2667
▁pharmacy	-11.2673
▁james	-11.2673
▁phone	-11.2675
ws	-11.2679
▁168	-11.2683
▁babies	-11.2684
▁titanium	-11.2684
▁neutropenia	-11.2686
▁trying	-11.2687
len	-11.2687
▁halo	-11.2688
▁antitumor	-11.269
▁granulation	-11.2692
▁ptosis	-11.2695
▁validate	-11.2696
▁gar	-11.2699
▁suit	-11.2702
▁glial	-11.2704
▁barium	-11.2707
▁ak	-11.2707
▁edta	-11.2708
ida	-11.2713
lia	-11.2716
tus	-11.2723
▁stakeholders	-11.2726
▁predispose	-11.2731
▁restored	-11.2731
▁flies	-11.2735
▁therapeutics	-11.2736
▁adhesive	-11.2736
▁seventh	-11.2737
▁biologic	-11.274
▁schedule	-11.2741
▁accessed	-11.2744
▁photomicrograph	-11.2745
ero	-11.2746
▁regulations	-11.2746
▁ileal	-11.275
gn	-11.2753
▁seoul	-11.2756
▁decay	-11.2758
▁pat	-11.276
▁thromboembolism	-11.2761
▁pick	-11.2763
▁verify	-11.2764
▁radiat	-11.2765
▁mucous	-11.2765
▁ppv	-11.2765
▁vis	-11.2765
ud	-11.2765
▁kinds	-11.2766
▁asymmetry	-11.2779
▁matching	-11.2781
▁tidal	-11.2781
car	-11.2782
▁bulk	-11.2782
▁anticipated	-11.2783
▁transform	-11.2783
▁iucr	-11.2784
▁tel	-11.2785
▁lactic	-11.2786
▁tell	-11.2789
▁caries	-11.2789
▁imperative	-11.279
▁mainstay	-11.279
▁violence	-11.279
▁distinctive	-11.2799
▁klebsiella	-11.2801
▁td	-11.2802
▁046	-11.2802
ati	-11.2802
▁ptc	-11.2803
▁necessity	-11.2809
▁prospectively	-11.281
tan	-11.281
▁dia	-11.2812
▁invited	-11.2812
uri	-11.2813
uria	-11.2817
▁optimize	-11.2822
ren	-11.2827
▁glandular	-11.2829
▁kar	-11.283
▁workshop	-11.283
▁pathophysiolog	-11.2832
▁harbor	-11.2833
▁spectroscopy	-11.2833
▁thinning	-11.2833
▁anticancer	-11.2833
▁xu	-11.2834
▁subacute	-11.2836
▁022	-11.2836
▁ready	-11.2837
▁rock	-11.2839
▁epidemics	-11.2841
ice	-11.2841
▁wnt	-11.2842
▁corresponds	-11.2843
▁mor	-11.2844
▁imp	-11.2844
89	-11.2845
▁postnatal	-11.2849
▁signalling	-11.285
▁avoidance	-11.2852
▁symmetrical	-11.2853
▁027	-11.2855
▁ram	-11.2857
▁advent	-11.286
▁aforemention	-11.2862
▁boost	-11.2863
▁exceptional	-11.2864
tes	-11.2866
▁047	-11.2868
▁donation	-11.2871
▁lay	-11.2871
▁dh	-11.2872
▁036	-11.2872
▁recruit	-11.2872
▁cdk	-11.2875
▁collections	-11.2876
▁021	-11.2879
▁malaysia	-11.2879
▁cyclic	-11.288
▁demands	-11.2882
▁granules	-11.2884
▁schwannomas	-11.2885
▁practitioner	-11.2887
▁pedv	-11.289
▁preferential	-11.289
▁broadly	-11.2891
▁aaa	-11.2893
▁mtx	-11.2894
▁bicarbonate	-11.2895
▁reg	-11.2897
▁neuroimaging	-11.2898
▁helping	-11.2898
ale	-11.29
▁integral	-11.2903
▁rationale	-11.2906
▁geo	-11.2907
▁synthase	-11.2908
▁cytogenetic	-11.2908
▁osteotomy	-11.2908
▁message	-11.2909
▁pos	-11.2909
117	-11.2911
▁constraints	-11.2914
▁enrichment	-11.2917
▁tx	-11.2917
▁microscopically	-11.2919
▁lying	-11.2921
▁lr	-11.2921
▁manually	-11.2925
▁bcg	-11.2925
▁demographics	-11.2927
▁communications	-11.293
▁secret	-11.2931
▁sutured	-11.2933
▁epinephrine	-11.2933
▁valvular	-11.2933
▁malnutrition	-11.2935
▁patella	-11.2936
lon	-11.2937
▁034	-11.2938
▁remember	-11.2938
▁conduit	-11.2938
▁165	-11.294
ht	-11.2942
▁style	-11.2942
▁008	-11.2945
▁calls	-11.2946
▁annular	-11.2946
▁py	-11.2952
▁card	-11.2955
▁electric	-11.2962
▁apparatus	-11.2963
▁frank	-11.2965
▁ema	-11.2966
▁900	-11.2969
▁compressed	-11.2969
lt	-11.2973
▁nowadays	-11.2973
▁executive	-11.2974
és	-11.2974
▁tax	-11.2976
▁multicenter	-11.2976
bar	-11.2983
▁explains	-11.2983
▁cll	-11.2989
▁gbs	-11.2989
oni	-11.299
▁ecological	-11.2992
▁broth	-11.2995
▁crude	-11.2996
▁comprise	-11.2999
▁vertebra	-11.3001
▁vitiligo	-11.3003
▁leaflet	-11.3005
▁lacrimal	-11.3006
aria	-11.3007
▁enjoy	-11.3009
▁039	-11.3011
▁obviously	-11.3015
▁stream	-11.3018
▁clip	-11.3019
▁researcher	-11.302
▁elicit	-11.302
▁couple	-11.3022
59	-11.3033
lio	-11.3035
▁vesicular	-11.3037
▁1989	-11.304
▁cerebrovascular	-11.3042
▁ovaries	-11.3045
▁cook	-11.3046
▁nb	-11.3048
▁immunostaining	-11.3051
▁query	-11.3051
▁aetiology	-11.3053
▁shanghai	-11.3055
▁nhl	-11.3056
▁menstrual	-11.3058
▁acupuncture	-11.3059
▁wear	-11.306
▁contemporar	-11.3061
▁fifty	-11.3064
▁profiling	-11.3066
▁tag	-11.3066
▁competition	-11.3069
▁predilection	-11.3069
▁graphite	-11.307
ij	-11.3071
▁manifested	-11.3072
▁144	-11.3073
▁supernatant	-11.3079
▁2500	-11.308
▁visualize	-11.3081
▁007	-11.3087
▁devastating	-11.3088
▁gentamicin	-11.3088
▁alcoholic	-11.3089
▁evolve	-11.3092
dia	-11.3093
▁pupil	-11.3095
tosis	-11.3097
▁scientist	-11.3099
▁afebrile	-11.3099
▁sphincter	-11.3108
▁legend	-11.3109
ven	-11.3109
▁autism	-11.3111
▁lipomas	-11.3114
▁androgen	-11.3116
cf	-11.3125
▁cnv	-11.3126
▁mission	-11.3127
▁chang	-11.3127
▁delirium	-11.313
▁031	-11.3132
▁myxoma	-11.3134
▁tn	-11.3134
▁hkl	-11.3137
▁metronidazole	-11.3138
▁chip	-11.3138
▁dashed	-11.314
▁preparations	-11.314
▁vaccinated	-11.3142
ric	-11.3144
sk	-11.3146
▁discrepancy	-11.3149
▁disappearance	-11.3149
ides	-11.3149
▁frames	-11.315
cer	-11.3151
▁pco	-11.3153
▁oligo	-11.3155
37	-11.3156
té	-11.3156
▁game	-11.3156
▁lesson	-11.3156
▁fibrinogen	-11.3159
▁attitudes	-11.3159
▁placing	-11.316
▁028	-11.3161
▁pull	-11.3161
▁wing	-11.3161
▁174	-11.3163
▁triad	-11.3163
▁osteoarthritis	-11.3164
▁ll	-11.3169
▁enamel	-11.317
▁perfect	-11.317
▁pearson	-11.3171
▁acquire	-11.3172
▁diego	-11.3172
ory	-11.3173
▁sheet	-11.3174
▁newborns	-11.3177
▁abl	-11.3178
cell	-11.3179
▁nhs	-11.3179
▁sentinel	-11.318
▁cal	-11.3182
▁fnac	-11.3184
▁044	-11.3184
▁paradoxical	-11.3185
▁precisely	-11.3192
▁creatine	-11.3205
▁rap	-11.3205
▁folds	-11.3205
▁bulb	-11.3209
▁termination	-11.3212
▁tar	-11.3213
▁earliest	-11.3213
▁mhz	-11.3216
pin	-11.3216
▁latin	-11.3217
▁senescence	-11.3219
▁homo	-11.3219
▁sil	-11.322
▁fluoroscopy	-11.3221
▁eliminated	-11.3222
▁apnea	-11.3224
▁photon	-11.3225
▁mscs	-11.3227
▁paulo	-11.3227
▁irrespective	-11.3227
▁triggering	-11.3229
▁appendectomy	-11.323
▁subunits	-11.3233
▁audience	-11.3235
▁paclitaxel	-11.3241
▁hcl	-11.3243
▁adds	-11.3244
▁angioplasty	-11.3244
▁systematically	-11.325
ification	-11.3252
96	-11.3253
▁148	-11.3253
▁perineal	-11.3257
▁bcr	-11.326
▁amoxicillin	-11.3261
▁conformation	-11.3262
cor	-11.3267
▁secretions	-11.3267
▁pulses	-11.3268
▁abortion	-11.327
▁doxycycline	-11.3272
ute	-11.3272
▁elongat	-11.3274
ville	-11.3275
trans	-11.3277
▁rint	-11.3279
▁ethnicity	-11.3279
▁confused	-11.3282
▁rho	-11.3282
▁psychosis	-11.3283
▁derivative	-11.3284
mal	-11.3285
▁yoga	-11.3287
▁qpcr	-11.3289
▁dangerous	-11.3292
▁consumed	-11.3293
▁sirna	-11.3295
▁attitude	-11.3295
▁ibs	-11.3298
▁gbm	-11.3307
▁exploring	-11.3314
▁ophthalmologist	-11.3314
▁polymer	-11.3317
▁etiological	-11.3318
▁valves	-11.332
▁toxins	-11.3323
jejunal	-11.3323
▁submandibular	-11.3325
▁spasm	-11.3327
▁profession	-11.3329
▁dwi	-11.3333
▁varices	-11.3336
▁forehead	-11.3336
otic	-11.3337
▁deformities	-11.3339
▁vesicle	-11.3341
▁osteosarcoma	-11.3342
▁sectors	-11.3343
▁promoted	-11.3344
ological	-11.3348
▁accidents	-11.3349
ole	-11.3349
▁kda	-11.3351
▁biofilm	-11.3352
▁belgium	-11.3353
▁cotton	-11.3353
▁kinases	-11.3354
▁nsaids	-11.3354
▁049	-11.3354
▁calculations	-11.3355
▁dehydration	-11.3355
▁erk	-11.336
▁sar	-11.336
▁fluoro	-11.3361
▁follicle	-11.3361
▁paraffin	-11.3362
▁wise	-11.3364
▁urothelial	-11.3368
▁033	-11.3368
▁distill	-11.3368
▁rating	-11.3376
cin	-11.3379
▁ran	-11.3394
▁173	-11.3394
▁inflamed	-11.3396
▁delta	-11.3398
▁cine	-11.3398
▁leishmaniasis	-11.3405
▁cream	-11.3411
▁pathogenicity	-11.3412
▁regulators	-11.3419
▁fellow	-11.3421
ré	-11.3421
▁poland	-11.3423
▁bundles	-11.3426
▁pars	-11.3429
don	-11.3434
▁responders	-11.3435
▁diffraction	-11.3436
▁tv	-11.3438
tel	-11.3438
▁relies	-11.3439
▁epileptic	-11.3444
▁hoc	-11.3445
▁rodents	-11.3446
▁cool	-11.3448
▁esd	-11.3449
▁glutamate	-11.3449
▁lithium	-11.345
▁disk	-11.3452
▁river	-11.3453
▁singapore	-11.3453
▁personality	-11.3454
▁ferritin	-11.3459
▁sickle	-11.3466
▁perinatal	-11.3467
▁hemorrhages	-11.3468
▁translated	-11.3471
▁transcriptome	-11.3471
▁cons	-11.3473
ogram	-11.3473
▁endoscope	-11.3474
▁extubation	-11.3475
▁predisposition	-11.3476
▁facilitating	-11.3479
▁mab	-11.3479
▁hrv	-11.3481
chemotherapeutic	-11.3482
▁lg	-11.3484
nar	-11.3485
▁trainees	-11.3485
▁interviews	-11.3485
▁losses	-11.3487
▁holds	-11.3492
▁anaesthetic	-11.3493
▁appendice	-11.3494
▁bor	-11.3496
▁fs	-11.3497
ob	-11.3499
▁prep	-11.3501
met	-11.3501
▁progenitor	-11.3501
▁psychotic	-11.3502
▁predictions	-11.3502
▁roc	-11.3503
▁dust	-11.3503
▁discover	-11.3504
▁transmembrane	-11.3504
cb	-11.3507
ski	-11.3508
▁contributors	-11.351
ulo	-11.3512
▁differentially	-11.3512
▁bmd	-11.3517
▁mrs	-11.3519
ff	-11.3521
▁incisor	-11.3525
▁recover	-11.3526
▁secure	-11.3533
▁fas	-11.3535
▁meal	-11.3536
▁trigeminal	-11.3539
▁inverted	-11.3539
▁postmenopausal	-11.3542
▁pieces	-11.3545
▁arrowheads	-11.3546
▁nests	-11.3551
▁brand	-11.3553
▁seminal	-11.3554
▁wanted	-11.3556
▁psychology	-11.3556
▁interrupted	-11.3556
▁ent	-11.3559
▁plausible	-11.356
▁mag	-11.3561
54	-11.3563
▁pruritus	-11.3565
▁030	-11.3565
▁var	-11.3568
▁reserve	-11.3569
▁192	-11.3569
oplasty	-11.357
▁rhabdomyolysis	-11.3571
▁unaffected	-11.3571
▁dots	-11.3574
▁repeatedly	-11.3577
▁reproduce	-11.3579
▁cochrane	-11.3583
▁riding	-11.3585
▁anteriorly	-11.3587
▁titled	-11.3588
▁outlined	-11.3589
▁simulations	-11.3594
▁metaplasia	-11.3594
▁012	-11.3595
ueq	-11.3597
▁maneuver	-11.3597
▁tf	-11.3597
ok	-11.3601
▁esc	-11.3602
▁eq	-11.3603
▁013	-11.3603
▁neu	-11.3607
▁analyzer	-11.3609
▁routes	-11.3609
▁clopidogrel	-11.3611
▁hippocampus	-11.3611
▁module	-11.3612
▁anastomotic	-11.3614
▁covariance	-11.3614
can	-11.3616
▁tehran	-11.3617
▁dentist	-11.3619
▁decide	-11.3619
▁158	-11.3621
hp	-11.3621
05	-11.3623
▁inactive	-11.3625
▁aggregates	-11.3626
▁prp	-11.3628
▁problematic	-11.3629
▁lasted	-11.363
gm	-11.3633
▁arsenic	-11.3637
▁imported	-11.364
▁rational	-11.3641
▁neonate	-11.3641
▁keratitis	-11.3643
▁dystonia	-11.3643
▁offspring	-11.3646
▁radiofrequency	-11.3646
▁thrombi	-11.3649
▁sadab	-11.3654
▁relieved	-11.3658
▁mra	-11.3658
▁whenever	-11.3659
▁149	-11.3659
▁chloro	-11.366
▁rifampicin	-11.3661
▁trnas	-11.3661
▁ya	-11.3666
▁cytotoxicity	-11.3669
▁ect	-11.3671
▁stratification	-11.3672
▁irb	-11.3674
▁sport	-11.3675
tag	-11.3676
▁anaemia	-11.3678
▁plots	-11.3679
▁motivation	-11.3681
▁selectively	-11.3686
▁ribs	-11.3686
▁anaphylaxis	-11.3687
▁corporation	-11.3687
gal	-11.3691
▁fragmentation	-11.3692
▁administrative	-11.3693
▁functionally	-11.3697
▁branching	-11.3698
▁seroprevalence	-11.3698
▁encompass	-11.3701
▁connect	-11.3703
▁147	-11.3703
▁splicing	-11.3704
beit	-11.3705
▁deletions	-11.3705
▁ssc	-11.3706
▁evoked	-11.3706
▁fell	-11.3707
▁nitrate	-11.3709
▁intramural	-11.3713
▁instrumentation	-11.3714
istic	-11.372
▁msc	-11.3724
mic	-11.3725
▁mat	-11.3725
▁displays	-11.3725
▁snare	-11.3726
▁proportional	-11.3728
▁morbid	-11.3728
▁nitro	-11.3729
▁050	-11.373
▁character	-11.3732
▁cone	-11.3734
▁clade	-11.3734
▁enormous	-11.3737
hal	-11.3738
▁rigorous	-11.3738
▁rheumatic	-11.374
▁pellet	-11.3747
lay	-11.3751
003	-11.3752
▁electrodes	-11.3756
▁activator	-11.3756
ali	-11.376
ao	-11.3761
▁seeds	-11.3762
▁pda	-11.3764
▁trocar	-11.3765
▁endophthalmitis	-11.3766
▁paraneoplastic	-11.3766
▁kl	-11.3767
▁1988	-11.3768
▁embolic	-11.3769
▁cocaine	-11.377
▁commonest	-11.377
▁overlooked	-11.3771
▁grand	-11.3772
▁epstein	-11.3772
▁searched	-11.3773
▁tablets	-11.3776
▁syndromic	-11.3778
▁ich	-11.3779
▁personalized	-11.3779
▁amp	-11.3779
▁kp	-11.3784
▁156	-11.3784
▁universities	-11.3785
▁transfusions	-11.3792
▁procedural	-11.3793
▁territory	-11.3793
▁mistaken	-11.3794
ade	-11.3794
▁percentages	-11.3795
▁advocated	-11.3796
sha	-11.3797
▁feces	-11.3805
▁corn	-11.3807
▁physiologic	-11.3807
▁fibroblast	-11.3808
▁thoroughly	-11.3809
▁vacuum	-11.381
▁ocean	-11.3811
▁daniel	-11.3812
▁preserv	-11.3812
gar	-11.3813
▁cambridge	-11.3813
▁tips	-11.3816
▁tem	-11.3816
▁numbness	-11.3816
▁silent	-11.3817
▁phospho	-11.3817
▁outlet	-11.3818
▁lf	-11.3818
onic	-11.3818
▁pra	-11.382
▁hook	-11.382
▁oncogenic	-11.3822
▁archive	-11.3823
▁cyclin	-11.3823
mel	-11.3825
▁arrangement	-11.3825
▁dan	-11.3825
▁bb	-11.3829
▁3201	-11.3831
lc	-11.3831
▁conceptual	-11.3831
▁reconstruct	-11.3831
nic	-11.3832
▁circulator	-11.3834
side	-11.3834
▁consequent	-11.3835
▁technically	-11.3835
eo	-11.3835
▁richard	-11.3838
▁refractiv	-11.384
▁relieve	-11.3844
▁transporter	-11.3845
▁larynx	-11.3846
ort	-11.3848
▁urinalysis	-11.3849
▁ellipsoids	-11.3852
▁regards	-11.3852
▁intraluminal	-11.3855
▁009	-11.3855
terdisciplinary	-11.3856
▁santa	-11.3856
▁submissions	-11.3858
▁blade	-11.3859
mv	-11.3863
▁utr	-11.3864
▁glp	-11.3864
130	-11.3866
▁shin	-11.3866
55	-11.3867
▁tears	-11.3867
▁viii	-11.3869
▁curettage	-11.387
▁360	-11.3871
▁avf	-11.3874
▁cy	-11.3876
▁laterally	-11.3878
▁methylene	-11.388
▁notre	-11.3884
membranous	-11.3886
500	-11.3886
▁029	-11.3888
idine	-11.3889
▁motifs	-11.3893
▁cholangio	-11.3894
▁glasgow	-11.3896
▁orthopaedic	-11.3898
▁drawing	-11.3898
▁cystoscopy	-11.3898
▁sensors	-11.3899
▁gastrectomy	-11.3908
▁export	-11.391
▁update	-11.3912
▁sit	-11.3914
▁mds	-11.3915
▁esbl	-11.3916
▁prescribing	-11.3918
▁upstream	-11.3918
▁chin	-11.392
▁mucus	-11.392
▁commons	-11.3924
▁alternate	-11.3927
▁secretor	-11.3927
undifferentiated	-11.3929
rine	-11.393
▁tmax	-11.3931
▁physics	-11.3932
▁neurovascular	-11.3933
▁rub	-11.3934
iform	-11.3935
mu	-11.3935
▁ancient	-11.3937
▁bloc	-11.3937
ect	-11.3938
▁ampicillin	-11.3938
▁kt	-11.3942
▁posteriorly	-11.3943
▁whitne	-11.3943
▁schiff	-11.3945
▁teachers	-11.3947
450	-11.3949
▁extracorporeal	-11.3953
▁empty	-11.3953
aci	-11.3955
▁infrequent	-11.3958
▁oxidase	-11.3959
▁bleed	-11.396
▁vf	-11.3965
pha	-11.3972
▁220	-11.3978
▁argument	-11.3978
▁eds	-11.3978
▁capability	-11.3982
▁amylase	-11.3983
▁wet	-11.3985
▁burning	-11.3985
▁adenomas	-11.3989
▁simplex	-11.399
▁choroid	-11.399
▁primitive	-11.3992
▁inhaled	-11.3996
▁neoadjuvant	-11.4002
▁por	-11.4002
▁productive	-11.4003
▁goes	-11.4004
tomy	-11.4005
▁calibration	-11.4008
▁origins	-11.4009
08	-11.401
▁mw	-11.4011
▁epicardial	-11.4014
▁tilt	-11.4014
▁propensity	-11.4017
▁papilloma	-11.4019
▁observ	-11.402
▁wo	-11.4022
▁pore	-11.4022
▁ky	-11.4023
▁distributions	-11.4025
ub	-11.4027
relating	-11.4028
▁arthroscopic	-11.4029
▁apo	-11.4032
ular	-11.4034
▁poses	-11.4035
▁weaning	-11.4037
ates	-11.4037
uorodeoxyglucose	-11.4039
▁proportions	-11.4043
▁competitive	-11.4046
▁infiltrative	-11.405
▁australian	-11.405
▁sexually	-11.4051
▁qi	-11.4051
▁strengthen	-11.4052
▁sim	-11.4052
▁reproducibility	-11.4053
sson	-11.4053
▁dentin	-11.4053
▁warning	-11.4055
▁hai	-11.4057
58	-11.4058
▁malt	-11.4058
▁replicates	-11.4059
▁320	-11.4066
▁huang	-11.4069
▁facing	-11.4069
▁thymic	-11.4069
▁edematous	-11.4069
▁vascularity	-11.4072
▁promptly	-11.4072
▁guiding	-11.4077
▁weighed	-11.4077
▁elut	-11.4081
▁meso	-11.4083
▁pacbio	-11.4083
▁desmin	-11.4084
▁louis	-11.4085
dp	-11.4085
▁mda	-11.4086
▁leaders	-11.4087
ez	-11.4091
▁abrupt	-11.4094
▁sous	-11.4094
▁hiseq	-11.4096
▁saving	-11.4099
lab	-11.4099
▁thrombolysis	-11.4105
▁scored	-11.4107
91	-11.4112
▁ppar	-11.4116
▁palm	-11.412
▁5000	-11.4122
▁cleaning	-11.4124
▁strip	-11.4124
▁cigarettes	-11.4128
▁elicited	-11.4129
▁calf	-11.4131
▁anterolateral	-11.4132
▁tandem	-11.4132
▁kir	-11.4133
▁71073	-11.4135
▁realized	-11.4136
▁infiltrated	-11.414
ien	-11.4149
▁unpublished	-11.415
sin	-11.4151
▁switching	-11.4153
▁indirectly	-11.4153
▁zealand	-11.4153
▁tam	-11.4156
▁fallopia	-11.4157
▁humerus	-11.416
▁subsets	-11.416
▁converting	-11.4161
▁slope	-11.4164
▁vr	-11.4168
▁exons	-11.4168
▁methicillin	-11.4169
▁pharmacology	-11.417
▁serotypes	-11.4174
▁ger	-11.4176
▁sanger	-11.418
tv	-11.4185
▁uti	-11.4192
▁maria	-11.4193
▁guarantor	-11.4193
▁expectancy	-11.4193
ain	-11.4194
pan	-11.4196
▁occluded	-11.4197
rv	-11.4198
scan	-11.42
▁pharyngeal	-11.42
▁responding	-11.4202
▁ecology	-11.4203
▁weighing	-11.4203
cent	-11.4206
▁breeding	-11.4206
▁continuity	-11.4212
back	-11.4213
▁emg	-11.4214
▁imt	-11.4215
▁heavily	-11.4221
▁precipitat	-11.4222
▁goodness	-11.4223
▁026	-11.4224
▁modes	-11.4225
▁vegetation	-11.4227
▁delays	-11.4228
▁credit	-11.4228
▁covers	-11.4229
▁sap	-11.4229
▁lidocaine	-11.423
▁save	-11.4231
rf	-11.4232
▁transduction	-11.4237
▁desire	-11.4237
▁ubiquitin	-11.4238
▁programmed	-11.424
▁overt	-11.4241
▁bit	-11.4244
eck	-11.4246
▁hif	-11.4248
tom	-11.4249
▁descriptions	-11.4249
▁expectations	-11.425
▁generic	-11.4251
▁strengthening	-11.4252
▁hypoxic	-11.4252
▁tumeur	-11.4252
path	-11.4254
▁kh	-11.4254
▁agonists	-11.4259
▁radiologist	-11.4262
01000000	-11.4263
ax	-11.4264
rat	-11.4266
well	-11.4268
▁cavities	-11.4268
▁sas	-11.4269
▁paroxysmal	-11.4271
▁tea	-11.4276
▁fails	-11.4277
▁perforated	-11.4281
▁slices	-11.4285
▁documents	-11.4288
▁consortium	-11.4289
▁satisfied	-11.4292
▁followup	-11.4293
▁provisional	-11.4294
▁starts	-11.4295
▁hispanic	-11.4295
▁immunology	-11.4296
▁symmetric	-11.4298
▁lips	-11.4299
▁crispr	-11.4301
▁airways	-11.4302
▁intramedullary	-11.4303
▁launched	-11.4304
▁informative	-11.4305
157	-11.4308
▁silica	-11.4309
▁invitrogen	-11.4311
▁interacting	-11.4315
▁incisional	-11.4323
▁diplopia	-11.4326
ver	-11.4326
▁anchor	-11.4327
▁sg	-11.4328
▁pneumococc	-11.4329
hm	-11.433
▁hypothesize	-11.4332
▁purpura	-11.4333
▁umbilicus	-11.4342
▁154	-11.4349
▁cooling	-11.435
▁skill	-11.4358
▁dyslipidemia	-11.4358
▁ang	-11.4361
▁duplicate	-11.4367
▁azathioprine	-11.4367
▁sebaceous	-11.4367
▁campaign	-11.4368
▁ireland	-11.437
▁rearrangement	-11.4371
aux	-11.4372
work	-11.4375
▁flexibility	-11.4376
▁awake	-11.4381
▁454	-11.4382
▁antagonists	-11.4385
▁bullous	-11.4387
▁axilla	-11.4387
▁chills	-11.4388
▁ven	-11.4389
▁bra	-11.439
att	-11.4395
▁misdiagnosis	-11.4396
▁167	-11.4396
▁glu	-11.4396
▁protrusion	-11.4398
▁stigma	-11.44
▁indexed	-11.4402
▁historically	-11.4402
▁142	-11.4403
▁166	-11.4404
▁prolong	-11.4405
▁nivolumab	-11.4405
▁livestock	-11.4405
pen	-11.4405
46	-11.4407
gram	-11.441
▁antigenic	-11.4413
004	-11.4416
▁rom	-11.442
▁controversy	-11.442
▁strategic	-11.442
▁tumoral	-11.4421
▁metabolite	-11.4422
▁offering	-11.4427
▁washington	-11.443
▁excellence	-11.4436
▁cin	-11.4437
▁reserved	-11.4438
▁acth	-11.4438
▁gondii	-11.4439
uv	-11.444
van	-11.4444
▁1960	-11.4445
▁surrogate	-11.4446
▁stretch	-11.4446
▁hypercalcemia	-11.4446
dc	-11.4448
▁citations	-11.445
▁agilent	-11.4452
ids	-11.4454
▁lineages	-11.4455
▁cytomegalovirus	-11.4455
▁meropenem	-11.4458
▁equipped	-11.4461
▁molars	-11.4467
▁epitopes	-11.4468
▁invad	-11.4468
▁antinuclear	-11.447
▁transaminase	-11.4477
▁desirable	-11.4477
mas	-11.4479
▁translate	-11.448
▁safer	-11.4483
▁transplanted	-11.4487
ast	-11.4489
▁interruption	-11.4491
▁borderline	-11.4491
▁inverse	-11.4492
▁penetrate	-11.4495
▁0002	-11.4495
reg	-11.4495
▁demarcated	-11.4495
▁regenerative	-11.4497
▁011	-11.4499
▁acidic	-11.45
▁serving	-11.4504
▁subsp	-11.4504
▁machinery	-11.451
▁bear	-11.4511
▁gre	-11.4519
▁188	-11.4519
▁films	-11.4526
▁inject	-11.4526
▁cooperative	-11.4526
▁isoniazid	-11.4528
▁didn	-11.4529
▁rac	-11.4529
ble	-11.453
▁phosphorylat	-11.453
▁vc	-11.453
▁merck	-11.4532
▁begun	-11.4532
▁169	-11.4535
▁analgesics	-11.4535
xi	-11.4539
▁pop	-11.4543
▁har	-11.4543
eus	-11.4545
▁repeats	-11.4551
▁fight	-11.4555
▁prism	-11.4556
▁jin	-11.4558
▁recur	-11.4558
▁fibroma	-11.4559
▁osa	-11.4563
▁undiagnosed	-11.4566
▁fluoroscopic	-11.4566
▁159	-11.4569
▁cellulitis	-11.4569
▁circumflex	-11.4569
▁syringe	-11.4572
▁1985	-11.4575
▁incisors	-11.4576
▁bac	-11.4578
▁permitt	-11.4578
▁sore	-11.4578
▁gn	-11.4579
▁intracardiac	-11.458
▁esrd	-11.458
▁flight	-11.4583
▁semen	-11.4583
lis	-11.4584
▁contributor	-11.4584
▁withdrawn	-11.4584
▁paris	-11.4585
▁intelligence	-11.4585
eur	-11.4587
▁erratum	-11.4588
▁abi	-11.4592
▁infliximab	-11.4592
▁wires	-11.4592
▁ze	-11.4593
illa	-11.4597
▁clozapin	-11.4598
▁extubated	-11.4602
▁station	-11.4602
▁degrad	-11.4607
▁chop	-11.4609
▁george	-11.461
▁formalin	-11.4611
bc	-11.4613
win	-11.4613
▁intolerance	-11.4614
▁noteworthy	-11.4614
▁thalassemia	-11.4614
▁750	-11.4614
▁shortening	-11.4615
▁mes	-11.4615
cus	-11.4619
▁za	-11.462
▁surprise	-11.462
atory	-11.4621
▁platforms	-11.4621
▁ju	-11.4625
▁lobular	-11.4626
▁angiosarcoma	-11.4627
▁releas	-11.4627
▁inset	-11.4628
ras	-11.4629
▁ett	-11.4633
▁condyle	-11.4633
▁kinetics	-11.4634
▁cer	-11.4635
▁dystrophy	-11.4637
▁143	-11.4638
▁164	-11.4639
▁pts	-11.4645
▁minority	-11.4654
▁patellar	-11.4655
▁potentials	-11.4657
▁compartments	-11.4658
▁eosinophil	-11.4658
▁remainder	-11.4661
▁splint	-11.4661
din	-11.4662
emic	-11.4663
▁posterolateral	-11.4666
fp	-11.4666
je	-11.4667
▁friends	-11.4668
▁shifts	-11.467
▁mycoplasma	-11.4672
▁hill	-11.4673
▁acne	-11.4675
▁rigaku	-11.4675
▁retain	-11.4678
▁dlbcl	-11.468
▁280	-11.4681
▁afferent	-11.4685
▁catenin	-11.4685
aceae	-11.4685
▁marks	-11.4687
▁recognised	-11.4697
▁serine	-11.4697
▁1986	-11.4699
mit	-11.47
▁postgraduate	-11.4704
▁sad	-11.4706
▁physiotherapy	-11.4708
▁preparing	-11.4708
▁dome	-11.471
▁sham	-11.4711
▁eleven	-11.4711
▁microtubule	-11.4712
▁stoma	-11.4712
▁bell	-11.4715
▁inducible	-11.4715
sv	-11.4719
esh	-11.4721
▁nacl	-11.4721
ju	-11.4723
▁mediterranean	-11.4724
▁ridge	-11.4725
san	-11.4726
▁leptin	-11.4727
▁axonal	-11.473
▁puberty	-11.473
▁operational	-11.4731
▁siemens	-11.4733
▁craniotomy	-11.4733
▁rigidity	-11.4736
▁earth	-11.4737
▁statin	-11.4737
▁comorbidity	-11.4738
xa	-11.4741
▁endpoint	-11.4742
▁kin	-11.4744
▁automatically	-11.4745
▁1983	-11.4747
▁pu	-11.475
▁tetracycline	-11.4753
ship	-11.4755
▁golgi	-11.4757
▁nice	-11.4757
▁vice	-11.4759
▁ppi	-11.4761
▁020	-11.4761
▁hypodense	-11.4763
low	-11.4765
▁clostridium	-11.4766
▁nicotine	-11.4766
▁cecum	-11.4767
▁colloid	-11.4767
ule	-11.4769
▁hematogenous	-11.4769
app	-11.4772
▁poverty	-11.4772
▁157	-11.4773
▁creates	-11.4775
▁pivotal	-11.4777
▁effusions	-11.4781
▁ligaments	-11.4782
▁trafficking	-11.4782
▁jones	-11.4783
▁delhi	-11.4783
▁letters	-11.4783
bd	-11.4784
▁vsd	-11.4786
▁searching	-11.4789
▁miss	-11.4789
▁occasions	-11.479
▁sy	-11.479
▁deployed	-11.4793
▁prokaryotic	-11.4795
▁happen	-11.4799
▁arf	-11.4804
link	-11.4805
▁sj	-11.4805
▁scaling	-11.4806
▁radiologists	-11.4808
▁mismatch	-11.4812
▁conjugated	-11.4813
▁boundaries	-11.4815
▁tele	-11.4816
▁thirds	-11.4817
▁statins	-11.4818
▁qu	-11.4821
▁multifactorial	-11.4825
▁mesothelioma	-11.4825
▁coagulopathy	-11.4828
▁paucit	-11.483
▁eat	-11.4835
▁employing	-11.4835
▁shadow	-11.4836
▁accelerate	-11.4836
cardi	-11.4837
▁twins	-11.4837
▁pericarditis	-11.4838
▁morbidities	-11.4838
mat	-11.4839
▁lifespan	-11.4841
▁mit	-11.4843
▁ut	-11.4843
▁retroperitoneum	-11.4844
▁breakdown	-11.4844
▁abstracts	-11.4847
▁digit	-11.4849
▁ketamine	-11.4851
▁albicans	-11.4854
▁multinucleate	-11.4854
mid	-11.4857
▁flora	-11.4861
▁joining	-11.4863
▁reflection	-11.4863
ations	-11.4871
▁ultimate	-11.4874
▁inconsistent	-11.4874
▁adoption	-11.4875
ese	-11.4878
▁adenovirus	-11.4882
▁vestibular	-11.4888
▁favour	-11.4889
▁az	-11.4891
▁supernumerary	-11.4894
▁230	-11.4894
bra	-11.4895
▁postural	-11.4896
▁sri	-11.4897
▁cyclo	-11.4897
▁pharmaceuticals	-11.4897
▁spiral	-11.4899
vert	-11.4902
▁annulus	-11.4904
▁fmf	-11.4906
▁gout	-11.4907
▁discoloration	-11.4907
▁prime	-11.4907
▁sep	-11.4908
▁189	-11.4908
▁deficiencies	-11.4914
qu	-11.4915
▁denture	-11.4916
▁forum	-11.4917
▁spanish	-11.4917
▁portions	-11.4921
▁comfort	-11.4925
▁blinded	-11.4926
▁bland	-11.4927
▁upregulation	-11.4931
▁coefficients	-11.4933
▁suturing	-11.4933
▁expose	-11.4934
ido	-11.4934
▁tmin	-11.4936
▁intrathoracic	-11.4937
▁dermoid	-11.4937
▁172	-11.494
005	-11.4941
vas	-11.4941
▁dot	-11.4942
▁omental	-11.4946
▁extinction	-11.4947
pur	-11.4947
gy	-11.4948
▁valsalva	-11.495
▁assuming	-11.495
▁centrifuged	-11.4953
▁deeply	-11.4953
▁nu	-11.4955
▁gastroenteritis	-11.4957
▁knees	-11.4957
▁equations	-11.4958
▁sternum	-11.496
rad	-11.4964
▁holding	-11.4965
▁gaze	-11.4966
▁fabricat	-11.4966
▁maxillofacial	-11.4966
oa	-11.4969
▁nrf	-11.4971
▁reproducible	-11.4971
▁referring	-11.4974
▁interactive	-11.4976
▁ingested	-11.4976
▁melanin	-11.4976
▁disadvantages	-11.4977
▁myalgia	-11.498
▁hyperthyroidism	-11.4987
▁lac	-11.4987
▁arachnoid	-11.4993
▁deleterious	-11.4993
▁genitourinar	-11.4996
▁rpm	-11.4997
▁nac	-11.4999
▁psycho	-11.4999
▁fulfill	-11.5003
▁lady	-11.5008
▁compact	-11.5009
▁ubiquitous	-11.501
▁eccentric	-11.501
ado	-11.5015
▁biosystems	-11.5016
▁strictly	-11.5018
▁flag	-11.502
▁pip	-11.5021
▁testes	-11.5021
▁lam	-11.5023
▁bootstrap	-11.5023
▁duplex	-11.5024
▁analog	-11.5025
pu	-11.5026
ky	-11.5026
▁adnexal	-11.5029
▁psychiatrists	-11.5032
fortunately	-11.5033
fold	-11.5035
▁orfs	-11.5039
▁accumulated	-11.504
▁treg	-11.5043
▁antipsychotic	-11.5043
pheochromocytoma	-11.5044
▁tubules	-11.5045
ull	-11.5046
▁diarrhoea	-11.5046
▁microtubules	-11.5049
▁vit	-11.5049
▁vii	-11.505
▁issued	-11.5051
▁fh	-11.5052
▁rct	-11.5052
▁addresses	-11.5053
▁obstetric	-11.5055
▁uric	-11.5055
▁driver	-11.5057
▁stabilize	-11.5057
ries	-11.5063
▁erosions	-11.5063
▁capital	-11.5064
▁cheek	-11.5065
▁preexist	-11.5067
▁gingiva	-11.5068
▁mold	-11.5069
constructive	-11.5069
▁experimentally	-11.507
▁hippocampal	-11.507
▁skeleton	-11.507
▁quarter	-11.5071
▁challenged	-11.5073
▁bridging	-11.5073
ping	-11.5074
▁cvc	-11.5074
▁introductionthe	-11.5077
▁genera	-11.508
▁punch	-11.508
▁cytochrome	-11.508
▁detrimental	-11.5085
▁triglycerides	-11.5087
▁lymphedema	-11.5088
▁noncommercial	-11.509
▁mutual	-11.509
▁hemolysis	-11.5097
▁infra	-11.51
pon	-11.5104
▁ban	-11.5104
▁steel	-11.5104
▁leiomyosarcoma	-11.5104
ui	-11.5105
▁dmso	-11.5106
▁ws	-11.511
▁capabilities	-11.511
▁ambulatory	-11.5114
▁tape	-11.5115
▁derive	-11.5118
▁prefer	-11.5118
▁varicella	-11.512
▁wei	-11.5124
▁rounded	-11.5124
▁functionality	-11.5128
use	-11.5129
▁incisions	-11.513
▁southeast	-11.5131
mia	-11.5131
▁signature	-11.5132
ett	-11.5132
▁osteo	-11.5133
▁upward	-11.5133
▁nasogastric	-11.5134
fu	-11.5134
▁grading	-11.5137
rus	-11.5137
▁vincristine	-11.5137
▁substituted	-11.5138
▁pretreatment	-11.5138
▁revis	-11.5139
▁dar	-11.514
▁tet	-11.5141
▁replicate	-11.5149
▁aspirated	-11.5149
cam	-11.515
▁caregivers	-11.5151
▁piperacillin	-11.5151
bt	-11.5154
▁organiz	-11.5154
▁tracts	-11.5155
▁vte	-11.5156
ogenesis	-11.5158
▁brace	-11.5161
▁lys	-11.5164
▁circadian	-11.5164
▁luc	-11.5166
▁esds	-11.5167
▁ada	-11.5167
metric	-11.5167
▁hlh	-11.517
▁etoposide	-11.5171
▁fuel	-11.5174
▁hepato	-11.5176
▁recogniz	-11.5176
▁vir	-11.5177
▁worms	-11.5179
▁bold	-11.5179
▁germline	-11.5179
▁thymoma	-11.5183
▁sort	-11.5184
▁niv	-11.5184
▁nsp	-11.5185
▁reviewer	-11.5185
▁capillaries	-11.5188
▁music	-11.5189
ila	-11.5191
▁occlusal	-11.5192
▁explanations	-11.5192
▁excel	-11.5193
▁rodent	-11.5194
▁pictures	-11.5194
▁adjunct	-11.5197
pneumoperitoneum	-11.5197
thy	-11.5198
▁breaths	-11.5199
▁choices	-11.5203
body	-11.5205
▁consult	-11.5207
▁spa	-11.5207
▁cow	-11.5207
▁residency	-11.5212
chrom	-11.5212
▁icus	-11.5214
▁bangladesh	-11.5215
▁emerge	-11.5218
cha	-11.5222
▁acoustic	-11.5222
▁avulsion	-11.5222
▁breastfeeding	-11.5222
▁morphologic	-11.5223
▁ov	-11.5226
▁bath	-11.5229
▁rop	-11.5229
▁disaster	-11.5234
▁fur	-11.5236
▁hyperkeratosis	-11.5236
▁clc	-11.5236
▁9500	-11.5241
▁oesophageal	-11.5241
▁phages	-11.5243
▁migrate	-11.5245
▁miu	-11.5245
▁dpp	-11.5246
▁transported	-11.5249
▁bariatric	-11.525
▁stopping	-11.525
ela	-11.525
▁cilia	-11.5254
▁lipase	-11.5257
▁carpal	-11.5258
103	-11.526
▁song	-11.5264
▁ccl	-11.5266
▁needles	-11.5267
▁siblings	-11.5271
▁163	-11.5274
azole	-11.5275
▁wait	-11.5276
▁cx	-11.5277
▁phs	-11.5278
▁thyroiditis	-11.5279
▁cured	-11.5281
▁shelxs	-11.5284
▁respondent	-11.5284
▁haart	-11.5285
▁str	-11.5286
▁bill	-11.5287
figure	-11.5288
▁hhv	-11.5291
cardiography	-11.5292
▁farms	-11.5294
▁transparent	-11.5297
▁purple	-11.53
109	-11.53
▁wnv	-11.5302
▁lists	-11.5305
▁keratinocytes	-11.5307
▁habit	-11.5308
▁eukaryotic	-11.5308
▁brings	-11.5309
▁icc	-11.5309
inger	-11.5311
▁haemodynamic	-11.5316
▁thi	-11.5316
▁cav	-11.5318
▁citrate	-11.5319
▁moral	-11.532
▁tonic	-11.5321
▁nails	-11.5323
▁kr	-11.5326
▁atlas	-11.533
▁adolescence	-11.5342
▁cmh	-11.5343
▁dilemma	-11.5345
▁precursors	-11.5345
▁recurred	-11.5345
▁0003	-11.5346
▁fractured	-11.5352
▁convenient	-11.5353
▁curved	-11.5353
▁hbsag	-11.5356
▁mcp	-11.5358
▁horse	-11.5359
▁cryo	-11.5365
oz	-11.5375
▁advancing	-11.538
▁himself	-11.538
▁undetectable	-11.538
▁competent	-11.5381
74	-11.5382
ace	-11.5382
▁rms	-11.5382
fluencing	-11.5384
nal	-11.5385
ode	-11.5387
hc	-11.5387
▁triangle	-11.5387
▁210	-11.5388
▁train	-11.5388
▁detach	-11.5389
▁ih	-11.5392
set	-11.5393
▁ye	-11.5393
mh	-11.5393
▁bare	-11.5393
ches	-11.5395
eng	-11.5396
▁das	-11.5396
▁rights	-11.5397
▁cette	-11.5398
▁triglyceride	-11.5401
▁978	-11.5403
▁redness	-11.5408
▁inputs	-11.5412
▁alternatives	-11.5413
▁ngs	-11.5414
▁tracing	-11.5415
▁hypoplastic	-11.5419
▁suddenly	-11.5419
iel	-11.5421
▁thoracoscopic	-11.5422
▁054	-11.5423
▁glioma	-11.5424
radi	-11.5425
▁cholera	-11.5425
▁proband	-11.5426
▁recordings	-11.5426
▁141	-11.5426
▁asp	-11.5427
▁groove	-11.5429
▁fox	-11.5431
▁landscape	-11.5432
▁fate	-11.5434
▁midazolam	-11.5436
▁street	-11.5436
▁lose	-11.5436
▁command	-11.5441
cho	-11.5442
▁manufacturing	-11.5443
▁ears	-11.5449
▁gad	-11.5449
700	-11.545
▁books	-11.5451
▁abs	-11.5452
▁shell	-11.5453
col	-11.5453
▁categorical	-11.5453
▁ventricles	-11.5454
▁ee	-11.5458
▁annotations	-11.5458
76	-11.546
▁silencing	-11.546
▁distally	-11.5464
▁env	-11.5466
▁collectively	-11.5467
▁hundreds	-11.5468
▁sero	-11.547
▁fissure	-11.5471
▁join	-11.5471
▁symposium	-11.5474
▁aldrich	-11.5474
▁propria	-11.5478
▁agarose	-11.5478
tha	-11.5479
▁swallow	-11.5479
▁killer	-11.5482
▁ivf	-11.5484
▁incorporat	-11.5487
▁store	-11.5488
▁thromboembolic	-11.5489
▁productivity	-11.5489
▁metals	-11.5494
▁panoramic	-11.5495
▁malaise	-11.5495
▁atopic	-11.5495
aw	-11.5497
▁yan	-11.55
ello	-11.5504
▁formulations	-11.5506
▁aggregate	-11.5507
▁cdss	-11.5507
▁010	-11.5507
▁govern	-11.5508
hara	-11.5509
▁periapical	-11.5509
▁melanocytes	-11.5519
▁responsiveness	-11.5523
▁coa	-11.5524
▁basement	-11.5525
▁runs	-11.5527
▁amniotic	-11.5527
▁neurosurgical	-11.553
▁stemi	-11.5531
▁pros	-11.5531
▁sonographic	-11.5534
▁neurogenic	-11.5535
era	-11.5537
▁kc	-11.5539
▁suicidal	-11.5541
85	-11.5541
sky	-11.5542
yama	-11.5543
▁cla	-11.5543
gel	-11.5543
yperpigmentation	-11.5543
▁mrc	-11.5548
▁aseptic	-11.5549
▁deployment	-11.5551
▁aorto	-11.5551
▁turnover	-11.5556
▁fbs	-11.5556
vir	-11.5556
▁tris	-11.5556
rol	-11.5557
▁wk	-11.5558
▁jc	-11.5558
▁incorporation	-11.5559
▁entries	-11.5562
▁push	-11.5562
▁worsen	-11.5564
▁kn	-11.5565
▁mapk	-11.5569
▁pertinent	-11.5569
▁gaba	-11.5569
▁plasmodium	-11.5576
▁friendly	-11.5577
ay	-11.5579
▁catalyst	-11.5581
▁gg	-11.5582
▁sweat	-11.5583
▁partnership	-11.5585
▁proliferat	-11.5587
lip	-11.5591
hd	-11.5591
▁metrics	-11.5592
▁186	-11.5592
▁medline	-11.5594
▁elongation	-11.5595
▁sha	-11.5597
▁298	-11.5597
▁centrifugation	-11.5597
▁facet	-11.56
83	-11.56
▁achievement	-11.5601
▁rev	-11.5602
▁thrombin	-11.5604
▁missense	-11.5604
▁secured	-11.5609
▁crossing	-11.5609
▁hind	-11.5611
▁fitting	-11.5612
tar	-11.5613
▁sternotomy	-11.5615
▁counting	-11.5617
▁speaking	-11.5617
▁hepatocytes	-11.5619
▁153	-11.5619
93	-11.562
▁belief	-11.562
▁observer	-11.562
▁polar	-11.5622
▁nutrients	-11.5625
itz	-11.5627
erv	-11.5627
▁investment	-11.5628
▁firing	-11.5633
▁pace	-11.5636
▁jm	-11.5637
▁hyaline	-11.564
▁nct	-11.564
▁equilibrium	-11.5643
▁adc	-11.5644
his	-11.5644
▁aps	-11.5645
▁dn	-11.5647
▁novartis	-11.565
▁pectoral	-11.5651
▁suspend	-11.5654
▁univariate	-11.5654
▁comorbid	-11.5656
▁cystectomy	-11.5657
▁vasospasm	-11.5666
▁integrat	-11.5667
92	-11.5667
cd	-11.5667
▁adipocytes	-11.5668
▁carboplatin	-11.5668
▁digestion	-11.5674
ivity	-11.5675
char	-11.5679
▁tat	-11.568
cos	-11.5681
bin	-11.5683
▁exp	-11.5684
▁epidermoid	-11.5686
▁pupillar	-11.5688
uz	-11.569
gp	-11.5691
▁corp	-11.5694
▁1500	-11.5696
▁fluoroquinolone	-11.5697
▁052	-11.5698
▁pharma	-11.5699
▁ether	-11.5699
▁bronchiectasis	-11.57
▁infrared	-11.57
▁transfection	-11.5702
▁retracted	-11.5707
▁lobectomy	-11.5708
007	-11.5708
▁cag	-11.5708
▁taxonomic	-11.5714
▁sediment	-11.5717
▁players	-11.572
▁speculated	-11.5723
▁ptsd	-11.5723
▁evacuation	-11.5726
▁laryngoscopy	-11.5731
oxy	-11.5734
▁checklist	-11.5736
▁234	-11.5737
▁nested	-11.5737
▁waist	-11.5738
▁genitalia	-11.574
rie	-11.5741
▁bonding	-11.5743
gan	-11.5744
▁gfr	-11.5746
▁calculi	-11.5748
▁laceration	-11.575
▁sophisticated	-11.575
▁metastasize	-11.5751
▁ischaemic	-11.5754
▁supposed	-11.5755
▁bid	-11.5757
▁arginine	-11.5758
yo	-11.5758
▁sphenoid	-11.5758
▁disrupted	-11.5761
▁leishmania	-11.5766
64	-11.5768
▁argued	-11.5768
▁clindamycin	-11.5772
▁sclerosing	-11.5772
map	-11.5775
▁dam	-11.5775
▁vague	-11.5776
▁village	-11.5777
▁sat	-11.5777
etti	-11.5779
▁happened	-11.578
▁enteral	-11.5784
▁connecting	-11.5788
▁obscure	-11.5791
▁olfactor	-11.5794
▁distortion	-11.5794
▁designing	-11.5795
▁epitope	-11.5797
md	-11.5801
▁william	-11.5801
▁mart	-11.5803
▁knockdown	-11.5805
▁rapamycin	-11.5808
▁tra	-11.5808
ller	-11.5812
▁regain	-11.5816
vin	-11.5816
▁mcl	-11.5817
▁projections	-11.5819
esophageal	-11.5821
▁erythrocytes	-11.5822
▁eps	-11.5822
▁opioids	-11.5823
▁employment	-11.5826
▁chan	-11.5828
▁attract	-11.5832
▁ideally	-11.5838
▁stretching	-11.5839
▁proto	-11.5839
▁wavelength	-11.5841
▁complet	-11.5843
▁biosciences	-11.5845
▁gangrene	-11.5848
▁spherical	-11.5848
▁gauche	-11.585
▁polariz	-11.5851
▁falling	-11.5851
▁cpg	-11.5853
▁hinder	-11.5853
▁send	-11.5853
▁ter	-11.5855
shi	-11.5855
▁zo	-11.5857
▁situated	-11.5858
▁icg	-11.5861
▁greece	-11.5862
▁plateau	-11.5863
▁meckel	-11.5866
▁lim	-11.5868
▁register	-11.5868
▁mur	-11.587
▁combat	-11.5873
▁grid	-11.5875
▁prolongation	-11.5875
▁discipline	-11.5877
▁pyogenic	-11.5877
wood	-11.5878
▁ostium	-11.5881
▁discoveries	-11.5881
urg	-11.5882
▁anaplastic	-11.5884
▁adhd	-11.5889
▁neuroblastoma	-11.5889
▁pollen	-11.5893
mir	-11.5894
▁theoretically	-11.5896
▁money	-11.5896
▁door	-11.5898
▁zhao	-11.5899
▁acetabular	-11.5901
▁medtronic	-11.5903
▁morphine	-11.5903
tique	-11.5903
▁planar	-11.5904
▁esp	-11.5905
▁ribosomal	-11.5906
▁deux	-11.5908
▁beat	-11.5908
omy	-11.5912
▁court	-11.5913
▁religious	-11.5913
▁intér	-11.5914
▁pubic	-11.5916
▁rheumatology	-11.5917
▁cca	-11.5919
▁inspiratory	-11.592
flex	-11.5921
▁arthralgia	-11.5921
▁trimethoprim	-11.5921
▁upregulated	-11.5922
cur	-11.5923
▁outstanding	-11.5923
cytic	-11.5923
▁saharan	-11.5924
▁distention	-11.5925
▁152	-11.5925
▁horses	-11.5925
▁tendons	-11.5927
▁js	-11.5928
▁hallucinations	-11.5931
▁ces	-11.5932
meningeal	-11.5934
▁coarse	-11.5936
▁nevi	-11.5936
▁extrinsic	-11.5939
nam	-11.5939
▁fix	-11.5941
▁hsct	-11.5949
▁trap	-11.5951
▁scapula	-11.5952
03	-11.5955
▁coexistence	-11.5958
▁externally	-11.596
▁bmp	-11.5961
▁lacks	-11.5972
▁glue	-11.5977
▁town	-11.5979
ther	-11.5979
▁fluconazole	-11.5979
▁trimm	-11.598
▁fgf	-11.5983
▁wax	-11.5983
▁dairy	-11.5983
▁strengths	-11.5984
▁employ	-11.5987
▁phosphorus	-11.5988
▁glutamine	-11.5991
modulating	-11.5991
▁penta	-11.5992
▁flux	-11.5993
▁rubber	-11.5998
por	-11.5999
▁185	-11.6
▁bird	-11.6
▁allergens	-11.6003
▁nephritis	-11.6005
▁dehiscence	-11.6005
▁myopia	-11.6005
▁gro	-11.6007
cut	-11.6007
▁polymorphic	-11.6008
▁suboptimal	-11.6009
▁restrictive	-11.6013
▁mtb	-11.6014
▁haematoma	-11.6017
▁subsided	-11.6024
▁medulla	-11.6024
▁norway	-11.6025
▁implication	-11.6026
▁anion	-11.6026
pre	-11.6026
▁hyperintensity	-11.6027
▁inconvenience	-11.6027
▁162	-11.6028
tron	-11.6033
iques	-11.6035
▁swiss	-11.6035
▁logical	-11.6036
▁ei	-11.6037
▁3000	-11.6038
▁committed	-11.6039
▁dk	-11.604
▁mycobacterial	-11.6045
▁intractable	-11.6046
▁hcm	-11.6048
▁cysteine	-11.605
▁wearing	-11.605
ple	-11.6051
▁fruits	-11.6051
▁tof	-11.6055
▁sofa	-11.6057
▁peut	-11.606
▁mé	-11.6061
▁wm	-11.6062
▁tsc	-11.6066
▁amplify	-11.6068
▁058	-11.6069
▁batch	-11.6071
▁worker	-11.6071
▁intoxication	-11.6072
▁localize	-11.6073
dal	-11.6076
▁paresthesia	-11.6076
bulbar	-11.6076
com	-11.6076
▁flare	-11.6077
▁tiny	-11.6077
▁heard	-11.6086
▁dorsum	-11.6087
▁171	-11.6089
▁rapport	-11.6089
▁isoforms	-11.609
▁hor	-11.6092
▁xiao	-11.6092
▁charges	-11.6097
▁platinum	-11.6098
▁260	-11.6098
▁whitish	-11.6102
▁abduction	-11.6102
aud	-11.6102
▁gerd	-11.6104
▁propagation	-11.6106
▁aiming	-11.6108
▁individualized	-11.6108
ometer	-11.6108
▁vietnam	-11.6109
▁statements	-11.6111
▁allergen	-11.6111
▁andrew	-11.6112
▁dimethyl	-11.6113
▁enucleation	-11.6113
▁laws	-11.6118
ore	-11.6122
▁hypothetical	-11.6124
dv	-11.6124
qualified	-11.6124
▁antidepressant	-11.6126
▁guinea	-11.6128
▁ambient	-11.6128
▁fn	-11.6128
ora	-11.6131
▁bla	-11.6132
antihypertensive	-11.6133
▁gastritis	-11.6135
▁srr	-11.6136
▁1984	-11.6138
▁synaptophysin	-11.6139
▁infestation	-11.6139
ago	-11.614
hv	-11.6141
▁lch	-11.6142
▁stalk	-11.6143
▁reside	-11.6143
▁vero	-11.6145
ink	-11.6146
▁occupation	-11.6147
▁dip	-11.6148
▁impressive	-11.615
atic	-11.6152
ku	-11.6153
ions	-11.6154
▁governments	-11.616
▁mut	-11.6161
▁phenol	-11.6162
stein	-11.6164
▁fifteen	-11.6165
▁designs	-11.6168
▁fees	-11.6169
▁indoor	-11.6169
▁capsid	-11.6171
▁subcortical	-11.6173
▁melan	-11.6174
▁allocation	-11.6175
▁hyperlipidemia	-11.618
▁palmar	-11.6181
▁fsh	-11.6185
▁lipo	-11.6186
▁reductase	-11.6187
▁echogenic	-11.619
▁choosing	-11.6191
mtc	-11.6193
▁sclerotic	-11.6195
▁constitutive	-11.6195
▁nephrotic	-11.6199
▁pot	-11.6199
▁transposition	-11.6203
▁bre	-11.6204
125	-11.6205
uli	-11.6208
▁unc	-11.6212
▁assumptions	-11.6212
▁competence	-11.6213
▁optimum	-11.6214
▁goiter	-11.6214
▁nearby	-11.6216
ama	-11.6218
ienne	-11.622
▁stirr	-11.6221
▁inconclusive	-11.6221
800	-11.6221
▁integrative	-11.6222
▁absorbed	-11.6222
▁beds	-11.6227
▁autoimmunity	-11.6229
var	-11.623
▁kras	-11.6231
▁invade	-11.6234
▁reward	-11.6234
▁marriage	-11.6236
▁elife	-11.6237
tp	-11.6239
eno	-11.624
▁atg	-11.6244
▁gluteal	-11.6245
mura	-11.6247
▁prop	-11.6248
▁abilities	-11.6249
▁xi	-11.6251
▁wilson	-11.6252
cle	-11.6255
▁055	-11.6258
▁acinetobacter	-11.6259
▁heterotopic	-11.6259
▁knot	-11.6259
▁sensitization	-11.6259
ear	-11.6261
▁thyroidectomy	-11.6262
▁hydration	-11.6263
▁hematology	-11.6263
▁hidden	-11.6263
▁deteriorate	-11.6267
▁tha	-11.6268
▁introducing	-11.6268
▁avid	-11.627
ord	-11.6274
▁humeral	-11.6274
▁htm	-11.6275
▁aryl	-11.628
structed	-11.6281
▁kumar	-11.6281
▁scant	-11.6283
▁amikacin	-11.6285
▁vzv	-11.6285
▁efficacious	-11.6286
▁minimiz	-11.6292
▁victims	-11.6292
▁bloody	-11.6293
▁cloned	-11.6293
▁char	-11.6296
nb	-11.6296
▁atmosphere	-11.6297
▁wildlife	-11.6297
▁displaying	-11.6298
▁tregs	-11.6298
▁exclusive	-11.6299
▁labs	-11.63
ante	-11.63
▁geriatric	-11.6301
▁sequencer	-11.6301
▁fab	-11.6301
▁heal	-11.6302
▁nps	-11.6303
pf	-11.6304
▁niveau	-11.6305
▁coils	-11.6306
▁roll	-11.6306
▁supraclavicular	-11.6312
▁redox	-11.6317
vent	-11.6319
▁ahead	-11.6319
▁google	-11.632
▁neurosurgery	-11.632
▁relapsed	-11.6321
▁sixty	-11.6328
▁conform	-11.6329
▁ret	-11.633
▁ok	-11.6331
▁dysregulation	-11.6339
▁stature	-11.634
▁0005	-11.634
▁transducer	-11.634
▁determinant	-11.6343
▁extramedullary	-11.6344
▁circles	-11.6345
▁acutely	-11.6345
▁prize	-11.6346
▁thio	-11.6348
ford	-11.635
▁dividing	-11.6358
▁knife	-11.6358
▁ji	-11.6359
▁057	-11.636
acc	-11.6363
▁neg	-11.6364
▁everyone	-11.6367
▁holes	-11.6368
▁underestimated	-11.6368
▁rotavirus	-11.6369
▁singh	-11.6369
▁expenditure	-11.637
▁advocate	-11.6371
▁lyme	-11.6377
▁tazobactam	-11.6377
vr	-11.6378
▁happens	-11.6378
fil	-11.6384
▁reli	-11.6385
▁judgment	-11.6385
▁053	-11.6386
▁myopathy	-11.6387
▁ammonia	-11.6388
▁pedunculated	-11.6388
▁cfu	-11.639
▁breaks	-11.6393
▁liter	-11.6394
immunoreactivity	-11.6396
▁stick	-11.6403
▁transcatheter	-11.6404
▁prolactin	-11.6404
▁hypoxemia	-11.6406
▁bites	-11.6408
▁engineered	-11.6408
▁killing	-11.6409
▁187	-11.641
fv	-11.6411
▁beads	-11.6411
▁cope	-11.6413
mus	-11.6414
▁hairs	-11.6415
gu	-11.6417
▁151	-11.6417
tas	-11.6418
▁ena	-11.6418
▁transit	-11.6419
▁statistic	-11.6421
▁pyr	-11.6422
▁aux	-11.6423
▁benzene	-11.6425
▁pdt	-11.6426
▁pur	-11.6427
ulin	-11.643
▁colistin	-11.6431
▁congo	-11.6432
▁hv	-11.6433
▁budget	-11.6434
▁nous	-11.6436
illo	-11.6437
flu	-11.6437
nas	-11.644
▁joined	-11.6441
▁060	-11.6442
▁progressing	-11.6442
▁rio	-11.6442
▁sbp	-11.6444
▁suggestion	-11.6445
▁isbn	-11.6446
▁cords	-11.6446
49	-11.645
▁polyclonal	-11.645
▁bmc	-11.645
cz	-11.6451
▁trip	-11.6451
▁fan	-11.6452
▁sciatic	-11.6454
▁reporter	-11.6458
aut	-11.6458
ulation	-11.6458
▁kj	-11.6458
▁medically	-11.6461
▁phantom	-11.6461
▁bin	-11.6464
tum	-11.6465
▁analogue	-11.6471
▁devoted	-11.6471
▁ports	-11.6472
▁thresholds	-11.6479
▁robot	-11.6486
▁norepinephrine	-11.6488
▁coughing	-11.6489
006	-11.6489
▁hamartoma	-11.6491
▁ili	-11.6493
▁xy	-11.6496
▁reticular	-11.6496
▁emt	-11.6498
▁glomerulonephr	-11.65
▁claimed	-11.6501
▁insects	-11.6503
▁rrt	-11.6503
lac	-11.6504
▁recommends	-11.6504
▁astrocytes	-11.6505
▁clarified	-11.6505
▁toxicology	-11.6505
▁carcinogenesis	-11.6508
aj	-11.6508
▁destructive	-11.6509
▁caesarean	-11.6512
▁constantly	-11.6515
▁gynecologic	-11.6516
▁utero	-11.6517
▁modelling	-11.652
ota	-11.6522
nan	-11.6523
▁fvc	-11.6527
▁ultrasonic	-11.6527
▁downward	-11.6532
▁bnp	-11.6536
▁news	-11.6536
008	-11.6539
▁hemiparesis	-11.6539
▁diverticula	-11.6539
▁pal	-11.6539
rg	-11.654
▁precautions	-11.654
▁yl	-11.6545
▁finland	-11.6547
▁math	-11.6547
▁obturator	-11.6547
▁aggravated	-11.6549
tation	-11.6549
▁nafld	-11.6551
▁wheat	-11.6551
▁pfs	-11.6552
▁printed	-11.6554
▁sinusitis	-11.6555
▁bg	-11.6555
▁austria	-11.6555
▁employees	-11.6556
▁deviations	-11.6557
▁knock	-11.6558
neath	-11.6558
▁ua	-11.6559
scope	-11.6561
▁stimulator	-11.6562
▁clarity	-11.6562
▁avm	-11.6563
▁plug	-11.6566
▁levofloxacin	-11.6566
▁excitation	-11.657
▁meticulous	-11.6572
▁egypt	-11.6572
105	-11.6574
▁etiologic	-11.6576
wan	-11.6576
▁boundary	-11.6579
▁gists	-11.658
▁precipitate	-11.658
▁tang	-11.6584
▁hemodynamical	-11.6587
▁bud	-11.6589
▁zebrafish	-11.6589
iti	-11.659
▁muc	-11.6591
0000	-11.6593
rap	-11.6594
▁tur	-11.6598
▁married	-11.6601
▁protecting	-11.6602
▁lecture	-11.6603
▁056	-11.6604
neuropsychiatric	-11.6605
▁afterwards	-11.6606
▁exacerbate	-11.6607
▁gun	-11.6608
ait	-11.6609
▁massage	-11.661
▁beliefs	-11.6615
▁craniofacial	-11.6617
▁bloodstream	-11.6618
▁inactivated	-11.662
▁inspired	-11.6622
▁kenya	-11.6623
▁counterparts	-11.6624
ua	-11.6626
▁fasciitis	-11.6629
ios	-11.6633
▁ventilatory	-11.6633
▁generations	-11.6634
▁bronchi	-11.6637
▁065	-11.6638
▁reform	-11.6638
▁paranasal	-11.6641
▁tre	-11.6642
▁tolerate	-11.6642
▁erroneous	-11.6644
▁cues	-11.6644
▁identifiable	-11.6645
infected	-11.6645
ney	-11.6646
▁nam	-11.6646
▁mycobacteria	-11.6654
▁068	-11.6655
▁transportation	-11.6656
▁biomed	-11.666
▁interplay	-11.666
▁kinetic	-11.6662
▁permit	-11.6662
▁papilla	-11.6663
77	-11.6663
▁disabilities	-11.6664
▁sleeve	-11.6664
▁searches	-11.6669
▁den	-11.667
▁bronchoalveolar	-11.6672
▁deprivation	-11.6672
tech	-11.6672
▁cop	-11.6672
▁reinforce	-11.6673
▁yi	-11.6676
▁solar	-11.6678
ack	-11.6679
sia	-11.6685
▁bay	-11.6687
mod	-11.6688
▁dev	-11.6692
zia	-11.6693
104	-11.6694
but	-11.6695
▁nomenclature	-11.6696
180	-11.6697
▁cect	-11.6699
▁launch	-11.67
▁outline	-11.67
▁pertain	-11.6702
▁paramount	-11.6704
▁agenda	-11.6704
▁0004	-11.6706
129	-11.6707
mr	-11.6708
▁bos	-11.6709
els	-11.6711
▁empyema	-11.6711
▁immobilization	-11.6711
▁lan	-11.6714
▁wellcome	-11.6715
oph	-11.6717
▁dbs	-11.6719
▁nets	-11.6724
▁realistic	-11.6729
▁chikv	-11.6731
iliary	-11.6733
▁covid	-11.6734
▁cadherin	-11.6735
▁preventable	-11.6737
▁migrated	-11.6738
▁closing	-11.6739
eau	-11.6741
yr	-11.6745
▁guest	-11.6745
▁transcribed	-11.675
▁flash	-11.675
▁sti	-11.6753
▁dermatological	-11.6753
▁columnar	-11.6759
▁pulsed	-11.6759
▁rebound	-11.676
ira	-11.676
▁workflow	-11.6761
▁xl	-11.6762
▁tumorigenesis	-11.6763
▁ischaemia	-11.6763
▁esthetic	-11.6763
▁ended	-11.6766
▁junior	-11.6767
▁helix	-11.6768
▁originates	-11.6774
▁bw	-11.6777
bv	-11.6779
▁neuropathic	-11.6783
▁270	-11.6784
▁humidity	-11.6787
eurofibromatosis	-11.6788
▁resist	-11.6791
▁kam	-11.6791
▁io	-11.6792
ery	-11.6794
▁maximize	-11.6796
▁carl	-11.6801
▁suv	-11.6802
▁peroxidase	-11.6805
▁spray	-11.6805
aka	-11.6806
▁mammography	-11.6807
▁deformation	-11.6807
▁pré	-11.6808
▁telephone	-11.6811
▁itching	-11.6811
yne	-11.6812
▁circuits	-11.6815
▁dislocations	-11.6817
▁anywhere	-11.6821
▁florida	-11.6822
▁intralesional	-11.6823
▁perianal	-11.6823
▁hazards	-11.6823
▁pathologists	-11.6825
cot	-11.6825
ogen	-11.6826
▁biphasic	-11.6827
▁reticulum	-11.6827
▁allogeneic	-11.6831
▁existed	-11.6831
▁atelectasis	-11.6835
▁synergistic	-11.6837
▁voriconazole	-11.6839
▁transitional	-11.6839
azi	-11.6839
▁thr	-11.684
▁endocrinology	-11.6843
▁pneumonitis	-11.6843
▁radiologically	-11.6843
▁operate	-11.6846
▁arabidopsis	-11.6847
▁brother	-11.685
central	-11.685
▁chromogranin	-11.6851
▁ascertain	-11.6851
▁thread	-11.6852
▁nav	-11.6853
▁pulled	-11.6854
▁fg	-11.6856
ologic	-11.6856
▁cardiogenic	-11.6859
▁wean	-11.6862
▁convert	-11.6862
▁resolv	-11.6867
▁proteomics	-11.6869
▁acyclovir	-11.6871
▁sra	-11.6873
▁hct	-11.6874
▁wherein	-11.6874
▁saturated	-11.6875
patosplenomegaly	-11.6875
94	-11.6875
ciliary	-11.6875
▁practic	-11.688
▁correspondence	-11.688
uma	-11.688
▁tubal	-11.6882
▁chambers	-11.6884
▁rein	-11.6884
▁leukemic	-11.6885
bf	-11.6885
▁foley	-11.6889
▁modules	-11.689
▁facts	-11.6896
▁congest	-11.6896
▁organisation	-11.6897
▁ecm	-11.6897
▁hyphae	-11.6899
▁yag	-11.69
▁empiric	-11.6901
▁filaments	-11.6903
phys	-11.6903
▁mci	-11.6904
bert	-11.6905
▁comp	-11.6907
▁catecholamine	-11.6907
▁pallor	-11.6907
▁vats	-11.6908
▁voiding	-11.6912
▁wuhan	-11.6915
ette	-11.6915
▁applies	-11.6919
▁ori	-11.692
▁restrictions	-11.692
▁junctions	-11.6921
▁egd	-11.6922
▁heating	-11.6922
zy	-11.6922
▁chikungunya	-11.6923
▁dissociation	-11.6924
▁substitutions	-11.6926
98	-11.6926
▁gemcitabine	-11.6927
itt	-11.6927
▁confocal	-11.6927
▁proptosis	-11.6927
▁hilum	-11.6928
▁fus	-11.6933
▁glucagon	-11.6935
▁olanzapine	-11.6935
▁methodologies	-11.6935
▁ocd	-11.6943
▁remind	-11.6943
▁dyspnoea	-11.6943
▁dentition	-11.6943
etic	-11.6944
▁anticoagulants	-11.6945
▁stresses	-11.6948
▁columns	-11.695
▁fluoride	-11.6952
pathy	-11.6956
▁pmol	-11.6956
▁pathologist	-11.6957
▁provinces	-11.6958
▁neurofibroma	-11.6959
▁occlusive	-11.6959
▁specialties	-11.6959
▁millions	-11.6959
▁marketing	-11.6962
▁asterisk	-11.6966
pm	-11.6966
▁spann	-11.6968
imi	-11.6969
▁ash	-11.697
▁miller	-11.6971
▁062	-11.6971
eli	-11.6972
▁thyro	-11.6972
▁gonadotropin	-11.6972
▁defibrillator	-11.6972
▁microsatellite	-11.6976
gastroenterology	-11.6976
▁immunologic	-11.6976
▁underlie	-11.6977
▁authority	-11.6977
chin	-11.6982
▁artifacts	-11.6982
▁zhou	-11.6984
▁tamoxifen	-11.6984
▁rem	-11.6985
▁ff	-11.699
▁knowing	-11.6991
▁indonesia	-11.6992
▁labelled	-11.6994
▁chickens	-11.6995
▁tortuous	-11.6996
▁spacer	-11.6999
▁sclera	-11.6999
▁1007	-11.7
▁gmbh	-11.7005
▁contexts	-11.7006
▁string	-11.7007
subject	-11.701
▁additive	-11.7011
▁kan	-11.7011
▁prot	-11.7013
▁gathered	-11.7013
▁ij	-11.7016
oproliferative	-11.7019
▁subtotal	-11.7021
▁ben	-11.7021
▁opt	-11.7022
617	-11.7024
▁mosaic	-11.7024
gli	-11.7024
▁absorbance	-11.7025
▁ple	-11.7025
▁api	-11.7026
▁pleomorphism	-11.7029
valent	-11.7032
view	-11.7033
▁bromide	-11.7033
▁pcd	-11.7033
ées	-11.7035
ichi	-11.7036
▁charles	-11.7037
▁forensic	-11.7037
nf	-11.7039
▁exacerbations	-11.704
▁reddish	-11.7041
▁shallow	-11.7044
ising	-11.7044
ska	-11.7044
ual	-11.7046
nm	-11.7049
▁kf	-11.705
tl	-11.7057
▁cage	-11.7057
▁generator	-11.7062
▁vascularized	-11.7063
▁1982	-11.7064
lf	-11.7064
▁differently	-11.7067
▁seldom	-11.7074
▁dotted	-11.7074
▁xp	-11.7074
▁russia	-11.7075
▁375	-11.7075
▁heel	-11.7075
▁cdi	-11.7076
▁229	-11.7078
▁docetaxel	-11.7082
▁misconduct	-11.7082
▁ileus	-11.7082
▁rn	-11.7083
106	-11.7087
▁antrum	-11.709
olin	-11.7097
blast	-11.7099
▁identifies	-11.7104
▁void	-11.7108
▁successive	-11.7109
▁communicable	-11.7111
▁ortholog	-11.7113
▁sulfur	-11.7113
▁preclude	-11.7117
▁vulgaris	-11.7119
▁ibv	-11.7119
▁bf	-11.7121
▁chr	-11.7122
▁lar	-11.7122
troph	-11.7123
▁cholangitis	-11.7123
▁059	-11.7124
▁clips	-11.7125
int	-11.7128
▁charts	-11.713
▁tim	-11.713
▁iq	-11.7132
▁videos	-11.7133
▁contiguous	-11.7134
▁nocturnal	-11.7135
mate	-11.7136
zer	-11.7138
▁051	-11.7138
▁910	-11.7139
▁epa	-11.7139
▁yrs	-11.7141
genesis	-11.7144
▁rendered	-11.7148
▁contracture	-11.7148
▁multimodal	-11.7149
▁basilar	-11.7149
▁erg	-11.7151
▁ligated	-11.7152
▁bsa	-11.7153
▁adrenergic	-11.7159
▁compensator	-11.716
dol	-11.7161
▁hepatomegaly	-11.7164
ward	-11.7167
sol	-11.7169
cia	-11.7171
▁histories	-11.7173
▁296	-11.718
hiro	-11.7183
hb	-11.7184
▁drink	-11.7186
▁cultivat	-11.7187
▁meningiomas	-11.7188
▁interfer	-11.7189
ima	-11.719
eral	-11.719
oo	-11.7191
bre	-11.7193
neumomediastinum	-11.7193
▁mrnas	-11.7194
▁indigenous	-11.7198
▁histamine	-11.7198
yan	-11.7199
▁shifting	-11.7199
▁constructs	-11.72
▁imipenem	-11.7202
▁dg	-11.7202
▁reliabl	-11.7204
▁cyanosis	-11.7206
▁sdh	-11.7209
▁thymus	-11.721
▁multimedia	-11.7211
▁msm	-11.7212
wer	-11.7212
▁grip	-11.7213
▁endometrium	-11.7214
▁contractions	-11.7216
▁bus	-11.7217
▁duplicated	-11.7218
▁seropositive	-11.7222
▁ui	-11.7224
▁misleading	-11.7227
▁calculus	-11.7227
▁told	-11.7228
▁metacarpal	-11.7229
disciplinary	-11.723
▁hierarchical	-11.7231
▁meniscus	-11.7231
▁replacing	-11.7231
▁jr	-11.7232
▁fibula	-11.7233
▁coll	-11.7234
▁straightforward	-11.7235
row	-11.7236
▁corrections	-11.7236
▁arose	-11.7239
▁rhinitis	-11.7239
▁continuation	-11.7239
▁phenytoin	-11.7243
phenyl	-11.7244
▁nad	-11.7245
▁wonder	-11.7245
▁gdm	-11.7246
▁cheng	-11.7249
▁ceftazidime	-11.7252
▁satellite	-11.7252
▁mais	-11.7256
▁fulfilled	-11.7257
chemical	-11.7257
▁redundant	-11.726
coming	-11.7262
▁empirically	-11.7262
▁irradiated	-11.7262
▁virulent	-11.7266
hereby	-11.7267
▁063	-11.7267
▁sym	-11.727
▁mtdna	-11.7273
▁fun	-11.7273
▁potency	-11.7281
▁graded	-11.7281
▁federation	-11.7281
▁christian	-11.7282
▁rg	-11.7283
▁dysplastic	-11.7285
duct	-11.7286
▁vd	-11.729
140	-11.7291
▁mill	-11.7292
▁toll	-11.7294
▁hcov	-11.7294
▁consumer	-11.7295
▁exome	-11.7296
▁ari	-11.7297
▁unfavorable	-11.7298
▁tagged	-11.7298
▁preparedness	-11.73
▁palpitations	-11.73
▁rl	-11.7302
▁graves	-11.7302
▁columbia	-11.7302
▁anastomos	-11.7306
▁dako	-11.731
enberg	-11.7314
▁clues	-11.7315
▁freedom	-11.7316
▁taught	-11.7319
▁oligonucleotide	-11.7319
▁mountain	-11.7319
▁enrollment	-11.7319
▁chlamydia	-11.7319
▁premolar	-11.7321
▁crop	-11.7322
▁qua	-11.7323
▁lysine	-11.7324
▁scene	-11.7325
▁mixing	-11.7327
▁coded	-11.7327
▁segmentation	-11.7328
▁ped	-11.733
▁gra	-11.7331
▁indolent	-11.7332
▁won	-11.7334
▁dextrose	-11.734
▁saa	-11.7342
▁taste	-11.7344
▁haplotype	-11.7345
▁wife	-11.7347
▁sox	-11.7348
▁staged	-11.7351
▁fovea	-11.7352
▁thalamus	-11.7352
▁rarer	-11.736
▁ttp	-11.7363
▁ibm	-11.7363
▁compressive	-11.7366
cov	-11.7368
atum	-11.7369
▁vibration	-11.7369
▁myosin	-11.737
▁coating	-11.7371
▁workplace	-11.7371
▁tro	-11.7372
▁longevity	-11.7373
▁volunteer	-11.7373
▁urgently	-11.7375
▁eccrine	-11.7378
▁labour	-11.7379
▁jet	-11.7381
▁binary	-11.7382
zz	-11.7386
▁extranodal	-11.7386
▁eh	-11.7387
clear	-11.7388
▁messages	-11.739
▁peculiar	-11.739
oblast	-11.7393
ultrasonographic	-11.7396
nel	-11.7401
▁selectivity	-11.7402
idi	-11.7405
distinguishable	-11.7407
▁obliteration	-11.7407
▁approximation	-11.7408
▁aca	-11.741
▁toxoplasmosis	-11.7412
▁macules	-11.7412
▁win	-11.7414
▁discriminate	-11.7416
▁chondrosarcoma	-11.7416
▁justified	-11.7416
▁lake	-11.7417
▁npc	-11.7418
▁harvard	-11.742
▁melanomas	-11.7421
▁setup	-11.7421
aemia	-11.7421
▁hpf	-11.7423
▁kits	-11.7423
▁submucosa	-11.7424
▁gvhd	-11.7424
▁diamond	-11.7424
▁foveal	-11.7429
▁acr	-11.7431
▁tattoo	-11.7433
▁pfizer	-11.7433
▁nepal	-11.7433
▁shortage	-11.7434
▁harboring	-11.7434
▁relations	-11.7434
009	-11.7435
nce	-11.7435
▁swedish	-11.7437
▁trabecular	-11.7437
▁extrahepatic	-11.7437
▁csa	-11.7437
▁pax	-11.7438
▁synapses	-11.7438
▁mois	-11.7441
▁terminology	-11.7441
▁nephro	-11.7441
▁texture	-11.7444
▁lean	-11.7444
▁eliminating	-11.7446
▁progresses	-11.7449
▁goat	-11.745
▁wd	-11.7453
▁mount	-11.7453
▁opacification	-11.7454
▁oropharyngeal	-11.7454
▁morphologically	-11.7455
▁surviving	-11.7455
▁episodic	-11.7458
▁neutralization	-11.7464
▁households	-11.7465
▁venom	-11.7466
▁transvaginal	-11.7467
▁dying	-11.7468
▁0006	-11.7469
▁ntm	-11.7471
▁dsa	-11.7472
▁stephen	-11.7472
▁someone	-11.7472
▁cannabis	-11.7475
▁compensation	-11.7476
sion	-11.7477
▁antegrade	-11.748
▁emr	-11.7482
▁intrathecal	-11.7484
▁americans	-11.7488
▁dopaminergic	-11.7488
▁cusp	-11.749
vis	-11.7494
▁districts	-11.7494
▁glucocorticoid	-11.7495
▁ignored	-11.7496
▁hypokalemia	-11.7497
pancreatography	-11.7497
▁opted	-11.7501
▁cro	-11.7502
▁hrs	-11.7504
▁exams	-11.7505
▁azithromycin	-11.7505
▁conflit	-11.7505
▁labial	-11.7507
▁arguments	-11.7508
▁drs	-11.7508
methyl	-11.7509
▁qtc	-11.751
▁225	-11.7513
▁snake	-11.7514
▁proposal	-11.7515
▁sdf	-11.7521
▁pulsatile	-11.7524
▁legislation	-11.7527
▁assemblies	-11.7527
▁silico	-11.7528
▁allen	-11.7535
▁williams	-11.7535
▁ug	-11.7544
▁septa	-11.7546
aya	-11.7547
▁hydrochloride	-11.7548
▁intermolecular	-11.7548
▁pfo	-11.755
▁066	-11.7552
▁diuretics	-11.7553
▁dispersion	-11.7553
▁choi	-11.7555
ration	-11.7559
▁priorities	-11.7559
▁testicle	-11.7561
▁agitation	-11.7562
▁comfortable	-11.7565
▁maybe	-11.7566
▁tether	-11.7567
▁intron	-11.7568
▁cxr	-11.757
▁cart	-11.757
▁insignificant	-11.7572
▁wind	-11.7573
▁entrapment	-11.7574
▁oocytes	-11.7575
▁cbct	-11.7575
▁dq	-11.7578
▁fulminant	-11.7584
▁hemodynamics	-11.7587
▁coworkers	-11.7587
▁clotting	-11.7588
▁nec	-11.7589
▁nystagmus	-11.7591
▁myelin	-11.7597
ere	-11.7597
▁behavioural	-11.7597
▁normo	-11.7597
▁attracted	-11.7598
▁fer	-11.7598
▁tki	-11.7599
▁theatre	-11.76
▁alleviate	-11.7603
▁sto	-11.7604
▁allergies	-11.7604
▁callosum	-11.7604
▁oncogene	-11.7605
▁161	-11.7607
▁osteoma	-11.7607
▁consulting	-11.7608
▁verrucous	-11.7609
▁hyperplastic	-11.7609
▁commissioned	-11.761
▁kv	-11.7612
▁localisation	-11.7612
▁streptomycin	-11.7613
▁pri	-11.7615
▁1981	-11.7616
▁nat	-11.7617
▁urological	-11.7617
▁064	-11.7618
▁moh	-11.7619
▁preferences	-11.7619
bro	-11.762
▁amb	-11.762
▁bv	-11.7621
▁antidepressants	-11.7623
▁necessitate	-11.7623
▁conferences	-11.7624
▁koh	-11.7626
▁quantities	-11.7626
▁densities	-11.7626
▁wb	-11.7627
▁filtering	-11.7629
▁dong	-11.7629
▁bronchoscopic	-11.7635
▁divergence	-11.7635
▁345	-11.7637
▁simulate	-11.7637
care	-11.7638
▁tinnitus	-11.7639
41598	-11.7639
▁anyone	-11.7641
hy	-11.7641
▁ovoid	-11.7642
▁tlc	-11.7651
▁excisional	-11.7651
▁analyse	-11.7652
▁hub	-11.7653
▁sweating	-11.7654
▁antipsychotics	-11.7656
▁wheezing	-11.7656
▁vivax	-11.7657
▁infantile	-11.7657
olo	-11.7658
▁identifier	-11.766
▁involuntary	-11.7661
▁postprandial	-11.7661
▁flex	-11.7661
▁niche	-11.7662
▁thing	-11.7662
▁vulnerability	-11.7662
▁ferr	-11.7666
▁sft	-11.7666
▁ann	-11.7673
eu	-11.7674
▁canonical	-11.7674
▁simon	-11.7674
▁colchicine	-11.7678
▁intracerebral	-11.768
▁061	-11.768
pn	-11.7681
▁tremendous	-11.7682
▁chronically	-11.7682
▁melanocytic	-11.7682
▁afb	-11.7685
▁hopeful	-11.7692
▁brucellosis	-11.7693
iva	-11.7693
▁atpase	-11.7697
roughly	-11.7697
▁transforming	-11.7697
▁trp	-11.7699
kr	-11.7699
▁yo	-11.7702
▁zhu	-11.7703
▁sorafenib	-11.7704
▁collective	-11.7705
▁axon	-11.7707
▁saphenous	-11.7709
▁pep	-11.7709
▁drivers	-11.771
▁triage	-11.7711
▁380	-11.7713
log	-11.7715
▁prostatectomy	-11.7718
▁attain	-11.772
▁licensed	-11.7721
▁emergencies	-11.7722
▁mistake	-11.7724
▁worst	-11.7726
▁chloroform	-11.7735
▁heads	-11.7736
▁transmit	-11.7736
▁islet	-11.774
carcinoembryonic	-11.7744
▁funders	-11.7744
▁pathologically	-11.7748
sil	-11.7749
▁slc	-11.7749
▁seeding	-11.7753
▁granted	-11.7756
▁sod	-11.7757
sulfamethoxazole	-11.7757
▁operon	-11.7757
▁pdb	-11.7758
▁presently	-11.7758
▁hyperpigment	-11.776
▁osteolytic	-11.7761
▁altering	-11.7761
▁lactamase	-11.7762
▁194	-11.7763
▁mta	-11.7764
tur	-11.7765
▁standardization	-11.7766
▁toxicities	-11.7767
138	-11.7767
▁wards	-11.7768
ava	-11.777
▁radicals	-11.7771
▁ttf	-11.7772
▁relapsing	-11.7779
tent	-11.7781
py	-11.7782
▁nationwide	-11.7783
▁classify	-11.7784
▁mimics	-11.7787
▁mitigate	-11.7787
▁wolf	-11.7788
▁dutch	-11.7792
▁lectures	-11.7792
▁microglia	-11.7793
▁terminus	-11.7794
dar	-11.7794
cel	-11.7797
ias	-11.7797
▁endpoints	-11.7799
▁consumers	-11.7801
▁jean	-11.7801
▁sponsored	-11.7804
▁cleared	-11.7805
▁periodontitis	-11.7805
▁underscore	-11.7806
▁answered	-11.7811
▁heated	-11.7812
▁palms	-11.7813
▁elegans	-11.7814
▁sevoflurane	-11.7814
▁slower	-11.7826
▁pit	-11.7827
▁mpa	-11.7827
▁delineate	-11.7828
cyt	-11.7829
▁gelatin	-11.7829
▁ima	-11.783
▁hydrocortisone	-11.7832
▁sen	-11.7832
▁ty	-11.7833
▁ester	-11.7833
▁ointment	-11.7836
▁apl	-11.7837
▁rhino	-11.7837
107	-11.7838
▁jh	-11.7838
▁rot	-11.7838
▁illustration	-11.7842
▁histo	-11.7844
▁diversion	-11.785
▁crystalline	-11.7857
▁battery	-11.7858
▁mec	-11.7858
▁simplified	-11.786
▁periorbital	-11.7863
▁subtraction	-11.7864
▁rfa	-11.7867
nis	-11.787
▁centrally	-11.7871
top	-11.7871
▁uncorrect	-11.7872
▁fitted	-11.7873
▁scholarship	-11.7876
oi	-11.7877
▁confirmatory	-11.7877
▁strictures	-11.7878
▁antiepileptic	-11.7881
carb	-11.7881
▁1950	-11.7885
▁appointment	-11.7886
▁teratomas	-11.7888
▁arthroscopy	-11.7889
▁pneumo	-11.789
▁gps	-11.7893
▁concordance	-11.7894
▁inexpensive	-11.7894
▁brucella	-11.7894
▁bioactive	-11.7894
cephal	-11.7895
▁sirt	-11.7896
▁olympus	-11.7898
▁monocyte	-11.7898
hand	-11.7901
uro	-11.7903
▁programming	-11.7903
▁regret	-11.7907
▁impaction	-11.7908
▁maldi	-11.7908
nia	-11.7908
▁rip	-11.791
▁colic	-11.7911
df	-11.7912
▁pam	-11.7912
▁vm	-11.7913
▁chemokine	-11.7914
▁peroxide	-11.7914
▁deposit	-11.7916
▁oxy	-11.7916
duodenoscopy	-11.7917
▁angioedema	-11.7919
▁infrequently	-11.7923
▁manufacturers	-11.7924
▁poster	-11.7929
▁conjunctivitis	-11.7929
▁unre	-11.7931
▁fragmented	-11.7932
▁neglect	-11.7934
▁residence	-11.7934
▁failures	-11.7936
▁pools	-11.7936
▁hydrolysis	-11.7939
▁threats	-11.794
▁bou	-11.794
ude	-11.7941
▁magnet	-11.7942
▁melting	-11.7943
▁undoubtedly	-11.7943
▁fermentation	-11.7949
▁complicate	-11.795
▁vigorous	-11.7952
▁ctla	-11.7953
rel	-11.7953
▁meant	-11.7953
010	-11.7954
▁maladie	-11.7956
dec	-11.7957
▁valproate	-11.7961
▁rough	-11.7965
▁mah	-11.7966
▁distraction	-11.7966
▁eyelids	-11.797
oscopy	-11.797
lé	-11.7973
▁moiety	-11.7974
▁rated	-11.7976
▁gca	-11.7979
▁unpredictable	-11.7979
gin	-11.7979
▁appendage	-11.7981
▁russian	-11.7982
▁cul	-11.7982
▁1975	-11.7982
▁hav	-11.7984
▁bottle	-11.7985
ois	-11.7985
▁shah	-11.7987
cyst	-11.7988
▁corner	-11.7988
omic	-11.799
bm	-11.7992
▁physically	-11.7993
▁phen	-11.7994
▁tapering	-11.7994
▁artifact	-11.7994
▁ala	-11.7998
▁provenance	-11.7999
▁chemokines	-11.8
▁subsystem	-11.8004
▁filters	-11.8006
▁sweet	-11.8009
▁schwann	-11.8011
▁xx	-11.8013
▁tricho	-11.8014
▁pointing	-11.8016
▁import	-11.8017
ination	-11.8017
▁gauze	-11.8019
▁outdoor	-11.8019
▁biased	-11.8022
▁norovirus	-11.8024
▁9800	-11.8025
▁hdac	-11.8027
▁perceptions	-11.8027
▁eventual	-11.8029
▁constriction	-11.803
▁suprapubic	-11.8033
▁mate	-11.8035
▁std	-11.8036
▁intensities	-11.8037
▁narrative	-11.8037
▁burst	-11.804
▁myoclonus	-11.8042
▁ken	-11.8043
intraventricular	-11.8043
▁fabrication	-11.8048
tg	-11.8049
aden	-11.805
▁aspergillosis	-11.8051
▁popularity	-11.8051
tropic	-11.8054
▁benchmark	-11.8055
morph	-11.8057
lat	-11.8059
▁demyelinat	-11.8059
▁trajectory	-11.806
▁mitoses	-11.806
▁anderson	-11.806
▁sequestration	-11.806
▁medially	-11.8061
iff	-11.8062
▁exploit	-11.8063
▁mater	-11.8063
▁compelling	-11.8064
▁glycogen	-11.8065
▁tcm	-11.8068
110	-11.8068
▁intent	-11.8071
▁catastrophic	-11.8074
▁damag	-11.8074
nuclear	-11.8078
excitatory	-11.8078
▁unresponsive	-11.8078
▁drill	-11.808
▁vegetables	-11.8082
▁arab	-11.8082
▁alternating	-11.8083
▁arrays	-11.8083
▁calves	-11.8083
▁decid	-11.8083
▁speak	-11.8088
137	-11.809
▁pten	-11.8092
▁medicare	-11.8092
▁humoral	-11.8093
▁contraceptive	-11.8095
cystic	-11.8098
itch	-11.8099
▁glutathione	-11.8099
och	-11.81
▁axons	-11.8101
▁remnants	-11.8102
▁sight	-11.8102
▁civil	-11.8103
293	-11.8104
light	-11.8105
▁costly	-11.8109
▁dihydro	-11.811
▁0007	-11.8113
▁hypothalamic	-11.8114
pat	-11.8116
▁confluent	-11.8119
▁psoas	-11.8119
▁glioblastoma	-11.8119
▁cartilagin	-11.8119
▁favored	-11.812
ever	-11.8121
▁abnormally	-11.8121
ges	-11.8123
ites	-11.8125
▁crossed	-11.8125
▁teach	-11.8126
▁folding	-11.8128
▁botulinum	-11.8128
▁contraindicated	-11.8128
▁impedance	-11.8128
▁odor	-11.8129
▁entre	-11.813
▁wan	-11.8131
▁gravity	-11.8133
▁couples	-11.8135
ille	-11.8135
▁intimal	-11.8136
020	-11.814
▁economy	-11.8143
iso	-11.8144
▁étude	-11.8146
▁bubble	-11.815
▁splice	-11.815
▁ups	-11.815
▁reciprocal	-11.8151
▁uganda	-11.8151
▁tac	-11.8153
▁pml	-11.8153
▁dj	-11.8157
▁gla	-11.8159
▁bayesian	-11.816
▁scholars	-11.8168
▁ameloblastoma	-11.8169
▁transcriptase	-11.817
hem	-11.817
▁tl	-11.817
mn	-11.8174
▁sel	-11.8174
syn	-11.8176
▁shot	-11.8176
▁baumannii	-11.8178
▁fertilization	-11.8179
▁informatics	-11.8184
▁concurrently	-11.8188
▁workforce	-11.8188
▁infusions	-11.8189
tec	-11.8189
▁inspiration	-11.8192
▁menopause	-11.8197
▁foam	-11.8198
▁averaged	-11.8199
▁hir	-11.8199
▁aura	-11.8201
▁francisco	-11.8202
▁ioniz	-11.8202
atus	-11.8204
▁instrumental	-11.8204
▁crush	-11.8205
▁entero	-11.8206
▁attributes	-11.8209
▁plagiarism	-11.821
▁coronaviruses	-11.8211
▁silicon	-11.8212
133	-11.8213
ency	-11.8214
▁acro	-11.8215
▁suvmax	-11.8216
tta	-11.8216
▁ending	-11.8217
gren	-11.822
▁shunting	-11.8222
▁cur	-11.8222
▁justify	-11.8222
▁blurred	-11.8224
▁carina	-11.8224
▁plasmacytoma	-11.8225
▁drains	-11.8226
▁fil	-11.8226
lov	-11.8226
▁attach	-11.8227
dan	-11.8229
▁anything	-11.823
▁gets	-11.823
▁dexmedetomidine	-11.8233
▁obstetrics	-11.8237
▁dysarthri	-11.8238
▁altitude	-11.8243
▁1979	-11.8243
▁putt	-11.8245
▁rabbits	-11.8246
▁hematomas	-11.8247
▁proteome	-11.8247
gas	-11.8247
▁histiocyt	-11.8249
▁acanthosis	-11.8252
mont	-11.8252
▁planus	-11.8252
▁0008	-11.8255
▁integrin	-11.8256
▁anonymous	-11.8256
▁vulva	-11.826
▁dress	-11.8262
▁consanguineous	-11.8266
▁diverticulitis	-11.8266
qua	-11.827
▁causality	-11.827
▁debilitat	-11.827
▁otitis	-11.827
▁arrived	-11.8271
erman	-11.8273
▁broncho	-11.8274
▁folate	-11.8274
▁silva	-11.8274
▁trail	-11.8275
▁pons	-11.8275
▁hbs	-11.8276
▁teacher	-11.8276
nesthesiologists	-11.8278
▁fluorouracil	-11.828
▁fmri	-11.8282
▁183	-11.8282
▁fap	-11.8282
▁sexes	-11.8282
▁perforations	-11.8283
▁ekg	-11.8284
▁gynecological	-11.8284
▁benzo	-11.8289
▁deteriorat	-11.8289
▁spectrometer	-11.8289
▁congesti	-11.829
aca	-11.8292
▁pub	-11.8292
▁transurethral	-11.8298
ign	-11.83
▁gf	-11.83
▁colourles	-11.8301
▁arbitrary	-11.8303
▁cos	-11.8304
▁fin	-11.8304
ural	-11.8308
ient	-11.8308
▁prick	-11.831
▁nas	-11.831
▁nation	-11.8314
▁antimicrobials	-11.8315
▁faces	-11.8315
uf	-11.8315
▁husband	-11.8316
▁pathognomonic	-11.8317
qi	-11.8317
ike	-11.8317
▁catalyzed	-11.8319
▁souvent	-11.8323
▁sol	-11.8325
▁watch	-11.8325
▁ultraviolet	-11.8326
▁rendering	-11.8328
meter	-11.8328
▁vac	-11.8329
▁theme	-11.8331
▁endotoxin	-11.8332
▁070	-11.8334
▁elegant	-11.8335
▁recherche	-11.8335
olytic	-11.8336
▁disparities	-11.8341
ici	-11.8342
ongside	-11.8343
▁realize	-11.8343
▁volar	-11.8346
ika	-11.8347
▁membership	-11.835
▁hay	-11.8351
▁mj	-11.8353
emi	-11.8353
▁concentric	-11.8354
▁gst	-11.8354
▁wc	-11.8355
▁labels	-11.8356
▁ulna	-11.8356
▁cycling	-11.8357
▁cushing	-11.8359
▁repository	-11.8359
▁hyperchromatic	-11.8364
▁caps	-11.8366
▁trisomy	-11.8368
▁oncological	-11.8369
▁cortico	-11.8369
base	-11.8371
▁elusive	-11.8373
▁housing	-11.8373
▁seriously	-11.8376
▁altogether	-11.8377
▁caliber	-11.8377
▁infecting	-11.838
▁amiodarone	-11.8382
▁absorbable	-11.8382
▁tk	-11.8386
▁pel	-11.8387
▁assignment	-11.8388
▁uneventfully	-11.8388
▁surveyed	-11.8389
▁stasis	-11.8392
▁epo	-11.8392
▁dcm	-11.8397
▁navigation	-11.8398
▁weather	-11.8398
oka	-11.8401
▁gwas	-11.8401
lus	-11.8402
▁foxp	-11.8403
▁taxa	-11.8404
▁diameters	-11.8411
150	-11.8414
red	-11.8416
▁sponge	-11.8417
▁tall	-11.8418
▁budding	-11.842
▁quadriceps	-11.8424
lysis	-11.8425
▁gallstone	-11.8425
▁scapular	-11.8426
esis	-11.8427
aver	-11.8427
▁cxcl	-11.8429
▁predominate	-11.843
▁cbc	-11.8432
▁corresponded	-11.8432
moto	-11.8434
▁harvest	-11.8437
▁immunosorbe	-11.8438
▁supplies	-11.8439
▁insult	-11.8441
▁avascular	-11.8442
▁carbamazepine	-11.8443
▁engaging	-11.8452
▁mdm	-11.8457
▁adalimumab	-11.8457
▁hmb	-11.8461
▁immunoassay	-11.8462
▁emptying	-11.8462
▁tin	-11.8463
▁subscription	-11.8463
▁degrade	-11.8464
hf	-11.8465
▁grows	-11.8468
▁sanitation	-11.8472
▁gentle	-11.8472
▁adhere	-11.8474
ente	-11.8474
▁wealth	-11.8474
▁gallstones	-11.8475
▁clin	-11.8478
549	-11.8481
▁favourable	-11.8483
▁lanes	-11.8484
▁las	-11.8484
▁speaker	-11.8486
▁tmj	-11.8487
▁lymphangioma	-11.849
▁affordable	-11.8494
▁perforator	-11.8496
▁adenocarcinomas	-11.8497
dra	-11.8498
▁innovations	-11.8502
▁sav	-11.8502
▁caffeine	-11.8504
▁scr	-11.8505
▁berg	-11.8508
▁pha	-11.8508
▁rifampin	-11.8509
▁184	-11.8509
▁pupils	-11.851
▁aptt	-11.851
160	-11.8512
vt	-11.8514
ostomy	-11.8516
▁myositis	-11.8518
▁hemithorax	-11.8518
▁fluctuations	-11.8519
▁hrct	-11.8522
▁lysosomal	-11.8523
▁questionable	-11.8523
▁love	-11.8524
▁osteochondroma	-11.8525
▁grades	-11.8525
▁gii	-11.8526
▁lcx	-11.8527
plasty	-11.8528
▁fistulo	-11.8528
cytosis	-11.8528
pod	-11.8528
▁bullae	-11.853
type	-11.8531
▁resect	-11.8532
hydr	-11.8532
▁fistulae	-11.8533
▁implantable	-11.8537
ress	-11.8537
▁transmural	-11.8537
▁intradural	-11.8537
jan	-11.8539
▁nv	-11.854
▁mural	-11.8542
▁quin	-11.8548
▁secrete	-11.8549
▁pediatrics	-11.855
▁fetuses	-11.8553
scopy	-11.8559
▁1978	-11.856
▁portugal	-11.8561
▁risperidone	-11.8561
▁floating	-11.8563
▁inflow	-11.8565
▁eligibility	-11.8566
▁herniated	-11.8569
▁cryotherapy	-11.8571
▁button	-11.8573
▁pedigree	-11.8575
▁radiolucent	-11.8575
▁kaplan	-11.8576
▁greek	-11.8576
rea	-11.8577
▁4000	-11.8579
rhabdomyosarcoma	-11.858
▁diminish	-11.8586
ules	-11.8587
▁alcoholism	-11.859
▁coordinate	-11.859
▁restrict	-11.8593
▁necessitat	-11.8598
▁amd	-11.8599
kan	-11.8599
▁interquartile	-11.8599
▁widening	-11.86
▁gui	-11.86
▁rrnas	-11.8601
▁fetoprotein	-11.8604
▁shedding	-11.8604
▁onco	-11.8605
▁peroneal	-11.8609
▁deceased	-11.8614
▁fragile	-11.8614
▁isthmus	-11.8618
▁strands	-11.862
▁toxoplasma	-11.8621
▁sucrose	-11.8623
▁argentina	-11.8623
▁passes	-11.8623
▁cxcr	-11.8624
▁invaded	-11.8624
graphy	-11.8624
▁plotted	-11.8628
▁1976	-11.863
▁meth	-11.8633
▁enterococcus	-11.8633
▁spi	-11.8633
▁phe	-11.8635
cker	-11.8636
▁shortened	-11.8636
▁biceps	-11.8637
▁0009	-11.8642
▁vulvar	-11.8643
▁conditioning	-11.8647
▁mastoid	-11.8648
▁bk	-11.8649
clo	-11.8649
▁interpreting	-11.865
▁contusion	-11.8657
▁ferment	-11.8661
▁infused	-11.8662
▁adeno	-11.8666
▁pharmacologic	-11.8667
▁abbreviation	-11.867
▁diastole	-11.8671
▁scleroderma	-11.8671
▁antioxidants	-11.8674
elo	-11.8677
▁fusiform	-11.8681
▁lymphadenectomy	-11.8681
▁dka	-11.8682
▁euro	-11.8682
▁hk	-11.8683
lor	-11.8685
▁iap	-11.8687
▁mcd	-11.8688
▁spores	-11.8688
▁divergent	-11.8691
▁multisystem	-11.8692
▁cultivation	-11.8692
▁mary	-11.8693
▁stereo	-11.8696
▁sting	-11.8696
▁helper	-11.8697
▁thoughts	-11.87
▁davis	-11.8702
▁biologists	-11.8705
occupied	-11.8705
ture	-11.8708
pg	-11.8709
▁hyperechoic	-11.871
▁helminth	-11.8715
▁acetic	-11.8717
▁amenabl	-11.872
oca	-11.8723
▁pseudocyst	-11.8725
▁siv	-11.8727
iosis	-11.8728
▁affective	-11.8729
ylation	-11.873
worth	-11.8734
▁publishers	-11.8735
▁hexa	-11.8736
▁randomization	-11.8738
▁proc	-11.874
▁hco	-11.8745
▁graphical	-11.8746
▁leiomyomas	-11.8746
▁clue	-11.8746
▁regime	-11.8747
non	-11.8747
▁glomus	-11.8748
▁guarantee	-11.8749
▁spend	-11.8751
▁bull	-11.8753
▁exudativ	-11.8753
▁visibility	-11.8753
transferase	-11.8755
▁mcv	-11.8756
anti	-11.8756
▁blasts	-11.8756
▁transferase	-11.8757
▁researches	-11.8758
obacter	-11.8758
▁paracetamol	-11.8758
nica	-11.8761
cad	-11.8762
▁rnai	-11.8764
war	-11.8769
▁mcr	-11.877
gf	-11.8771
▁industries	-11.8773
▁bureau	-11.8773
▁exacerbat	-11.8774
▁mounted	-11.8775
▁renin	-11.8775
▁abbott	-11.8778
lk	-11.8778
uric	-11.8779
▁fee	-11.8781
108	-11.8782
▁ceramic	-11.8782
▁racial	-11.8783
▁075	-11.8784
▁sts	-11.8785
▁tailed	-11.8786
▁enema	-11.8788
▁eco	-11.8789
nk	-11.8793
▁cloning	-11.8797
tine	-11.8798
▁behave	-11.8799
cre	-11.8802
▁gases	-11.8805
▁grass	-11.8806
omi	-11.8806
▁oophorectomy	-11.8807
▁trochanter	-11.8807
▁vertigo	-11.8807
▁lenses	-11.8809
▁sunitinib	-11.8812
▁defines	-11.8812
▁pcl	-11.8814
▁bon	-11.8814
▁else	-11.8815
▁bupivacaine	-11.8817
▁efflux	-11.8817
▁endoleak	-11.8817
▁disadvantage	-11.8817
asi	-11.8819
▁questioned	-11.8821
▁prototype	-11.8822
▁loads	-11.8823
▁endocardial	-11.8826
▁bullet	-11.8829
▁expos	-11.8829
▁unaware	-11.8831
▁charged	-11.8833
▁cpap	-11.8833
▁glucocorticoids	-11.8834
assi	-11.8834
▁cds	-11.8834
▁langerhans	-11.8836
▁thrombectomy	-11.8836
ito	-11.8838
▁sclc	-11.8838
▁glut	-11.8839
terobacteriaceae	-11.884
▁predicts	-11.8841
▁mesial	-11.8842
▁gains	-11.8845
▁landmark	-11.8846
▁relapses	-11.8848
▁208	-11.885
▁asbestos	-11.8856
seemingly	-11.8857
▁concentrate	-11.8857
gia	-11.8858
▁spades	-11.8861
▁ruling	-11.8862
nh	-11.8862
▁bromo	-11.8862
udi	-11.8863
▁transporters	-11.8863
▁reportedly	-11.8863
▁structurally	-11.8864
journals	-11.8864
▁preeclampsia	-11.8865
erg	-11.8866
▁constituents	-11.8868
▁tyr	-11.8868
▁constitutional	-11.8869
▁tca	-11.8869
▁digits	-11.887
▁erythromycin	-11.887
▁pursue	-11.8877
▁polycysti	-11.8878
▁gynecology	-11.888
▁ductus	-11.888
phil	-11.8881
interventricular	-11.8882
▁gli	-11.8883
iol	-11.8884
ona	-11.8888
▁appreciation	-11.889
▁mus	-11.889
▁analogues	-11.8898
vd	-11.89
▁ewing	-11.8903
▁motivated	-11.8904
▁linezolid	-11.8905
▁rotator	-11.8905
far	-11.8905
▁chu	-11.8905
▁mei	-11.8909
▁overgrowth	-11.891
▁pertussis	-11.8915
▁trastuzumab	-11.8915
▁spermatic	-11.8915
▁solved	-11.8915
▁bleb	-11.892
▁norm	-11.8922
▁danger	-11.8924
▁culprit	-11.8924
▁chile	-11.8925
▁lifelong	-11.8926
azine	-11.8927
▁haemo	-11.8931
▁ict	-11.8933
▁honor	-11.8934
▁jam	-11.8934
▁mycophenolate	-11.8934
▁brachytherapy	-11.8934
▁confront	-11.8935
▁polyethylene	-11.8935
▁reinforced	-11.8937
▁storm	-11.8937
una	-11.8938
unc	-11.8939
▁fevers	-11.8939
ctc	-11.8942
▁illustrat	-11.8944
▁acceleration	-11.8945
oon	-11.8946
▁turning	-11.8949
▁cme	-11.8952
▁dermoscopy	-11.8954
▁kal	-11.8954
late	-11.896
▁biases	-11.8966
gra	-11.8966
immunomodulatory	-11.8968
▁csc	-11.8969
▁laminectomy	-11.8969
▁dmem	-11.897
▁club	-11.8972
cutaneous	-11.8974
900	-11.8978
▁computing	-11.8984
▁exophytic	-11.8984
▁mip	-11.8984
▁extrapulmonary	-11.8984
odi	-11.8986
▁walker	-11.8986
▁cytologic	-11.8987
omas	-11.8988
til	-11.8989
dl	-11.8989
▁fiberoptic	-11.8989
▁telangiectasia	-11.8989
▁biomass	-11.8989
▁intentional	-11.899
inter	-11.8991
▁titrat	-11.8998
▁repetition	-11.8999
▁monkeys	-11.9
lie	-11.9
▁ventriculo	-11.9001
▁stools	-11.9001
ein	-11.9002
▁camels	-11.9003
▁phalanx	-11.9004
▁atropine	-11.9004
cas	-11.9004
▁locate	-11.9004
▁revolution	-11.9005
▁pul	-11.9005
▁polymers	-11.9007
▁205	-11.9008
▁enlarg	-11.9008
▁evaporation	-11.9009
▁coi	-11.901
▁receiver	-11.9012
▁dysuria	-11.9014
▁comme	-11.9017
▁credited	-11.9018
▁berlin	-11.9019
tia	-11.9019
▁osteoid	-11.902
170	-11.9021
▁067	-11.9021
▁trapped	-11.9024
▁ub	-11.9024
▁instruction	-11.9024
▁restart	-11.9025
▁payment	-11.9028
▁educated	-11.903
zen	-11.9031
▁mediator	-11.9033
▁surfactant	-11.9034
▁pvt	-11.9037
▁readings	-11.9038
zel	-11.9038
▁eighteen	-11.9039
▁hsc	-11.9043
derm	-11.9044
▁joseph	-11.9044
▁movie	-11.9045
▁curation	-11.9046
ben	-11.905
▁osteoclast	-11.905
▁laa	-11.9052
▁proteasome	-11.9054
▁oi	-11.9054
04	-11.9056
▁inferiorly	-11.9056
▁rearrangements	-11.9057
▁rear	-11.9058
▁angiogenic	-11.9059
fus	-11.9061
▁pluripotent	-11.9064
▁postdoctoral	-11.9064
▁neuropsycholog	-11.9068
▁systole	-11.9069
▁internationally	-11.907
▁crops	-11.907
▁stressed	-11.907
▁geometrical	-11.9071
▁reconstructions	-11.9072
▁coast	-11.9072
▁reservoirs	-11.9073
▁natriuretic	-11.9074
▁leuko	-11.9077
▁leader	-11.9077
▁tubercular	-11.9077
bol	-11.9077
▁mps	-11.9078
antiphospholipid	-11.9079
▁shall	-11.9081
▁grasp	-11.9082
▁impairments	-11.9083
▁gently	-11.9084
▁srs	-11.9084
▁amy	-11.9084
are	-11.9088
▁trypsin	-11.9089
▁interven	-11.9092
▁lactobacillus	-11.9095
▁oversight	-11.9097
▁presumptive	-11.9099
▁coarctation	-11.9104
ilo	-11.9112
▁ethambutol	-11.9114
▁invaluable	-11.9114
mark	-11.9116
▁rotated	-11.9116
▁mos	-11.9116
▁attempting	-11.9116
▁aucun	-11.9117
▁enterica	-11.9118
▁insomnia	-11.9119
▁iia	-11.9119
▁noncod	-11.912
▁paco	-11.9121
▁fascial	-11.9123
ult	-11.9124
▁provincial	-11.9124
▁gastrostomy	-11.9124
▁ageing	-11.9124
cellular	-11.9124
▁roof	-11.9125
▁muscularis	-11.9126
▁aza	-11.9126
▁seventy	-11.9127
▁hbov	-11.9128
▁0010	-11.9129
troesophageal	-11.913
▁rig	-11.913
▁managers	-11.913
▁vu	-11.9131
gcg	-11.9132
▁ix	-11.9136
▁literacy	-11.9136
▁explicitly	-11.9136
▁depleted	-11.9138
▁evd	-11.9138
▁marseille	-11.9139
▁psoriatic	-11.9139
▁vibrio	-11.9139
▁align	-11.914
▁precipitation	-11.9141
▁suppressive	-11.9141
resectable	-11.9141
▁postmortem	-11.9144
▁interposition	-11.9145
▁skilled	-11.9148
▁financially	-11.9149
▁peptic	-11.915
uck	-11.9154
▁diets	-11.9154
▁193	-11.9158
▁folic	-11.9159
▁rickettsia	-11.9159
▁typhus	-11.9159
▁hardware	-11.9159
▁caf	-11.916
▁ulcerations	-11.9162
▁solving	-11.9164
▁contractility	-11.9164
▁bak	-11.9166
▁colorles	-11.9167
▁persists	-11.9169
sure	-11.9169
▁mun	-11.9171
aro	-11.9174
ray	-11.9176
▁handed	-11.9177
aires	-11.9178
▁181	-11.9179
▁paternal	-11.9179
▁dream	-11.9179
▁adapter	-11.918
▁proteases	-11.9181
▁mdct	-11.9183
hen	-11.9183
▁hypothalamus	-11.9184
und	-11.9185
pruritic	-11.9186
▁conformational	-11.9187
▁crypt	-11.9188
▁gluco	-11.9188
▁itp	-11.9189
▁gyrus	-11.919
▁ingredients	-11.9191
▁pasteur	-11.9191
▁fascinating	-11.9194
▁bronchoscope	-11.9195
sens	-11.9195
▁ggt	-11.9196
▁wasting	-11.9198
▁intervertebral	-11.92
▁analogous	-11.9201
▁gat	-11.9201
▁alignments	-11.9203
▁albendazole	-11.9205
▁adr	-11.9205
▁prrsv	-11.9206
▁stereotactic	-11.921
▁amorphous	-11.921
▁jar	-11.921
▁urogenital	-11.921
gle	-11.9214
▁proteomic	-11.9215
▁arb	-11.9215
lim	-11.9216
▁ctx	-11.9219
▁discrepancies	-11.922
▁applicability	-11.9225
▁saturday	-11.9225
elected	-11.9226
▁golden	-11.923
▁infarcts	-11.9231
▁descent	-11.9233
elia	-11.9233
press	-11.9233
▁att	-11.9235
▁222	-11.9235
▁cellulose	-11.9235
▁fourteen	-11.9235
▁promoters	-11.9235
▁taxonomy	-11.9235
ovirus	-11.9235
▁apple	-11.924
▁reoperation	-11.924
▁cuboid	-11.924
▁colostomy	-11.9241
▁urge	-11.9241
▁theorem	-11.9241
127	-11.9242
▁commensal	-11.9245
uch	-11.9246
▁stiff	-11.9247
gb	-11.925
rate	-11.925
▁223	-11.925
▁downregulation	-11.9251
rich	-11.9252
▁organelles	-11.9252
▁serogroup	-11.9256
▁sulcus	-11.9256
▁adsorption	-11.9256
▁kra	-11.9257
▁gluten	-11.9258
▁finished	-11.9264
▁extraocular	-11.9266
▁knew	-11.9266
▁340	-11.9267
typic	-11.927
dent	-11.927
endo	-11.9271
axial	-11.9272
▁gonad	-11.9274
▁lacked	-11.9275
some	-11.9277
▁gly	-11.9278
▁275	-11.9281
▁biodiversity	-11.9281
▁mari	-11.9285
rx	-11.9285
onceptualization	-11.9285
▁hydroxide	-11.9286
▁retinitis	-11.9291
▁disturbed	-11.9292
hold	-11.9293
▁costal	-11.9296
▁prefrontal	-11.9296
▁clots	-11.9297
▁tae	-11.9299
▁choledoch	-11.9301
▁bulky	-11.9302
otype	-11.9302
▁bn	-11.9302
▁garden	-11.9304
▁xt	-11.9304
▁smrt	-11.9305
▁purity	-11.9309
▁occasion	-11.9309
▁attenuate	-11.9311
▁thrombolytic	-11.9312
▁adjunctive	-11.9313
▁mpo	-11.9313
▁sig	-11.9313
▁shu	-11.9314
gent	-11.9317
▁mumbai	-11.9322
▁happy	-11.9322
▁fv	-11.9324
▁roux	-11.9326
▁committees	-11.9326
▁oocyte	-11.9328
▁biol	-11.933
▁plt	-11.9336
▁dull	-11.9336
brook	-11.9337
▁cac	-11.9337
▁nasopharynx	-11.9338
iness	-11.9342
▁cytoskeleton	-11.9343
00	-11.9343
▁aquatic	-11.9343
▁locking	-11.9344
▁spikes	-11.9344
▁lanka	-11.9344
▁harvesting	-11.9345
▁estradiol	-11.9345
▁rnase	-11.9345
101	-11.9348
▁metatarsal	-11.9348
▁hus	-11.9348
▁debated	-11.9351
▁exo	-11.9351
▁glycine	-11.9354
▁eczema	-11.9358
ones	-11.9361
▁nonsteroidal	-11.9363
▁destroy	-11.9367
▁emotion	-11.9369
▁autonomous	-11.9374
▁spt	-11.9375
▁jackson	-11.9379
▁scann	-11.938
▁specify	-11.9381
▁proximally	-11.9381
pyr	-11.9386
▁piglets	-11.9387
▁signatures	-11.9387
▁republish	-11.9389
▁psc	-11.939
▁hela	-11.9394
▁384	-11.9394
▁fibrillar	-11.9394
alis	-11.9396
▁182	-11.9397
▁pancytopenia	-11.94
▁kaposi	-11.94
[...]
