<unk>	0
▁the	-3.09261
▁of	-3.50681
▁and	-3.65813
▁in	-3.88217
▁to	-4.16674
▁a	-4.28636
▁0	-4.49298
▁1	-4.71373
▁for	-4.7555
▁with	-4.80877
s	-4.85124
▁is	-5.05874
▁was	-5.07432
▁2	-5.07632
▁were	-5.08864
▁that	-5.1308
▁	-5.19291
▁as	-5.23095
▁by	-5.26302
▁3	-5.29279
2	-5.44933
1	-5.472
▁c	-5.4891
▁5	-5.50091
▁on	-5.5456
▁from	-5.55986
▁are	-5.56895
▁4	-5.60093
▁at	-5.61241
▁or	-5.66672
▁this	-5.66987
▁be	-5.73609
▁s	-5.76931
▁p	-5.82734
▁we	-5.91743
a	-5.91761
▁6	-5.9284
▁an	-5.99634
▁not	-6.07458
▁al	-6.08893
▁cells	-6.09538
▁7	-6.10683
▁10	-6.11258
▁et	-6.13559
d	-6.17663
3	-6.19227
▁8	-6.21035
▁n	-6.21342
ing	-6.21366
▁which	-6.21978
▁h	-6.23708
▁data	-6.23789
▁study	-6.27556
▁have	-6.29098
▁between	-6.344
▁using	-6.34947
▁figure	-6.3499
▁these	-6.3669
▁it	-6.36747
▁9	-6.39796
▁b	-6.40901
▁all	-6.41962
▁e	-6.43881
b	-6.44318
▁t	-6.44776
▁also	-6.48582
▁used	-6.50684
c	-6.52423
▁cell	-6.52456
▁patients	-6.54078
▁g	-6.57407
▁analysis	-6.60342
▁can	-6.60833
ed	-6.61636
4	-6.62072
▁d	-6.62653
▁no	-6.63179
▁fig	-6.65109
▁been	-6.66646
▁m	-6.66767
▁has	-6.6698
▁i	-6.6739
▁two	-6.69252
▁after	-6.70373
e	-6.72115
▁than	-6.72312
▁expression	-6.72703
▁each	-6.73001
▁their	-6.74877
▁results	-6.74978
▁other	-6.75326
▁more	-6.75768
▁time	-6.79705
▁one	-6.8004
m	-6.81355
▁table	-6.82617
▁may	-6.84167
▁12	-6.8424
▁our	-6.85854
▁different	-6.87715
▁20	-6.89389
▁group	-6.90099
▁both	-6.91629
▁μ	-6.9301
▁studies	-6.93206
▁but	-6.93683
▁l	-6.95144
▁15	-6.95791
▁high	-6.98101
▁protein	-6.98454
l	-6.98567
ly	-6.99481
▁r	-7.00075
▁f	-7.00271
▁based	-7.00429
▁number	-7.00712
g	-7.00819
▁such	-7.01342
▁control	-7.02195
▁treatment	-7.03538
▁11	-7.04568
▁however	-7.05545
▁model	-7.06052
▁only	-7.06287
▁during	-7.09198
▁13	-7.1302
▁14	-7.1303
▁when	-7.13472
▁shown	-7.13558
▁30	-7.13725
▁into	-7.14248
▁gene	-7.14464
▁significant	-7.14701
▁16	-7.15364
▁levels	-7.16775
▁found	-7.17048
▁18	-7.1841
▁genes	-7.19231
▁non	-7.19459
▁compared	-7.19995
▁there	-7.2081
5	-7.21986
h	-7.22084
▁well	-7.23265
▁had	-7.23941
▁25	-7.25095
▁three	-7.25143
▁24	-7.26427
r	-7.26668
▁they	-7.26687
▁health	-7.27076
n	-7.27146
▁activity	-7.27229
▁effect	-7.28572
y	-7.28633
▁50	-7.29333
▁most	-7.30131
▁observed	-7.30154
▁test	-7.30877
▁100	-7.31219
▁could	-7.31275
▁17	-7.3129
o	-7.31362
▁reported	-7.31409
▁performed	-7.31476
▁associated	-7.31669
▁first	-7.31818
▁mean	-7.32471
6	-7.32513
▁use	-7.3373
▁total	-7.34526
▁level	-7.34712
▁its	-7.37736
▁higher	-7.3788
▁ml	-7.38688
▁k	-7.39493
▁mm	-7.39762
▁x	-7.39806
▁v	-7.40265
▁mice	-7.40343
▁increased	-7.40996
▁19	-7.41266
▁specific	-7.41976
▁cancer	-7.42391
▁05	-7.42858
▁samples	-7.43039
▁research	-7.43469
▁low	-7.43474
t	-7.44643
p	-7.44952
▁values	-7.45394
▁type	-7.45407
▁within	-7.45678
▁age	-7.45948
▁showed	-7.47238
▁effects	-7.48244
f	-7.49376
▁o	-7.49479
▁while	-7.49556
i	-7.50365
▁system	-7.51259
▁significantly	-7.5129
▁groups	-7.51638
▁cd	-7.52144
▁then	-7.53472
▁min	-7.53621
▁human	-7.5372
▁some	-7.54658
▁21	-7.55181
▁disease	-7.55453
▁response	-7.55495
▁under	-7.56026
▁if	-7.56537
▁information	-7.56908
▁related	-7.57283
▁same	-7.57322
▁further	-7.57746
▁through	-7.58006
▁up	-7.5853
▁value	-7.58788
▁due	-7.60266
▁respectively	-7.6028
▁will	-7.60289
▁40	-7.6067
▁clinical	-7.60689
▁including	-7.60873
▁risk	-7.60966
▁22	-7.61041
▁species	-7.61402
▁where	-7.61816
▁over	-7.61987
▁those	-7.622
▁dna	-7.62202
▁among	-7.62347
▁additional	-7.62504
▁rate	-7.62515
7	-7.62781
▁similar	-7.64013
▁co	-7.64102
▁years	-7.64223
▁sample	-7.64628
▁95	-7.6545
▁per	-7.65758
▁positive	-7.65929
▁23	-7.66845
al	-7.67105
▁proteins	-7.67362
▁mg	-7.67784
▁function	-7.68211
8	-7.68317
▁present	-7.68705
▁increase	-7.69668
▁anti	-7.70345
▁methods	-7.71165
▁factors	-7.72046
▁obtained	-7.72284
▁following	-7.72655
▁28	-7.72973
▁who	-7.72988
▁patient	-7.7372
▁population	-7.74345
▁thus	-7.74385
▁important	-7.75073
▁therefore	-7.75154
▁001	-7.75325
▁lower	-7.75345
▁26	-7.75351
▁differences	-7.76325
9	-7.76378
▁would	-7.76949
▁participants	-7.77439
▁method	-7.77699
▁size	-7.77921
▁conditions	-7.78001
▁described	-7.78246
▁potential	-7.78357
▁because	-7.79568
▁27	-7.79709
▁growth	-7.80028
▁treated	-7.80241
▁induced	-7.80281
▁37	-7.80314
k	-7.80336
▁any	-7.80552
▁did	-7.80995
▁changes	-7.81063
▁identified	-7.81555
▁out	-7.81753
▁60	-7.81911
▁addition	-7.82143
▁role	-7.82214
▁development	-7.82772
▁about	-7.83509
▁j	-7.83648
▁35	-7.83759
▁authors	-7.84538
▁29	-7.84759
ic	-7.85462
▁day	-7.85965
▁β	-7.8626
▁il	-7.86358
▁01	-7.86413
▁single	-7.87761
▁acid	-7.87835
▁blood	-7.88542
▁set	-7.88868
▁tumor	-7.88903
▁although	-7.89972
▁new	-7.90002
▁case	-7.9038
▁care	-7.91435
▁y	-7.91665
▁several	-7.91707
10	-7.91961
▁experiments	-7.9198
▁days	-7.92416
▁water	-7.92579
▁33	-7.92836
▁binding	-7.9304
▁according	-7.93296
▁32	-7.93521
▁without	-7.93623
▁supplementary	-7.93797
▁measured	-7.93874
▁range	-7.94026
▁tissue	-7.94157
▁process	-7.94189
▁work	-7.94901
x	-7.9563
▁cases	-7.9565
▁previous	-7.95875
▁31	-7.95884
▁de	-7.95926
▁file	-7.96116
▁small	-7.96426
▁see	-7.96533
▁structure	-7.97479
▁α	-7.97517
▁36	-7.97767
▁standard	-7.98476
▁included	-7.98615
▁post	-7.99149
▁ca	-7.99158
▁should	-7.99448
▁factor	-7.99795
▁negative	-7.99798
▁less	-7.99887
▁concentration	-7.99898
0	-7.99917
▁large	-8.00069
▁48	-8.00072
▁here	-8.00146
▁presence	-8.00508
▁surface	-8.00981
▁like	-8.01016
▁nm	-8.01051
▁change	-8.01924
▁34	-8.02177
▁difference	-8.02336
▁many	-8.02634
▁pre	-8.03702
▁region	-8.04075
▁pcr	-8.04107
▁models	-8.04125
▁45	-8.04147
▁infection	-8.04503
es	-8.04518
▁order	-8.04807
▁analyses	-8.04838
▁four	-8.04874
▁u	-8.05078
▁before	-8.05563
▁previously	-8.05788
▁so	-8.05839
▁temperature	-8.05882
er	-8.06441
▁rna	-8.06601
▁sequence	-8.06606
▁normal	-8.0721
▁primary	-8.07329
▁expressed	-8.07331
▁80	-8.07657
▁given	-8.08084
▁z	-8.0858
▁target	-8.08914
▁phase	-8.08967
▁average	-8.09561
▁line	-8.09777
▁available	-8.10099
▁reduced	-8.10112
▁activation	-8.10213
▁00	-8.10859
▁show	-8.11004
▁considered	-8.11141
▁possible	-8.11149
▁38	-8.11264
▁ci	-8.11291
▁individual	-8.11415
▁vs	-8.11684
▁distribution	-8.11704
▁area	-8.12499
▁w	-8.13343
▁result	-8.13494
▁known	-8.13955
▁ii	-8.14147
▁long	-8.14363
▁analyzed	-8.14372
▁second	-8.14383
▁relative	-8.14447
▁very	-8.14687
▁stress	-8.14734
▁multiple	-8.14924
▁cm	-8.15084
▁mir	-8.15568
▁being	-8.15658
▁do	-8.15734
▁complex	-8.15777
▁whether	-8.16145
▁current	-8.1644
▁determined	-8.16441
▁usa	-8.16483
▁since	-8.16485
▁indicated	-8.1653
▁39	-8.16818
▁calculated	-8.17077
11	-8.17267
▁children	-8.17356
▁containing	-8.17753
▁90	-8.18556
▁evidence	-8.18701
12	-8.18732
▁000	-8.18758
▁might	-8.18968
▁statistical	-8.19111
▁ratio	-8.19382
▁70	-8.19574
▁involved	-8.19867
▁ms	-8.2066
▁support	-8.20742
▁parameters	-8.2094
▁example	-8.20977
▁scale	-8.21003
▁brain	-8.21055
▁findings	-8.21187
▁either	-8.2129
▁women	-8.21404
_	-8.21898
▁42	-8.21912
▁ph	-8.22473
▁weight	-8.23488
▁body	-8.235
▁above	-8.23739
▁site	-8.24073
▁detected	-8.24184
▁state	-8.24987
▁point	-8.25371
▁experimental	-8.25795
▁production	-8.25857
▁quality	-8.25972
▁75	-8.26399
▁44	-8.26561
▁length	-8.26618
▁across	-8.26703
▁presented	-8.26786
▁approach	-8.26924
▁shows	-8.27455
▁likely	-8.27525
▁regions	-8.27553
▁against	-8.27596
▁43	-8.27759
▁assay	-8.27873
▁year	-8.27886
▁sequences	-8.28039
▁early	-8.28069
▁score	-8.2865
▁how	-8.28844
▁even	-8.29058
▁lines	-8.29307
▁frequency	-8.29773
in	-8.29835
▁41	-8.29909
▁genome	-8.2997
▁independent	-8.30122
▁pathway	-8.30354
▁manuscript	-8.30385
v	-8.30698
▁demonstrated	-8.30978
▁sites	-8.3106
▁molecular	-8.31105
▁46	-8.3118
▁performance	-8.31229
▁comparison	-8.31259
▁least	-8.31295
▁left	-8.31382
▁dependent	-8.31531
▁drug	-8.32074
▁period	-8.32116
▁sd	-8.32521
▁serum	-8.327
▁individuals	-8.32822
▁functional	-8.32831
▁common	-8.3292
us	-8.33206
▁red	-8.33412
▁medical	-8.33721
▁concentrations	-8.33794
▁overall	-8.33897
▁family	-8.33964
▁months	-8.34008
▁stage	-8.34295
▁interaction	-8.34462
▁solution	-8.34583
▁various	-8.34654
▁q	-8.34881
▁association	-8.35151
▁free	-8.35176
▁medium	-8.3542
▁genetic	-8.35578
▁signaling	-8.35734
▁re	-8.36323
▁collected	-8.36414
▁part	-8.36464
▁right	-8.36552
▁mouse	-8.36672
▁correlation	-8.36776
▁life	-8.36882
▁47	-8.36962
▁55	-8.36964
▁characteristics	-8.3706
▁2013	-8.37216
▁network	-8.37379
▁contrast	-8.37383
▁conducted	-8.37394
▁2012	-8.37619
▁defined	-8.37862
▁end	-8.38063
▁membrane	-8.38114
▁self	-8.38208
▁light	-8.38588
▁via	-8.38708
▁provided	-8.38981
▁2014	-8.39044
▁resistance	-8.3905
▁variables	-8.39197
▁formation	-8.39328
▁energy	-8.39385
▁signal	-8.39609
▁general	-8.39609
▁survival	-8.39733
▁form	-8.39845
▁design	-8.39933
▁decreased	-8.4061
▁49	-8.40731
▁selected	-8.40947
▁provide	-8.4096
▁exposure	-8.4121
13	-8.4145
▁applied	-8.41451
▁images	-8.41475
▁kg	-8.415
▁animals	-8.41597
▁interest	-8.41723
α	-8.41759
▁followed	-8.42227
▁65	-8.42314
▁major	-8.4247
▁times	-8.42523
▁loss	-8.42718
▁flow	-8.4326
▁dose	-8.43823
▁responses	-8.43839
▁status	-8.43873
▁reference	-8.44395
▁field	-8.45107
▁2015	-8.45126
▁72	-8.45147
▁university	-8.45714
▁rates	-8.45747
▁2011	-8.45852
▁culture	-8.45948
▁indicate	-8.46046
▁wt	-8.46056
▁reduction	-8.46084
▁material	-8.46118
16	-8.46206
▁subjects	-8.46415
▁mass	-8.46526
▁density	-8.46563
▁final	-8.46636
▁2010	-8.4698
▁another	-8.47136
▁materials	-8.47188
▁recent	-8.47204
▁social	-8.47281
▁five	-8.47438
▁main	-8.47999
β	-8.48221
▁na	-8.49119
▁strain	-8.49128
▁56	-8.49153
▁content	-8.49224
▁required	-8.4923
14	-8.49336
▁hiv	-8.49356
▁52	-8.49413
▁derived	-8.49455
▁receptor	-8.4954
▁revealed	-8.49654
▁detection	-8.50249
▁types	-8.50343
▁active	-8.50395
▁54	-8.50741
▁corresponding	-8.51096
▁developed	-8.51247
▁sub	-8.51605
▁tested	-8.51691
▁53	-8.52186
th	-8.52216
▁therapy	-8.52235
▁domain	-8.52253
▁whereas	-8.52429
▁reaction	-8.52534
▁mrna	-8.52594
▁male	-8.52767
▁review	-8.52905
▁58	-8.53057
▁highly	-8.53482
▁96	-8.5354
▁antibody	-8.53564
▁64	-8.53666
▁57	-8.54404
▁furthermore	-8.54626
▁national	-8.54627
▁hospital	-8.54973
▁baseline	-8.55243
▁99	-8.55415
▁controls	-8.55774
▁consistent	-8.55813
▁software	-8.55829
▁51	-8.55856
▁suggest	-8.55906
▁impact	-8.56029
▁does	-8.56169
▁200	-8.56196
▁term	-8.56392
▁greater	-8.56418
▁physical	-8.56463
q	-8.5659
▁systems	-8.56726
▁initial	-8.56928
▁discussion	-8.57318
▁weeks	-8.57483
15	-8.57614
▁67	-8.57783
▁determine	-8.57857
▁training	-8.58158
▁strains	-8.58295
▁prior	-8.58317
▁experiment	-8.58638
▁regulation	-8.5865
▁immune	-8.58806
▁liver	-8.59151
▁2009	-8.59211
▁animal	-8.59551
▁better	-8.59622
▁made	-8.59941
▁mechanisms	-8.60032
▁volume	-8.60178
▁areas	-8.60235
▁local	-8.6026
▁image	-8.60271
▁59	-8.60339
▁condition	-8.60463
▁female	-8.60569
▁index	-8.60719
▁moreover	-8.61118
▁plant	-8.6123
▁intervention	-8.61241
▁63	-8.61344
st	-8.61362
▁2016	-8.61395
▁inflammatory	-8.61424
▁relationship	-8.61524
▁increasing	-8.61811
▁represent	-8.63099
▁way	-8.6311
▁tissues	-8.63123
▁neurons	-8.63414
▁diagnosis	-8.63618
▁added	-8.6367
▁decrease	-8.63791
▁ability	-8.63885
▁incubated	-8.64121
▁key	-8.6425
▁glucose	-8.64527
17	-8.64548
▁buffer	-8.64622
▁mechanism	-8.64718
▁properties	-8.64744
▁wild	-8.64785
18	-8.64891
▁effective	-8.64921
▁often	-8.64995
▁interactions	-8.65079
▁inhibition	-8.65219
▁populations	-8.65358
▁us	-8.65448
▁66	-8.65622
▁infected	-8.65629
▁error	-8.65911
▁68	-8.65945
▁mediated	-8.66076
▁pressure	-8.66091
▁estimated	-8.66121
▁need	-8.66153
▁85	-8.66376
▁62	-8.66502
▁follow	-8.66538
um	-8.66572
▁food	-8.66613
▁assessed	-8.66826
▁people	-8.66841
▁affect	-8.66903
▁fold	-8.66976
19	-8.67005
▁plasma	-8.67079
▁cellular	-8.67164
▁cross	-8.67186
▁step	-8.67442
▁biological	-8.67451
▁un	-8.67528
▁2008	-8.6761
▁expected	-8.67811
▁generated	-8.6786
▁still	-8.67863
▁resulting	-8.68013
▁transcription	-8.68014
▁sensitivity	-8.68125
▁scores	-8.6826
▁short	-8.68317
▁paper	-8.68784
▁bone	-8.68968
▁limited	-8.6904
▁61	-8.69064
▁journal	-8.69313
▁69	-8.69812
j	-8.69814
▁knowledge	-8.69889
▁amino	-8.70175
▁include	-8.70179
▁selection	-8.70211
▁median	-8.7031
▁identify	-8.70679
▁them	-8.70699
▁full	-8.70848
▁six	-8.70934
▁measurements	-8.70997
▁program	-8.7102
▁muscle	-8.71035
▁source	-8.71083
▁maximum	-8.71254
▁features	-8.71602
▁pathways	-8.71621
▁proposed	-8.71671
▁points	-8.71932
▁03	-8.72006
▁vivo	-8.72059
▁pattern	-8.72343
▁vitro	-8.72373
▁intensity	-8.72423
▁02	-8.7253
▁processes	-8.72584
▁98	-8.72601
▁terms	-8.72755
▁influence	-8.72859
▁cycle	-8.72879
▁trial	-8.72902
table	-8.72994
20	-8.7313
▁absence	-8.73134
▁diseases	-8.73235
▁symptoms	-8.73326
▁lung	-8.73335
▁tests	-8.73358
▁plants	-8.7368
▁outcomes	-8.73687
▁assessment	-8.73694
▁along	-8.73771
▁antibodies	-8.73812
▁secondary	-8.7387
▁pain	-8.74012
▁green	-8.74164
▁rt	-8.74176
▁patterns	-8.7424
▁blue	-8.74295
▁taken	-8.74443
▁mutant	-8.7452
▁examined	-8.74647
21	-8.74667
▁report	-8.74785
▁particular	-8.75159
▁04	-8.75189
▁staining	-8.75447
▁direct	-8.75611
▁linear	-8.75642
▁death	-8.75646
▁events	-8.75753
▁prevalence	-8.7578
▁whole	-8.75801
▁hand	-8.75887
▁sp	-8.75917
▁future	-8.75964
▁sex	-8.76058
▁mutations	-8.76256
▁position	-8.76312
▁supported	-8.76329
▁78	-8.76346
▁bp	-8.76405
▁section	-8.76477
▁means	-8.76939
▁immuno	-8.77014
▁down	-8.77018
▁power	-8.7704
▁community	-8.77168
▁much	-8.7726
▁suggested	-8.77303
▁cause	-8.77553
▁73	-8.77578
is	-8.77608
▁carried	-8.77615
▁introduction	-8.77762
▁components	-8.7788
▁evaluated	-8.77885
▁measures	-8.78013
▁virus	-8.78193
▁76	-8.78395
▁chronic	-8.78431
▁collection	-8.78467
▁real	-8.78593
▁mortality	-8.7862
▁distance	-8.78721
▁western	-8.78754
▁trials	-8.78848
▁percentage	-8.78887
▁outcome	-8.79074
▁confirmed	-8.79099
▁showing	-8.79217
▁structures	-8.79221
▁74	-8.79463
▁pro	-8.79471
▁combination	-8.79498
▁able	-8.7966
▁71	-8.79748
▁complete	-8.79761
▁good	-8.79834
▁suggesting	-8.79943
▁2007	-8.79946
▁peak	-8.8001
▁hours	-8.80085
▁larger	-8.80117
▁isolated	-8.80226
▁breast	-8.80344
▁note	-8.80383
▁approximately	-8.80493
▁77	-8.80596
▁iii	-8.80698
▁97	-8.80732
▁94	-8.80806
▁imaging	-8.80922
53	-8.80944
▁multi	-8.80963
▁host	-8.81025
▁matrix	-8.81124
▁variation	-8.81195
▁together	-8.81293
▁seen	-8.81323
▁regression	-8.81477
▁criteria	-8.8157
▁amount	-8.81677
▁functions	-8.81828
▁measure	-8.8184
▁behavior	-8.81914
▁activities	-8.81945
▁proliferation	-8.8202
▁lead	-8.82173
▁http	-8.8242
▁indicates	-8.82471
▁variable	-8.82625
▁compounds	-8.82682
▁recently	-8.82942
▁version	-8.82975
▁week	-8.82984
▁lack	-8.83088
▁bio	-8.8312
▁rats	-8.83134
▁investigated	-8.83139
▁88	-8.83492
▁predicted	-8.83867
▁89	-8.83939
▁increases	-8.84072
▁79	-8.84172
▁protocol	-8.84254
▁strong	-8.84303
▁versus	-8.84324
▁finally	-8.84388
▁below	-8.84498
▁go	-8.84585
▁1371	-8.84691
▁86	-8.84696
on	-8.84707
▁bacterial	-8.85139
▁ct	-8.85196
▁directly	-8.85212
▁83	-8.85386
▁regulated	-8.85544
▁healthy	-8.85561
▁central	-8.85627
▁84	-8.85658
▁china	-8.85731
▁what	-8.85735
50	-8.85912
▁upon	-8.85946
▁side	-8.8603
▁natural	-8.86121
▁indicating	-8.8615
▁old	-8.8644
▁approved	-8.86617
▁few	-8.8666
▁81	-8.86715
▁rs	-8.8709
▁task	-8.87163
▁designed	-8.87254
▁literature	-8.87259
▁received	-8.87349
▁87	-8.87472
▁500	-8.87714
▁93	-8.87827
▁diabetes	-8.87923
▁molecules	-8.88021
▁sequencing	-8.88099
▁82	-8.88519
▁92	-8.88625
▁testing	-8.88919
▁pd	-8.89101
▁fact	-8.89116
▁environment	-8.89364
▁especially	-8.89469
▁evaluation	-8.89477
▁published	-8.8948
▁markers	-8.89604
▁combined	-8.89934
▁differentiation	-8.89935
▁affected	-8.89939
▁2017	-8.89956
▁procedure	-8.9005
▁assess	-8.90325
▁produced	-8.90438
▁pbs	-8.90599
▁numbers	-8.90975
▁highest	-8.90996
▁synthesis	-8.91002
▁2006	-8.91021
▁white	-8.91076
▁severe	-8.91255
▁vector	-8.91339
▁06	-8.9134
▁relevant	-8.91454
▁states	-8.91486
▁kit	-8.91658
▁top	-8.91666
▁click	-8.91747
▁layer	-8.91787
▁measurement	-8.91881
▁last	-8.91898
▁background	-8.91941
▁next	-8.92044
▁apoptosis	-8.9233
▁rather	-8.92347
▁suggests	-8.92504
▁relatively	-8.92685
▁fluorescence	-8.93114
▁pi	-8.93356
▁significance	-8.93496
▁cluster	-8.93532
▁center	-8.93546
▁surgery	-8.93766
▁products	-8.93884
▁best	-8.93934
▁metabolic	-8.93938
z	-8.94058
▁critical	-8.94067
▁representative	-8.94153
▁ng	-8.94459
ve	-8.94469
▁processing	-8.94745
▁duration	-8.94994
w	-8.9543
▁bar	-8.95455
▁caused	-8.95555
ation	-8.95585
▁08	-8.95641
▁cost	-8.95648
▁release	-8.95694
▁environmental	-8.96003
▁07	-8.96063
▁proportion	-8.96093
▁management	-8.96202
▁reduce	-8.96279
▁education	-8.96313
▁around	-8.96318
▁panel	-8.96331
▁play	-8.96341
▁recorded	-8.96348
▁heart	-8.96388
▁adult	-8.96521
▁interests	-8.96656
▁gfp	-8.96767
▁bacteria	-8.96794
▁yes	-8.96833
▁competing	-8.96958
▁ch	-8.96968
▁ma	-8.97027
▁91	-8.97386
▁statistically	-8.97403
▁studied	-8.97558
▁fixed	-8.97838
▁history	-8.97901
▁laboratory	-8.97933
▁improve	-8.98108
▁her	-8.98177
▁acute	-8.98522
25	-8.98746
▁st	-8.98759
▁represents	-8.98855
▁database	-8.98983
▁damage	-8.98995
▁class	-8.99107
▁component	-8.9925
▁contributions	-8.99387
▁mutation	-8.99421
▁consent	-8.99428
▁open	-8.9954
▁hr	-8.99747
▁despite	-8.99861
▁tumors	-9.00047
▁viral	-9.00309
▁global	-9.00425
▁identification	-9.00513
▁2005	-9.00575
▁having	-9.00701
▁third	-9.00714
▁degree	-9.00952
▁men	-9.01215
▁novel	-9.01276
▁pone	-9.01398
▁project	-9.01572
▁black	-9.01795
▁regarding	-9.01801
▁accuracy	-9.021
▁cohort	-9.02229
▁log	-9.02297
▁understanding	-9.02306
▁09	-9.02383
▁remains	-9.02395
▁drugs	-9.02427
▁enzyme	-9.02503
▁location	-9.026
▁iv	-9.02695
22	-9.02724
▁120	-9.02805
▁stimulation	-9.02821
▁pa	-9.02993
▁cognitive	-9.03025
▁chemical	-9.03056
▁micro	-9.03136
▁inter	-9.03141
▁prepared	-9.03142
ally	-9.03215
▁activated	-9.03231
▁access	-9.03959
▁map	-9.04409
able	-9.04464
▁help	-9.04645
▁countries	-9.05054
▁random	-9.05153
▁injury	-9.05216
▁every	-9.05238
▁he	-9.05325
▁inhibitor	-9.05428
24	-9.05472
▁until	-9.05529
▁improved	-9.06106
▁visual	-9.06127
▁metabolism	-9.06217
▁structural	-9.06543
▁public	-9.06615
▁quantitative	-9.06629
▁application	-9.06671
▁core	-9.06708
▁particularly	-9.06752
▁dr	-9.06874
▁er	-9.0707
▁alternative	-9.07122
▁context	-9.07192
▁administration	-9.07416
▁essential	-9.07464
▁genomic	-9.07503
▁his	-9.0765
▁prevent	-9.07765
▁algorithm	-9.07827
▁needed	-9.07904
▁2000	-9.0792
ers	-9.07924
▁learning	-9.08022
▁ns	-9.08279
▁correlated	-9.0831
▁established	-9.08361
▁wide	-9.08417
▁mainly	-9.08482
▁practice	-9.08625
▁enhanced	-9.08643
▁se	-9.08658
▁specifically	-9.08686
27	-9.08844
▁leading	-9.09194
▁assays	-9.094
▁adjusted	-9.09421
▁survey	-9.09492
▁insulin	-9.0962
u	-9.09635
▁clear	-9.09768
▁nuclear	-9.09776
▁lipid	-9.09935
▁produce	-9.10076
▁alone	-9.10117
▁nature	-9.10299
▁skin	-9.10307
▁poor	-9.10422
▁evaluate	-9.10433
▁ad	-9.10583
▁spatial	-9.10679
▁peptide	-9.10845
▁located	-9.10899
▁strategy	-9.11161
▁acids	-9.11193
▁la	-9.11205
▁stem	-9.1122
▁diet	-9.11298
▁gender	-9.11519
▁threshold	-9.11628
▁generation	-9.11759
▁members	-9.12121
▁provides	-9.12152
▁mixed	-9.12176
▁signals	-9.12221
▁original	-9.12316
▁inflammation	-9.12364
▁author	-9.12392
▁figures	-9.12428
▁hz	-9.125
▁extracted	-9.1255
▁screening	-9.12745
▁2004	-9.12764
▁sampling	-9.12791
▁exposed	-9.12871
▁0001	-9.13064
▁si	-9.13096
▁characterized	-9.13102
▁contact	-9.13109
▁space	-9.13126
▁bias	-9.13265
▁capacity	-9.13309
▁kinase	-9.13419
▁sem	-9.13457
or	-9.13463
▁memory	-9.13499
▁resulted	-9.1354
▁appropriate	-9.1382
▁you	-9.1386
▁linked	-9.14024
▁sections	-9.14089
▁incidence	-9.14109
▁bmi	-9.14157
▁room	-9.14261
▁series	-9.14327
▁phosphorylation	-9.14523
▁promoter	-9.14576
▁services	-9.14774
▁probability	-9.14863
▁substrate	-9.14959
▁chain	-9.14979
23	-9.15001
▁product	-9.1532
ii	-9.15353
▁th	-9.15364
▁parameter	-9.15491
id	-9.15509
▁axis	-9.15584
▁upper	-9.15586
▁view	-9.15656
▁necessary	-9.15659
▁subsequent	-9.15742
▁dataset	-9.15786
▁terminal	-9.15982
▁daily	-9.16035
▁later	-9.16085
▁mitochondrial	-9.16112
▁induction	-9.16363
▁progression	-9.16444
▁bars	-9.16674
▁media	-9.1678
▁stable	-9.16906
▁make	-9.17049
▁classification	-9.17132
▁injection	-9.17374
▁reports	-9.17544
▁transmission	-9.17667
▁ha	-9.17667
▁science	-9.17835
▁technology	-9.17849
▁residues	-9.17938
▁resolution	-9.17986
▁phenotype	-9.18129
▁internal	-9.18152
▁similarly	-9.18174
▁fat	-9.18174
▁fraction	-9.18239
▁marker	-9.18315
▁read	-9.18413
▁distinct	-9.1848
▁focus	-9.18717
▁action	-9.18767
▁account	-9.18862
▁investigate	-9.18901
▁child	-9.18919
▁composition	-9.18964
▁soil	-9.19099
▁modified	-9.19118
ia	-9.19158
▁scientific	-9.19304
▁therapeutic	-9.19427
▁additionally	-9.19475
▁certain	-9.19489
▁meta	-9.19492
▁unit	-9.19804
ity	-9.20002
▁generally	-9.20043
▁profile	-9.20062
me	-9.20117
▁experience	-9.20139
▁sigma	-9.20251
▁carbon	-9.2027
▁allow	-9.2029
▁adults	-9.20391
▁others	-9.20417
▁majority	-9.20492
▁hypothesis	-9.20511
▁treatments	-9.20571
▁funding	-9.20659
▁subject	-9.20672
▁constant	-9.20794
▁approaches	-9.208
▁1000	-9.20881
▁problem	-9.20947
▁importance	-9.20983
▁coli	-9.21039
▁stained	-9.21108
at	-9.21126
▁school	-9.21144
▁efficiency	-9.21188
▁sensitive	-9.21291
▁occur	-9.21361
▁females	-9.21373
▁elements	-9.2148
▁strategies	-9.21622
▁curve	-9.21654
▁109	-9.21671
▁migration	-9.21767
▁led	-9.21983
▁oxygen	-9.22109
▁fe	-9.22206
▁search	-9.22242
▁receptors	-9.22349
▁150	-9.22359
▁tnf	-9.22372
▁anova	-9.22382
▁gel	-9.22448
▁declare	-9.22516
▁variance	-9.2262
▁half	-9.22674
▁cannot	-9.23051
▁nf	-9.23093
▁controlled	-9.23113
▁input	-9.23145
▁mo	-9.23225
▁efficacy	-9.23249
▁interval	-9.23402
▁disorders	-9.23407
▁compound	-9.23467
▁mental	-9.23522
▁indeed	-9.23524
▁interventions	-9.23575
▁variants	-9.23667
▁young	-9.23726
▁di	-9.23744
▁germany	-9.23771
▁stages	-9.23938
▁problems	-9.23939
▁head	-9.24067
▁motor	-9.24104
▁obtain	-9.24375
▁poly	-9.24384
▁interestingly	-9.24461
▁air	-9.24468
▁washed	-9.24519
▁longer	-9.24571
en	-9.24614
▁actin	-9.24675
▁reverse	-9.24679
▁uk	-9.24721
▁infections	-9.24791
▁finding	-9.248
▁cultured	-9.24805
▁diversity	-9.24864
▁contribute	-9.25012
▁estimates	-9.25035
▁must	-9.25037
▁estimate	-9.25037
▁thank	-9.25155
38	-9.25243
▁strength	-9.25414
▁domains	-9.2548
▁300	-9.25486
28	-9.25504
▁regulate	-9.2579
ar	-9.26217
▁base	-9.26223
▁induce	-9.26259
▁electron	-9.2638
▁depression	-9.26803
▁done	-9.26888
▁consumption	-9.26911
▁males	-9.27152
▁extraction	-9.27242
▁alcohol	-9.2735
▁stability	-9.27375
▁targets	-9.27385
▁transport	-9.27465
▁2003	-9.27494
▁off	-9.27605
▁exercise	-9.27787
▁relationships	-9.2784
▁close	-9.27877
▁conclusion	-9.28071
▁preparation	-9.28117
▁removed	-9.28176
▁ros	-9.28196
▁ko	-9.28196
40	-9.28417
▁act	-9.285
▁detect	-9.28697
▁far	-9.28797
▁strongly	-9.28837
▁deviation	-9.2901
▁equation	-9.29257
▁moderate	-9.29313
▁extract	-9.29374
▁incubation	-9.29408
▁failure	-9.29529
▁difficult	-9.2958
▁represented	-9.296
▁primers	-9.29674
ta	-9.29741
▁confidence	-9.29759
▁grade	-9.29842
▁ir	-9.29848
▁continuous	-9.29876
▁yield	-9.2996
▁onset	-9.30025
▁tool	-9.30105
▁mixture	-9.30185
▁normalized	-9.30257
26	-9.30312
▁double	-9.30345
▁delivery	-9.30415
▁degradation	-9.30509
▁month	-9.30511
▁decision	-9.30629
▁smaller	-9.30652
▁solid	-9.30669
▁accumulation	-9.3078
▁intake	-9.30895
rs	-9.31016
▁procedures	-9.31085
▁items	-9.31177
▁cultures	-9.31207
▁contributed	-9.31342
os	-9.31368
▁sets	-9.31369
▁conflict	-9.31446
▁minutes	-9.31517
▁transfer	-9.3158
▁placed	-9.31683
▁clusters	-9.31836
▁elevated	-9.31862
▁responsible	-9.32104
▁tree	-9.32112
▁leads	-9.32232
▁hence	-9.32256
▁usually	-9.32354
▁yet	-9.32435
▁regulatory	-9.32537
▁prediction	-9.32743
▁respect	-9.32746
▁mutants	-9.32772
▁cardiac	-9.32806
▁basis	-9.32953
▁middle	-9.32958
▁unique	-9.33046
▁intracellular	-9.33168
▁heat	-9.33237
▁older	-9.33264
▁course	-9.33478
▁seven	-9.33753
▁root	-9.33753
▁li	-9.33825
▁potentially	-9.34019
▁find	-9.34024
▁oral	-9.34041
▁now	-9.34099
▁resistant	-9.34174
▁diagnostic	-9.34205
▁compare	-9.34244
▁cl	-9.3432
▁unknown	-9.34452
▁networks	-9.34474
▁express	-9.34679
▁enzymes	-9.34696
▁almost	-9.3472
▁availability	-9.34734
▁direction	-9.34812
▁observation	-9.34821
▁currently	-9.34822
co	-9.34882
▁contains	-9.34894
▁lc	-9.34903
ca	-9.34915
▁conclusions	-9.34973
▁once	-9.35011
▁temporal	-9.35084
▁optimal	-9.35141
▁follows	-9.35182
▁students	-9.35471
▁making	-9.35514
ate	-9.35602
▁www	-9.35637
▁clearly	-9.35658
▁regard	-9.35706
▁smoking	-9.35712
▁pc	-9.35754
▁excluded	-9.3581
▁techniques	-9.35831
▁coefficient	-9.35837
▁pairs	-9.35839
▁tb	-9.35885
▁rat	-9.35963
▁ethics	-9.35968
▁throughout	-9.36121
man	-9.36153
▁observations	-9.36156
▁grant	-9.36157
▁questions	-9.36191
▁subsequently	-9.36272
▁spectra	-9.36356
▁inhibitors	-9.36474
▁article	-9.36489
▁ifn	-9.36525
▁questionnaire	-9.36634
▁technique	-9.36682
▁profiles	-9.36713
▁diameter	-9.36853
▁transfected	-9.36948
▁reads	-9.37
▁institute	-9.37
▁mode	-9.37047
30	-9.37088
▁world	-9.3716
▁isolates	-9.37267
▁comparisons	-9.37301
▁equal	-9.37323
▁extent	-9.37461
▁oxidative	-9.37507
▁nodes	-9.37512
▁os	-9.37662
▁intra	-9.37738
▁useful	-9.37831
▁agreement	-9.37851
▁towards	-9.37872
▁achieved	-9.37872
▁abundance	-9.38197
▁2002	-9.38353
▁column	-9.3863
▁node	-9.38849
▁forms	-9.38905
▁except	-9.38916
▁though	-9.39011
an	-9.39028
▁eight	-9.39085
▁vascular	-9.39111
▁none	-9.39164
▁detailed	-9.39267
▁genotype	-9.39308
▁underlying	-9.39321
▁medicine	-9.39336
▁birth	-9.39441
▁noted	-9.39499
▁event	-9.39614
▁grown	-9.39618
▁coding	-9.39682
▁igg	-9.39804
▁color	-9.39827
▁macrophages	-9.39892
▁publication	-9.39978
▁transition	-9.39979
▁pregnancy	-9.39998
▁channel	-9.40118
▁force	-9.40219
▁specificity	-9.40236
▁attention	-9.40258
▁monitoring	-9.40287
▁chromosome	-9.40311
▁stimuli	-9.40337
▁improvement	-9.40392
▁me	-9.4049
▁repeated	-9.40694
▁reflect	-9.40737
▁band	-9.40896
▁methylation	-9.40974
▁sources	-9.41023
▁demonstrate	-9.41035
▁simple	-9.41084
▁comparing	-9.41139
▁renal	-9.41253
▁guidelines	-9.41375
ct	-9.41539
▁committee	-9.41577
▁plates	-9.41638
▁feature	-9.41728
▁occurred	-9.41746
▁cortex	-9.41821
▁uptake	-9.41872
▁dynamics	-9.41887
▁limitations	-9.42214
▁400	-9.42326
▁causes	-9.42333
▁cut	-9.42337
▁bound	-9.42426
▁supporting	-9.42443
▁details	-9.42447
▁microscopy	-9.42488
▁near	-9.4249
▁developing	-9.42499
▁home	-9.42646
re	-9.42668
▁start	-9.427
ion	-9.42874
▁maternal	-9.42889
▁late	-9.42938
▁particles	-9.43094
▁become	-9.43115
▁summary	-9.43146
▁shape	-9.43152
▁providing	-9.43222
▁blot	-9.43466
▁nd	-9.43565
▁date	-9.43653
▁primer	-9.43657
▁fully	-9.43756
▁ion	-9.43861
▁develop	-9.43906
▁allowed	-9.43907
▁units	-9.44002
▁mb	-9.44022
▁external	-9.44151
▁formed	-9.44245
▁wall	-9.44305
▁gc	-9.44311
▁back	-9.4444
▁2001	-9.44484
▁allele	-9.44587
▁noise	-9.44639
▁lesions	-9.44681
▁2018	-9.44741
▁transcriptional	-9.44753
▁minimum	-9.44827
▁fish	-9.44921
▁conserved	-9.44967
▁mirna	-9.44999
▁lateral	-9.45111
▁reactions	-9.45186
▁little	-9.45325
▁plot	-9.45376
▁da	-9.45569
▁fit	-9.45577
▁differ	-9.45589
▁curves	-9.45705
▁neural	-9.45893
▁bi	-9.45895
▁participant	-9.45925
▁list	-9.45991
▁plate	-9.45992
▁ab	-9.46023
▁atp	-9.46066
▁informed	-9.46154
▁humans	-9.46259
▁surgical	-9.46294
▁differential	-9.46386
▁slightly	-9.46411
▁labeled	-9.46433
▁working	-9.46441
▁past	-9.46444
▁generate	-9.46446
▁movement	-9.46539
▁associations	-9.46668
▁remaining	-9.46684
▁foundation	-9.46694
▁mirnas	-9.46725
ness	-9.4675
▁take	-9.46771
▁106	-9.46802
▁validation	-9.46813
▁occurs	-9.46845
▁radiation	-9.46911
▁physiological	-9.47116
▁speed	-9.47168
▁exhibited	-9.47172
▁plasmid	-9.47227
ized	-9.4731
▁agents	-9.47376
▁commonly	-9.47385
▁already	-9.47418
▁rapid	-9.47543
▁examination	-9.47559
▁explained	-9.47756
▁spectrum	-9.47847
▁perform	-9.47871
▁resources	-9.48002
▁widely	-9.4801
▁sensor	-9.48018
▁antigen	-9.48066
▁implementation	-9.48093
▁employed	-9.48139
▁needs	-9.48156
▁depth	-9.48208
▁steps	-9.48237
▁cu	-9.48338
▁pr	-9.48385
▁simulation	-9.48396
▁targeting	-9.48572
▁epithelial	-9.48614
34	-9.48646
▁dl	-9.48698
▁phosphate	-9.48707
▁focused	-9.48757
▁recovery	-9.48913
ization	-9.48986
▁contained	-9.49127
▁interpretation	-9.49139
▁service	-9.49194
▁snps	-9.49197
▁105	-9.49274
▁setting	-9.49303
▁considering	-9.49342
▁calcium	-9.49392
▁kb	-9.49397
▁id	-9.49399
▁sodium	-9.49432
▁healthcare	-9.49452
▁statistics	-9.49505
▁ag	-9.49558
▁crystal	-9.49575
▁reviewed	-9.49635
▁manufacturer	-9.4969
▁question	-9.49785
▁syndrome	-9.49879
▁evolution	-9.49885
▁variability	-9.4994
▁targeted	-9.49995
▁probe	-9.5027
▁reducing	-9.50308
▁stroke	-9.50346
▁obesity	-9.5049
▁sufficient	-9.50509
▁hydrogen	-9.50563
▁purified	-9.50573
57	-9.50596
▁place	-9.50788
▁nano	-9.50796
▁online	-9.50815
ine	-9.50955
▁quantification	-9.51016
▁living	-9.5108
▁liquid	-9.51189
▁alpha	-9.51259
▁posterior	-9.51262
▁consider	-9.51351
▁gas	-9.51395
▁basal	-9.51405
▁south	-9.51428
▁typical	-9.51789
▁lps	-9.51889
▁aged	-9.51912
▁stimulus	-9.5203
▁categories	-9.52048
▁manner	-9.52136
▁displayed	-9.52275
▁output	-9.52288
▁peripheral	-9.52305
▁trans	-9.52386
▁includes	-9.52407
▁specimens	-9.52416
▁investigation	-9.52423
▁disorder	-9.52688
▁correlations	-9.52758
▁height	-9.528
▁international	-9.52817
▁separate	-9.52847
▁peptides	-9.52889
▁magnetic	-9.53
▁en	-9.5301
▁analysed	-9.53027
▁neuronal	-9.53235
▁sleep	-9.5326
▁understand	-9.53305
▁endothelial	-9.53306
▁ensure	-9.53495
▁sc	-9.53508
▁plus	-9.53529
▁block	-9.53567
▁localization	-9.53613
▁earlier	-9.53632
▁thickness	-9.53687
▁mmol	-9.53733
▁maintained	-9.53753
▁examine	-9.53902
▁ra	-9.53958
▁allows	-9.53973
as	-9.54072
▁basic	-9.54142
▁variety	-9.54232
▁leaf	-9.54253
45	-9.54332
▁costs	-9.54337
▁appear	-9.54383
▁severity	-9.54404
▁applications	-9.54476
▁acquisition	-9.54576
▁coverage	-9.54636
▁bottom	-9.54663
▁ec	-9.54673
▁kidney	-9.5484
▁cytokines	-9.54906
▁fatty	-9.55101
▁ex	-9.55305
▁119	-9.55392
▁respiratory	-9.55406
▁explain	-9.55554
▁dark	-9.55587
▁dynamic	-9.55684
▁technologies	-9.55767
▁complexes	-9.5581
▁cholesterol	-9.55921
▁replication	-9.55953
▁gain	-9.55968
ch	-9.55994
▁called	-9.55996
▁classified	-9.56003
▁true	-9.56013
▁tools	-9.56377
▁datasets	-9.56426
31	-9.56555
▁contribution	-9.56598
▁inclusion	-9.56629
▁metal	-9.5667
▁pm	-9.56675
▁just	-9.56705
▁institutional	-9.56832
▁turn	-9.56854
▁interact	-9.56928
▁possibility	-9.56934
▁appears	-9.56963
▁divided	-9.56964
▁requires	-9.56993
▁fluid	-9.57025
▁trend	-9.57029
▁conventional	-9.57043
▁met	-9.57243
▁instead	-9.57275
▁transcripts	-9.5737
▁snp	-9.5743
▁angle	-9.57456
▁beta	-9.57561
▁phylogenetic	-9.57584
ra	-9.57634
▁student	-9.57669
▁researchers	-9.5768
▁leaves	-9.57705
▁hyper	-9.57729
▁confirm	-9.57888
▁extracellular	-9.58065
▁traditional	-9.58178
▁ap	-9.58308
▁acquired	-9.58319
▁ref	-9.58346
32	-9.5836
▁org	-9.58479
▁laser	-9.58527
▁device	-9.5854
▁parents	-9.58802
▁akt	-9.58804
▁250	-9.59032
▁discussed	-9.59068
▁promote	-9.59068
▁optical	-9.59209
▁onto	-9.59223
yl	-9.59303
▁molecule	-9.59311
▁japan	-9.59408
▁cdna	-9.5948
▁missing	-9.59519
▁morphology	-9.5956
▁department	-9.59649
▁nucleotide	-9.59741
▁remained	-9.60035
▁ni	-9.60186
▁typically	-9.60205
▁cr	-9.60413
▁neutral	-9.60435
▁frequently	-9.60442
▁errors	-9.60486
▁families	-9.60501
▁text	-9.60511
▁mechanical	-9.60581
▁overexpression	-9.60656
le	-9.60732
▁maps	-9.60752
▁sa	-9.60781
▁methyl	-9.60882
▁eye	-9.6093
▁anxiety	-9.6096
▁mentioned	-9.6097
▁characteristic	-9.61106
▁entire	-9.61111
▁adverse	-9.61145
▁enriched	-9.61216
▁inhibitory	-9.61335
▁forward	-9.61446
▁own	-9.61602
▁tg	-9.61737
▁cat	-9.61792
▁ethanol	-9.61794
ous	-9.61842
42	-9.61859
▁square	-9.61998
▁roles	-9.62003
01	-9.62021
36	-9.62132
est	-9.62191
▁safety	-9.62227
▁again	-9.62365
▁comparable	-9.62384
▁intervals	-9.62405
▁choice	-9.62447
▁benefit	-9.62477
▁fast	-9.62505
▁relation	-9.62549
▁prevention	-9.62644
▁stored	-9.62645
expressing	-9.62659
▁uv	-9.62676
▁ratios	-9.62725
▁md	-9.6285
▁iron	-9.62942
▁contain	-9.63007
▁separated	-9.63061
▁my	-9.63067
▁encoding	-9.63161
▁origin	-9.63174
▁box	-9.63183
▁sirna	-9.63208
▁existing	-9.63253
▁fusion	-9.63365
▁chemotherapy	-9.63454
▁ligand	-9.63455
▁mri	-9.63468
▁partial	-9.63646
▁transferred	-9.63666
▁thermo	-9.63803
▁ar	-9.63846
▁assembly	-9.63885
▁shift	-9.64
▁pair	-9.64022
▁nitrogen	-9.6405
▁distributed	-9.64121
▁behavioral	-9.64127
ps	-9.64211
▁reason	-9.64451
▁framework	-9.64571
▁category	-9.64582
▁anterior	-9.64592
ns	-9.64597
▁communication	-9.64603
▁viability	-9.64648
▁similarity	-9.64657
▁chosen	-9.64702
▁count	-9.64704
29	-9.64711
▁taking	-9.64761
▁injected	-9.64916
▁staff	-9.64988
▁run	-9.65038
▁assigned	-9.65121
▁zero	-9.65167
▁putative	-9.6522
▁demographic	-9.65245
▁feedback	-9.65324
▁pt	-9.65335
▁frequencies	-9.65412
▁correct	-9.65567
▁ic	-9.65618
cl	-9.65649
▁load	-9.65673
▁parallel	-9.65773
▁oil	-9.65824
▁dietary	-9.65869
fig	-9.65909
▁recognition	-9.65958
▁require	-9.661
▁vaccine	-9.66187
▁membranes	-9.66195
▁oh	-9.66229
▁repair	-9.66277
▁microscope	-9.66411
▁income	-9.66611
▁united	-9.66637
▁absorption	-9.66703
▁fa	-9.6684
▁challenge	-9.6687
▁apparent	-9.66897
▁gp	-9.66971
33	-9.67039
▁overnight	-9.67158
▁secretion	-9.67168
▁written	-9.67191
▁involvement	-9.67193
▁deletion	-9.67232
▁face	-9.67251
▁nmr	-9.6726
▁invasion	-9.67387
▁recruitment	-9.6742
▁aspects	-9.67445
▁efficient	-9.67458
▁positions	-9.6758
▁cardiovascular	-9.67583
▁facilitate	-9.67716
▁depending	-9.67731
▁sizes	-9.67793
▁altered	-9.679
▁np	-9.67917
▁european	-9.67926
▁chi	-9.6793
▁filter	-9.67938
▁electronic	-9.67956
te	-9.6803
▁cortical	-9.68035
figure	-9.68046
▁systematic	-9.68103
70	-9.68123
▁125	-9.68141
▁approval	-9.68242
▁advanced	-9.68266
▁selective	-9.6837
▁thermal	-9.6839
▁malaria	-9.6851
▁behaviour	-9.68513
▁nor	-9.68525
ma	-9.68627
▁qpcr	-9.68639
▁metastasis	-9.6867
44	-9.68694
▁carcinoma	-9.68708
▁avoid	-9.68734
▁genomes	-9.68774
▁randomly	-9.6891
▁pe	-9.68916
▁nt	-9.68926
▁tgf	-9.68935
ac	-9.68964
bl	-9.69004
▁seems	-9.69023
▁she	-9.6906
▁recombinant	-9.69139
▁mt	-9.69265
▁br	-9.69336
▁raw	-9.69396
▁completely	-9.69406
▁neuro	-9.69461
▁organization	-9.69473
▁rich	-9.69479
▁aim	-9.69495
▁yeast	-9.69562
▁administered	-9.69688
▁ten	-9.69785
▁limit	-9.69789
▁vehicle	-9.69832
▁cycles	-9.69835
▁arm	-9.69885
▁element	-9.69906
▁amplification	-9.69968
▁plots	-9.69978
▁systemic	-9.7001
▁financial	-9.70046
▁minimal	-9.70111
▁involving	-9.70138
▁issues	-9.70172
▁pet	-9.70227
▁endogenous	-9.70239
▁subjected	-9.70257
▁vitamin	-9.70486
▁consist	-9.70509
▁mapping	-9.70546
▁economic	-9.70551
▁team	-9.70594
▁simulations	-9.70632
▁alignment	-9.70646
▁joint	-9.70666
▁saline	-9.70684
35	-9.70703
▁users	-9.70767
▁toward	-9.70914
▁country	-9.70953
▁array	-9.70991
na	-9.70998
▁tlr	-9.71043
▁computed	-9.71148
▁variant	-9.71208
▁cc	-9.71233
▁traits	-9.71237
▁always	-9.71253
di	-9.71263
▁quantified	-9.71367
▁candidate	-9.71398
▁objective	-9.71446
▁language	-9.71466
▁enrichment	-9.71526
▁hypertension	-9.71533
▁complications	-9.71614
▁nc	-9.71652
ian	-9.71788
▁mn	-9.71816
▁downstream	-9.71833
▁nucleus	-9.71901
▁diagnosed	-9.72008
▁108	-9.72053
▁instance	-9.72085
▁solutions	-9.72086
▁seq	-9.72163
▁completed	-9.72168
▁doses	-9.72203
▁mi	-9.72323
▁km	-9.724
▁plays	-9.72449
▁fisher	-9.72456
▁introduced	-9.72486
▁settings	-9.72498
▁peaks	-9.72512
▁whose	-9.72561
▁dry	-9.7257
▁104	-9.72585
ne	-9.72686
▁probably	-9.72691
▁inhibited	-9.72717
▁motion	-9.72725
▁egfr	-9.73022
▁bd	-9.73032
▁participate	-9.73058
▁lowest	-9.73102
▁supplemented	-9.73218
max	-9.73413
▁rabbit	-9.73512
▁channels	-9.73526
▁embryos	-9.73555
▁002	-9.73612
▁gal	-9.73689
▁broad	-9.73751
▁organic	-9.73799
▁extracts	-9.73862
▁differentially	-9.73886
▁achieve	-9.73895
▁person	-9.74005
▁construct	-9.74062
ol	-9.74082
▁protection	-9.74133
▁microbial	-9.74184
001	-9.74241
▁stat	-9.74261
▁exhibit	-9.74266
▁rare	-9.74384
▁loading	-9.74398
▁isolation	-9.74466
▁latter	-9.74507
▁equivalent	-9.74639
▁north	-9.74653
▁scan	-9.74655
▁marked	-9.74737
▁predict	-9.7478
▁ev	-9.74827
▁enhance	-9.74867
▁loop	-9.74871
▁code	-9.75114
▁sds	-9.75325
▁pulmonary	-9.75331
▁sh	-9.75369
▁ga	-9.75375
▁respective	-9.75403
▁nevertheless	-9.75488
▁com	-9.75615
▁dm	-9.75676
▁sum	-9.75753
▁native	-9.75844
▁estimation	-9.75851
▁yellow	-9.75877
▁immediately	-9.75921
▁identical	-9.76021
▁tm	-9.76136
▁reach	-9.76204
▁explore	-9.76281
▁loci	-9.76287
▁gap	-9.76334
▁theory	-9.76413
▁elisa	-9.7645
▁reporting	-9.76466
▁toxicity	-9.76498
▁programs	-9.7655
▁integrated	-9.76635
▁locations	-9.7664
▁address	-9.76692
▁perceived	-9.76702
▁sexual	-9.76801
▁gm	-9.76933
▁effectiveness	-9.76946
▁110	-9.76947
▁collagen	-9.7705
▁item	-9.77056
▁cold	-9.77113
▁occurrence	-9.77142
▁growing	-9.77179
▁transgenic	-9.77243
▁fluorescent	-9.77385
▁urban	-9.7739
▁ranging	-9.77421
▁scheme	-9.77426
▁commercial	-9.77437
▁stimulated	-9.7751
▁genotypes	-9.77616
▁absolute	-9.77618
cs	-9.77711
▁description	-9.77771
▁mr	-9.77779
▁crucial	-9.77783
▁accurate	-9.77836
▁tube	-9.77894
▁removal	-9.77964
▁remain	-9.78016
▁ray	-9.78026
▁feeding	-9.78075
▁correction	-9.78084
▁dysfunction	-9.78252
▁twice	-9.78292
▁thereby	-9.7834
▁inhibit	-9.78363
▁fresh	-9.78364
▁art	-9.78389
▁technical	-9.78389
▁amplitude	-9.7843
ton	-9.78527
▁knockdown	-9.78548
▁matched	-9.78584
▁agent	-9.78598
▁million	-9.78617
et	-9.78654
▁tasks	-9.78689
▁affinity	-9.78701
▁salt	-9.78759
▁dominant	-9.78915
▁successful	-9.78971
▁emotional	-9.78994
▁acknowledgement	-9.78995
▁cox	-9.79009
▁inc	-9.79079
▁am	-9.791
▁briefly	-9.79112
▁bond	-9.79124
▁instructions	-9.79142
▁recommended	-9.79219
▁viruses	-9.79296
▁starting	-9.7935
▁likelihood	-9.79355
▁intermediate	-9.79466
▁rank	-9.79566
▁enable	-9.79569
▁clinic	-9.79595
▁representation	-9.79632
▁particle	-9.79634
▁rest	-9.797
ab	-9.79772
▁reasons	-9.79776
▁false	-9.79835
no	-9.79902
▁asked	-9.79913
▁sense	-9.79991
▁fragments	-9.80023
▁cytokine	-9.80023
60	-9.80039
▁establish	-9.80065
▁nr	-9.801
▁purchased	-9.80162
▁mol	-9.80385
▁transcript	-9.80493
▁accordance	-9.80542
▁extended	-9.80601
▁005	-9.80727
▁communities	-9.80728
▁suitable	-9.80732
▁107	-9.81027
▁distributions	-9.81039
▁great	-9.81049
▁variations	-9.81069
it	-9.81082
▁nh	-9.81116
100	-9.81167
▁dc	-9.81172
▁ht	-9.81186
▁reached	-9.81243
▁mature	-9.81255
▁diverse	-9.81447
▁1999	-9.81448
▁csf	-9.815
▁dimensional	-9.81524
▁cp	-9.81586
▁user	-9.81626
▁experienced	-9.81636
▁interface	-9.81722
▁substantial	-9.81769
▁medication	-9.81798
▁tolerance	-9.81893
▁metabolites	-9.81926
▁driven	-9.81964
▁mid	-9.81974
▁personal	-9.82039
▁give	-9.8209
▁describe	-9.82123
▁workers	-9.82226
▁mmp	-9.82266
▁caspase	-9.82296
▁pg	-9.82304
▁width	-9.82348
▁consequently	-9.8236
▁modification	-9.8237
▁fc	-9.82415
▁integration	-9.82476
▁lesion	-9.82508
▁implemented	-9.82509
▁identity	-9.82576
▁ring	-9.826
▁policy	-9.82614
bp	-9.82637
▁seed	-9.82842
▁fl	-9.83014
▁listed	-9.83037
▁serve	-9.83056
▁adhesion	-9.83062
▁voltage	-9.83101
▁intestinal	-9.83263
▁decreases	-9.83369
▁shared	-9.83385
am	-9.83455
▁balance	-9.83466
▁ser	-9.83469
▁ethical	-9.83472
▁aldrich	-9.83532
▁percent	-9.83611
▁nacl	-9.83614
▁american	-9.83644
▁ice	-9.83655
▁determination	-9.83681
▁invasive	-9.83762
▁milk	-9.83856
▁chinese	-9.83878
▁translation	-9.83897
▁amounts	-9.83911
▁measuring	-9.83917
▁closely	-9.83962
▁nerve	-9.83995
▁burden	-9.83999
▁outside	-9.84008
▁transfection	-9.8407
▁ac	-9.84094
▁fragment	-9.8412
▁max	-9.84204
▁presentation	-9.84297
▁rad	-9.84345
▁heterogeneity	-9.84348
▁tumour	-9.8442
▁atoms	-9.84481
▁link	-9.84501
▁writing	-9.84536
▁fed	-9.84572
▁magnitude	-9.84655
▁receiving	-9.8473
90	-9.84802
▁primarily	-9.84808
to	-9.84818
▁gradient	-9.84822
▁hcc	-9.84834
▁mild	-9.84851
▁developmental	-9.84884
▁centre	-9.85004
▁robust	-9.8502
▁constructed	-9.85036
▁reactive	-9.85069
▁benefits	-9.85077
▁devices	-9.85077
▁initially	-9.85177
▁diabetic	-9.85315
▁cyp	-9.85362
▁antioxidant	-9.85362
▁page	-9.85467
▁initiation	-9.85473
▁counts	-9.85543
▁referred	-9.85553
▁predictive	-9.85634
▁respondents	-9.85646
▁live	-9.85653
▁fetal	-9.85991
▁coefficients	-9.86041
▁untreated	-9.86062
min	-9.86144
▁tri	-9.86166
▁processed	-9.86188
▁impaired	-9.86197
▁alterations	-9.86282
▁regional	-9.86328
▁motif	-9.86424
ms	-9.86455
▁exact	-9.86536
ant	-9.86608
▁abbreviations	-9.86646
▁clustering	-9.86805
▁film	-9.86878
▁replicates	-9.86882
▁mv	-9.86905
▁parts	-9.87093
▁para	-9.87239
▁validated	-9.87265
▁wave	-9.87328
▁lymph	-9.87432
▁participated	-9.8753
▁mostly	-9.87654
▁goal	-9.8785
▁phenotypes	-9.88003
▁pure	-9.88012
▁matter	-9.88015
▁locus	-9.88025
▁purpose	-9.88038
▁graph	-9.88231
▁pb	-9.88382
▁interesting	-9.88422
▁net	-9.88495
▁103	-9.88496
▁appeared	-9.88562
▁odds	-9.88685
▁concept	-9.88713
▁thought	-9.88785
▁polymer	-9.888
▁oxidation	-9.88844
▁pulse	-9.88846
▁define	-9.88858
▁exist	-9.88927
da	-9.88943
▁possibly	-9.8898
▁nine	-9.89044
▁delay	-9.89133
characterization	-9.89177
▁sf	-9.8922
▁gi	-9.8923
▁object	-9.89258
▁hour	-9.8926
▁van	-9.89289
▁eq	-9.89386
▁periods	-9.89492
▁participation	-9.8955
▁1998	-9.89571
▁slow	-9.89682
▁expansion	-9.89836
▁tc	-9.89871
▁mono	-9.89931
▁minor	-9.9006
se	-9.90068
▁subunit	-9.90087
▁behaviors	-9.9011
▁weak	-9.90157
▁induces	-9.90195
▁changed	-9.90199
▁fiber	-9.9022
▁rice	-9.90234
▁positively	-9.90247
▁maintain	-9.90249
▁numerous	-9.90369
65	-9.90373
ga	-9.90389
▁cancers	-9.90417
▁randomized	-9.90441
▁diffusion	-9.90504
▁words	-9.90606
▁largely	-9.90614
▁varied	-9.90634
▁ip	-9.90666
▁impairment	-9.90751
▁glass	-9.90767
▁rural	-9.90923
▁deficiency	-9.90947
▁wrote	-9.90947
▁plane	-9.91051
▁deep	-9.91217
▁know	-9.91271
37	-9.91278
▁dorsal	-9.91374
▁platform	-9.91418
▁residue	-9.9146
▁layers	-9.91467
▁pp	-9.91485
▁independently	-9.91489
▁invitrogen	-9.91528
▁electrode	-9.91529
▁organ	-9.91623
▁principal	-9.91624
▁autophagy	-9.91653
▁classes	-9.91737
▁adjacent	-9.9182
▁nanoparticles	-9.91838
▁success	-9.9188
▁maintenance	-9.91903
▁amplified	-9.91909
▁le	-9.9192
▁transient	-9.91966
▁why	-9.91967
▁mc	-9.92101
▁actual	-9.92148
▁simulated	-9.92208
▁ti	-9.92298
▁library	-9.92304
▁probes	-9.92318
▁bind	-9.92365
▁em	-9.92412
▁ge	-9.92459
▁separation	-9.92534
▁diluted	-9.92569
▁definition	-9.92598
▁easily	-9.927
▁con	-9.9271
▁articles	-9.92712
el	-9.92782
▁tr	-9.92817
▁nuclei	-9.92818
ive	-9.92846
▁apoptotic	-9.92849
pt	-9.92918
▁vegf	-9.92986
▁partially	-9.93034
▁created	-9.93087
▁gut	-9.93144
▁ki	-9.93199
▁cf	-9.93287
▁velocity	-9.93334
▁protective	-9.9336
▁chip	-9.93386
▁synaptic	-9.93415
▁transformation	-9.93415
▁prostate	-9.93419
▁attributed	-9.93423
▁member	-9.93449
▁comprehensive	-9.93454
▁fields	-9.93492
▁transformed	-9.93648
▁bc	-9.93763
▁connected	-9.9378
▁assumed	-9.938
▁successfully	-9.93822
▁representing	-9.9386
▁tp	-9.94003
▁synthesized	-9.94019
ae	-9.94051
▁defects	-9.94069
▁exon	-9.94096
▁hsp	-9.94111
▁correspond	-9.94131
▁frame	-9.94235
▁ps	-9.94265
▁antibiotic	-9.94266
▁subset	-9.94272
▁supplement	-9.94273
▁influenced	-9.94333
▁doi	-9.94446
▁charge	-9.94448
▁deficient	-9.94528
▁importantly	-9.94536
▁edge	-9.94561
▁artery	-9.94743
▁issue	-9.94793
▁arrows	-9.94798
▁records	-9.94806
▁cas	-9.94864
▁dmso	-9.9494
▁nk	-9.94941
▁rapidly	-9.95019
▁unclear	-9.95088
▁discovery	-9.95187
▁semi	-9.95323
41	-9.95423
▁consensus	-9.95476
▁copy	-9.95649
▁cytometry	-9.9565
▁003	-9.95772
▁ions	-9.95827
▁ground	-9.95917
▁advantage	-9.95955
▁residual	-9.95962
ap	-9.96115
▁depends	-9.962
▁paired	-9.96226
ph	-9.96255
▁substrates	-9.9626
▁microarray	-9.96314
nd	-9.96323
▁susceptibility	-9.96347
▁africa	-9.96404
▁ho	-9.96532
▁resource	-9.96533
▁protocols	-9.96538
▁donor	-9.96543
▁display	-9.96572
▁abundant	-9.96652
▁orientation	-9.96667
▁abnormal	-9.96684
▁biomarkers	-9.96744
▁restricted	-9.96766
▁eu	-9.9682
ur	-9.9702
▁au	-9.97058
▁beyond	-9.97223
▁gr	-9.97304
▁pf	-9.97307
▁zone	-9.97504
51	-9.97532
▁temperatures	-9.97532
▁lv	-9.97533
▁segment	-9.97643
▁erk	-9.97693
▁extension	-9.97776
▁vertical	-9.97794
▁weighted	-9.97856
ated	-9.97901
43	-9.97957
▁separately	-9.97986
▁analyze	-9.9799
▁pathological	-9.9804
▁barrier	-9.9805
▁practices	-9.98051
▁overlap	-9.98093
▁name	-9.98159
▁frequent	-9.98283
▁capture	-9.98329
de	-9.98394
▁emission	-9.98459
▁package	-9.98488
▁applicable	-9.98509
▁vi	-9.98672
▁storage	-9.98688
▁sensors	-9.98723
▁colon	-9.98748
▁chamber	-9.98763
si	-9.98797
ex	-9.98868
▁varying	-9.98957
▁df	-9.98997
▁pathogen	-9.99001
▁coupled	-9.99006
▁remove	-9.99154
▁reliability	-9.99181
▁largest	-9.99228
▁infants	-9.99275
▁session	-9.99306
▁identifying	-9.99321
▁forest	-9.99337
mol	-9.99354
▁db	-9.99425
▁sea	-9.99432
▁polymerase	-9.99436
▁mitochondria	-9.99538
▁affects	-9.99572
▁gray	-9.99576
▁climate	-9.99586
▁zn	-9.99619
▁nearly	-9.99658
▁etc	-9.99663
▁logistic	-9.9968
▁extensive	-9.9972
▁ltd	-9.99737
▁organisms	-9.99749
ase	-9.99804
▁brown	-9.99984
▁psychological	-10.0003
▁pca	-10.0006
▁bands	-10.0013
▁consists	-10.0013
▁perception	-10.0017
▁placebo	-10.0018
▁conjugated	-10.0018
▁metastatic	-10.0019
pp	-10.0022
▁wound	-10.0043
▁cv	-10.0044
▁soluble	-10.0045
▁lab	-10.0047
▁multivariate	-10.0054
▁fibrosis	-10.0063
▁inside	-10.0071
▁path	-10.0078
▁calculate	-10.0083
tic	-10.0084
▁repeat	-10.0089
▁schematic	-10.009
▁corrected	-10.0096
▁itself	-10.0105
▁gold	-10.0107
▁sensory	-10.0111
▁visible	-10.0114
ry	-10.0118
▁evolutionary	-10.0125
▁modifications	-10.0129
▁examples	-10.0133
▁regular	-10.0133
▁qualitative	-10.0145
▁130	-10.0146
▁signs	-10.015
▁parent	-10.015
▁influenza	-10.0152
▁statement	-10.0153
▁tag	-10.0158
▁118	-10.0158
▁sciences	-10.0159
▁coated	-10.0163
▁biochemical	-10.0164
▁complexity	-10.0166
▁household	-10.0169
▁enough	-10.0173
▁plan	-10.0173
▁hybrid	-10.0176
▁supernatant	-10.0183
▁screen	-10.0183
pi	-10.0184
▁bm	-10.0186
▁1997	-10.0197
ri	-10.0201
▁theoretical	-10.0201
ad	-10.0203
▁simultaneously	-10.0205
▁rr	-10.0209
ts	-10.0211
▁conversion	-10.0217
▁hepatic	-10.0227
▁scanning	-10.0229
▁suppression	-10.0229
▁hoc	-10.0233
▁vaccination	-10.0238
▁cs	-10.0238
▁bovine	-10.0242
▁antibiotics	-10.0248
▁illness	-10.0249
▁gastric	-10.0259
▁aging	-10.026
▁san	-10.0261
▁hpv	-10.0263
▁exchange	-10.0264
▁synthetic	-10.0267
▁efforts	-10.0272
▁modeling	-10.0278
▁special	-10.0283
▁challenges	-10.0283
▁extra	-10.0288
▁compose	-10.0292
▁alleles	-10.0298
▁tris	-10.0299
▁beneficial	-10.0317
▁rp	-10.0324
cr	-10.0325
▁detail	-10.0329
▁your	-10.0332
▁longitudinal	-10.0336
▁blocks	-10.0337
▁od	-10.0339
▁released	-10.0343
▁ovarian	-10.035
▁harvested	-10.0354
▁ba	-10.0361
▁limitation	-10.0373
▁regulating	-10.0373
▁conduct	-10.0374
▁recurrence	-10.0376
▁producing	-10.0379
▁128	-10.0386
▁600	-10.0391
▁reporter	-10.0392
▁kda	-10.04
▁upregulated	-10.0411
nt	-10.0422
▁dried	-10.0425
▁situation	-10.0428
▁exclusion	-10.0434
▁planning	-10.0435
▁board	-10.0437
▁clinically	-10.0437
▁fruit	-10.0443
▁reliable	-10.0444
ds	-10.0445
▁get	-10.0446
▁recruited	-10.0447
▁wnt	-10.0448
▁fractions	-10.0452
▁dilution	-10.0454
▁te	-10.0457
▁effectively	-10.0457
▁reading	-10.0461
▁reagent	-10.0461
▁chromatin	-10.0463
▁spread	-10.0465
▁directed	-10.0469
ko	-10.0483
▁skills	-10.0485
▁photo	-10.0485
▁annual	-10.0485
▁entry	-10.0489
▁superior	-10.049
▁evident	-10.0515
▁pancreatic	-10.0517
▁cap	-10.0517
ro	-10.0527
▁adolescents	-10.0527
002	-10.0537
▁comparative	-10.0539
▁biomass	-10.0549
▁environments	-10.0562
▁mda	-10.0565
▁distal	-10.0569
▁hospitals	-10.0577
ary	-10.0583
ies	-10.0587
▁bcl	-10.0595
▁pathogens	-10.0604
62	-10.0609
▁never	-10.0612
▁explored	-10.0615
▁adaptation	-10.0616
ene	-10.0619
▁pseudo	-10.0626
▁mothers	-10.0637
▁prognosis	-10.064
▁utilized	-10.0642
▁trained	-10.0649
▁prognostic	-10.065
▁hcv	-10.0658
▁template	-10.0659
▁recognized	-10.0659
▁kept	-10.0669
mo	-10.0672
▁precision	-10.0674
▁cervical	-10.0675
▁too	-10.0677
▁inner	-10.0678
▁connectivity	-10.0679
▁hf	-10.0684
ti	-10.0698
▁visit	-10.0704
▁monitored	-10.0708
▁conflicts	-10.0712
▁module	-10.0713
mm	-10.0717
▁tract	-10.0718
▁instrument	-10.0719
aa	-10.0729
ci	-10.0732
▁phenotypic	-10.0732
▁decline	-10.0737
▁reduces	-10.0743
il	-10.0755
▁web	-10.0759
▁adaptive	-10.0762
▁calculation	-10.0762
▁documented	-10.0763
▁180	-10.0769
▁es	-10.0777
▁ta	-10.0787
iv	-10.0795
▁depletion	-10.0806
▁ranged	-10.082
▁spinal	-10.0823
▁cre	-10.0827
▁dual	-10.0832
▁filtered	-10.0835
▁kind	-10.084
▁complement	-10.084
▁horizontal	-10.0846
▁makes	-10.0851
▁rise	-10.0854
▁solvent	-10.0856
▁urine	-10.0861
▁city	-10.0865
▁promising	-10.0865
▁par	-10.0866
▁morphological	-10.0871
▁otherwise	-10.0871
▁distances	-10.0877
▁abdominal	-10.0891
▁physicians	-10.0893
▁tend	-10.0894
39	-10.0896
▁140	-10.0898
▁sessions	-10.09
▁arabidopsis	-10.0914
▁tables	-10.0917
▁infectious	-10.0919
▁sr	-10.0924
▁hg	-10.0924
▁seem	-10.0925
▁af	-10.0926
▁namely	-10.0929
▁bl	-10.0935
lin	-10.0938
▁share	-10.0941
▁cleavage	-10.0945
▁vectors	-10.0947
▁facilities	-10.0949
▁vary	-10.095
▁forming	-10.0953
▁standards	-10.0954
▁101	-10.0956
▁window	-10.0956
▁auc	-10.0958
▁observe	-10.0961
▁cg	-10.0964
▁biosynthesis	-10.0969
▁parental	-10.0973
▁trait	-10.0977
▁dependence	-10.0994
▁beside	-10.0995
▁myc	-10.0996
▁methodology	-10.1005
▁computational	-10.1006
▁pl	-10.101
▁standardized	-10.1017
▁absent	-10.1019
▁larvae	-10.1027
ni	-10.1032
▁improving	-10.1034
▁corresponds	-10.1035
▁intrinsic	-10.1054
ge	-10.1056
▁lost	-10.1064
▁treat	-10.1067
▁asthma	-10.1074
▁annotation	-10.1088
▁tf	-10.109
▁land	-10.1094
▁alter	-10.1099
▁occurring	-10.11
▁beam	-10.1106
▁genus	-10.1108
▁fine	-10.1121
▁scales	-10.1124
▁admission	-10.1129
▁receive	-10.113
pr	-10.1131
▁segments	-10.1133
son	-10.1133
▁rh	-10.1135
▁facility	-10.1135
▁figs	-10.114
▁decreasing	-10.114
pa	-10.114
▁lineage	-10.1146
▁des	-10.1162
▁thin	-10.1162
▁pooled	-10.1167
▁composite	-10.117
em	-10.1172
▁negatively	-10.1191
▁null	-10.1197
▁deaths	-10.1213
▁sec	-10.1214
▁116	-10.1216
▁111	-10.122
▁super	-10.1222
▁notably	-10.1236
▁ppm	-10.1244
▁recommendations	-10.1248
▁trees	-10.1251
▁shorter	-10.1256
▁involves	-10.1256
▁create	-10.1258
▁microglia	-10.1268
▁phases	-10.1271
▁video	-10.1274
▁assistance	-10.1278
▁nih	-10.1293
▁interviews	-10.1296
▁underwent	-10.1299
▁cord	-10.1301
▁funded	-10.1301
▁gh	-10.1303
▁col	-10.1312
ling	-10.1323
▁histone	-10.1325
▁mother	-10.1329
▁spss	-10.133
▁algorithms	-10.1335
▁files	-10.1337
▁reflections	-10.134
▁construction	-10.1344
▁el	-10.1345
▁oa	-10.1349
▁004	-10.1352
▁qrt	-10.1363
▁electro	-10.1365
▁parasite	-10.1366
▁african	-10.138
▁pathogenesis	-10.1382
▁adherence	-10.1388
▁modulation	-10.1391
▁pan	-10.1392
▁121	-10.1393
▁clones	-10.1393
▁signalling	-10.1394
▁failed	-10.1402
▁validity	-10.1403
▁luciferase	-10.1408
▁progressive	-10.1408
▁tail	-10.1413
▁hypoxia	-10.1413
▁1996	-10.1421
▁toxic	-10.1424
▁tau	-10.143
▁soft	-10.1437
▁controlling	-10.1438
▁combinations	-10.1439
▁cdc	-10.1441
▁postoperative	-10.1446
▁computer	-10.1454
▁susceptible	-10.1455
▁inhibits	-10.1456
ata	-10.1457
▁catalytic	-10.1459
▁obese	-10.146
dm	-10.1465
▁causing	-10.1465
▁refinement	-10.1465
▁started	-10.1467
▁reveal	-10.1475
▁word	-10.1499
▁extend	-10.1501
ox	-10.1502
▁car	-10.1506
▁let	-10.1508
▁panels	-10.1508
ir	-10.1512
▁fungal	-10.1513
003	-10.1514
▁surrounding	-10.1515
▁localized	-10.1523
▁sampled	-10.1525
hi	-10.1526
▁organs	-10.1527
pro	-10.1529
▁histological	-10.1537
▁accession	-10.1538
▁phospho	-10.1546
▁deposition	-10.1551
▁explanation	-10.1551
▁quantify	-10.1561
▁indicators	-10.157
ul	-10.1571
po	-10.1574
ij	-10.1578
▁colony	-10.1579
▁nutrient	-10.1583
▁reproductive	-10.1597
▁outer	-10.1599
▁im	-10.1599
▁maximal	-10.1601
▁spectral	-10.1609
▁dimensions	-10.1613
▁coronary	-10.1625
▁consistently	-10.1627
▁adding	-10.1627
▁society	-10.1629
▁neuron	-10.1631
▁nps	-10.1649
▁summarized	-10.1656
▁experiences	-10.1656
▁shock	-10.1658
▁du	-10.1659
▁atom	-10.1662
▁hormone	-10.1664
▁pathology	-10.1667
▁government	-10.167
▁rf	-10.1672
▁upstream	-10.1672
▁oxide	-10.1681
▁pregnant	-10.1684
▁interview	-10.1685
▁sn	-10.169
▁consequences	-10.169
▁consequence	-10.1696
▁hd	-10.1697
▁mammalian	-10.1699
▁117	-10.171
▁plasmids	-10.1721
▁loaded	-10.1721
ce	-10.1721
▁promoting	-10.1726
56	-10.1735
▁plotted	-10.1738
▁capable	-10.1741
▁therapies	-10.1742
▁arrow	-10.1743
▁consisting	-10.1752
izing	-10.1763
▁respond	-10.1763
per	-10.1766
▁season	-10.1771
▁scenario	-10.1772
▁routine	-10.1774
▁spin	-10.1779
▁highlighted	-10.1782
▁acetate	-10.1783
▁operation	-10.1784
▁determining	-10.1796
▁malignant	-10.1809
rd	-10.181
▁sm	-10.1814
▁hc	-10.1815
▁movements	-10.1819
▁crc	-10.1822
▁phenomenon	-10.1823
▁rrna	-10.1824
ak	-10.1841
▁ld	-10.1841
▁becomes	-10.1846
ie	-10.1848
▁adequate	-10.1852
▁situ	-10.1852
▁mapped	-10.1859
▁gave	-10.186
▁marrow	-10.1862
▁clone	-10.1862
▁aimed	-10.1867
▁surveillance	-10.1868
▁hs	-10.1873
▁cerebral	-10.1878
63	-10.188
▁dissolved	-10.1881
▁spp	-10.1889
▁antimicrobial	-10.1893
▁coupling	-10.1893
▁mar	-10.1894
▁syn	-10.1904
▁guide	-10.1906
▁stronger	-10.1911
▁indirect	-10.1913
▁digital	-10.1916
48	-10.1917
μ	-10.1921
▁promotes	-10.1936
▁fr	-10.1938
▁biology	-10.1942
▁opposite	-10.1943
▁beginning	-10.1943
▁performing	-10.1946
▁irradiation	-10.1949
▁timing	-10.1955
ter	-10.1957
▁embedded	-10.1965
▁115	-10.1968
▁mapk	-10.197
▁mediate	-10.1977
▁prospective	-10.1978
▁constructs	-10.1983
▁fibers	-10.1987
▁confocal	-10.1987
▁man	-10.1997
▁ne	-10.2001
▁mann	-10.2005
ner	-10.2007
▁mp	-10.2007
▁quite	-10.2011
▁cis	-10.2016
▁cover	-10.2017
▁immunity	-10.2021
▁actions	-10.2024
ium	-10.2025
ba	-10.2027
▁averaged	-10.2037
ley	-10.2037
▁blocking	-10.2043
▁hla	-10.2044
▁predictions	-10.2057
ha	-10.2065
▁recombination	-10.2071
▁perspective	-10.2071
▁ligands	-10.2082
▁indicator	-10.2082
▁skeletal	-10.2093
▁wi	-10.2093
▁west	-10.2094
▁mobile	-10.2104
▁centrifuged	-10.2114
▁ideal	-10.2119
▁programme	-10.2122
▁practical	-10.2124
▁educational	-10.2127
▁ultimate	-10.2134
▁diagram	-10.2139
▁cumulative	-10.2139
▁008	-10.2143
▁cytoplasmic	-10.2146
▁adapted	-10.215
▁classical	-10.2154
▁neither	-10.2155
▁requirements	-10.2172
▁restriction	-10.2173
▁proximal	-10.2177
▁tip	-10.2199
▁strand	-10.2199
▁129	-10.2202
▁regardless	-10.2212
▁fewer	-10.2212
ment	-10.2213
▁insertion	-10.2215
▁excellent	-10.2234
▁considerable	-10.2242
ka	-10.2242
▁fibroblasts	-10.2243
▁electrical	-10.2244
▁gamma	-10.2247
▁depend	-10.2247
▁implicated	-10.2253
▁uses	-10.2257
▁roots	-10.2264
▁pool	-10.2266
▁app	-10.2268
▁hdl	-10.2285
▁surfaces	-10.229
▁blotting	-10.2292
▁vessels	-10.2299
47	-10.2305
▁fixation	-10.2314
▁myocardial	-10.2315
▁document	-10.2324
▁aqueous	-10.2325
▁blocked	-10.2325
▁professional	-10.2325
▁fracture	-10.2327
▁discharge	-10.2335
▁circulating	-10.2336
▁ln	-10.2338
▁wang	-10.2344
▁grey	-10.2345
80	-10.2349
▁colleagues	-10.235
▁ef	-10.2354
▁hp	-10.2356
▁aligned	-10.2364
▁canada	-10.2366
▁collect	-10.2366
▁hypo	-10.2367
▁excitation	-10.237
oc	-10.2371
▁covered	-10.2379
less	-10.238
sp	-10.2381
▁record	-10.2382
▁blast	-10.2383
▁ed	-10.2384
▁frozen	-10.2388
▁heavy	-10.2388
▁1995	-10.2395
▁gram	-10.2402
▁auto	-10.2405
▁006	-10.2405
▁methanol	-10.2406
▁oct	-10.2409
▁appendix	-10.2411
▁fitness	-10.2412
package	-10.2413
▁enhancement	-10.2424
▁frontal	-10.2428
▁resonance	-10.2431
▁homeostasis	-10.2434
▁closed	-10.2436
ty	-10.2441
▁sb	-10.2444
▁supply	-10.2448
▁formula	-10.2448
▁portion	-10.2449
▁took	-10.2455
▁motifs	-10.2457
lo	-10.2467
ating	-10.2473
▁differentiated	-10.2478
▁recording	-10.2481
▁ru	-10.2482
▁calibration	-10.2486
▁hypothesized	-10.2487
▁visits	-10.2491
▁purification	-10.2492
▁retinal	-10.2493
▁chr	-10.2493
▁sw	-10.2494
so	-10.2502
▁elderly	-10.2504
▁seeds	-10.2506
▁spontaneous	-10.2512
▁displacement	-10.2513
▁102	-10.2519
▁santa	-10.252
one	-10.2521
▁illumina	-10.2522
▁activate	-10.2528
▁wheat	-10.2535
▁tem	-10.2537
▁chromatography	-10.2539
▁functioning	-10.2543
▁hcl	-10.2544
▁ways	-10.2546
▁ka	-10.2556
la	-10.2556
▁epi	-10.2559
▁007	-10.2561
vi	-10.2564
▁walking	-10.2564
▁themselves	-10.2568
▁bsa	-10.2568
by	-10.2575
▁sequenced	-10.2576
▁ventral	-10.2578
▁reconstruction	-10.2578
▁subgroup	-10.2579
▁illustrated	-10.2585
▁surprising	-10.2585
▁delivered	-10.2589
ip	-10.259
52	-10.2593
▁normally	-10.2598
▁hb	-10.2601
▁melanoma	-10.2614
▁laboratories	-10.2615
▁intact	-10.2617
▁optimization	-10.2621
▁annotated	-10.2623
land	-10.2628
▁retention	-10.2638
▁sectional	-10.2641
op	-10.265
br	-10.2655
▁colonies	-10.2656
▁race	-10.2663
▁college	-10.2668
▁transplantation	-10.2676
▁sham	-10.2677
▁embryonic	-10.2678
ability	-10.2678
▁specimen	-10.2679
▁neurological	-10.2692
▁excess	-10.2697
ducing	-10.2704
▁idea	-10.2705
▁concerns	-10.2707
ist	-10.2708
▁124	-10.2708
▁agar	-10.2709
▁databases	-10.271
ax	-10.2711
▁arg	-10.2712
▁manual	-10.2718
▁122	-10.272
▁nurses	-10.2725
▁gapdh	-10.2729
▁peg	-10.2732
02	-10.2732
▁understood	-10.2733
▁aureus	-10.2733
▁trauma	-10.2735
▁egfp	-10.2744
ism	-10.2748
▁slope	-10.2751
▁revised	-10.2764
▁assessing	-10.2764
▁delayed	-10.2777
▁rule	-10.2777
▁ldl	-10.2778
gen	-10.2786
▁analytical	-10.2787
ler	-10.2789
▁tt	-10.2791
▁126	-10.2794
▁younger	-10.2796
cc	-10.281
▁accordingly	-10.2811
▁chromosomes	-10.2811
▁protease	-10.2811
▁flux	-10.2815
▁predictor	-10.2819
▁private	-10.2823
▁kd	-10.2827
▁mcf	-10.283
▁112	-10.2831
▁ce	-10.2836
▁progress	-10.2844
▁captured	-10.2845
▁changing	-10.2846
▁assumption	-10.2847
ensis	-10.2849
▁123	-10.2851
▁necrosis	-10.2853
▁conceived	-10.2854
▁round	-10.2865
▁lacking	-10.2867
▁australia	-10.2871
▁prolonged	-10.2874
bi	-10.2876
▁artificial	-10.2877
▁pathogenic	-10.2877
▁draft	-10.2881
▁lp	-10.2886
▁obvious	-10.2892
▁modulate	-10.2892
▁gy	-10.2905
▁trends	-10.2906
▁appearance	-10.2908
▁potent	-10.2911
▁tobacco	-10.2913
▁protect	-10.2916
▁electrodes	-10.2917
▁encoded	-10.292
▁ncbi	-10.292
▁sensing	-10.2921
▁serious	-10.2922
▁investigations	-10.2929
▁mscs	-10.293
▁igf	-10.2934
▁precursor	-10.2939
au	-10.2942
▁neck	-10.2944
▁ds	-10.2952
▁127	-10.2953
▁cytoplasm	-10.2956
▁ventricular	-10.2964
▁easy	-10.2964
▁predictors	-10.2968
▁smooth	-10.2972
▁ranges	-10.2973
▁dashed	-10.2976
▁lb	-10.2978
▁800	-10.2979
▁dye	-10.2987
▁stated	-10.299
▁rv	-10.2991
67	-10.2991
▁peri	-10.3003
▁regulator	-10.3007
▁lymphocytes	-10.3007
▁india	-10.3009
▁macro	-10.3011
▁labeling	-10.3017
▁concern	-10.3022
▁zinc	-10.3023
▁absorbance	-10.3029
▁select	-10.303
▁implications	-10.3032
▁knee	-10.3035
▁extremely	-10.3037
▁lu	-10.3038
▁lysates	-10.3038
▁eyes	-10.3045
▁europe	-10.3046
▁cy	-10.3051
▁professionals	-10.3057
▁grain	-10.306
▁claims	-10.3067
▁abnormalities	-10.3072
ag	-10.3073
▁applying	-10.3076
▁emergency	-10.3078
▁providers	-10.3091
▁thick	-10.3095
▁visualized	-10.3096
▁preference	-10.3101
ite	-10.3106
▁derivatives	-10.3107
▁microbiota	-10.3109
▁row	-10.3114
▁binds	-10.3118
▁newly	-10.3119
▁160	-10.3119
▁114	-10.3121
▁interpreted	-10.3124
▁mix	-10.3126
▁demonstrating	-10.3128
▁calculations	-10.3133
▁hif	-10.3138
▁weights	-10.3139
▁matching	-10.314
▁focal	-10.314
▁arrest	-10.3141
▁contributes	-10.3141
▁spleen	-10.3146
▁hplc	-10.3146
▁dehydrogenase	-10.3152
▁bulk	-10.3159
▁pdf	-10.3166
▁fbs	-10.317
▁aggregation	-10.3172
▁division	-10.3175
mer	-10.3178
▁muscles	-10.318
▁chains	-10.3185
age	-10.3185
▁arterial	-10.3186
▁hip	-10.3199
▁centrifugation	-10.3202
▁leg	-10.3207
▁dt	-10.3215
▁mis	-10.3217
▁relevance	-10.3221
▁murine	-10.3221
pe	-10.3229
▁limb	-10.323
▁films	-10.3231
▁ecological	-10.3234
li	-10.3234
▁conservation	-10.324
▁bold	-10.3248
▁effort	-10.325
▁sometimes	-10.3252
▁criterion	-10.3259
▁predominantly	-10.3264
▁uncertainty	-10.3271
▁hi	-10.3271
▁awareness	-10.3272
▁presents	-10.3273
46	-10.3274
▁magnification	-10.3277
▁cns	-10.3289
▁pearson	-10.329
▁recovered	-10.3296
▁recall	-10.3308
▁defect	-10.3315
▁instruments	-10.3315
▁upregulation	-10.3316
▁option	-10.3316
▁carrying	-10.3318
▁dogs	-10.3319
▁po	-10.3327
▁iqr	-10.3327
▁icu	-10.3332
▁replaced	-10.3332
▁linkage	-10.3339
▁sugar	-10.3341
▁dental	-10.3342
▁partner	-10.3348
600	-10.3348
▁rpm	-10.3355
▁equations	-10.3358
▁centers	-10.3363
▁counted	-10.3393
▁009	-10.3396
▁eeg	-10.3397
▁codes	-10.3401
▁suspension	-10.3403
▁valuable	-10.3406
▁morbidity	-10.341
▁dp	-10.3413
▁biofilm	-10.3415
▁camera	-10.3417
den	-10.3418
▁barriers	-10.342
▁risks	-10.3428
▁worldwide	-10.343
▁detectable	-10.3433
▁stay	-10.3438
▁persistent	-10.3442
▁macrophage	-10.3448
▁mic	-10.3448
004	-10.3455
▁contents	-10.3456
▁reviews	-10.3457
▁propose	-10.346
▁stop	-10.3462
▁faster	-10.3463
mann	-10.3464
▁nervous	-10.3468
▁interference	-10.3468
▁seeded	-10.3472
▁infant	-10.3473
▁neutrophils	-10.3474
▁ras	-10.3475
▁equilibrium	-10.3481
▁epigenetic	-10.3481
▁reagents	-10.3483
un	-10.3484
▁distinguish	-10.3485
▁hippocampus	-10.3487
▁recurrent	-10.3487
ula	-10.3488
▁boundary	-10.3488
▁maturation	-10.3494
▁don	-10.3502
▁specified	-10.3502
▁op	-10.3506
▁pv	-10.3506
▁biopsy	-10.3507
rp	-10.3508
▁suppressed	-10.3514
▁childhood	-10.3526
▁overlapping	-10.3532
▁embryo	-10.354
fluorescence	-10.3542
▁symptom	-10.3545
▁angiogenesis	-10.3545
▁sl	-10.3552
▁bonds	-10.3552
▁adopted	-10.3553
▁spike	-10.3555
▁isolate	-10.3565
▁precise	-10.3568
▁dd	-10.357
▁consideration	-10.3574
▁safe	-10.3577
▁monoclonal	-10.3578
▁became	-10.3584
▁mu	-10.3584
▁acc	-10.3591
▁hybridization	-10.3591
▁supports	-10.3594
▁catenin	-10.3597
▁indices	-10.3597
▁actually	-10.3598
▁filled	-10.3599
▁healing	-10.36
▁beads	-10.36
▁peer	-10.3602
be	-10.3603
▁ve	-10.3606
▁province	-10.3608
▁ts	-10.3612
▁greatly	-10.3613
▁label	-10.3617
▁wavelength	-10.3618
▁113	-10.362
fl	-10.362
▁phosphorylated	-10.362
▁orange	-10.3623
▁reasonable	-10.3625
▁tuberculosis	-10.3634
▁continued	-10.3634
▁hu	-10.3636
▁suppress	-10.3637
▁sign	-10.3638
▁silencing	-10.3642
dr	-10.3644
▁initiated	-10.3646
▁integrity	-10.3649
▁mmhg	-10.365
▁branch	-10.3651
▁crp	-10.3652
▁resection	-10.3656
▁limits	-10.3656
▁ones	-10.366
▁knockout	-10.3662
▁proportional	-10.3667
▁configuration	-10.3669
▁albumin	-10.3672
▁preferred	-10.3675
▁ccl	-10.3676
ut	-10.3684
▁marine	-10.3684
▁equally	-10.3687
▁council	-10.3695
▁editing	-10.3704
▁east	-10.3705
▁neo	-10.3706
▁whitney	-10.3714
▁enzymatic	-10.3715
▁goat	-10.372
▁verified	-10.3721
▁fall	-10.3722
▁1990	-10.3733
llowing	-10.3747
▁existence	-10.3748
ek	-10.3748
▁slides	-10.3751
im	-10.3754
▁edta	-10.3755
▁brief	-10.3758
▁ongoing	-10.3761
▁fitting	-10.3761
▁aspect	-10.3764
▁mw	-10.3767
▁breeding	-10.3767
▁mini	-10.3768
▁feed	-10.3774
▁fp	-10.3774
▁utilization	-10.3775
▁operating	-10.378
▁camp	-10.3782
▁drawn	-10.3783
▁english	-10.3787
▁addressed	-10.3792
▁demonstrates	-10.3792
▁lipids	-10.3794
▁think	-10.3801
▁qiagen	-10.3807
▁replacement	-10.3807
▁dmem	-10.3817
▁bodies	-10.3817
▁taxa	-10.3819
▁triplicate	-10.3822
▁physician	-10.3822
▁reflected	-10.3822
▁concluded	-10.3824
▁involve	-10.3828
▁substantially	-10.3829
▁utr	-10.3832
▁acts	-10.3835
▁ri	-10.3842
▁consecutive	-10.3857
▁concerning	-10.3862
55	-10.3865
▁deviations	-10.3865
▁running	-10.3867
▁monitor	-10.387
▁partners	-10.3875
▁ep	-10.388
▁pol	-10.3883
▁away	-10.3885
▁causal	-10.3886
idae	-10.3886
ens	-10.3892
▁interacting	-10.3892
▁geometry	-10.3893
▁fourth	-10.3894
▁fu	-10.3894
▁cb	-10.3898
oid	-10.3902
▁simply	-10.3907
▁empirical	-10.3918
▁vessel	-10.3919
▁cytotoxicity	-10.3921
▁match	-10.3923
▁building	-10.3926
▁southern	-10.3927
▁retrospective	-10.3931
▁fm	-10.3935
▁insight	-10.395
▁call	-10.3954
▁ck	-10.3962
▁france	-10.3964
▁va	-10.3964
▁splicing	-10.3967
▁meet	-10.3968
▁145	-10.3974
ini	-10.3977
▁pharmacological	-10.3981
▁northern	-10.3981
▁ultra	-10.3988
▁machine	-10.3991
▁offspring	-10.4001
▁river	-10.4001
▁sperm	-10.4002
▁ku	-10.4005
▁thyroid	-10.4007
▁urinary	-10.4014
▁dementia	-10.4014
▁adipose	-10.4014
▁influences	-10.4016
▁undergo	-10.402
▁hard	-10.402
▁virulence	-10.4024
▁proper	-10.4028
▁decay	-10.4029
▁adjustment	-10.4032
▁advantages	-10.4033
rt	-10.4033
up	-10.4038
▁check	-10.4038
gi	-10.4041
ng	-10.4042
▁attached	-10.4044
ana	-10.4052
▁characterize	-10.4055
▁ischemic	-10.407
▁rotation	-10.4076
▁circles	-10.4076
▁decisions	-10.4076
▁persons	-10.4077
▁socio	-10.4081
▁neonatal	-10.4082
▁rnai	-10.4083
▁secreted	-10.4084
▁su	-10.4086
▁refer	-10.4086
▁maintaining	-10.4088
▁hbv	-10.4092
▁powder	-10.4093
ial	-10.4097
▁comments	-10.4105
▁supplemental	-10.4108
▁believe	-10.4109
▁options	-10.4112
▁drop	-10.4114
▁fear	-10.4115
▁unable	-10.4116
▁satisfaction	-10.4116
▁unlike	-10.4121
▁ob	-10.4123
▁copd	-10.4123
▁substitution	-10.4128
▁look	-10.413
▁tagged	-10.4144
▁inoculated	-10.4145
ised	-10.4152
▁gl	-10.4153
rc	-10.4154
▁hydrophobic	-10.4163
▁difficulty	-10.4165
ec	-10.4166
▁fatigue	-10.4185
▁architecture	-10.4185
▁disability	-10.4185
▁ministry	-10.4192
▁somatic	-10.4192
▁sucrose	-10.4199
ted	-10.42
▁fever	-10.42
▁drinking	-10.4205
▁deposited	-10.4215
▁radical	-10.4216
▁pass	-10.4218
▁platelet	-10.4225
▁heterogeneous	-10.4226
▁elevation	-10.4229
▁vein	-10.4235
▁rm	-10.424
▁cpg	-10.4242
▁inhibiting	-10.4244
▁gs	-10.4244
sis	-10.4249
▁acting	-10.425
▁psychiatric	-10.4254
ier	-10.4265
▁drosophila	-10.4275
▁pairwise	-10.4275
▁1994	-10.4277
▁nutrition	-10.4281
▁flag	-10.4286
▁medial	-10.429
▁glutamate	-10.4291
▁parasites	-10.4295
▁hsa	-10.43
▁demand	-10.4303
gs	-10.4306
▁dx	-10.4308
▁takes	-10.4308
▁tubes	-10.432
▁transcriptome	-10.4323
▁colour	-10.4325
ai	-10.4325
▁uniform	-10.4328
▁biomarker	-10.433
▁cavity	-10.4331
005	-10.4333
▁habitat	-10.4334
▁trust	-10.434
▁colorectal	-10.4345
▁coordination	-10.4345
io	-10.4346
▁genbank	-10.4352
fi	-10.4352
▁subunits	-10.4358
▁return	-10.4359
▁overcome	-10.4363
ina	-10.4365
▁bearing	-10.4365
res	-10.4365
▁limiting	-10.4366
▁perhaps	-10.4366
▁codon	-10.4367
▁sod	-10.4373
▁qtl	-10.4383
▁pore	-10.4385
▁modes	-10.4387
▁hela	-10.44
▁former	-10.4407
▁transform	-10.4407
▁fundamental	-10.4413
▁ly	-10.4416
▁attempt	-10.4423
▁shaped	-10.4423
▁differed	-10.4423
▁rescue	-10.4436
▁donors	-10.4441
▁dimension	-10.4442
▁ultrasound	-10.4443
▁aid	-10.4447
▁coordinates	-10.4448
▁expect	-10.4451
gal	-10.4454
▁assume	-10.4458
▁synthase	-10.4464
▁iso	-10.4465
▁pilot	-10.4469
▁geo	-10.4474
▁polymorphism	-10.4479
▁minimize	-10.4482
▁evaluating	-10.4486
▁135	-10.4486
▁sox	-10.4488
▁assessments	-10.4489
isation	-10.449
▁format	-10.449
▁extreme	-10.4491
▁libraries	-10.4493
tm	-10.4494
▁formal	-10.4499
▁binary	-10.45
▁principle	-10.45
▁fgf	-10.4513
▁mobility	-10.4514
▁zhang	-10.4516
▁subtypes	-10.4516
▁kinetics	-10.453
▁nutritional	-10.4538
▁divergence	-10.4542
▁smokers	-10.4547
▁brazil	-10.4549
▁contributing	-10.455
▁visualization	-10.4553
▁split	-10.4557
▁antigens	-10.4563
▁lane	-10.4563
▁sv	-10.4567
▁agree	-10.4567
▁zebrafish	-10.4578
▁dapi	-10.4581
▁insights	-10.4582
▁steady	-10.4585
▁sterile	-10.4585
▁copies	-10.4586
▁volumes	-10.4587
▁intensive	-10.4587
▁supplementation	-10.4588
▁opportunity	-10.4593
▁regeneration	-10.4593
▁yields	-10.4596
con	-10.4597
▁exists	-10.4601
mi	-10.4607
▁tyrosine	-10.4608
ke	-10.4609
▁fungi	-10.4611
▁cultural	-10.4612
▁atg	-10.4614
▁innate	-10.4615
▁symmetry	-10.4621
▁preliminary	-10.4628
▁plastic	-10.463
▁objects	-10.4636
▁purposes	-10.4645
▁sk	-10.465
▁built	-10.4651
▁monocytes	-10.4656
▁phage	-10.4657
▁elife	-10.4674
▁intensities	-10.4679
▁improvements	-10.468
▁subjective	-10.4681
▁ages	-10.4683
▁route	-10.4684
▁poorly	-10.4686
▁expanded	-10.4686
▁generating	-10.4694
▁district	-10.4703
▁apical	-10.4704
▁challenging	-10.4708
▁hek	-10.471
▁lin	-10.4715
▁clearance	-10.4716
▁percentages	-10.4718
▁contamination	-10.4723
▁sole	-10.4725
▁mhz	-10.4727
▁tracking	-10.4732
▁depicted	-10.4733
les	-10.4735
▁offer	-10.474
▁employ	-10.4744
▁fitted	-10.4752
▁infiltration	-10.4757
▁america	-10.4761
▁dcs	-10.4765
▁exception	-10.4766
▁surveys	-10.4768
▁medications	-10.477
ino	-10.4773
▁combining	-10.4773
▁organism	-10.4777
▁tailed	-10.4778
▁ver	-10.4778
▁146	-10.4778
fs	-10.478
▁endo	-10.4791
▁disruption	-10.4792
▁adsorption	-10.4795
▁electrophoresis	-10.4796
▁lm	-10.4798
▁oc	-10.48
▁auditory	-10.4803
▁fasting	-10.4806
▁hot	-10.4807
▁converted	-10.4809
▁responsive	-10.4809
▁prominent	-10.481
▁optimized	-10.4816
▁dis	-10.4817
▁enrolled	-10.4819
▁belonging	-10.4824
▁degrees	-10.4825
▁mab	-10.4832
▁effector	-10.4839
▁assisted	-10.4841
▁tight	-10.4842
▁bilateral	-10.4845
▁stock	-10.4845
▁reflects	-10.4846
▁lysis	-10.4847
▁scoring	-10.4847
ard	-10.4848
▁mh	-10.485
▁pk	-10.4852
nn	-10.4861
▁notch	-10.4863
▁vp	-10.4872
▁translocation	-10.4872
200	-10.4876
▁compliance	-10.4876
▁connections	-10.488
▁cam	-10.488
▁numerical	-10.4882
▁academic	-10.4884
▁assuming	-10.4884
fe	-10.4886
▁carrier	-10.489
68	-10.4894
300	-10.4894
▁dead	-10.4899
▁ny	-10.4902
▁acknowledge	-10.4903
▁cx	-10.4905
▁ppar	-10.4909
▁competition	-10.4913
▁drought	-10.4913
▁usage	-10.4914
▁put	-10.4919
▁angles	-10.4924
▁suffer	-10.4925
▁transporter	-10.4927
▁hippocampal	-10.4928
▁reward	-10.4934
▁scored	-10.4946
▁moving	-10.4952
▁cohorts	-10.4954
▁downregulated	-10.4955
▁flies	-10.496
▁roche	-10.4962
▁washing	-10.4963
▁rd	-10.4963
sen	-10.4971
if	-10.4974
▁switch	-10.4975
▁rnas	-10.4976
▁cysteine	-10.4976
ten	-10.4978
▁hydroxy	-10.4979
▁foods	-10.498
▁ja	-10.4984
bio	-10.4987
line	-10.4989
▁comprised	-10.4992
▁attachment	-10.4995
▁raised	-10.4995
▁homologous	-10.4996
▁candidates	-10.5001
▁sound	-10.5002
histochemistry	-10.5002
fc	-10.5005
▁133	-10.501
▁presenting	-10.5015
▁minute	-10.5017
▁msc	-10.502
▁accepted	-10.5024
▁detector	-10.5026
71	-10.5026
▁engineering	-10.5028
▁publisher	-10.5029
▁hair	-10.5031
▁necessarily	-10.5032
▁cytotoxic	-10.5039
▁emerging	-10.5047
▁novo	-10.505
▁grid	-10.505
49	-10.505
549	-10.5056
▁resolved	-10.506
▁mhc	-10.5069
▁add	-10.5076
▁nb	-10.5078
▁decades	-10.508
▁egg	-10.5082
▁discrimination	-10.5085
ea	-10.5086
▁cn	-10.509
▁accurately	-10.5104
▁cvd	-10.5111
73	-10.512
▁gst	-10.5122
▁exp	-10.5127
▁subtype	-10.513
▁slight	-10.513
▁ecm	-10.5131
ov	-10.5132
▁bleeding	-10.5132
▁consistency	-10.5138
▁dendritic	-10.5145
▁univariate	-10.5145
▁atcc	-10.5148
▁law	-10.5149
▁acetyl	-10.5153
▁difficulties	-10.5154
▁reaching	-10.5158
▁apart	-10.5159
▁precipitation	-10.5166
▁helped	-10.5166
▁pellet	-10.5167
▁scans	-10.5169
net	-10.517
iii	-10.5176
▁views	-10.5179
▁descriptive	-10.5191
▁lengths	-10.5195
▁155	-10.52
▁retained	-10.52
▁individually	-10.5201
▁larva	-10.5202
▁island	-10.5202
▁clade	-10.5207
▁137	-10.5209
▁master	-10.5227
▁cartilage	-10.5229
▁bladder	-10.5237
▁grants	-10.524
▁aids	-10.5243
▁tubulin	-10.5245
▁overview	-10.5246
ide	-10.525
▁pediatric	-10.5251
▁eligible	-10.526
▁cfu	-10.526
▁trigger	-10.5264
tr	-10.5267
▁spectroscopy	-10.5267
▁trace	-10.5268
▁chest	-10.5268
▁mf	-10.5272
tt	-10.5274
▁insufficient	-10.5275
▁valid	-10.5283
▁junction	-10.5288
▁acknowledgments	-10.5291
▁overweight	-10.5291
▁shrna	-10.5292
▁situations	-10.5294
▁231	-10.5296
▁immediate	-10.5297
▁viable	-10.5301
af	-10.5303
▁sam	-10.5303
▁gps	-10.5306
▁property	-10.5306
▁ft	-10.5307
▁answer	-10.5307
▁universal	-10.5314
▁participating	-10.5314
▁spectrometry	-10.5314
▁138	-10.5316
▁scenarios	-10.5316
▁179	-10.5328
mg	-10.5329
▁isoforms	-10.533
▁sustained	-10.5336
▁repeats	-10.5336
od	-10.5341
▁1993	-10.5346
▁metastases	-10.5352
ella	-10.5359
▁defense	-10.536
fa	-10.5362
▁spot	-10.5368
▁plasticity	-10.5369
▁eggs	-10.5373
▁cdk	-10.5375
▁picture	-10.5375
amine	-10.5376
▁lactate	-10.5378
▁smad	-10.5381
▁squares	-10.5381
ot	-10.5384
▁margin	-10.5387
▁apply	-10.5391
▁impacts	-10.5399
▁directions	-10.5406
▁sharing	-10.5406
▁atomic	-10.5409
▁resting	-10.541
▁eg	-10.5413
▁sch	-10.5414
▁normalization	-10.5415
▁rb	-10.5416
▁018	-10.5416
▁inactivation	-10.5417
▁driving	-10.5422
▁automated	-10.5423
▁xi	-10.5423
▁mtor	-10.543
▁questionnaires	-10.5432
chi	-10.5433
▁born	-10.5434
berg	-10.5435
▁2019	-10.5437
▁val	-10.5437
▁increasingly	-10.5438
ins	-10.5444
▁fdr	-10.5447
▁gives	-10.5449
ile	-10.5449
▁nursing	-10.5453
▁residents	-10.546
▁forces	-10.5462
▁engagement	-10.5469
293	-10.547
▁empty	-10.5474
▁dn	-10.5477
▁house	-10.5478
▁abuse	-10.5489
ft	-10.549
▁screened	-10.5492
▁detecting	-10.5492
▁mrnas	-10.5495
▁metabolite	-10.5495
▁experimentally	-10.5497
▁conclude	-10.5503
▁comprise	-10.5503
▁efficiently	-10.5507
▁arthritis	-10.5508
▁continue	-10.5513
▁modules	-10.5515
▁cloned	-10.5523
▁fo	-10.5525
▁regulators	-10.5529
cu	-10.5529
▁incorporated	-10.553
▁translational	-10.554
▁crude	-10.5548
▁py	-10.5548
87	-10.5553
54	-10.5559
▁activating	-10.5563
▁constraints	-10.5568
▁vol	-10.5571
▁lifestyle	-10.5573
▁correlate	-10.5584
▁radius	-10.5587
▁night	-10.559
ev	-10.5591
▁build	-10.5591
▁foot	-10.5595
▁132	-10.5599
▁densities	-10.5603
▁graft	-10.5603
▁wm	-10.5606
bo	-10.5611
▁transduction	-10.5619
▁uc	-10.5623
▁inferred	-10.5627
▁helpful	-10.5628
▁signature	-10.5629
▁homology	-10.5631
▁polar	-10.5632
▁flat	-10.5632
▁epithelium	-10.5635
▁fs	-10.5635
▁disc	-10.5648
▁graphene	-10.5651
▁lineages	-10.5653
▁deliver	-10.5654
▁copper	-10.5659
▁proportions	-10.5661
▁discuss	-10.5664
▁vas	-10.5666
▁links	-10.5667
gastrointestinal	-10.5674
ator	-10.5678
▁sepsis	-10.5683
▁mutated	-10.5684
▁biotechnology	-10.569
hs	-10.5691
▁narrow	-10.5695
▁017	-10.5695
accompanied	-10.5697
▁replicate	-10.5698
▁permeability	-10.5698
▁eating	-10.5699
▁excessive	-10.5706
▁yielded	-10.5706
▁subsets	-10.5707
▁substance	-10.5709
▁ig	-10.5718
▁drive	-10.572
▁chen	-10.5731
▁contacts	-10.5737
▁conformation	-10.5737
▁birds	-10.5738
▁structured	-10.574
75	-10.5741
cd	-10.5745
▁prevalent	-10.5747
▁goals	-10.5749
▁lobe	-10.5753
▁clinicians	-10.5753
▁assembled	-10.576
▁potassium	-10.5763
▁cues	-10.5763
▁anatomical	-10.5764
ica	-10.5779
▁setup	-10.5783
▁144	-10.5784
▁bmp	-10.5788
▁harbor	-10.579
▁carriers	-10.5791
▁mk	-10.5795
▁7554	-10.5796
▁170	-10.5796
▁asian	-10.5804
▁bis	-10.5808
▁cruz	-10.5811
▁desired	-10.5811
▁completion	-10.5812
▁mesh	-10.5812
rn	-10.5814
▁stain	-10.5815
▁airway	-10.5815
▁inverse	-10.5818
hl	-10.5819
▁depressive	-10.5827
▁gt	-10.5839
▁del	-10.584
▁est	-10.5842
81	-10.5846
64	-10.5849
▁industry	-10.5852
▁toxin	-10.5857
▁conversely	-10.586
▁thresholds	-10.5863
▁thr	-10.5867
▁quantity	-10.5868
▁136	-10.5869
▁serine	-10.5871
▁come	-10.5886
▁ul	-10.5886
▁subgroups	-10.5886
▁connection	-10.5889
▁diffuse	-10.5891
▁concentrated	-10.5891
▁bonferroni	-10.5893
▁tendency	-10.5893
▁injuries	-10.5893
▁hospitalization	-10.5898
▁request	-10.59
▁recordings	-10.5904
▁cyclin	-10.5909
▁ccr	-10.5911
▁spine	-10.5912
▁canonical	-10.5919
▁affiliations	-10.5925
▁ubiquitin	-10.5926
▁pla	-10.5929
▁treating	-10.5937
▁tio	-10.5937
▁phosphatase	-10.5949
▁twenty	-10.5958
▁undergoing	-10.5966
ish	-10.5967
▁vesicles	-10.5967
▁attenuated	-10.5978
▁complementar	-10.5979
▁pdb	-10.5979
▁utility	-10.5983
▁chloride	-10.5989
▁edges	-10.5992
oma	-10.5995
03	-10.5999
▁aortic	-10.6002
▁shifts	-10.6004
▁recognize	-10.6004
▁intron	-10.6006
ah	-10.6007
▁distant	-10.6008
▁chemicals	-10.6008
▁hepatitis	-10.6009
▁submitted	-10.6009
▁analyzing	-10.6016
▁extensively	-10.6016
ht	-10.6018
▁agricultural	-10.6024
▁stratified	-10.6024
▁throughput	-10.6025
▁lr	-10.6026
▁var	-10.6027
▁orf	-10.6028
▁worth	-10.6029
▁predicting	-10.603
▁january	-10.6032
▁incomplete	-10.6033
▁lt	-10.6033
▁meaning	-10.6033
▁cho	-10.6037
▁pigs	-10.6039
▁mac	-10.6039
▁agilent	-10.6041
▁latency	-10.6041
▁hl	-10.6044
az	-10.6044
▁trap	-10.6047
mb	-10.605
▁springer	-10.6052
▁gradually	-10.6053
▁static	-10.6057
▁polymorphisms	-10.6065
▁verbal	-10.6069
▁peroxidase	-10.6077
ron	-10.608
▁ll	-10.6081
▁feel	-10.6081
▁nsclc	-10.6082
▁spent	-10.6083
▁inoculation	-10.6084
▁ls	-10.6084
▁unlikely	-10.6085
▁ihc	-10.6092
▁sulfate	-10.6092
▁helix	-10.6092
▁job	-10.6095
▁slices	-10.6099
▁glu	-10.6102
▁sector	-10.6105
▁korea	-10.6105
▁louis	-10.6108
▁italy	-10.6109
▁carry	-10.6113
▁serial	-10.6116
▁differentiate	-10.6123
▁nrf	-10.6131
▁lee	-10.6132
▁diffraction	-10.6132
▁resuspended	-10.6141
▁insect	-10.6144
▁cad	-10.6151
▁discovered	-10.6154
▁held	-10.6158
88	-10.6161
▁markedly	-10.6162
▁genotyping	-10.6166
▁vital	-10.6169
▁examin	-10.617
▁grateful	-10.6174
pc	-10.6175
tz	-10.6176
▁139	-10.618
▁emergence	-10.6183
▁ago	-10.6184
▁kinetic	-10.6185
oh	-10.6199
▁move	-10.62
▁netherlands	-10.6208
ll	-10.621
▁shell	-10.6211
▁019	-10.6212
▁scaffold	-10.6213
▁astrocytes	-10.6215
▁sin	-10.6215
▁hierarchical	-10.6215
▁circular	-10.6216
▁named	-10.6227
▁promoted	-10.6232
▁tomography	-10.6233
▁epidemiological	-10.6249
▁digestion	-10.625
▁sun	-10.6259
▁geographic	-10.6261
▁178	-10.6261
▁penicillin	-10.6267
▁lifetime	-10.6268
▁1992	-10.6269
▁refers	-10.6273
▁chance	-10.6277
▁apc	-10.628
amide	-10.6281
▁nutrients	-10.6281
▁supernatants	-10.6282
bb	-10.6284
▁emt	-10.6287
▁promoters	-10.6288
▁cxcl	-10.6293
ung	-10.6295
▁pronounced	-10.6301
▁gland	-10.6301
▁modern	-10.6302
▁exogenous	-10.6309
▁sci	-10.6314
▁correlates	-10.6316
▁redox	-10.6322
▁covariates	-10.6325
▁agarose	-10.6327
▁finger	-10.6335
▁infusion	-10.6338
▁gov	-10.6341
▁deficits	-10.6345
▁prism	-10.6352
▁requiring	-10.6352
▁ro	-10.6353
97	-10.6359
▁regimen	-10.636
▁axial	-10.6361
the	-10.6361
▁crystals	-10.6362
▁glycerol	-10.6367
▁134	-10.6369
▁brca	-10.6374
▁exclusively	-10.6374
▁verify	-10.6375
▁ischemia	-10.6395
▁pn	-10.6397
▁kv	-10.6398
tc	-10.6399
▁checked	-10.6403
▁reader	-10.6409
▁vo	-10.641
▁elsewhere	-10.6412
▁considerably	-10.6412
▁131	-10.6419
▁mal	-10.6424
▁distress	-10.6429
▁requirement	-10.643
▁dots	-10.6433
▁schools	-10.6435
▁tea	-10.6438
▁jurisdictional	-10.6439
▁partly	-10.6441
▁travel	-10.6443
▁coded	-10.6443
▁registered	-10.6446
▁cattle	-10.6455
▁sirt	-10.647
▁grow	-10.6477
95	-10.648
▁march	-10.6482
log	-10.6485
▁293	-10.6488
▁giving	-10.6499
▁tif	-10.65
ane	-10.6501
▁biosystems	-10.6502
ani	-10.6507
▁counter	-10.6508
▁stream	-10.6512
▁mesenchymal	-10.6516
▁hdac	-10.6517
▁transcribed	-10.6517
del	-10.6525
▁rc	-10.6525
▁mtt	-10.6525
ei	-10.653
▁dg	-10.653
▁creatinine	-10.6533
ize	-10.6538
ee	-10.6539
▁proved	-10.6541
▁inputs	-10.6541
▁cisplatin	-10.6542
▁passive	-10.6542
▁tn	-10.6552
▁highlight	-10.6556
▁crop	-10.656
▁ampk	-10.6566
▁internet	-10.657
▁denotes	-10.6575
▁vision	-10.6578
▁hosts	-10.6578
▁aggressive	-10.6585
▁believed	-10.6587
61	-10.6587
▁patch	-10.6591
▁insurance	-10.6594
▁asia	-10.6595
db	-10.6598
▁possess	-10.6599
▁radiotherapy	-10.6603
78	-10.6606
▁electric	-10.6611
▁scattering	-10.6616
▁tyr	-10.6617
▁shear	-10.6619
ls	-10.662
▁cadherin	-10.6621
▁promotion	-10.6621
▁inferior	-10.663
▁fitc	-10.663
▁roc	-10.663
▁remodeling	-10.6632
▁track	-10.6643
▁pneumonia	-10.6644
▁profiling	-10.6648
▁acceptable	-10.6648
▁relate	-10.665
gr	-10.665
▁eastern	-10.6656
▁firing	-10.666
ities	-10.6666
▁bt	-10.6667
▁guidance	-10.6674
▁polarization	-10.6675
▁office	-10.6675
▁tetra	-10.6677
▁inserted	-10.6682
▁registration	-10.6682
ef	-10.6686
▁143	-10.6687
▁147	-10.6687
▁phenyl	-10.669
▁148	-10.6692
▁lysine	-10.6692
▁segmentation	-10.6695
▁households	-10.6699
▁widespread	-10.67
▁spots	-10.6701
▁mer	-10.6709
▁market	-10.6712
▁fund	-10.6714
ho	-10.6717
▁rehabilitation	-10.6718
▁manually	-10.6723
▁sas	-10.6724
▁177	-10.674
▁hazard	-10.6746
act	-10.6759
▁compartment	-10.676
▁critically	-10.6761
▁served	-10.6762
▁lf	-10.6764
▁generalized	-10.6764
▁additive	-10.6765
▁inform	-10.6766
▁exclude	-10.6768
▁pump	-10.677
ser	-10.6772
▁systolic	-10.6773
72	-10.6773
of	-10.6779
▁amp	-10.6779
▁emerged	-10.678
▁bayesian	-10.678
▁varies	-10.6782
▁chromosomal	-10.6783
▁rating	-10.6792
▁nurse	-10.6792
59	-10.6794
▁triggered	-10.6796
▁ever	-10.6797
▁ckd	-10.6797
▁socioeconomic	-10.6798
▁advice	-10.6798
▁agonist	-10.6801
▁proven	-10.6802
▁papers	-10.6803
▁leukemia	-10.6817
▁arc	-10.6823
▁immunization	-10.6825
▁front	-10.6833
▁equipment	-10.6834
▁ear	-10.6837
microenvironment	-10.684
▁matrices	-10.6843
▁default	-10.6852
▁rules	-10.6856
▁connect	-10.6867
▁reactivity	-10.687
▁worse	-10.6874
ks	-10.6875
▁dh	-10.6876
pl	-10.6877
▁sought	-10.6888
ari	-10.6888
▁revision	-10.6892
▁attitudes	-10.6895
▁publications	-10.6899
▁principles	-10.6905
▁validate	-10.6905
▁readily	-10.6906
▁labelled	-10.691
▁interpret	-10.6919
▁liu	-10.692
▁implies	-10.6924
▁contrary	-10.6924
ib	-10.6927
▁coa	-10.6932
▁operative	-10.6933
▁discussions	-10.6934
▁clustered	-10.6938
hr	-10.6945
▁sheet	-10.6945
▁genera	-10.6947
▁tukey	-10.6951
▁categorical	-10.6969
▁enhancing	-10.6969
▁um	-10.6976
▁clock	-10.6981
▁450	-10.6982
▁evoked	-10.6983
▁rely	-10.6985
▁emotion	-10.6987
▁flexible	-10.6988
ura	-10.699
▁dot	-10.6991
▁gyrus	-10.6997
▁015	-10.6997
▁rho	-10.6999
ki	-10.7001
▁glutamine	-10.7004
▁bal	-10.701
▁700	-10.7012
09	-10.7013
▁circuit	-10.7013
▁excluding	-10.7015
▁gels	-10.7022
▁park	-10.7024
▁shanghai	-10.7024
▁hydrolysis	-10.7024
▁columns	-10.7029
▁hetero	-10.703
▁german	-10.7033
▁investigating	-10.7033
▁circulation	-10.7033
▁ethnicity	-10.7034
▁weekly	-10.7038
▁kinases	-10.7039
▁gaussian	-10.7042
▁rock	-10.7045
▁175	-10.7046
der	-10.7054
▁chose	-10.7056
▁1991	-10.7063
▁disrupt	-10.7074
▁calculating	-10.7079
▁policies	-10.7079
▁collaboration	-10.7079
▁spain	-10.7081
▁topic	-10.7084
ya	-10.7088
▁felt	-10.709
▁constitute	-10.709
▁intestine	-10.7103
▁cutoff	-10.7103
006	-10.7111
▁gag	-10.7121
ik	-10.7124
go	-10.7126
ris	-10.7129
120	-10.7132
▁gb	-10.7145
▁adjuvant	-10.7146
▁arms	-10.7147
▁modulated	-10.7148
▁equipped	-10.7162
▁dense	-10.7166
sh	-10.7168
▁homozygous	-10.7171
▁lys	-10.7172
dc	-10.7172
▁names	-10.7177
▁med	-10.7178
cat	-10.7179
▁pu	-10.7181
▁fermentation	-10.7182
▁microorganisms	-10.7186
▁tooth	-10.7186
▁tap	-10.719
▁press	-10.719
gl	-10.7196
▁star	-10.7198
▁somewhat	-10.7199
om	-10.7199
▁references	-10.72
▁works	-10.7204
▁motility	-10.7209
▁arrays	-10.7209
▁graphs	-10.7214
ick	-10.7216
▁speculate	-10.7218
▁transmembrane	-10.7218
▁relaxation	-10.7228
▁haplotype	-10.7229
▁selectivity	-10.7237
▁quickly	-10.7242
▁modelling	-10.7243
▁leu	-10.7245
▁pin	-10.725
▁aims	-10.725
▁149	-10.7251
▁schizophrenia	-10.7255
▁motivation	-10.7257
np	-10.7265
▁quantum	-10.7265
▁winter	-10.7266
▁depict	-10.7267
▁adenocarcinoma	-10.7271
▁died	-10.7275
bu	-10.7277
▁spring	-10.7278
▁girls	-10.7279
tin	-10.7281
▁speech	-10.7283
▁filtering	-10.7284
▁polymers	-10.7289
▁142	-10.7289
▁moment	-10.7291
▁correctly	-10.7292
he	-10.7295
▁accounted	-10.7299
▁manipulation	-10.73
▁lungs	-10.7305
▁mounted	-10.7308
▁seconds	-10.7309
▁probabilities	-10.7312
▁letters	-10.7313
▁maize	-10.7313
▁tx	-10.7314
▁supervised	-10.7317
▁mammals	-10.7317
ep	-10.7321
▁meat	-10.7329
▁wells	-10.733
▁drafted	-10.7333
▁edu	-10.7337
▁title	-10.7338
▁taxonomic	-10.734
▁elongation	-10.734
▁lh	-10.7341
▁unless	-10.7343
▁confounding	-10.7344
▁trna	-10.7353
▁mucosa	-10.7358
▁stiffness	-10.7359
▁downregulation	-10.7359
▁teeth	-10.7359
▁determinants	-10.7359
▁pollen	-10.736
▁triple	-10.7365
▁der	-10.7367
▁heterozygous	-10.7368
▁incorporation	-10.7378
▁biomedical	-10.7378
▁terminus	-10.7378
▁hfd	-10.7379
▁homo	-10.7382
▁introduce	-10.7386
▁whil	-10.7387
▁aggregates	-10.7392
▁proton	-10.7399
▁rab	-10.7403
▁dox	-10.7405
▁saturation	-10.7406
▁eventually	-10.7408
▁icd	-10.7414
▁nucleotides	-10.7421
▁geographical	-10.7431
▁relapse	-10.7432
▁isoform	-10.7434
han	-10.7434
▁vaccines	-10.7435
▁windows	-10.744
▁bac	-10.744
▁tcr	-10.7444
▁opportunities	-10.7444
rin	-10.7445
▁enhances	-10.7446
▁describes	-10.7449
▁rarely	-10.745
▁inactive	-10.7454
▁statistic	-10.7461
▁sequential	-10.7464
▁december	-10.7473
▁elimination	-10.7473
▁activates	-10.7476
ise	-10.7477
▁reveals	-10.748
▁focusing	-10.7482
lan	-10.7483
▁sent	-10.7483
▁letter	-10.7493
▁categorized	-10.7496
▁silica	-10.7497
vo	-10.7498
▁176	-10.7501
su	-10.7502
▁counting	-10.7504
▁industrial	-10.7507
▁yl	-10.7509
▁simultaneous	-10.7512
histochemical	-10.7515
▁hearing	-10.7524
▁488	-10.7533
▁opening	-10.7541
▁exponential	-10.7542
▁circle	-10.7543
▁biosciences	-10.7545
▁grouped	-10.7547
▁keep	-10.7547
ance	-10.7548
▁iu	-10.7552
▁slc	-10.7555
▁tumours	-10.7559
▁gsk	-10.7561
▁wood	-10.7562
▁needle	-10.7568
▁mellitus	-10.7569
dt	-10.7571
▁graphpad	-10.7579
▁neutrophil	-10.7588
▁accessible	-10.7589
▁establishment	-10.759
▁190	-10.7595
▁seeking	-10.7596
▁hh	-10.7596
▁ethyl	-10.7605
lt	-10.7606
▁om	-10.7606
58	-10.7611
▁cellulose	-10.7614
wt	-10.7615
▁lymphoma	-10.7618
ors	-10.7627
▁aba	-10.7632
▁streptomycin	-10.7637
▁latent	-10.7639
▁sal	-10.7644
▁provision	-10.7646
▁carbohydrate	-10.7647
▁conductivity	-10.7648
▁approximate	-10.7649
▁assumptions	-10.7655
▁radio	-10.7656
▁expert	-10.7657
cy	-10.7659
▁colored	-10.766
▁branches	-10.7661
▁240	-10.7661
▁fmri	-10.7664
▁hemoglobin	-10.7669
zo	-10.767
▁025	-10.767
tion	-10.7671
▁016	-10.7672
▁consumed	-10.7674
▁pixel	-10.7676
▁episodes	-10.7677
▁350	-10.7677
tri	-10.7677
▁depleted	-10.768
▁wind	-10.768
▁gait	-10.7681
▁bank	-10.7682
▁discrete	-10.7686
▁choose	-10.7686
▁whom	-10.7691
▁mind	-10.7695
▁autoimmune	-10.7695
▁intravenous	-10.7696
▁infarction	-10.7696
▁hba	-10.7701
▁chemistry	-10.7704
▁fn	-10.7708
▁implant	-10.771
▁seedlings	-10.7712
kin	-10.7712
gene	-10.7713
▁offered	-10.7714
▁stimulate	-10.7715
▁cal	-10.7716
▁exons	-10.7717
▁triton	-10.7726
▁attack	-10.7726
▁aromatic	-10.7727
ml	-10.7729
▁plaque	-10.7732
▁011	-10.7733
▁pharmaceutical	-10.7736
▁gsh	-10.7739
▁lip	-10.7742
▁rep	-10.7744
▁meeting	-10.7745
▁seasonal	-10.7756
▁heating	-10.7762
ach	-10.7762
▁protected	-10.7766
▁dopamine	-10.7774
▁plated	-10.7775
▁014	-10.7776
▁mixing	-10.7776
▁june	-10.7777
precipitation	-10.7777
tis	-10.7781
▁ethnic	-10.7783
▁gestational	-10.7791
▁ai	-10.7792
▁aeruginosa	-10.7794
rna	-10.7795
▁ontology	-10.7798
▁gg	-10.78
▁silver	-10.7804
▁encode	-10.7805
▁powerful	-10.7815
▁treg	-10.7815
mc	-10.782
▁comprising	-10.7823
▁168	-10.7823
▁complicated	-10.7828
ey	-10.783
▁adjusting	-10.7831
▁describing	-10.7833
▁humidity	-10.7833
▁monthly	-10.7834
rr	-10.7836
▁gd	-10.7837
gt	-10.7838
lv	-10.7839
▁estrogen	-10.7839
▁boxes	-10.7844
▁integrin	-10.7845
▁bad	-10.785
▁lag	-10.7857
▁capillary	-10.7866
▁investigators	-10.7872
ent	-10.7875
▁mark	-10.7886
▁facial	-10.7886
bc	-10.7892
▁flexibility	-10.7893
▁incident	-10.7894
▁allocation	-10.7905
▁facs	-10.7909
▁ratings	-10.791
▁alexa	-10.7913
▁boundaries	-10.7923
▁deformation	-10.7925
▁eif	-10.7927
mar	-10.793
▁benign	-10.7933
▁compression	-10.7933
▁exhibits	-10.7934
▁big	-10.7934
▁ot	-10.7935
▁begin	-10.7947
▁denote	-10.7957
aceae	-10.7958
▁confirming	-10.796
▁hypotheses	-10.7963
end	-10.7963
▁indication	-10.7966
while	-10.7968
▁april	-10.7974
▁reviewers	-10.7975
▁bat	-10.7977
▁abc	-10.7977
osa	-10.7983
va	-10.7984
▁pkc	-10.7985
▁want	-10.7987
▁prescribed	-10.7989
▁adhd	-10.7991
▁objectives	-10.7991
▁pixels	-10.7993
▁inducible	-10.7993
fr	-10.7995
▁trp	-10.7996
▁141	-10.8
▁les	-10.8002
▁wa	-10.8004
▁013	-10.8004
▁sy	-10.8006
▁behaviours	-10.8008
▁degeneration	-10.8013
▁cascade	-10.8017
▁chicken	-10.8017
ala	-10.8017
▁parametric	-10.8018
▁lake	-10.8022
▁derivative	-10.8027
▁batch	-10.8029
▁lysed	-10.8031
▁aware	-10.8032
▁preserved	-10.8034
▁coordinate	-10.804
▁projection	-10.8043
▁diagnoses	-10.8043
▁intense	-10.8044
▁implantation	-10.8055
▁coating	-10.8056
▁glutathione	-10.8056
▁waves	-10.8056
▁teaching	-10.8057
▁dissociation	-10.8064
▁agency	-10.8064
▁158	-10.8066
met	-10.8074
▁pretreatment	-10.8075
▁greatest	-10.8076
▁cue	-10.8076
▁abcam	-10.8078
▁functionally	-10.8079
▁projects	-10.8082
▁offers	-10.8082
▁parp	-10.8084
▁arginine	-10.8084
▁rated	-10.8085
hn	-10.8089
low	-10.809
▁formulation	-10.8099
▁dosage	-10.8109
69	-10.8109
uc	-10.8114
▁feasibility	-10.8115
▁continuously	-10.8116
▁res	-10.8117
▁favorable	-10.8117
▁custom	-10.812
ham	-10.8121
cin	-10.8123
▁paraffin	-10.8125
▁gross	-10.8126
▁propagation	-10.8127
▁delta	-10.8127
ative	-10.813
▁observational	-10.813
▁planned	-10.8131
▁mosquito	-10.8132
▁diastolic	-10.8135
▁caregivers	-10.8137
▁anesthesia	-10.8138
▁tension	-10.8139
▁sera	-10.814
133	-10.8148
▁summer	-10.815
▁substances	-10.8152
▁alteration	-10.8152
▁transitions	-10.8157
▁constrained	-10.8159
▁genetically	-10.8159
▁lens	-10.8161
▁012	-10.8162
▁game	-10.8163
▁evolved	-10.8165
▁mood	-10.8165
mt	-10.8167
▁suspected	-10.817
ck	-10.8174
▁lot	-10.8176
▁removing	-10.8176
▁woman	-10.8177
▁behavioural	-10.8179
▁156	-10.8185
▁favor	-10.8188
▁originally	-10.8189
▁dog	-10.8193
▁cytochrome	-10.8197
▁obtaining	-10.8201
▁geometric	-10.8201
▁ribosomal	-10.8207
▁scaffolds	-10.8209
▁jnk	-10.8213
▁recommend	-10.8213
▁mosquitoes	-10.8221
▁homogeneous	-10.8228
▁unfortunately	-10.8228
itis	-10.8232
▁july	-10.8234
▁attempts	-10.8238
▁prevented	-10.8243
▁adolescent	-10.8243
▁nac	-10.8245
▁diarrhea	-10.8248
▁feasible	-10.8248
▁volunteers	-10.8251
▁lipoprotein	-10.8255
▁ses	-10.826
ang	-10.8265
▁retina	-10.8268
▁microbiome	-10.8269
▁hy	-10.8269
▁usual	-10.8271
▁degs	-10.8272
▁165	-10.8272
pd	-10.828
▁likewise	-10.828
▁fi	-10.8288
▁clinics	-10.829
▁company	-10.83
▁kegg	-10.83
▁polyclonal	-10.8301
▁vegetation	-10.831
▁ambient	-10.8311
▁sim	-10.8312
▁charged	-10.8312
nc	-10.8317
▁youth	-10.8322
▁tokyo	-10.8324
▁scope	-10.8327
▁suspended	-10.8332
mp	-10.8333
▁dsm	-10.8338
▁designated	-10.8339
▁nitro	-10.835
▁yang	-10.8352
▁striking	-10.8352
▁antiviral	-10.8353
▁oriented	-10.8354
▁sand	-10.8356
▁marginal	-10.8359
▁alt	-10.8362
▁span	-10.8363
▁166	-10.8363
▁nj	-10.8364
lu	-10.8364
▁progenitor	-10.8369
rm	-10.8373
▁vl	-10.8383
▁traffic	-10.8383
▁mating	-10.8385
▁institutes	-10.8385
▁hrp	-10.8391
▁transmitted	-10.8394
▁ends	-10.8394
▁dramatically	-10.8395
▁mcp	-10.8396
▁permanent	-10.8405
▁oligonucleotide	-10.8405
▁scaling	-10.8405
▁virtual	-10.8406
▁fruits	-10.8408
▁owing	-10.8409
▁crispr	-10.841
▁diets	-10.8412
▁venous	-10.8415
▁closer	-10.8418
▁167	-10.842
▁cycling	-10.8427
▁linking	-10.8428
▁predominant	-10.8428
▁gen	-10.843
▁firstly	-10.8432
▁chart	-10.8433
▁mediators	-10.8435
ld	-10.8435
▁amyloid	-10.8436
▁asd	-10.8438
▁cytosolic	-10.8439
▁interleukin	-10.844
▁rac	-10.844
▁pig	-10.8441
▁kim	-10.8442
our	-10.8444
▁react	-10.8446
▁antagonist	-10.8446
▁said	-10.8448
▁digested	-10.8453
▁activator	-10.8453
▁haplotypes	-10.8457
▁leptin	-10.8457
▁ox	-10.8461
▁belong	-10.8463
▁fused	-10.8464
cn	-10.8466
lp	-10.8469
▁denoted	-10.8471
ix	-10.8471
▁hm	-10.8476
▁vis	-10.8477
▁experts	-10.8478
▁proximity	-10.8478
▁senescence	-10.8478
▁taiwan	-10.8478
▁runs	-10.8478
▁docx	-10.8482
▁trajectory	-10.8489
▁transverse	-10.8489
▁sheep	-10.849
vs	-10.8493
▁bb	-10.8497
▁dispersion	-10.8499
wi	-10.85
▁endemic	-10.8503
▁ter	-10.8505
▁bases	-10.8508
▁resin	-10.8508
▁elastic	-10.8517
▁pas	-10.8518
▁enter	-10.8519
we	-10.8519
▁metrics	-10.8522
▁ocean	-10.8523
▁td	-10.8525
▁displays	-10.8528
▁interfere	-10.8529
▁preoperative	-10.8533
▁perfusion	-10.8535
▁covariance	-10.8542
▁sma	-10.8542
▁sharp	-10.8552
▁transporters	-10.8553
genic	-10.8555
ill	-10.8555
▁ie	-10.8557
▁unexpected	-10.8563
▁behind	-10.8563
▁australian	-10.8564
▁qol	-10.8566
▁paradigm	-10.8582
ful	-10.8587
▁cys	-10.8591
450	-10.8595
eemed	-10.8595
▁estimating	-10.8595
▁vacuum	-10.8595
▁trade	-10.8601
▁doctors	-10.8603
▁automatic	-10.8606
▁photon	-10.861
▁adapt	-10.861
▁station	-10.8613
▁meaningful	-10.8617
ster	-10.8621
▁021	-10.8623
85	-10.8627
▁spearman	-10.8628
ose	-10.8629
▁cer	-10.8629
▁clean	-10.8631
▁flank	-10.8632
▁bath	-10.8632
▁implement	-10.8635
▁vr	-10.8637
▁accumulated	-10.8641
▁154	-10.8642
▁bootstrap	-10.8643
▁retrieved	-10.8644
▁conformational	-10.8645
▁fluctuations	-10.8646
og	-10.8646
▁encodes	-10.8647
her	-10.8649
▁postnatal	-10.8649
▁concepts	-10.8651
can	-10.8651
▁aberrant	-10.866
▁declaration	-10.866
▁psa	-10.8662
ena	-10.8666
osis	-10.8668
iz	-10.8673
▁256	-10.8674
▁stromal	-10.8676
▁foxp	-10.8676
▁mega	-10.8677
▁learn	-10.8681
▁millipore	-10.8681
▁august	-10.8681
▁raise	-10.8686
▁retain	-10.869
▁semantic	-10.8691
▁nl	-10.8691
▁lattice	-10.8692
▁suicide	-10.8692
▁trajectories	-10.8692
▁capability	-10.8693
▁similarities	-10.8698
▁mineral	-10.8703
▁bf	-10.8713
▁violence	-10.8714
▁sweden	-10.8714
▁query	-10.8714
▁wu	-10.8714
▁catalyst	-10.8723
▁mtdna	-10.8725
86	-10.8727
▁compute	-10.8727
▁methodological	-10.8727
▁lg	-10.8728
ong	-10.8736
▁hold	-10.8737
▁urea	-10.8737
▁colonization	-10.8737
▁fibroblast	-10.874
▁zones	-10.8741
▁filters	-10.8752
▁lamp	-10.8761
▁blind	-10.8767
▁radial	-10.8769
▁optic	-10.8776
▁impair	-10.8776
▁bit	-10.8791
▁competitive	-10.8791
▁notion	-10.8793
▁fox	-10.8794
▁character	-10.8795
▁california	-10.8801
▁dha	-10.8803
▁reviewer	-10.8804
▁lists	-10.8804
▁metric	-10.8808
▁jun	-10.881
aria	-10.8812
▁horse	-10.8812
▁mimic	-10.8817
▁reversed	-10.882
116	-10.8821
▁microscopic	-10.8822
▁conditional	-10.8824
▁adopt	-10.8829
▁instability	-10.8834
▁blots	-10.8835
▁mask	-10.8835
▁022	-10.8839
▁mock	-10.884
▁bw	-10.8847
▁dimer	-10.885
▁220	-10.8851
▁slice	-10.8859
▁bo	-10.886
tra	-10.8862
▁bed	-10.8865
▁spectrometer	-10.8867
▁strengths	-10.8867
▁wet	-10.887
▁germ	-10.8872
▁provider	-10.8873
▁enabled	-10.8873
▁inference	-10.8877
▁kaplan	-10.8878
▁assist	-10.8879
▁mpa	-10.888
▁combine	-10.888
▁conceptual	-10.8882
▁esi	-10.8884
ome	-10.8885
▁overexpressing	-10.8887
▁illustrate	-10.8889
▁eliminate	-10.8891
▁entered	-10.8891
▁institutions	-10.8903
▁fas	-10.8915
▁aerobic	-10.8922
0000000000000000	-10.8922
▁nasal	-10.8922
▁mut	-10.8925
▁hit	-10.8928
▁152	-10.893
▁damaged	-10.8933
▁locally	-10.8936
▁010	-10.8939
▁sg	-10.8942
ida	-10.8942
▁mucosal	-10.8944
▁currents	-10.8953
▁174	-10.8953
▁157	-10.8953
▁cleaved	-10.8953
▁expressions	-10.8957
▁insects	-10.8958
▁conditioned	-10.8966
▁acoustic	-10.8969
ting	-10.8969
▁bv	-10.897
▁annealing	-10.8977
▁elegans	-10.8977
▁stimulating	-10.8977
▁citrate	-10.8978
▁wr	-10.898
▁organized	-10.8984
▁starch	-10.8985
▁soybean	-10.8988
007	-10.899
▁fly	-10.899
▁pad	-10.8991
▁abilities	-10.8992
▁compartments	-10.8996
▁dec	-10.8999
▁circadian	-10.8999
▁wing	-10.9
▁mor	-10.9
▁lo	-10.9002
▁ldh	-10.9004
▁ppi	-10.9009
▁oligo	-10.9009
▁prone	-10.9016
du	-10.9021
▁adjust	-10.9021
▁cloning	-10.9022
▁salmonella	-10.9022
66	-10.903
▁rct	-10.9032
▁eb	-10.9033
▁gaps	-10.9039
▁arise	-10.9041
▁unchanged	-10.9044
▁indicative	-10.9044
▁mon	-10.9044
▁mat	-10.9045
▁harm	-10.9051
▁sided	-10.9051
▁guided	-10.9053
▁av	-10.9053
▁atpase	-10.9054
▁resident	-10.9056
▁bioinformatics	-10.9058
▁pten	-10.9059
▁tan	-10.9062
▁ei	-10.9062
▁docking	-10.9064
▁road	-10.9066
▁retrieval	-10.9066
▁clarify	-10.9066
▁border	-10.9069
▁epidermal	-10.907
▁bn	-10.907
▁transplant	-10.9075
▁domestic	-10.9076
▁nonetheless	-10.9078
ogenic	-10.908
▁hrs	-10.9081
ero	-10.9082
84	-10.9084
▁rnase	-10.9088
▁epidemic	-10.909
nu	-10.9093
▁femoral	-10.9094
▁dotted	-10.91
▁159	-10.9103
car	-10.9108
▁injections	-10.9112
▁biased	-10.9112
▁fluor	-10.9112
▁mammary	-10.9113
▁classifier	-10.9113
▁proliferati	-10.9114
▁abstract	-10.9118
▁ace	-10.9118
▁tu	-10.9119
do	-10.9121
▁rpmi	-10.9122
▁ea	-10.9122
▁oxidase	-10.9123
▁hydro	-10.9127
▁imp	-10.913
▁mechanistic	-10.9134
▁permission	-10.9135
reating	-10.9136
▁naturally	-10.9138
mon	-10.9143
▁atmosphere	-10.9145
▁extinction	-10.9145
wa	-10.9147
▁concomitant	-10.9147
▁metals	-10.9151
▁han	-10.9153
▁apparatus	-10.9157
▁tandem	-10.9157
que	-10.9157
▁cxcr	-10.9157
▁lncrnas	-10.916
▁mixtures	-10.9161
▁myo	-10.9164
▁switching	-10.9164
▁153	-10.9168
▁supervision	-10.9168
▁prepare	-10.9169
cellular	-10.9174
▁cerevisiae	-10.9179
▁perceptions	-10.918
▁carefully	-10.9186
▁aml	-10.919
▁nonlinear	-10.9191
▁hct	-10.9194
fu	-10.9194
400	-10.9196
▁exert	-10.9198
93	-10.9202
tor	-10.9206
▁intended	-10.9207
side	-10.921
▁october	-10.9213
ker	-10.9215
▁mdr	-10.9219
▁nu	-10.9222
av	-10.9222
▁suppressor	-10.9229
▁tet	-10.923
▁asymmetric	-10.9234
▁meso	-10.9234
▁broader	-10.9235
▁ram	-10.9236
▁024	-10.9236
▁passage	-10.9241
▁elicit	-10.9241
▁meier	-10.9244
▁apex	-10.9247
▁decomposition	-10.9248
▁nitrate	-10.9249
▁proof	-10.925
▁generations	-10.9251
▁smith	-10.9252
▁viewed	-10.9258
▁farm	-10.9258
▁gaba	-10.9258
▁unpaired	-10.9259
▁exploration	-10.9259
▁ectopic	-10.9259
▁sle	-10.9267
▁020	-10.9268
▁stand	-10.927
▁studying	-10.9272
▁going	-10.9272
▁trail	-10.9277
ell	-10.9278
▁acidic	-10.9282
▁conception	-10.9287
▁began	-10.929
▁irradiated	-10.9294
▁incorporate	-10.9295
▁mathematical	-10.9296
▁flight	-10.9297
▁trypsin	-10.9303
cer	-10.9303
▁switzerland	-10.9305
▁foci	-10.9305
▁essentially	-10.9306
▁npc	-10.9307
▁164	-10.9307
▁prompt	-10.931
lic	-10.9311
▁presumabl	-10.9316
▁productivity	-10.9317
▁county	-10.9318
▁doctor	-10.9322
cf	-10.9324
▁vast	-10.9324
▁wider	-10.9327
▁cyclic	-10.9328
elli	-10.933
sin	-10.9331
▁inset	-10.9333
ean	-10.9334
▁knock	-10.9337
▁compatible	-10.9339
▁computing	-10.9339
▁illustrates	-10.934
▁glycine	-10.9344
▁indirectly	-10.9347
▁nct	-10.9352
▁ranked	-10.9358
▁roi	-10.9362
▁priority	-10.9362
▁proteasome	-10.9362
▁beijing	-10.9363
▁nad	-10.9365
▁losses	-10.9369
▁lifespan	-10.9374
▁outpatient	-10.9378
tu	-10.9378
▁definitions	-10.9379
▁centered	-10.9381
▁contraction	-10.939
▁interested	-10.939
▁england	-10.9397
▁phe	-10.9399
▁die	-10.94
rv	-10.9402
▁strict	-10.9403
▁fractures	-10.9404
▁hepato	-10.9405
▁repetitive	-10.9409
▁prove	-10.9409
▁pneumoniae	-10.9413
▁assayed	-10.9415
und	-10.942
ory	-10.942
▁filtration	-10.9426
▁initiate	-10.943
▁reproduction	-10.9432
▁japanese	-10.9432
ical	-10.9433
▁union	-10.9436
▁assignment	-10.9436
▁sediment	-10.9438
▁reconstructed	-10.9439
eri	-10.9444
▁modeled	-10.9444
▁169	-10.9445
▁saturated	-10.9447
▁emotions	-10.945
▁preferences	-10.945
aga	-10.9456
▁calls	-10.9457
▁positioned	-10.9458
▁contexts	-10.9458
▁yu	-10.9462
▁gbm	-10.9462
▁signatures	-10.9464
▁symptomatic	-10.9469
▁sufficiently	-10.9471
▁185	-10.9471
pv	-10.9472
ists	-10.9472
map	-10.9473
▁highlights	-10.9477
▁bdnf	-10.9479
▁employment	-10.9479
▁src	-10.948
▁specialized	-10.9481
▁admitted	-10.9481
▁engage	-10.9481
fp	-10.9481
▁overexpressed	-10.9481
▁ws	-10.9482
▁referral	-10.9483
▁ia	-10.9484
82	-10.9488
cap	-10.949
▁supplied	-10.949
▁anaerobic	-10.949
▁dengue	-10.949
ano	-10.9491
▁preparations	-10.9491
105	-10.9492
89	-10.9493
▁break	-10.9498
▁stresses	-10.9498
mes	-10.95
ure	-10.9501
▁prescription	-10.9507
▁195	-10.9511
▁please	-10.9514
▁pyr	-10.9519
▁prp	-10.9521
▁eukaryotic	-10.9525
▁turnover	-10.9526
▁smoke	-10.9532
gy	-10.9536
▁sar	-10.9537
▁distilled	-10.9537
▁exosomes	-10.9541
▁kcl	-10.9547
▁price	-10.9549
▁str	-10.955
lab	-10.9553
▁5000	-10.9554
▁cor	-10.9555
▁purity	-10.9561
04	-10.9565
gc	-10.9565
▁outbreak	-10.9566
▁cognition	-10.9573
▁metformin	-10.9573
▁wilcoxon	-10.9573
▁sap	-10.9581
▁denv	-10.9585
▁withdrawal	-10.9585
▁repression	-10.9587
▁physiology	-10.9596
▁occupational	-10.9601
xi	-10.9603
▁splice	-10.9603
▁catheter	-10.9604
05	-10.9608
▁automatically	-10.9609
▁sparse	-10.961
▁alanine	-10.9613
▁ol	-10.9614
▁modest	-10.9618
▁atrophy	-10.9619
▁elicited	-10.9622
▁personality	-10.9623
▁ventilation	-10.9632
ert	-10.9636
ja	-10.9637
▁duplication	-10.964
▁duplicate	-10.964
▁brains	-10.9641
▁ill	-10.9647
▁substitutions	-10.9647
▁percentile	-10.965
ada	-10.9651
79	-10.9651
▁faces	-10.9653
▁advances	-10.9654
▁declared	-10.9655
▁say	-10.9663
pk	-10.9665
▁accounting	-10.9667
▁meal	-10.9667
▁closure	-10.9667
▁pylori	-10.9667
▁histology	-10.9667
▁280	-10.9677
▁myeloid	-10.968
tp	-10.9681
▁molar	-10.9681
▁subcutaneous	-10.9682
▁ova	-10.9683
onic	-10.9684
▁gu	-10.9689
▁survivors	-10.9689
▁eps	-10.9693
▁ige	-10.9702
▁igm	-10.9703
▁reductase	-10.9705
▁waste	-10.9706
▁ssc	-10.9715
▁falciparum	-10.9715
▁defining	-10.9715
▁wc	-10.9715
▁placement	-10.972
▁frames	-10.9721
tus	-10.9726
▁respiration	-10.9727
76	-10.9727
▁tropical	-10.9728
ola	-10.973
field	-10.9739
▁ptsd	-10.9739
▁stomach	-10.9739
▁beliefs	-10.9749
▁looking	-10.975
▁hepes	-10.9754
▁reductions	-10.9757
▁900	-10.9762
▁tween	-10.9763
dp	-10.9764
▁smart	-10.9764
92	-10.9769
▁pipeline	-10.977
▁pull	-10.9772
▁pop	-10.9775
▁bridge	-10.9782
▁albicans	-10.9787
▁vulnerable	-10.9787
▁cultivation	-10.9788
▁topology	-10.9788
▁comes	-10.9789
ff	-10.9794
▁otus	-10.9796
▁selectively	-10.9797
▁promega	-10.9799
▁mos	-10.9801
▁tv	-10.9801
lc	-10.9806
▁immunostaining	-10.9806
▁genetics	-10.982
▁september	-10.9823
▁security	-10.9824
▁undertaken	-10.9825
▁aki	-10.9829
ber	-10.983
▁lived	-10.983
▁ut	-10.9834
▁summarize	-10.984
▁bonding	-10.9841
▁squared	-10.9845
eb	-10.9849
▁edema	-10.9852
▁apoe	-10.9852
▁pocket	-10.9856
▁choices	-10.9859
▁dia	-10.986
▁achieving	-10.986
▁bu	-10.9861
▁1980	-10.9862
▁hemisphere	-10.9868
▁atherosclerosis	-10.9872
▁french	-10.9872
ug	-10.9873
▁wise	-10.9873
▁rev	-10.9874
▁ball	-10.9875
▁operations	-10.9876
ou	-10.9877
ue	-10.9877
▁accounts	-10.9878
▁svm	-10.988
▁antibacterial	-10.9884
▁kingdom	-10.9884
▁preterm	-10.9885
▁hole	-10.989
▁precursors	-10.9893
▁exceed	-10.9899
▁herein	-10.9903
▁glioma	-10.9904
▁deprivation	-10.9909
▁backbone	-10.9909
▁gse	-10.9909
▁210	-10.9909
▁contigs	-10.991
▁improves	-10.9912
ense	-10.9913
▁ecg	-10.9916
▁3000	-10.9918
▁acceleration	-10.9921
▁boys	-10.9921
▁anemia	-10.9928
▁elucidate	-10.9929
▁website	-10.9929
▁apo	-10.9929
form	-10.993
▁acetic	-10.9932
▁faculty	-10.9933
▁pollution	-10.9933
▁dialysis	-10.9933
▁bruker	-10.9933
▁remarkable	-10.9933
▁0000	-10.9935
▁attractive	-10.9945
▁nhs	-10.9946
▁institution	-10.9948
▁ran	-10.9952
▁ib	-10.9953
▁operated	-10.9957
▁fashion	-10.997
▁escape	-10.9973
▁systematically	-10.9974
▁lncrna	-10.9978
▁asp	-10.9984
▁axons	-10.9989
▁decade	-10.9991
▁ethylene	-10.9996
sr	-10.9999
▁hormones	-11
▁slower	-11.0004
▁potentials	-11.0006
▁lymphocyte	-11.0018
▁habitats	-11.002
▁updated	-11.0021
▁glut	-11.0021
▁asymptomatic	-11.0025
▁becoming	-11.0027
▁intercept	-11.0032
ji	-11.0037
▁tomato	-11.0038
nm	-11.0043
▁oocytes	-11.0043
▁influenc	-11.0044
▁rn	-11.0044
▁valve	-11.0044
▁islands	-11.0047
tes	-11.005
▁bin	-11.0051
▁enhancer	-11.0053
▁returned	-11.0055
▁thaliana	-11.0056
▁uni	-11.0058
▁methylated	-11.0058
▁hepg	-11.0063
sk	-11.0065
type	-11.0065
▁augment	-11.0067
▁purple	-11.0068
▁alkaline	-11.0069
ig	-11.0071
▁leav	-11.0072
▁termed	-11.0074
▁suffering	-11.0077
▁regime	-11.0078
▁phenolic	-11.0081
▁annotations	-11.0085
08	-11.0086
1_	-11.0091
▁coordinated	-11.0094
▁diminished	-11.0096
rus	-11.0096
▁fragmentation	-11.0098
nh	-11.0101
▁parietal	-11.0102
▁portal	-11.0102
▁1989	-11.0107
acc	-11.0111
df	-11.0112
▁epitope	-11.0115
▁deficit	-11.0115
▁translated	-11.0116
▁comorbidities	-11.0118
▁electrochemical	-11.0118
▁alzheimer	-11.012
▁functionality	-11.012
▁positioning	-11.0121
▁kr	-11.0127
ates	-11.0127
▁relations	-11.0129
▁stationary	-11.0131
▁utilizing	-11.0131
all	-11.0142
▁fertility	-11.0143
▁fourier	-11.0149
▁attract	-11.0151
▁173	-11.0151
▁folding	-11.0152
▁recipient	-11.0153
▁blank	-11.0154
▁rec	-11.0154
▁server	-11.0155
▁hepatocytes	-11.0155
▁ke	-11.0156
▁driver	-11.0164
par	-11.0167
▁residence	-11.0168
▁arteries	-11.0169
▁premature	-11.0171
ence	-11.0171
▁cha	-11.0172
▁flowering	-11.0172
ans	-11.0176
▁scar	-11.0179
▁pal	-11.0179
▁uas	-11.018
▁consuming	-11.0181
▁fire	-11.0181
▁genomics	-11.0182
cm	-11.0182
▁themes	-11.0184
▁162	-11.019
▁tat	-11.0191
▁richness	-11.0196
▁icc	-11.0196
▁accessibility	-11.0206
▁188	-11.0211
▁imaged	-11.0216
▁annexin	-11.0218
▁explicit	-11.0222
▁mel	-11.0226
▁remote	-11.0234
▁tfs	-11.0236
▁circumference	-11.0244
▁keeping	-11.0245
▁satellite	-11.0246
▁balb	-11.0248
▁mes	-11.0249
motor	-11.0249
uk	-11.0252
cre	-11.0252
▁managed	-11.0258
oni	-11.0258
▁pyruvate	-11.0259
▁rod	-11.0262
▁cooling	-11.0265
▁mcc	-11.0265
atus	-11.0269
▁relating	-11.0269
▁mitotic	-11.0269
▁truncated	-11.027
▁027	-11.0273
▁medicines	-11.0273
▁186	-11.0274
▁selecting	-11.0275
gp	-11.0276
▁covering	-11.0277
▁episode	-11.028
▁inadequate	-11.0281
▁remarkably	-11.0281
▁pulses	-11.0283
▁concurrent	-11.0285
▁rg	-11.0286
▁intention	-11.0287
▁echo	-11.0293
▁unaffected	-11.0294
qui	-11.0296
▁exposures	-11.03
▁1987	-11.0302
▁warm	-11.0309
▁unc	-11.031
▁attribu	-11.0313
▁bowel	-11.0318
▁integral	-11.0323
▁dip	-11.0324
▁operational	-11.0328
▁wo	-11.0335
▁planes	-11.0338
▁differs	-11.0339
▁163	-11.0342
▁leica	-11.0346
▁sac	-11.0346
▁analyzer	-11.0349
▁handling	-11.0349
▁dominated	-11.0351
▁dpi	-11.0351
▁mgcl	-11.0351
▁luc	-11.0351
▁kh	-11.0352
fo	-11.0352
▁hits	-11.0354
▁deletions	-11.0354
▁accessed	-11.0354
▁swelling	-11.0358
▁diego	-11.0358
101	-11.0359
out	-11.0359
▁pen	-11.0364
▁sorted	-11.0367
▁1988	-11.0371
▁organizations	-11.0373
98	-11.0376
▁traumatic	-11.0381
ries	-11.0385
▁collectively	-11.039
▁vt	-11.0391
▁decided	-11.0398
ud	-11.0402
▁bring	-11.0404
▁kl	-11.0404
▁refined	-11.0406
hb	-11.0409
▁phone	-11.0409
▁epilepsy	-11.0409
tag	-11.041
▁nearest	-11.0412
off	-11.0414
▁gwas	-11.0414
▁solve	-11.0417
▁came	-11.042
paraformaldehyde	-11.0435
▁robustness	-11.0437
▁standing	-11.0438
▁inherent	-11.0441
▁phd	-11.0441
▁innovation	-11.0447
▁landscape	-11.0447
▁pictures	-11.0447
▁fifth	-11.0447
▁dimethyl	-11.045
ectomy	-11.0459
▁9300	-11.0466
▁sca	-11.0466
▁obviously	-11.0467
▁kcal	-11.0469
▁helsinki	-11.0473
▁proinflammatory	-11.0474
▁acetylation	-11.0476
▁silicon	-11.0476
▁junctions	-11.0477
▁searches	-11.0481
▁synapses	-11.0482
▁considerations	-11.0486
▁reproducibility	-11.0486
▁passed	-11.0499
▁symbol	-11.0499
▁balanced	-11.0505
▁attempted	-11.0511
▁biopsies	-11.0512
▁married	-11.0512
▁differently	-11.0512
▁ablation	-11.0513
▁yi	-11.0515
▁khz	-11.0516
▁fate	-11.0516
▁prey	-11.052
▁routinely	-11.0521
▁fd	-11.0522
ice	-11.0523
▁alignments	-11.0524
▁breastfeeding	-11.0527
▁steel	-11.0528
▁commercially	-11.0532
▁homolog	-11.0535
▁pfs	-11.0535
▁demands	-11.054
gn	-11.054
▁phenol	-11.0549
▁seek	-11.0551
▁congenital	-11.0551
▁entropy	-11.0551
▁welfare	-11.0551
yn	-11.0552
▁slowly	-11.0554
▁solar	-11.0554
▁loops	-11.0564
▁ebv	-11.0572
ger	-11.0572
▁confer	-11.0575
▁linker	-11.0577
▁export	-11.0577
▁expand	-11.0578
▁facilitated	-11.058
▁189	-11.0582
▁tca	-11.0583
▁receiver	-11.0585
▁bile	-11.0585
▁suite	-11.0586
let	-11.059
▁actively	-11.0591
008	-11.0591
▁shifted	-11.0593
men	-11.0593
▁projections	-11.06
▁practitioners	-11.0602
▁inconsistent	-11.0603
▁persistence	-11.0603
▁alveolar	-11.0604
cp	-11.0608
za	-11.0615
▁synergistic	-11.0615
▁signed	-11.0617
▁sbp	-11.0619
▁expectations	-11.062
▁fecal	-11.0623
▁generic	-11.0623
▁172	-11.0626
▁outlined	-11.0627
▁popular	-11.0629
▁entirely	-11.0629
▁malignancy	-11.0629
▁researcher	-11.063
▁gestation	-11.0633
▁moi	-11.0634
▁194	-11.0634
▁cement	-11.064
▁coil	-11.0642
▁straight	-11.0643
▁trafficking	-11.0643
time	-11.0648
▁260	-11.0648
▁prime	-11.0653
▁stochastic	-11.0655
▁attributes	-11.0656
▁los	-11.0659
▁broth	-11.066
▁161	-11.0661
▁john	-11.0668
▁ancestral	-11.0669
▁evaluations	-11.0676
▁germination	-11.0682
▁eluted	-11.0685
com	-11.0686
▁028	-11.069
▁kinds	-11.0692
▁corporation	-11.0695
▁sorting	-11.0695
▁conductance	-11.0696
▁distinguished	-11.0696
▁ste	-11.07
▁che	-11.07
▁strongest	-11.0701
▁november	-11.0708
▁counterparts	-11.0712
▁convergence	-11.0722
▁bipolar	-11.0722
▁reflection	-11.0728
ok	-11.0733
▁hypothetical	-11.0735
▁dissection	-11.0735
▁151	-11.0736
tan	-11.0741
▁192	-11.0742
▁nmol	-11.0748
▁zeiss	-11.0748
▁superoxide	-11.0748
▁opposed	-11.075
▁1986	-11.0751
▁oscillations	-11.0755
▁sybr	-11.0756
ran	-11.0759
▁intellectual	-11.0761
▁expenditure	-11.0764
▁fabrication	-11.0765
▁hall	-11.0771
▁unrelated	-11.0775
▁commission	-11.0775
▁defective	-11.0776
▁approximation	-11.0777
▁dissected	-11.0777
▁supra	-11.0779
▁cited	-11.0784
ob	-11.0784
▁scc	-11.0786
▁inspection	-11.0788
▁angular	-11.0788
▁lumen	-11.0789
▁attitude	-11.079
▁platelets	-11.0791
▁xp	-11.0791
▁neighboring	-11.0792
rb	-11.0793
▁bright	-11.0796
▁ordered	-11.08
▁tac	-11.0801
▁traces	-11.0803
▁immunoblotting	-11.0815
▁inverted	-11.0815
▁hundred	-11.0817
art	-11.0819
▁perfect	-11.0821
nes	-11.0821
▁arbitrary	-11.0828
▁epitopes	-11.0831
▁ub	-11.0832
▁egf	-11.0832
▁edited	-11.0832
▁deal	-11.0834
uv	-11.0835
▁pink	-11.0836
▁mtb	-11.0839
▁corn	-11.0841
▁hk	-11.0841
▁consultation	-11.0845
▁allergic	-11.0845
▁ala	-11.0846
▁026	-11.0848
▁023	-11.0848
▁ibd	-11.085
_1	-11.0851
▁adp	-11.0853
▁responders	-11.0854
▁symbols	-11.0855
▁walls	-11.0868
▁epidemiology	-11.0868
▁polymerization	-11.0871
▁doc	-11.0871
▁amplitudes	-11.0871
130	-11.0873
ze	-11.0873
▁capital	-11.0877
▁lac	-11.0881
▁cca	-11.0883
rf	-11.0887
▁vaginal	-11.0891
06	-11.0898
▁falls	-11.0906
ole	-11.0906
▁leave	-11.0907
▁scanner	-11.091
▁interferon	-11.0914
▁notes	-11.0916
▁184	-11.0917
▁diagnostics	-11.0922
▁moderately	-11.0924
▁stranded	-11.0927
96	-11.093
▁gained	-11.093
▁hydroxyl	-11.0934
▁adipocytes	-11.0935
▁chitosan	-11.0936
▁discrepancy	-11.0936
▁plausible	-11.0937
▁vc	-11.0937
▁periodic	-11.094
▁searched	-11.0942
▁executive	-11.0949
▁stabilization	-11.0949
▁killing	-11.095
▁pax	-11.0951
▁preventive	-11.0953
and	-11.0959
▁labor	-11.096
▁squamous	-11.0963
▁preferentially	-11.0967
era	-11.097
▁conditioning	-11.0974
▁pap	-11.0975
▁responsibility	-11.0976
ken	-11.0988
▁modulating	-11.099
▁gibco	-11.099
▁severely	-11.099
▁emphasize	-11.0991
eo	-11.0998
▁dw	-11.1003
▁dividing	-11.1004
▁escherichia	-11.1004
▁construe	-11.1004
▁titers	-11.1007
▁029	-11.1013
▁schedule	-11.1014
▁classify	-11.1015
▁raman	-11.1019
▁derive	-11.102
▁ang	-11.102
▁shoot	-11.1022
▁phenomena	-11.1031
▁tags	-11.1031
▁chemokine	-11.1038
94	-11.104
▁une	-11.1044
▁lethal	-11.1044
▁excitatory	-11.1044
▁voxel	-11.1049
▁pbmcs	-11.1049
▁challenged	-11.105
ogenesis	-11.105
▁confirmation	-11.1051
▁platforms	-11.1053
▁isotropic	-11.1054
▁psychosocial	-11.106
pg	-11.1061
▁exactly	-11.1063
greed	-11.1063
▁emissions	-11.1063
▁niche	-11.1063
▁mouth	-11.1065
physiological	-11.107
▁irrespective	-11.1072
▁tertiary	-11.1072
▁thereafter	-11.1072
▁probable	-11.1072
▁fda	-11.1072
▁proteome	-11.1081
▁broadly	-11.1081
▁senior	-11.1086
▁infrared	-11.1086
▁antisense	-11.1086
▁machinery	-11.11
▁visualize	-11.11
▁learned	-11.1103
▁threat	-11.1104
▁ocular	-11.1108
ita	-11.1109
▁crops	-11.111
ui	-11.1112
▁zno	-11.1112
▁cav	-11.1116
▁ecosystem	-11.1118
▁tbi	-11.112
▁card	-11.1127
001_	-11.1127
▁clonal	-11.1127
gg	-11.1129
▁infrastructure	-11.1129
500	-11.1131
▁roughly	-11.1132
▁mas	-11.1133
▁pka	-11.1134
tg	-11.1137
▁193	-11.1138
▁messages	-11.1139
▁modulus	-11.1141
▁something	-11.1141
ay	-11.1146
▁inactivated	-11.1147
▁230	-11.115
▁034	-11.1152
▁sulfur	-11.1152
▁cooperation	-11.1155
▁accelerated	-11.1155
▁doing	-11.1156
▁hill	-11.1158
▁jo	-11.1163
ids	-11.1165
▁dys	-11.1165
▁bh	-11.1173
▁atrial	-11.1175
▁evidenced	-11.1178
rk	-11.1178
med	-11.1182
▁eosin	-11.1182
▁sized	-11.1183
99	-11.1185
▁offset	-11.1187
▁soils	-11.1188
▁complication	-11.1188
▁informative	-11.1192
▁engaged	-11.1193
▁pointed	-11.1196
▁conservative	-11.1201
▁nucleic	-11.1203
▁scatter	-11.1204
▁thanks	-11.1205
▁lesser	-11.1207
▁foxo	-11.1208
▁insert	-11.1209
▁marital	-11.121
▁hematoxylin	-11.1211
▁mediating	-11.1211
esophageal	-11.1216
▁moisture	-11.1224
▁melting	-11.1225
▁hsv	-11.1229
▁imagej	-11.123
▁injured	-11.1231
▁slide	-11.1231
▁jak	-11.1232
aw	-11.1233
▁unpublished	-11.1238
▁cambridge	-11.1238
▁attenuation	-11.1238
▁avoidance	-11.1239
▁solubility	-11.1239
▁abi	-11.1249
▁golgi	-11.1253
▁peritoneal	-11.1255
91	-11.1261
▁xl	-11.1262
▁drying	-11.1263
▁energies	-11.1266
▁salinity	-11.1266
▁acceptance	-11.1266
▁triggers	-11.1267
kt	-11.1275
▁weaker	-11.1277
▁ee	-11.1279
▁govern	-11.128
▁agriculture	-11.128
▁acetone	-11.128
▁preclinical	-11.128
ire	-11.128
▁subcellular	-11.1282
▁scr	-11.1284
▁ecs	-11.1285
▁cop	-11.1287
▁walk	-11.1288
att	-11.1292
▁ks	-11.1293
▁registry	-11.1294
▁cyst	-11.1294
▁rejection	-11.1294
▁computation	-11.1294
▁foster	-11.1298
▁axon	-11.1299
▁rings	-11.1309
▁ff	-11.131
▁forced	-11.1311
▁village	-11.1315
▁addressing	-11.1316
▁033	-11.132
▁rpe	-11.1322
▁mag	-11.1322
▁music	-11.1323
07	-11.1329
▁lysate	-11.1331
▁concrete	-11.1336
▁psi	-11.1338
▁alk	-11.1344
▁shoulder	-11.1348
▁sio	-11.135
▁investigator	-11.1351
▁rsv	-11.1354
▁affective	-11.1356
▁penetration	-11.1364
▁canadian	-11.1364
▁curcumin	-11.1366
▁pellets	-11.1367
▁mast	-11.1367
rg	-11.1368
▁math	-11.1369
▁thoracic	-11.1372
▁320	-11.1372
▁train	-11.1376
ivity	-11.1377
▁steroid	-11.1381
▁adenosine	-11.1382
▁manage	-11.1387
dv	-11.1387
▁indian	-11.139
▁ensemble	-11.1391
▁pancreas	-11.1392
▁impedance	-11.1395
▁restored	-11.1402
▁mutagenesis	-11.1406
▁cage	-11.1409
▁calc	-11.141
104	-11.1413
▁bax	-11.1416
▁035	-11.1416
▁perspectives	-11.1419
▁carlsba	-11.1421
▁saliva	-11.1421
▁heated	-11.1421
▁205	-11.1422
▁burn	-11.1424
▁187	-11.1426
▁historical	-11.1426
▁designs	-11.1427
▁ammonium	-11.1428
▁notable	-11.1429
83	-11.1433
▁expertise	-11.1435
ao	-11.1436
▁cry	-11.1436
▁silico	-11.1441
▁aggregate	-11.1442
▁ham	-11.1442
▁oxidized	-11.1442
▁missed	-11.1442
▁iga	-11.1445
▁031	-11.1446
amp	-11.1447
▁regimens	-11.1451
▁demographics	-11.1452
▁coral	-11.1453
▁chd	-11.1454
▁bas	-11.1458
▁luminal	-11.1464
▁cmv	-11.1464
▁reversible	-11.1465
▁mcherry	-11.1466
▁corneal	-11.1469
▁tl	-11.1472
▁interstitial	-11.1478
▁pacific	-11.1478
▁imbalance	-11.1478
▁exhibiting	-11.1488
▁immature	-11.1492
▁fructose	-11.1492
▁allelic	-11.1492
▁spanish	-11.1492
▁floor	-11.1493
▁wb	-11.1494
▁183	-11.15
▁modify	-11.15
▁coping	-11.1501
▁nodules	-11.1504
▁ibm	-11.1505
▁hemodynamic	-11.1506
▁envelope	-11.1509
▁tk	-11.1511
ven	-11.1512
app	-11.1515
way	-11.1516
▁phylogeny	-11.152
▁spherical	-11.152
▁salivary	-11.1521
▁bioactive	-11.1521
ova	-11.1522
▁lanes	-11.1522
▁stigma	-11.1525
hu	-11.1525
▁mirror	-11.1529
eff	-11.153
▁tss	-11.153
▁vir	-11.1534
▁gfap	-11.1535
▁representations	-11.1535
oe	-11.1542
gh	-11.1543
▁030	-11.1545
▁centres	-11.1548
▁epa	-11.1548
▁quantities	-11.1549
▁pretreated	-11.155
▁freedom	-11.155
▁pcs	-11.155
ius	-11.1551
▁moved	-11.1559
fer	-11.1563
▁036	-11.1563
▁restoration	-11.1564
▁vaccinated	-11.1565
▁license	-11.1566
pha	-11.1567
▁amygdala	-11.1569
▁mrsa	-11.1571
▁bg	-11.1571
▁guideline	-11.1573
▁closest	-11.1576
▁priming	-11.1582
cos	-11.1584
▁ky	-11.1585
▁wallis	-11.1587
ria	-11.159
▁stakeholders	-11.1591
▁cotton	-11.1592
▁positivity	-11.1592
▁kappa	-11.1593
▁blockade	-11.1593
▁legal	-11.1595
▁eliminated	-11.1597
▁cone	-11.1598
ville	-11.1599
▁disrupted	-11.1599
▁dnase	-11.1603
▁oe	-11.1604
▁gli	-11.1604
▁aforementioned	-11.1607
▁amplify	-11.1607
▁sedentary	-11.1607
▁cultivated	-11.1609
▁mem	-11.1609
mu	-11.162
▁olfactory	-11.1621
▁fellowship	-11.1621
▁perceptual	-11.1621
▁matlab	-11.1622
▁seizures	-11.1623
ular	-11.1624
▁programmes	-11.1636
▁hematopoietic	-11.1636
▁olympus	-11.1636
▁asterisks	-11.1637
▁exit	-11.1644
▁biologically	-11.1645
▁talk	-11.165
▁peroxide	-11.1652
▁ward	-11.1653
cb	-11.1654
▁181	-11.1655
▁bay	-11.1656
▁instances	-11.1659
oli	-11.1659
▁mad	-11.166
▁housed	-11.166
▁headache	-11.166
itric	-11.1663
▁kruskal	-11.1665
▁uninfected	-11.1665
▁taxon	-11.1668
▁helps	-11.1671
▁globally	-11.1672
▁editor	-11.1672
▁responded	-11.1672
▁specialist	-11.1676
▁hemorrhage	-11.1679
▁denmark	-11.1679
▁unstable	-11.168
▁multivariable	-11.168
▁reservoir	-11.1689
▁histogram	-11.1689
▁ortho	-11.169
▁immunoglobulin	-11.1694
▁cur	-11.1696
▁shapes	-11.1697
▁capsule	-11.1699
▁kernel	-11.1704
▁labels	-11.1708
▁prefrontal	-11.1709
▁chlorophyll	-11.1709
▁housing	-11.1709
157	-11.1714
▁matches	-11.1716
▁try	-11.1716
▁gly	-11.1717
▁things	-11.1723
▁cocktail	-11.1723
▁enabling	-11.1723
▁uterine	-11.1723
▁confirms	-11.1724
▁mci	-11.1725
▁qc	-11.1726
▁cla	-11.1727
▁drafting	-11.1728
▁massive	-11.1731
lf	-11.1733
▁nested	-11.1736
▁360	-11.1737
▁sustain	-11.1738
ified	-11.1739
over	-11.1741
▁precisely	-11.1744
▁imply	-11.1744
▁assign	-11.1747
▁plans	-11.1752
▁pseudomonas	-11.1753
▁valence	-11.1753
▁remission	-11.1753
▁got	-11.1756
sch	-11.1757
▁dilutions	-11.1758
mn	-11.176
▁axonal	-11.1761
▁196	-11.1762
eurodegenerative	-11.1767
▁inorganic	-11.1767
▁biotin	-11.1769
▁electrons	-11.1775
▁restore	-11.1775
▁cyclo	-11.1781
▁aorta	-11.1784
▁lean	-11.1787
dh	-11.1788
▁bbb	-11.1789
cell	-11.1794
▁dex	-11.1794
110	-11.1795
▁optimize	-11.1795
▁infarct	-11.1795
▁judge	-11.1796
nr	-11.1796
▁adulthood	-11.1797
▁teachers	-11.1799
▁degraded	-11.1799
▁grains	-11.18
▁filling	-11.1802
▁otu	-11.1804
▁kras	-11.1805
▁cigarette	-11.1808
▁arrangement	-11.1808
▁iran	-11.1808
▁republic	-11.1811
▁contralateral	-11.1811
▁checkpoint	-11.1812
▁evs	-11.1812
▁ask	-11.1814
▁fabricated	-11.1817
▁movie	-11.1823
▁biases	-11.1823
ara	-11.1824
▁snr	-11.1825
▁hypoxic	-11.1826
▁lasting	-11.1827
▁interactive	-11.1829
▁emg	-11.183
▁discarded	-11.183
hp	-11.1831
ology	-11.1836
▁manifestations	-11.1839
▁joints	-11.184
00	-11.1841
▁clamp	-11.1842
▁style	-11.1851
▁constants	-11.1852
▁checklist	-11.1856
▁easier	-11.1856
▁1038	-11.1857
▁fw	-11.1859
▁relie	-11.1861
▁dispersed	-11.1864
istic	-11.1864
▁androgen	-11.1866
▁xenograft	-11.1867
some	-11.1868
▁cultivars	-11.1868
▁cortisol	-11.1871
▁placental	-11.1871
▁characters	-11.1872
▁coherence	-11.1874
je	-11.1878
▁employees	-11.1878
▁poorer	-11.1881
ese	-11.1881
pectrophotometer	-11.1882
▁ribosome	-11.1882
▁london	-11.1885
▁randomised	-11.1888
▁generates	-11.1889
▁responding	-11.1896
▁survive	-11.1896
▁voluntary	-11.19
▁competence	-11.1904
▁fh	-11.1906
▁tcga	-11.1908
▁monolayer	-11.1912
▁flower	-11.1915
▁acetonitrile	-11.1915
▁dairy	-11.1915
▁touch	-11.1918
▁randomization	-11.1922
▁plateau	-11.1922
▁contextual	-11.1923
▁waist	-11.1931
hc	-11.1935
ram	-11.1941
▁advance	-11.1944
▁compensation	-11.1945
mv	-11.1951
▁incorrect	-11.1951
hy	-11.1953
▁worms	-11.1954
▁circumstances	-11.1955
ets	-11.1956
▁neu	-11.1957
▁telomere	-11.1957
▁032	-11.1958
▁profound	-11.196
▁ligation	-11.1961
▁irregular	-11.1965
▁explicitly	-11.1971
▁kp	-11.1974
▁preceding	-11.1975
▁recommendation	-11.1977
▁interquartile	-11.1978
▁bending	-11.1984
▁suggestions	-11.1988
▁acquire	-11.1989
▁carotid	-11.199
▁chicago	-11.199
▁intriguing	-11.199
▁hidden	-11.199
▁transduced	-11.1992
▁cast	-11.1993
▁declined	-11.1994
▁lod	-11.1995
▁constitutive	-11.1996
▁sil	-11.1999
▁quartile	-11.2003
▁examinations	-11.2003
▁den	-11.2004
▁malignancies	-11.2005
▁personnel	-11.2005
▁illumination	-11.2006
▁pat	-11.2006
▁indoor	-11.2007
▁glands	-11.2012
well	-11.2015
▁iq	-11.2016
nk	-11.2017
▁spatially	-11.2019
uri	-11.202
▁foreign	-11.202
▁texture	-11.2021
▁arising	-11.2021
▁waters	-11.2033
▁038	-11.2033
▁scavenging	-11.2035
▁cryo	-11.2036
▁blinded	-11.2039
▁neighbor	-11.2039
▁ionic	-11.2042
▁chemokines	-11.2044
▁cytoskeleton	-11.205
▁porous	-11.2051
▁segregation	-11.2051
▁associate	-11.2051
▁striatum	-11.2051
▁vesicle	-11.2051
▁contaminated	-11.2054
▁750	-11.2055
dy	-11.2059
▁cities	-11.2062
▁cmr	-11.2063
▁stopped	-11.2065
▁flu	-11.2071
▁kn	-11.2072
▁vegetables	-11.2073
▁thio	-11.2074
▁clients	-11.2078
▁glial	-11.2079
▁opinion	-11.2079
uli	-11.2079
▁facilitat	-11.2081
▁tone	-11.2081
▁pay	-11.2083
▁encourage	-11.209
▁initiative	-11.2095
▁yfp	-11.2097
▁scientists	-11.2102
150	-11.2103
▁song	-11.2104
▁monomer	-11.2107
▁pic	-11.2108
▁lowering	-11.2108
▁spindle	-11.2109
▁newborn	-11.2111
▁versions	-11.2111
▁david	-11.2112
mat	-11.2113
▁fail	-11.2116
▁mur	-11.2118
pf	-11.2119
▁cutting	-11.2126
▁gmbh	-11.2126
▁225	-11.2127
▁regulations	-11.2128
▁classic	-11.2131
▁maf	-11.2133
▁draw	-11.2133
immunoreactivity	-11.2136
▁mrs	-11.2138
▁dnmt	-11.2143
▁introduc	-11.2145
▁fb	-11.2145
▁breathing	-11.2146
▁parenchyma	-11.2154
din	-11.2155
rate	-11.2155
▁parkinson	-11.2157
▁moiety	-11.2157
▁placenta	-11.2161
▁colors	-11.2161
xa	-11.2164
▁chemo	-11.2165
▁pam	-11.2165
▁pools	-11.2167
▁infer	-11.2169
▁administrative	-11.2172
▁drift	-11.2172
▁glycolysis	-11.2172
▁really	-11.2175
▁199	-11.2175
▁recover	-11.2177
▁robot	-11.2179
▁formalin	-11.2179
▁039	-11.218
eu	-11.2181
▁hope	-11.2185
bf	-11.2185
▁rodent	-11.2187
▁immunological	-11.2192
▁substituted	-11.2193
▁deleted	-11.2193
oides	-11.2199
▁players	-11.22
▁optimum	-11.2203
▁stratification	-11.2203
▁kits	-11.2203
▁align	-11.2207
▁999	-11.2212
▁rupture	-11.2213
▁encountered	-11.2213
ich	-11.2216
▁compact	-11.2217
▁engineered	-11.2222
▁fin	-11.2222
cycl	-11.2223
▁responsiveness	-11.2226
▁1985	-11.2229
▁germline	-11.2234
▁rigid	-11.2236
aci	-11.2236
▁afm	-11.2236
▁axes	-11.2236
▁friends	-11.2238
ification	-11.2239
▁xrd	-11.2244
▁stretch	-11.2246
ori	-11.2249
▁incision	-11.2249
▁negligible	-11.2249
▁sinus	-11.2254
▁toxins	-11.2258
ect	-11.2258
osomal	-11.2258
107	-11.2259
▁fg	-11.226
▁habits	-11.2263
▁lives	-11.2263
▁oncology	-11.2264
▁atypical	-11.2264
▁harvest	-11.2277
▁je	-11.2277
▁stabilized	-11.2278
▁political	-11.228
▁chloroform	-11.228
▁reperfusion	-11.228
▁wp	-11.2285
▁208	-11.2287
▁pod	-11.229
ller	-11.229
▁bra	-11.2292
▁ur	-11.2294
mod	-11.2297
106	-11.2298
▁vm	-11.2298
▁recipients	-11.2298
▁microbes	-11.2305
▁cloud	-11.2307
▁accept	-11.231
▁expensive	-11.2311
▁professor	-11.2311
▁endocrine	-11.2312
ony	-11.2316
▁cdcl	-11.2318
ible	-11.232
▁breath	-11.2322
▁starvation	-11.2326
▁pubmed	-11.2326
▁disturbance	-11.2326
103	-11.2329
▁nox	-11.2332
▁acyl	-11.2333
▁inversion	-11.2335
▁sides	-11.2337
▁fill	-11.234
▁pip	-11.234
▁nest	-11.2341
▁reversal	-11.2342
▁dielectric	-11.2342
ow	-11.2345
▁sep	-11.2346
▁wish	-11.2348
sv	-11.2364
▁esr	-11.2366
▁tra	-11.2368
▁037	-11.2369
▁rapamycin	-11.2373
▁anticancer	-11.2373
oxy	-11.2377
my	-11.2386
▁federal	-11.2386
74	-11.2387
▁enrollment	-11.2389
▁analogous	-11.2389
jo	-11.2395
▁yielding	-11.2403
▁etiology	-11.2404
▁lignin	-11.2404
▁270	-11.2405
▁taqman	-11.2405
▁answers	-11.2405
▁171	-11.2406
▁sta	-11.2409
▁exploring	-11.242
▁prenatal	-11.242
▁tar	-11.242
▁retro	-11.2422
▁dishes	-11.2423
▁gad	-11.2424
▁calibrated	-11.2424
▁marks	-11.2435
▁homogenized	-11.2437
▁pressures	-11.2437
180	-11.2437
▁cos	-11.2438
▁properly	-11.2441
▁stool	-11.2448
▁gar	-11.2449
▁zikv	-11.2451
▁antitumor	-11.2453
▁radicals	-11.2455
▁eat	-11.2457
▁electrostatic	-11.2459
▁sister	-11.2462
▁plc	-11.2463
▁pelvic	-11.2467
▁boost	-11.2469
▁soon	-11.2475
▁agonists	-11.2478
oo	-11.2478
▁burst	-11.248
pb	-11.2482
▁fair	-11.2485
▁concerned	-11.2486
▁consumers	-11.2487
▁exclusive	-11.2489
▁ranking	-11.249
▁dutch	-11.2499
▁048	-11.2499
▁juvenile	-11.25
▁rectal	-11.25
▁biofilms	-11.2503
010	-11.2508
ami	-11.2512
▁synonymous	-11.2514
▁cerebellum	-11.2514
▁ester	-11.2515
▁dispersal	-11.2516
▁message	-11.2516
▁perturbation	-11.2516
▁mediator	-11.2518
▁tuning	-11.2519
▁viscosity	-11.2531
▁smallest	-11.2532
▁sphere	-11.2534
▁ty	-11.2534
▁1500	-11.2536
▁tubular	-11.2537
▁distinction	-11.2537
▁plaques	-11.2538
▁physically	-11.2538
▁sur	-11.2539
ili	-11.2546
▁controversial	-11.2546
▁swedish	-11.2546
▁stably	-11.2547
▁duct	-11.2548
▁182	-11.2551
▁gw	-11.2552
▁shi	-11.2556
▁careful	-11.2558
▁rps	-11.2559
che	-11.2561
▁incorporating	-11.2562
▁divergent	-11.2562
▁hypertrophy	-11.2562
▁rodents	-11.2563
▁sports	-11.2563
cam	-11.2565
▁ease	-11.2566
hal	-11.2568
▁feeling	-11.257
▁dramatic	-11.2577
▁weather	-11.2578
▁abiotic	-11.2578
▁monocyte	-11.258
▁utilize	-11.2581
▁cerebellar	-11.2583
▁dss	-11.2583
reg	-11.2587
▁204	-11.2589
▁crossing	-11.2589
▁occlusion	-11.2594
▁unusual	-11.2594
▁mexico	-11.2594
oa	-11.2595
▁award	-11.2596
▁illustration	-11.2596
▁contour	-11.2596
▁operator	-11.2596
azine	-11.2597
▁outbreaks	-11.2603
▁downloaded	-11.2603
▁rbc	-11.2604
▁pitch	-11.2606
▁transgene	-11.2608
▁regularly	-11.261
▁programming	-11.261
▁honey	-11.261
▁digit	-11.261
▁microtubule	-11.2612
kb	-11.2613
▁prot	-11.2613
▁accompanie	-11.2613
bt	-11.2614
▁0005	-11.262
fish	-11.2622
▁046	-11.2626
▁hv	-11.263
▁480	-11.2632
▁planar	-11.2634
gfp	-11.2637
ny	-11.2637
▁searching	-11.2642
▁dbp	-11.2642
▁familiar	-11.2643
king	-11.2644
▁client	-11.2645
emia	-11.2646
▁filaments	-11.2648
▁discriminate	-11.2649
▁heme	-11.2652
▁symmetric	-11.2654
▁kir	-11.2655
▁sirnas	-11.2656
▁february	-11.2658
▁tumorigenesis	-11.2658
▁telephone	-11.2658
▁atlas	-11.266
▁kt	-11.2665
▁pma	-11.2666
▁loc	-11.267
▁chloro	-11.2674
▁ankle	-11.2675
len	-11.268
ising	-11.268
nb	-11.2684
▁cardio	-11.2687
▁martin	-11.2688
▁locality	-11.2689
▁weighed	-11.2692
▁por	-11.2698
gf	-11.27
▁noticed	-11.2703
crystallographic	-11.2706
▁gn	-11.2708
▁cyto	-11.2709
▁composites	-11.271
cal	-11.2711
▁caudal	-11.2713
▁env	-11.2715
▁040	-11.2716
▁formulations	-11.2716
▁pos	-11.2718
▁implants	-11.2721
▁uncertain	-11.2722
ew	-11.2723
▁transplanted	-11.2726
▁hemi	-11.2727
▁rl	-11.2729
▁grass	-11.2731
▁worker	-11.2732
▁mcs	-11.2733
▁simulate	-11.2735
▁configurations	-11.2736
▁implementing	-11.2736
▁morning	-11.2739
▁exo	-11.2739
tro	-11.2743
nic	-11.2745
▁fgfr	-11.2749
▁045	-11.2749
▁pep	-11.2749
▁ok	-11.2752
▁mcl	-11.2753
lar	-11.2754
▁hispanic	-11.2755
▁heparin	-11.2755
▁observer	-11.2756
▁brdu	-11.2756
▁hydrogel	-11.2759
▁patches	-11.2761
▁merged	-11.2765
▁today	-11.2766
▁hands	-11.2767
eng	-11.2769
istopathological	-11.2771
▁autism	-11.2771
set	-11.2776
ological	-11.2778
▁mutual	-11.2778
▁accumulate	-11.2787
▁teams	-11.2787
▁capabilities	-11.2787
▁modalities	-11.2787
▁huang	-11.2788
▁medicinal	-11.2788
▁voice	-11.2789
▁tax	-11.2792
▁lymphatic	-11.2793
▁topics	-11.2795
▁kenya	-11.2796
lr	-11.2797
▁zo	-11.2803
▁cw	-11.281
most	-11.2818
▁msm	-11.2819
▁twelve	-11.282
▁submission	-11.282
vertebral	-11.2824
▁irb	-11.2833
▁explaining	-11.2835
▁syringe	-11.2835
▁adiponectin	-11.2836
▁experiencing	-11.2836
▁thirty	-11.2836
structed	-11.2839
ulin	-11.2841
▁047	-11.2841
▁multiplex	-11.2848
▁sj	-11.2852
▁biosynthetic	-11.2853
▁ensur	-11.2853
▁rinsed	-11.2858
▁focuses	-11.2863
▁snap	-11.2864
▁rows	-11.2866
▁attending	-11.2868
▁immunized	-11.287
pin	-11.2878
▁transportation	-11.2879
ses	-11.2882
▁kj	-11.2884
▁cirrhosis	-11.2885
▁census	-11.2886
▁york	-11.2886
▁attentional	-11.2889
▁adhesive	-11.289
ub	-11.2894
▁sheets	-11.2895
▁finite	-11.2895
▁kc	-11.2897
▁dev	-11.2899
▁feelings	-11.29
▁exploratory	-11.2902
▁reciprocal	-11.2903
illa	-11.2904
▁fits	-11.2905
▁lie	-11.2909
▁cin	-11.2913
▁revealing	-11.2915
▁nafld	-11.2919
▁trunk	-11.2919
▁workflow	-11.292
▁fos	-11.2923
▁gate	-11.2924
aca	-11.2924
▁resolve	-11.2926
▁bor	-11.2926
str	-11.2927
▁shed	-11.293
ver	-11.293
▁bmd	-11.2934
▁ether	-11.2934
▁veterinary	-11.2935
▁entries	-11.2935
lk	-11.2939
▁creation	-11.2939
▁nicotine	-11.2941
ru	-11.2943
▁scaled	-11.2943
▁persist	-11.2945
lymphoid	-11.2945
▁pot	-11.2945
▁deleterious	-11.2951
▁albeit	-11.2951
▁rcts	-11.2952
▁auxin	-11.2953
▁glycosylation	-11.2957
▁flash	-11.2957
▁implanted	-11.2958
▁litter	-11.2959
▁sacrificed	-11.2959
▁hong	-11.2963
▁fab	-11.2965
ali	-11.2967
aq	-11.2967
▁myosin	-11.2969
▁arousal	-11.2969
_00	-11.297
▁polarity	-11.297
▁aqp	-11.2971
hv	-11.2972
▁saw	-11.2972
▁analog	-11.2973
▁042	-11.2977
▁localize	-11.2979
▁dtt	-11.2979
▁rainfall	-11.2985
▁opt	-11.2985
▁paid	-11.2985
▁043	-11.2987
▁cassette	-11.299
▁coronal	-11.299
▁ventricle	-11.299
▁044	-11.2991
▁endpoint	-11.2992
eus	-11.2993
▁maximize	-11.2995
ua	-11.2995
_2	-11.2997
▁caution	-11.3
▁desirable	-11.3001
▁supplements	-11.3003
lon	-11.3004
kar	-11.3009
▁spa	-11.3013
▁deeper	-11.3014
mus	-11.3014
▁muc	-11.3015
▁holding	-11.3015
▁occupation	-11.3017
▁histograms	-11.3023
▁convert	-11.3023
▁graduate	-11.3023
zi	-11.303
▁collaborative	-11.3035
▁correspondence	-11.3035
▁polymorphic	-11.3036
▁ccd	-11.304
▁bcr	-11.3042
▁049	-11.3043
▁tab	-11.3043
▁monte	-11.3047
▁mismatch	-11.3051
▁execution	-11.3051
▁modality	-11.3052
▁disclosure	-11.3053
▁inpatient	-11.3054
▁belongs	-11.3057
▁constraint	-11.306
cor	-11.3061
▁comp	-11.3066
▁vibration	-11.3066
▁kan	-11.3072
▁highlighting	-11.3073
▁proteomic	-11.3074
▁acceptor	-11.3075
code	-11.3077
800	-11.3078
▁relatives	-11.3081
▁efflux	-11.3085
▁impossible	-11.3085
▁redundant	-11.3085
▁merck	-11.3088
ato	-11.3089
tended	-11.3089
▁drivers	-11.309
▁leukocyte	-11.3091
ski	-11.3091
▁angiogenic	-11.3092
peptide	-11.3094
ras	-11.3095
▁abundances	-11.3097
▁jp	-11.3098
▁inability	-11.3098
▁abdomen	-11.3101
▁problematic	-11.3102
▁argued	-11.3106
▁flowers	-11.3109
▁emphasis	-11.3109
▁quick	-11.3114
▁accompany	-11.3118
▁brought	-11.3118
▁fev	-11.3119
rea	-11.3123
ago	-11.313
▁outliers	-11.3132
▁satisfied	-11.3135
▁methionine	-11.3135
▁consortium	-11.3135
▁tim	-11.3136
▁gift	-11.3136
high	-11.3137
▁rap	-11.3137
▁publicly	-11.3138
▁routes	-11.3147
▁acknowledged	-11.3151
▁lumbar	-11.3152
▁spacing	-11.3152
▁staging	-11.3153
▁transported	-11.3154
alis	-11.3154
▁sentence	-11.3159
▁bead	-11.3162
▁bird	-11.3163
▁rhythm	-11.3168
▁indications	-11.3181
xx	-11.3181
▁dosing	-11.3181
▁fv	-11.3183
▁conjunction	-11.3186
▁photosynthetic	-11.3186
▁mdm	-11.3188
▁fluids	-11.3191
otic	-11.3193
▁accessions	-11.3198
▁bacterium	-11.3198
▁lat	-11.3199
▁prep	-11.3199
▁corp	-11.3202
▁203	-11.3204
tel	-11.3206
cv	-11.3206
▁qi	-11.3213
▁candida	-11.3217
009	-11.3218
▁detrimental	-11.322
▁thailand	-11.322
▁jackson	-11.322
▁amb	-11.3224
▁norm	-11.3231
▁integrate	-11.3235
ade	-11.3236
▁cessation	-11.3237
▁leakage	-11.3237
sson	-11.3239
▁testosterone	-11.324
146	-11.3241
▁weakly	-11.3241
▁descriptions	-11.3243
▁sol	-11.3244
▁gradual	-11.3245
unc	-11.3246
dia	-11.3248
▁fuel	-11.3252
▁varieties	-11.3254
▁stent	-11.3255
▁realistic	-11.3255
▁pieces	-11.3257
hf	-11.3257
▁stretching	-11.3259
▁adherent	-11.3259
▁abs	-11.3269
▁icp	-11.327
▁ideas	-11.3272
▁clades	-11.3275
▁braf	-11.3275
▁bs	-11.3277
▁prof	-11.3278
▁1640	-11.3279
▁sure	-11.3283
▁vd	-11.3287
▁termination	-11.3288
▁avoiding	-11.3289
▁mus	-11.329
▁mip	-11.3293
har	-11.3293
▁official	-11.3296
▁displaying	-11.3298
▁mps	-11.33
▁pores	-11.3303
▁designing	-11.3303
▁az	-11.3303
▁melatonin	-11.3305
▁sustainable	-11.3306
ble	-11.3311
▁canal	-11.3313
▁probed	-11.3319
▁wire	-11.3321
▁asymmetry	-11.3322
▁predicts	-11.3322
▁coarse	-11.3323
▁denaturation	-11.3323
▁nominal	-11.3323
▁bromide	-11.3326
▁nlrp	-11.3326
▁std	-11.3333
▁wear	-11.3335
▁strictly	-11.3336
▁encompass	-11.3336
▁stressed	-11.3338
109	-11.3339
▁interfer	-11.3341
▁opioid	-11.3348
▁fibre	-11.3349
▁districts	-11.3351
▁borne	-11.3355
▁aav	-11.3356
▁excision	-11.3357
vin	-11.3357
gu	-11.3358
▁arranged	-11.3359
▁polarized	-11.3361
▁hap	-11.3363
▁freely	-11.3366
ants	-11.3369
▁stimulates	-11.3372
▁curvature	-11.3374
▁waltha	-11.3374
▁scanned	-11.3374
▁4000	-11.3377
▁ann	-11.3378
▁wk	-11.3379
▁rpl	-11.3379
▁340	-11.3382
145	-11.3382
▁solvents	-11.3386
▁cnv	-11.3388
wood	-11.3388
▁triglycerides	-11.3388
▁moral	-11.339
▁myb	-11.339
▁quasi	-11.3391
▁dedicated	-11.3392
▁schemes	-11.3399
▁cardiomyocytes	-11.3406
▁fdg	-11.3409
▁aliquots	-11.341
▁port	-11.341
▁cup	-11.3414
ros	-11.3415
▁que	-11.3417
▁outputs	-11.3418
pn	-11.342
▁041	-11.3424
▁choosing	-11.3426
▁serotonin	-11.3426
▁eds	-11.3427
▁delays	-11.3427
▁holds	-11.3429
ward	-11.343
▁courses	-11.343
sky	-11.3431
▁hsd	-11.3437
▁immobilize	-11.3442
▁statements	-11.3442
nac	-11.3442
▁poisson	-11.3443
oz	-11.3444
▁femur	-11.3444
▁ethiopia	-11.3445
▁conduction	-11.3446
700	-11.3447
▁dependency	-11.3447
ux	-11.3447
▁nav	-11.345
vir	-11.3452
▁gradients	-11.3454
▁basin	-11.3457
▁elucidated	-11.3459
▁gated	-11.346
▁battery	-11.346
▁microplate	-11.3461
▁integrat	-11.3461
▁analyse	-11.3464
▁gata	-11.3466
py	-11.3466
▁droplet	-11.347
▁athletes	-11.3476
▁inventory	-11.3479
▁nadph	-11.348
▁secretory	-11.3481
▁proxy	-11.3483
▁197	-11.3483
tal	-11.3486
▁nanoparticle	-11.3488
stat	-11.3491
▁ahr	-11.3492
▁spo	-11.3493
▁century	-11.3495
▁endometrial	-11.3495
▁simplified	-11.3497
▁yr	-11.3498
▁spores	-11.35
▁circuits	-11.3504
▁vit	-11.3505
▁collective	-11.3505
▁tam	-11.3507
▁organizational	-11.3509
▁tendon	-11.3511
▁fatal	-11.3511
▁stenosis	-11.3513
▁endothelium	-11.3513
▁pick	-11.3514
▁cds	-11.3515
▁neutralizing	-11.3515
▁1984	-11.3515
▁sugars	-11.3517
▁mets	-11.3517
▁216	-11.3519
ln	-11.3522
▁transfusion	-11.3523
▁glomerula	-11.3528
▁shaking	-11.353
▁pha	-11.3531
▁irs	-11.3534
▁gf	-11.3545
▁atlantic	-11.3548
▁visually	-11.3551
lam	-11.3555
▁hind	-11.3558
eal	-11.3564
▁tensile	-11.3566
ute	-11.3568
scan	-11.3575
▁nci	-11.3576
▁reg	-11.3576
▁cytosol	-11.3578
▁spray	-11.3581
mitting	-11.3583
▁dissemination	-11.3583
ales	-11.3587
▁erbb	-11.359
▁helical	-11.3592
▁spaces	-11.3592
▁bag	-11.3593
▁ubiquitination	-11.3594
▁supportive	-11.3594
140	-11.3595
▁homologs	-11.36
rad	-11.36
▁disturbances	-11.3601
▁mbp	-11.3604
▁enlarged	-11.3604
▁phyto	-11.3605
int	-11.3606
▁fus	-11.3609
ws	-11.3609
nl	-11.361
▁ligase	-11.3612
▁pharmacokinetic	-11.3618
▁206	-11.3622
▁spreading	-11.3622
▁potency	-11.3623
▁repetition	-11.3629
▁daf	-11.3633
▁218	-11.3634
▁neg	-11.3634
▁destruction	-11.3636
▁implicit	-11.3636
▁phagocytosis	-11.3636
▁quantitatively	-11.3639
▁fcs	-11.364
▁immunoblot	-11.3647
▁def	-11.3651
206	-11.3651
▁polyacrylamide	-11.3654
▁subtilis	-11.3654
▁branching	-11.3655
▁dominance	-11.3657
▁runx	-11.3657
▁dv	-11.3657
▁attenuate	-11.3659
▁sst	-11.3663
▁twin	-11.3664
▁usp	-11.3666
▁cats	-11.3666
▁attended	-11.3668
▁magnesium	-11.3672
▁italian	-11.3672
▁incubator	-11.3673
▁anesthetized	-11.3674
pre	-11.3675
▁tunel	-11.3676
dna	-11.3676
▁scd	-11.3678
▁irf	-11.3679
▁earth	-11.3679
omic	-11.368
▁comment	-11.3689
▁propensity	-11.3689
▁ug	-11.3689
▁ua	-11.369
▁sarcoma	-11.3695
▁filament	-11.3697
▁progenitors	-11.3697
▁farmers	-11.37
▁bre	-11.3701
▁ipa	-11.3702
▁xu	-11.3702
▁crt	-11.3706
aba	-11.3706
▁550	-11.3706
▁jan	-11.3707
▁swimming	-11.3707
▁inversely	-11.371
▁arch	-11.3711
mir	-11.3713
▁mrc	-11.3714
▁rem	-11.3716
rx	-11.3717
▁pgc	-11.3718
▁replace	-11.3719
▁nmda	-11.3722
125	-11.3722
▁gpr	-11.3725
▁indigenous	-11.3725
▁literacy	-11.3725
▁drainage	-11.3725
▁xlsx	-11.3726
▁sudden	-11.3729
ido	-11.373
▁proline	-11.373
▁hexa	-11.3733
▁esc	-11.3734
▁ngs	-11.3737
▁mj	-11.3739
▁kidneys	-11.374
ale	-11.3741
▁cag	-11.3743
▁store	-11.3745
▁psycho	-11.3746
▁push	-11.3746
▁solving	-11.3747
▁playing	-11.3751
▁rcc	-11.3752
dl	-11.3752
van	-11.3753
▁managers	-11.3754
▁import	-11.3754
▁update	-11.3755
▁pharmacy	-11.3761
▁harmful	-11.3761
▁cohen	-11.3765
▁tried	-11.3768
▁spikes	-11.377
emic	-11.3772
▁artifacts	-11.3773
▁degrade	-11.3776
▁alloy	-11.3777
▁char	-11.3777
▁intelligence	-11.3779
▁sclerosis	-11.3779
▁loads	-11.3781
▁rip	-11.3782
▁coastal	-11.3783
▁cq	-11.3792
ons	-11.3796
132	-11.3797
▁eligibility	-11.3797
▁debris	-11.3798
▁hep	-11.3799
tre	-11.3799
▁transparent	-11.38
▁infect	-11.3805
dis	-11.3807
▁determines	-11.3808
hm	-11.3813
▁noteworthy	-11.3815
▁inappropriate	-11.3815
▁bare	-11.3815
▁sitting	-11.3815
▁cel	-11.3817
▁ju	-11.3821
▁droplets	-11.3823
▁surgeons	-11.3825
▁recruit	-11.383
▁replicated	-11.383
▁obstruction	-11.3833
▁visceral	-11.3834
▁hearts	-11.3835
▁printed	-11.384
▁glp	-11.3846
▁hypothesize	-11.3849
▁csa	-11.3849
▁academy	-11.3851
▁atmospheric	-11.3851
▁averaging	-11.3851
▁dropped	-11.3851
▁breakdown	-11.3851
▁addiction	-11.3851
▁alternate	-11.3851
▁odor	-11.3858
▁gan	-11.3865
▁thinking	-11.387
▁biogenesis	-11.3871
▁definitive	-11.3878
▁fst	-11.3879
▁thy	-11.3885
▁expectation	-11.3886
▁clarity	-11.3888
▁handle	-11.3889
▁titer	-11.3891
_01	-11.3891
▁antagonists	-11.3894
methyl	-11.3898
▁gains	-11.3899
▁continues	-11.3903
▁transferase	-11.3908
▁invariant	-11.391
▁subtle	-11.3918
▁originated	-11.3918
▁bypass	-11.3919
▁cure	-11.3921
ever	-11.3922
▁superficial	-11.3924
▁freezing	-11.3924
▁hypertensive	-11.3924
▁stepwise	-11.3924
▁1983	-11.3929
▁dam	-11.3929
▁acs	-11.393
▁tibia	-11.3936
▁neighborhood	-11.3937
▁klf	-11.3941
▁375	-11.3941
▁originat	-11.3941
▁poverty	-11.3942
▁places	-11.3942
▁gelatin	-11.3945
▁nod	-11.3946
▁documents	-11.3952
▁algae	-11.3953
▁dic	-11.3954
thr	-11.3957
▁pbmc	-11.3958
▁staphylococcus	-11.396
▁progeny	-11.396
▁allergy	-11.396
▁backward	-11.3961
▁claim	-11.3961
▁invited	-11.3965
kh	-11.3971
▁proteomics	-11.3976
▁207	-11.3977
val	-11.3977
▁british	-11.3978
▁livestock	-11.3979
▁entities	-11.3979
▁war	-11.3979
▁consumer	-11.3979
▁380	-11.398
gb	-11.3983
▁orbital	-11.3987
▁cooperative	-11.3988
mid	-11.399
▁nlm	-11.3993
▁theoretically	-11.3997
▁arrival	-11.3998
155	-11.4001
des	-11.4001
▁sha	-11.4001
▁implying	-11.4004
▁223	-11.4005
▁dan	-11.4008
▁pose	-11.4008
▁aggregated	-11.4009
▁fur	-11.4009
▁intraperitoneal	-11.4011
▁290	-11.4011
hd	-11.4011
▁198	-11.4013
▁confined	-11.4018
▁zip	-11.402
▁him	-11.4028
▁214	-11.4029
▁0002	-11.4031
▁mil	-11.4032
▁coagulation	-11.4034
▁diagonal	-11.4034
▁labelling	-11.4035
lip	-11.4038
▁tsc	-11.4039
▁births	-11.4039
▁zi	-11.4041
▁crf	-11.4043
▁normality	-11.4043
▁paths	-11.4047
▁instruction	-11.4048
for	-11.4051
147	-11.4051
led	-11.4052
▁companies	-11.4052
▁doxorubicin	-11.4052
▁fibronectin	-11.4052
▁cyan	-11.4054
▁fam	-11.4054
▁tms	-11.4055
▁chambers	-11.4058
▁tape	-11.4058
ogen	-11.406
icus	-11.4066
▁solved	-11.4066
156	-11.4067
▁pcl	-11.407
▁plasmodium	-11.4071
▁flexion	-11.4071
ju	-11.4076
▁7717	-11.4077
base	-11.4079
▁excel	-11.4085
bre	-11.4086
▁eagle	-11.4089
▁trizol	-11.4089
▁subfamily	-11.4089
▁worked	-11.409
▁sig	-11.4091
▁cgi	-11.4091
▁pge	-11.4093
264	-11.4094
bar	-11.4094
▁absorbed	-11.41
pan	-11.41
▁write	-11.4101
108	-11.4101
▁bud	-11.4106
▁setae	-11.4106
▁colonic	-11.4107
▁ssr	-11.4108
▁allocated	-11.4113
▁piece	-11.4117
▁pac	-11.4121
▁ach	-11.4123
▁operon	-11.4123
▁adc	-11.4123
▁photographs	-11.4129
px	-11.4133
tf	-11.4133
▁rationale	-11.4133
▁dk	-11.4135
▁caregiver	-11.4142
▁innovative	-11.4145
▁norway	-11.4146
▁vice	-11.4148
129	-11.4149
uf	-11.4149
▁mention	-11.4151
▁sealed	-11.4152
▁successive	-11.4156
▁mere	-11.4157
▁lose	-11.4158
▁waiting	-11.4159
▁191	-11.416
▁script	-11.4161
▁granules	-11.4162
▁projected	-11.4162
▁ovary	-11.4165
▁kill	-11.4165
▁couple	-11.4167
▁priori	-11.4169
▁palm	-11.417
▁sup	-11.4176
▁funds	-11.4178
▁disadvantage	-11.4179
▁vertebrate	-11.418
▁hybrids	-11.418
▁smc	-11.418
▁altogether	-11.4182
eno	-11.4182
▁scene	-11.4183
▁650	-11.4184
▁introns	-11.4191
▁215	-11.4192
▁orders	-11.4195
och	-11.4196
▁ov	-11.4196
▁cutaneous	-11.4198
▁altitude	-11.4201
▁aquatic	-11.4201
▁dsrna	-11.4203
kl	-11.4204
▁sagittal	-11.4204
▁mx	-11.4206
▁modifying	-11.4208
scs	-11.421
▁arrowheads	-11.4212
▁ecosystems	-11.4213
▁cyt	-11.4216
▁anticipated	-11.4216
▁crystalline	-11.4217
▁oncogenic	-11.422
▁swiss	-11.422
▁vii	-11.4225
▁bacillus	-11.4227
▁sti	-11.423
▁tick	-11.4235
▁amplicon	-11.4236
▁nigeria	-11.4238
▁von	-11.4243
▁peerj	-11.4243
▁pyramidal	-11.4243
77	-11.4247
ions	-11.4248
▁argue	-11.4249
gm	-11.4249
▁iterations	-11.4254
▁asterisk	-11.4255
exp	-11.4255
lis	-11.4257
▁mononuclear	-11.4258
▁pcdna	-11.4259
▁email	-11.426
▁ui	-11.426
▁bell	-11.4268
▁flavonoids	-11.4269
rine	-11.427
▁mek	-11.427
▁crack	-11.4274
▁lim	-11.4276
▁demonstration	-11.4276
▁melanogaster	-11.4276
▁osteogenic	-11.4276
▁debate	-11.4277
▁workplace	-11.4277
▁grand	-11.4278
▁structurally	-11.4279
aki	-11.4282
▁rose	-11.4283
▁wanted	-11.4283
ati	-11.4283
comp	-11.4284
▁naive	-11.4286
▁interviewed	-11.4286
rie	-11.4287
123	-11.4292
▁caucasian	-11.4293
▁explanatory	-11.4295
▁fidelity	-11.4295
▁ultrasonic	-11.4295
▁omitted	-11.4295
▁glaucoma	-11.4295
▁biodiversity	-11.4295
▁js	-11.4297
mit	-11.4297
▁lies	-11.4302
▁wash	-11.4302
▁esp	-11.4304
sol	-11.4305
▁tregs	-11.4306
▁contig	-11.4309
▁tas	-11.4311
▁seizure	-11.4312
▁joining	-11.4313
▁excretion	-11.4314
▁platinum	-11.4314
▁prophylaxis	-11.4314
▁skull	-11.4314
▁unilateral	-11.4314
▁endocytosis	-11.4314
▁register	-11.4318
red	-11.4322
fv	-11.4325
▁drg	-11.4326
▁informal	-11.4327
zz	-11.4327
▁cog	-11.4328
por	-11.4331
▁daughter	-11.4333
▁microfluidic	-11.4333
▁proteolytic	-11.4333
▁leadership	-11.4333
▁weakness	-11.4333
▁avoided	-11.4334
▁septic	-11.4338
ecs	-11.4339
▁abolished	-11.434
▁nir	-11.4345
gia	-11.4348
▁ecl	-11.4349
▁preservation	-11.4352
▁technological	-11.4352
▁uganda	-11.4352
▁corpus	-11.4352
▁elution	-11.4352
▁linearly	-11.4353
ela	-11.4357
▁initiat	-11.4359
▁209	-11.4361
▁das	-11.4363
▁264	-11.4364
▁killed	-11.4366
▁mcm	-11.4368
▁electrolyte	-11.437
ira	-11.4376
lm	-11.4378
▁osa	-11.4379
▁amine	-11.4382
▁ptc	-11.4382
trans	-11.4386
▁pls	-11.4387
▁town	-11.4387
▁proto	-11.4389
▁determinant	-11.4389
▁thp	-11.439
▁perpendicular	-11.439
▁oxford	-11.439
▁leucine	-11.439
▁labour	-11.4391
▁meoh	-11.4392
▁nearby	-11.4393
▁eco	-11.4394
▁excited	-11.4395
▁progesterone	-11.4395
▁sport	-11.4399
▁298	-11.4399
rl	-11.44
▁occupied	-11.44
▁explanations	-11.4403
▁adequately	-11.4403
▁aaa	-11.4404
▁glycoprotein	-11.4408
▁metallic	-11.4408
▁bandwidth	-11.4409
▁trimester	-11.4409
▁resilience	-11.441
▁farms	-11.4411
▁tre	-11.4413
cher	-11.4417
mel	-11.4419
▁fractional	-11.442
▁hn	-11.4421
▁articular	-11.4422
▁voxels	-11.4422
iso	-11.4424
▁har	-11.4427
▁necrotic	-11.4428
▁freeze	-11.4428
▁juice	-11.4429
▁compromised	-11.4431
mr	-11.4435
▁nn	-11.4435
▁hat	-11.4436
▁origins	-11.4442
▁contract	-11.4444
▁naoh	-11.4453
fm	-11.4453
▁lox	-11.4454
▁climatic	-11.4457
▁rheumato	-11.4461
▁stressors	-11.4463
▁sad	-11.4465
qi	-11.4467
▁pregnancies	-11.4467
▁reliably	-11.4467
▁fertilization	-11.4467
▁brazilian	-11.4469
▁236	-11.447
▁bla	-11.4478
ias	-11.4478
▁ctc	-11.4479
▁fix	-11.448
▁kar	-11.448
▁ctl	-11.4482
▁ant	-11.4483
▁migraine	-11.4486
▁threonine	-11.4486
▁gall	-11.4489
▁threatening	-11.4489
▁tw	-11.4491
▁tbs	-11.4491
▁versa	-11.4492
▁occipital	-11.4494
▁hsc	-11.4497
tar	-11.4498
▁breed	-11.4498
▁ebp	-11.4502
eq	-11.4504
▁stirred	-11.4505
ops	-11.4506
▁comorbidity	-11.4506
562	-11.4507
▁euro	-11.4508
▁transcriptase	-11.4508
gan	-11.4509
127	-11.451
▁circ	-11.4512
▁osmotic	-11.4514
▁melt	-11.4519
▁resultant	-11.452
▁ile	-11.452
▁235	-11.4521
▁proteases	-11.4523
▁phages	-11.4526
▁nos	-11.4528
tron	-11.4534
tech	-11.4536
▁leukocytes	-11.4537
▁masses	-11.4537
▁scn	-11.4538
▁pole	-11.4541
▁hygiene	-11.4544
▁paclitaxel	-11.4544
▁pufa	-11.4545
▁vegfr	-11.4547
tum	-11.4551
▁cnt	-11.4556
▁horn	-11.4557
▁hub	-11.4558
▁fak	-11.4561
▁deterioration	-11.4563
▁refractory	-11.4563
▁colitis	-11.4566
▁tilt	-11.4568
▁exploit	-11.4568
▁herbal	-11.457
▁underlie	-11.4573
▁taste	-11.4574
▁cough	-11.4574
▁rounds	-11.458
▁219	-11.4581
▁pfc	-11.4582
▁hop	-11.4584
▁pfa	-11.4587
▁liposomes	-11.4593
▁oxy	-11.4597
▁tends	-11.46
▁shallow	-11.4601
▁accelerate	-11.4601
▁angiotensin	-11.4602
▁disulfide	-11.4602
▁sporadic	-11.4602
▁vulnerability	-11.4602
▁reproducible	-11.4602
▁attribute	-11.4603
▁dioxide	-11.4603
▁subpopulations	-11.4604
▁qu	-11.4604
▁monomers	-11.4605
▁microrna	-11.4605
▁spi	-11.4614
▁pcv	-11.4615
▁specification	-11.4617
yo	-11.4621
▁string	-11.4622
▁ended	-11.4622
▁periphery	-11.4622
▁ptx	-11.4622
▁pathophysiology	-11.4622
▁chimeric	-11.4622
▁regards	-11.4632
nin	-11.4633
▁pour	-11.4635
▁stroma	-11.4636
uz	-11.4638
▁lipo	-11.4638
▁tracer	-11.4639
▁win	-11.4641
▁occupancy	-11.4642
▁porcine	-11.4642
▁turkey	-11.4642
▁serotype	-11.4642
▁minus	-11.4644
▁ret	-11.4645
▁tailored	-11.4645
tom	-11.465
ique	-11.4652
▁224	-11.4655
▁csc	-11.4656
▁sat	-11.466
▁spr	-11.466
▁pituitary	-11.4661
▁violet	-11.4661
▁dish	-11.4661
▁verification	-11.4662
avi	-11.4665
▁deposits	-11.4665
▁antenna	-11.4667
idin	-11.4668
002_	-11.4669
▁permit	-11.467
▁fad	-11.4672
▁explains	-11.4674
▁paw	-11.4676
▁229	-11.4677
▁mtorc	-11.468
mut	-11.468
▁hormonal	-11.4681
▁templates	-11.4681
▁pvdf	-11.4683
▁apple	-11.4684
▁html	-11.4685
▁isotype	-11.4685
body	-11.469
▁ferment	-11.4691
170	-11.4693
iti	-11.4694
▁melan	-11.4694
▁ban	-11.4696
▁pigment	-11.4699
▁theories	-11.4701
cg	-11.4702
▁audit	-11.4703
▁suspensions	-11.4704
▁aspartate	-11.4705
▁trpv	-11.4706
gel	-11.4713
sil	-11.472
▁topological	-11.4722
▁cation	-11.4723
▁muscular	-11.4724
▁father	-11.4724
cas	-11.4724
uch	-11.4724
▁diploid	-11.4727
phy	-11.4727
▁internalization	-11.4728
rio	-11.4732
reaches	-11.4733
▁repeatedly	-11.4733
▁publish	-11.4736
▁suppresse	-11.4737
▁flap	-11.4738
▁384	-11.4739
▁hydrophilic	-11.4739
▁strategic	-11.474
▁surrogate	-11.474
▁texas	-11.474
▁takara	-11.474
▁cocaine	-11.4741
▁chemically	-11.4747
▁soc	-11.4756
seq	-11.4757
▁superfamily	-11.476
▁dopaminergic	-11.476
▁missense	-11.476
▁thrombosis	-11.476
▁formaldehyde	-11.4761
▁oscillator	-11.4761
▁cons	-11.4762
▁lap	-11.4764
▁canine	-11.4767
▁405	-11.4767
arc	-11.4769
▁wbc	-11.4772
▁oxo	-11.4773
▁prc	-11.4775
path	-11.4775
▁sort	-11.4776
▁benchmark	-11.4779
▁palliative	-11.478
▁synovial	-11.478
▁arsenic	-11.478
▁immunotherapy	-11.478
▁228	-11.4781
▁vasculature	-11.4782
▁adrenal	-11.4784
fold	-11.4785
▁gdp	-11.4792
▁fan	-11.4797
pyr	-11.4798
▁foraging	-11.48
▁yap	-11.48
▁cilia	-11.48
▁baby	-11.4804
▁markov	-11.4804
▁compositions	-11.4808
▁sanger	-11.4808
▁anonymous	-11.481
▁triggering	-11.4812
▁vh	-11.4815
▁nude	-11.4816
▁za	-11.4817
▁antifungal	-11.4819
▁discrepancies	-11.4819
▁intermittent	-11.4819
▁interplay	-11.4819
▁resveratrol	-11.4819
▁broken	-11.482
▁iodide	-11.482
▁reticulum	-11.482
▁norms	-11.482
▁qtls	-11.4821
▁gro	-11.4821
▁dar	-11.4822
▁investment	-11.4824
▁dio	-11.4825
▁speaking	-11.4829
▁migrate	-11.4831
▁gtp	-11.4832
▁rib	-11.4835
▁compensator	-11.4837
▁assemblies	-11.4839
▁mediterranean	-11.4839
▁hrqol	-11.484
▁259	-11.4841
▁nat	-11.4842
▁exerted	-11.4843
▁nets	-11.4845
▁ltp	-11.4845
▁wealth	-11.4846
▁sexes	-11.485
▁mod	-11.4854
▁drawing	-11.4854
▁sink	-11.4855
his	-11.4858
▁matrigel	-11.4859
▁abortion	-11.4862
▁achievement	-11.4864
vis	-11.4866
▁cows	-11.4866
▁halo	-11.4867
▁anion	-11.4867
▁330	-11.4873
▁organisation	-11.4873
▁thomas	-11.4875
▁trim	-11.4877
▁tcf	-11.4878
▁leak	-11.488
▁mdd	-11.4881
▁239	-11.4882
gon	-11.4884
▁effectors	-11.4885
uria	-11.4885
▁margins	-11.4888
▁227	-11.489
▁meth	-11.4891
tb	-11.4894
▁mz	-11.4898
▁preserve	-11.4899
▁pra	-11.4899
▁ammonia	-11.49
▁anatomy	-11.49
251	-11.4903
▁dpp	-11.4907
▁ips	-11.4909
▁encounter	-11.491
▁_	-11.491
▁222	-11.4912
▁creb	-11.4912
▁conflicting	-11.4915
▁lacz	-11.4915
sorbent	-11.4915
▁spheres	-11.4918
▁ancestry	-11.492
ometer	-11.4922
▁osteo	-11.4922
▁covariate	-11.4923
▁legend	-11.4923
102	-11.4929
▁analytic	-11.4934
▁reality	-11.4935
▁carbohydrates	-11.4939
▁greenhouse	-11.494
▁dans	-11.4943
▁202	-11.4943
eli	-11.4943
▁testis	-11.4943
▁specify	-11.4944
▁lan	-11.4944
▁minority	-11.4945
don	-11.4945
▁ctrl	-11.495
▁454	-11.4951
radish	-11.4952
▁impairments	-11.4955
▁coll	-11.4959
▁commitment	-11.496
▁entity	-11.4961
▁adoption	-11.4962
▁exceeded	-11.4962
▁rub	-11.4963
▁lamina	-11.4967
▁gpa	-11.4967
▁orthologs	-11.497
▁hpf	-11.497
▁manag	-11.4976
▁gra	-11.4977
▁cac	-11.4979
▁repertoire	-11.498
ography	-11.4981
▁phantom	-11.4984
cq	-11.4986
pen	-11.4986
▁uniformly	-11.4987
mas	-11.4987
169	-11.4989
▁cooled	-11.4991
▁kin	-11.4991
▁constitutively	-11.4993
▁vf	-11.5001
▁triglyceride	-11.5004
▁compensate	-11.5007
▁confounders	-11.5016
▁venom	-11.5017
▁perturbations	-11.5019
▁wavelengths	-11.5019
▁ppv	-11.502
▁vomiting	-11.5021
▁ik	-11.5021
▁chloroplast	-11.5021
▁belief	-11.5025
▁biotech	-11.5026
▁viewing	-11.5027
oph	-11.5027
▁ou	-11.5028
▁dust	-11.5028
▁coat	-11.503
▁rdna	-11.5038
▁meetings	-11.5039
▁antenatal	-11.5041
▁gating	-11.5045
▁cms	-11.5045
ele	-11.5045
▁characterised	-11.5047
▁tolerated	-11.505
▁px	-11.5053
▁calf	-11.5054
▁foam	-11.5059
▁217	-11.5059
▁plain	-11.506
▁diameters	-11.5064
▁spite	-11.5068
pu	-11.5069
▁getting	-11.507
▁275	-11.5075
▁alp	-11.5077
▁influx	-11.5082
▁chair	-11.5084
▁dulbecco	-11.5085
▁nov	-11.5085
▁rms	-11.5086
▁admissions	-11.5088
▁atf	-11.5091
ink	-11.5092
ust	-11.5092
ack	-11.5099
▁glioblastoma	-11.5103
▁prescribing	-11.5103
▁money	-11.5104
▁realized	-11.5107
▁humidifie	-11.5107
▁226	-11.5108
▁1982	-11.5108
▁parasitic	-11.5108
var	-11.5109
▁competent	-11.511
▁clinician	-11.511
▁forests	-11.5112
▁suggestive	-11.5112
▁bur	-11.5112
sw	-11.512
▁1970	-11.512
▁sheath	-11.5123
▁dysregulation	-11.5123
▁nerves	-11.5125
▁ix	-11.5125
cha	-11.5136
▁pulp	-11.5139
▁ipsilateral	-11.5144
▁ltr	-11.5144
▁tga	-11.5145
▁johnson	-11.5145
▁ye	-11.5145
▁cod	-11.5149
▁divide	-11.5151
▁238	-11.5151
rick	-11.5151
▁ast	-11.5151
▁conjugate	-11.5152
▁instrumental	-11.5152
bv	-11.5156
▁intermediates	-11.5164
▁orthogonal	-11.5164
▁facing	-11.5165
▁infiltrate	-11.5169
▁csp	-11.517
▁snail	-11.5171
▁oocyte	-11.5171
▁meg	-11.5176
ture	-11.5176
▁breaks	-11.5177
▁hazards	-11.5179
mate	-11.518
▁285	-11.5181
▁leaders	-11.5184
▁catalase	-11.5185
▁digestive	-11.5185
▁codons	-11.5186
mmunosuppressive	-11.5187
cul	-11.5193
bra	-11.5194
▁chondrocytes	-11.5195
▁collections	-11.5195
▁fibres	-11.5195
▁coincide	-11.5197
▁binomial	-11.5206
▁qd	-11.5206
▁navigation	-11.5207
▁carbonate	-11.5207
▁join	-11.5208
▁hrv	-11.521
▁carcinogenesis	-11.5211
▁scarce	-11.5211
▁isotope	-11.5211
▁pcc	-11.5212
▁div	-11.5213
▁subscales	-11.5215
▁constituents	-11.5217
▁answered	-11.5221
ska	-11.5222
▁cacl	-11.5223
▁stata	-11.5224
▁fx	-11.5225
▁inflammasome	-11.5226
▁periodontal	-11.5226
▁pivotal	-11.5226
▁thermodynamic	-11.5227
▁sensitization	-11.5227
▁reproduce	-11.5227
▁manufacturing	-11.5228
▁exercises	-11.523
▁365	-11.5231
▁emerge	-11.5232
oi	-11.5234
▁dy	-11.5237
onceptualization	-11.5237
▁interfaces	-11.5237
elle	-11.5241
160	-11.5243
▁jm	-11.5243
ema	-11.5244
▁ze	-11.5247
▁photosynthesis	-11.5247
▁abl	-11.525
▁reviewing	-11.5252
▁relief	-11.5259
▁releas	-11.5259
▁glm	-11.526
▁extends	-11.5262
▁lysosom	-11.5263
0000	-11.5263
▁pale	-11.5265
▁heavily	-11.5268
▁perinatal	-11.5268
▁midline	-11.527
▁wh	-11.527
▁iodine	-11.5271
col	-11.5271
▁carl	-11.5275
▁0006	-11.5276
▁entering	-11.5287
▁jc	-11.5288
▁doppler	-11.5289
▁guinea	-11.5289
▁caffeine	-11.5289
rh	-11.5289
▁nikon	-11.5289
▁billion	-11.529
▁mimics	-11.5291
fin	-11.5291
▁excised	-11.5291
ulo	-11.5292
blast	-11.5294
▁ancestor	-11.5295
cata	-11.5298
▁directional	-11.53
referring	-11.53
▁antioxidants	-11.5306
▁jet	-11.5307
▁1981	-11.5308
▁catalyzed	-11.5309
▁sequentially	-11.5309
▁homogeneity	-11.531
▁topical	-11.531
▁tes	-11.5312
▁chl	-11.5315
▁strands	-11.5325
ret	-11.5331
▁refractiv	-11.5331
group	-11.5331
▁peroxidation	-11.5332
▁ren	-11.5335
▁encouraged	-11.5339
cent	-11.534
▁amide	-11.5341
▁villages	-11.5342
rum	-11.5344
ases	-11.5345
rac	-11.5347
▁belgium	-11.5352
▁evaporation	-11.5352
▁osteoporosis	-11.5352
▁saharan	-11.5352
▁attendance	-11.5352
▁proliferating	-11.5352
▁postpartum	-11.5353
▁inos	-11.5353
▁carcinomas	-11.536
▁graded	-11.5361
▁kat	-11.5364
▁shh	-11.5364
190	-11.5365
▁coming	-11.5369
nps	-11.537
▁acupuncture	-11.5373
▁tolerant	-11.5373
▁prototype	-11.5374
pm	-11.5374
▁jones	-11.5376
▁sir	-11.5377
▁201	-11.5381
▁synapse	-11.5383
▁sit	-11.5384
220	-11.5384
ima	-11.5384
▁precipitated	-11.539
▁aldh	-11.5391
uff	-11.5392
▁radiological	-11.5393
cus	-11.5393
163	-11.5394
▁locomotor	-11.5394
▁concordance	-11.5394
▁cyanobacteria	-11.5394
▁ger	-11.5394
▁holotype	-11.5394
▁bk	-11.5399
▁folate	-11.5399
▁arf	-11.5401
▁tips	-11.5401
▁055	-11.5403
▁constitutes	-11.5404
▁kong	-11.5405
▁modelled	-11.5405
▁maldi	-11.5409
▁cea	-11.541
oside	-11.5411
cho	-11.5413
▁straightforward	-11.5415
▁agencies	-11.5415
▁avian	-11.5417
▁phosphorus	-11.5417
idine	-11.5418
▁documentation	-11.542
▁fairly	-11.5427
▁thiol	-11.5428
▁ikk	-11.5431
site	-11.5432
▁makers	-11.5432
▁mds	-11.5433
▁stone	-11.5433
tac	-11.5434
▁pack	-11.5434
▁anomalies	-11.5436
▁zealand	-11.5437
480	-11.5437
▁helices	-11.5437
▁248	-11.5438
▁depressed	-11.5439
▁neutralization	-11.5442
▁mount	-11.5447
ama	-11.545
▁corroborate	-11.5461
▁lay	-11.5461
▁monkeys	-11.5463
▁dq	-11.5463
▁050	-11.5474
▁sla	-11.5477
▁familial	-11.5479
▁amorphous	-11.5479
▁mining	-11.548
▁prefer	-11.5486
▁volatile	-11.549
▁legs	-11.549
▁bins	-11.5492
▁emphasized	-11.5495
▁restrictions	-11.5495
▁245	-11.5496
▁erythrocytes	-11.5497
▁programmed	-11.5497
▁hal	-11.5499
▁independence	-11.55
▁recessive	-11.55
▁calling	-11.5501
▁attend	-11.5502
▁calcification	-11.5508
▁reserve	-11.5508
▁motivated	-11.551
▁pci	-11.5511
▁stems	-11.5512
▁rfp	-11.5518
▁296	-11.552
▁ambiguous	-11.5521
▁myocardium	-11.5521
▁discover	-11.5523
▁2500	-11.5523
▁cochrane	-11.5524
▁prop	-11.5528
▁salmon	-11.5529
▁1200	-11.5534
atum	-11.5537
▁gcs	-11.5538
▁234	-11.5539
▁scattered	-11.5542
▁ingestion	-11.5543
▁smoker	-11.5544
▁258	-11.5547
▁310	-11.5548
▁ssa	-11.5552
▁cystic	-11.5553
▁glc	-11.5554
▁autonomous	-11.5555
▁penta	-11.5556
▁qs	-11.5562
▁lam	-11.5563
▁housekeeping	-11.5564
▁immersion	-11.5565
▁desire	-11.5566
▁benzene	-11.5566
▁reproduced	-11.5568
▁thousands	-11.5569
▁korean	-11.5571
▁seasons	-11.5571
205	-11.5574
view	-11.558
▁disagree	-11.5582
nia	-11.5583
▁identifie	-11.5584
▁quercetin	-11.5586
▁business	-11.5586
▁expectancy	-11.5586
▁pcb	-11.5587
▁truth	-11.5587
122	-11.5587
▁sliding	-11.5592
▁reasoning	-11.5592
▁deg	-11.5594
▁conformations	-11.56
▁rational	-11.5607
▁satisfactory	-11.5607
▁cingulate	-11.5607
▁obstructive	-11.5607
▁omega	-11.5608
rap	-11.5614
▁smear	-11.5616
▁micrographs	-11.5617
iva	-11.5619
late	-11.5621
▁endpoints	-11.5622
▁gln	-11.5622
kel	-11.5626
▁cronbach	-11.5629
▁biotinylated	-11.5629
▁sto	-11.5634
bin	-11.5634
▁cigarettes	-11.5635
138	-11.5636
▁cope	-11.5637
▁microsatellite	-11.5638
▁hmgb	-11.5638
▁predator	-11.5639
oids	-11.5641
▁og	-11.5647
159	-11.5651
ural	-11.5656
117	-11.5658
▁pth	-11.5658
opathological	-11.5659
▁flip	-11.5667
▁annually	-11.5671
▁arises	-11.5671
▁inequality	-11.5672
▁porosity	-11.5672
▁ezh	-11.5673
▁counseling	-11.5676
▁stands	-11.5678
▁surgeon	-11.5682
▁impacted	-11.5683
▁adam	-11.5684
▁erythro	-11.5688
▁265	-11.5689
▁268	-11.569
▁rois	-11.569
▁dexamethasone	-11.5694
▁dissolution	-11.5694
▁tongue	-11.5694
▁bundle	-11.5695
▁covers	-11.5695
▁213	-11.5696
▁nsp	-11.5696
▁eh	-11.5698
▁occasionally	-11.57
▁conference	-11.5704
▁incremental	-11.5707
▁slip	-11.571
▁coast	-11.571
▁disordered	-11.5711
▁career	-11.5714
▁vv	-11.5715
▁corrosion	-11.5716
▁possibilities	-11.5716
▁hairpin	-11.5716
▁acr	-11.5717
▁street	-11.5717
▁aspirin	-11.5717
▁triangles	-11.5717
▁xy	-11.572
▁myelin	-11.5722
arg	-11.5725
▁roll	-11.5726
▁pde	-11.5727
non	-11.5733
wo	-11.5734
▁lakes	-11.5735
▁performances	-11.5736
aminotransferase	-11.5736
▁journals	-11.5737
▁neonates	-11.5737
▁mabs	-11.5737
ester	-11.5737
▁sick	-11.5738
▁237	-11.5738
▁mts	-11.5742
asp	-11.5743
▁osteoblast	-11.5748
▁ent	-11.5752
▁caco	-11.5755
▁weighting	-11.5756
▁classifiers	-11.5757
▁spe	-11.5758
▁presynaptic	-11.5761
▁catalyze	-11.5761
▁poland	-11.5761
▁nw	-11.5763
▁mit	-11.5765
▁ftir	-11.5765
▁socs	-11.5766
▁pointing	-11.5767
▁formulated	-11.5768
▁chaperone	-11.5774
▁imposed	-11.5774
▁hpa	-11.578
▁discomfort	-11.5781
▁vimentin	-11.5781
▁vigorous	-11.5782
▁microwave	-11.5782
ito	-11.5783
▁coherent	-11.5784
▁deoxy	-11.5785
▁drink	-11.5791
▁argument	-11.5792
▁ngf	-11.5794
▁sputum	-11.5803
▁zm	-11.5804
▁gauge	-11.5804
▁torque	-11.5804
ides	-11.5806
▁accomplished	-11.581
▁portions	-11.5812
▁pmol	-11.5813
▁pleural	-11.5815
▁migrator	-11.5821
▁passing	-11.5824
yr	-11.5824
▁overlapped	-11.5826
▁titanium	-11.5826
▁ecology	-11.5827
▁wiley	-11.5827
▁paul	-11.5831
▁mef	-11.5837
ren	-11.5838
▁254	-11.5842
▁056	-11.5842
agg	-11.5844
▁bam	-11.5844
port	-11.5846
▁ppp	-11.5847
▁paediatric	-11.5848
▁tanzania	-11.5848
▁taq	-11.5848
▁wildtype	-11.5851
▁244	-11.5853
▁methoxy	-11.5853
▁9500	-11.5853
▁ionization	-11.5855
▁ulcer	-11.5856
▁vegetable	-11.5858
▁controller	-11.5861
vp	-11.5861
abc	-11.5862
sociodemographic	-11.5863
▁warming	-11.5864
▁durations	-11.5864
▁promise	-11.5865
▁potato	-11.5867
tta	-11.5867
▁keratinocytes	-11.5873
▁pcp	-11.5875
los	-11.5876
gap	-11.5878
▁specialists	-11.5878
▁255	-11.5879
▁las	-11.5884
▁blend	-11.5884
▁pipette	-11.5885
▁278	-11.5886
▁bulb	-11.5887
▁interneurons	-11.5888
nal	-11.589
▁epidermis	-11.5892
▁counterstain	-11.5892
▁pik	-11.5894
▁pom	-11.5896
▁kf	-11.5899
▁288	-11.59
▁bees	-11.5902
▁370	-11.5903
▁oscillation	-11.5903
▁glycogen	-11.5903
▁strengthen	-11.5905
mix	-11.5905
rich	-11.5905
nat	-11.5906
▁hes	-11.5907
▁graphical	-11.5908
▁appropriately	-11.591
▁paternal	-11.5914
▁aluminum	-11.5914
▁crystallization	-11.5914
▁inhalation	-11.5914
▁positives	-11.5915
ric	-11.5916
900	-11.5919
▁distinctive	-11.592
stein	-11.592
▁surviving	-11.5921
▁neighbors	-11.5924
▁audio	-11.5924
▁ortholog	-11.5924
▁flask	-11.5926
▁iterative	-11.5927
▁nec	-11.5928
▁heads	-11.5929
▁spines	-11.593
phenyl	-11.5932
▁parity	-11.5933
▁lactobacillus	-11.5936
▁endoscopic	-11.5937
▁bcg	-11.5939
▁vapor	-11.5939
▁residential	-11.594
▁alive	-11.5943
▁stations	-11.5944
hydr	-11.5946
▁bca	-11.5947
cellulose	-11.5947
▁homa	-11.595
▁render	-11.5954
fused	-11.5955
280	-11.5957
▁magnet	-11.5957
▁streptavidin	-11.5959
▁nausea	-11.5959
▁simplicity	-11.5959
ule	-11.5959
ple	-11.596
virus	-11.5961
▁manager	-11.5963
▁carbonyl	-11.5964
▁ji	-11.5966
▁lipase	-11.5966
aire	-11.5969
▁subscale	-11.5972
▁sentences	-11.5972
▁mefs	-11.5974
▁sq	-11.5974
ore	-11.5976
water	-11.5977
▁heterologous	-11.5981
▁autosomal	-11.5981
▁ovaries	-11.5981
▁wounds	-11.5982
▁roughness	-11.5982
▁iba	-11.5984
▁grew	-11.5985
▁fret	-11.5985
▁pss	-11.5987
▁amd	-11.5988
▁thoroughly	-11.5989
ez	-11.599
▁249	-11.5997
▁clp	-11.5998
▁microtubules	-11.6
▁salts	-11.6001
ona	-11.6002
sim	-11.6002
etic	-11.6003
▁breeds	-11.6004
▁olive	-11.6006
▁tunnel	-11.6006
tas	-11.6006
▁wake	-11.6006
echocardiography	-11.6007
▁9600	-11.6008
▁rounded	-11.6009
▁posture	-11.601
▁glycol	-11.601
▁ya	-11.6015
▁maze	-11.6015
hen	-11.6016
▁transducer	-11.6017
▁operate	-11.6017
▁cart	-11.6019
dec	-11.6024
▁attacks	-11.6024
▁clo	-11.6025
▁mosaic	-11.6026
▁phylum	-11.6026
▁gravity	-11.6026
▁wrong	-11.6026
inter	-11.6028
▁amplicons	-11.6029
▁quarter	-11.6029
transferase	-11.6032
▁cpt	-11.6032
▁cranial	-11.6034
▁insoluble	-11.6036
▁266	-11.6038
▁collision	-11.6038
▁holes	-11.6038
▁meter	-11.6039
▁respondent	-11.604
▁xyl	-11.6041
inae	-11.6045
▁someone	-11.6046
▁packing	-11.6047
▁brand	-11.6048
▁bioavailability	-11.6048
▁mitosis	-11.6049
▁fluoride	-11.6049
▁dates	-11.605
▁chang	-11.6054
urs	-11.6057
lim	-11.6057
▁tert	-11.6062
▁pel	-11.6067
lac	-11.6069
vid	-11.607
▁genital	-11.607
▁autonomy	-11.6071
▁superscript	-11.6071
▁ami	-11.6072
▁suppressive	-11.6073
▁oils	-11.6073
▁065	-11.6074
▁1107	-11.6077
▁msi	-11.6078
▁nv	-11.6078
▁cov	-11.6078
▁compromise	-11.6079
▁caries	-11.6079
▁collapse	-11.6082
▁restrict	-11.6082
▁screw	-11.6084
▁urgent	-11.6085
▁favour	-11.609
▁sco	-11.6091
▁macroscopic	-11.6093
▁micrornas	-11.6093
sia	-11.6094
▁causative	-11.6094
▁246	-11.6096
▁iop	-11.6106
sulf	-11.6106
▁pil	-11.6109
▁057	-11.6113
▁skill	-11.6114
▁rays	-11.6115
▁atm	-11.6116
▁anthropometric	-11.6116
▁angiography	-11.6116
▁theorem	-11.6117
198	-11.6121
▁profit	-11.6122
ora	-11.6122
apped	-11.6126
▁0003	-11.6127
▁acp	-11.6131
fibrotic	-11.6136
▁dap	-11.6136
▁ctx	-11.6137
▁affymetrix	-11.6139
▁puncture	-11.6139
▁tryptophan	-11.6139
▁intracranial	-11.6139
▁acceptability	-11.614
▁transwell	-11.614
▁overload	-11.6142
▁thi	-11.6142
▁hexane	-11.6142
▁dyes	-11.6145
▁helping	-11.615
nas	-11.615
▁silenced	-11.6151
▁partition	-11.6151
▁absorb	-11.6154
yan	-11.6155
▁289	-11.6157
▁residuals	-11.6157
▁sounds	-11.616
▁rights	-11.616
▁232	-11.6162
▁organelles	-11.6162
▁finland	-11.6162
▁nadh	-11.6166
ious	-11.6166
020	-11.6169
▁fulfill	-11.6172
167	-11.6174
▁aerosol	-11.6175
▁mct	-11.6176
aaa	-11.6177
▁conferr	-11.6178
▁pah	-11.6178
▁timely	-11.6181
▁cleaning	-11.6182
▁tj	-11.6182
not	-11.6185
▁ganglia	-11.6185
▁neurogenesis	-11.6185
▁creative	-11.6186
▁musculoskeletal	-11.6186
▁lig	-11.6187
168	-11.6188
▁capsid	-11.6188
kk	-11.6198
ava	-11.62
▁chickens	-11.62
▁cul	-11.6201
▁imported	-11.6202
▁till	-11.6202
▁videos	-11.6203
▁pj	-11.6208
▁worm	-11.6208
tx	-11.6209
▁orally	-11.621
▁inherited	-11.621
xin	-11.6212
2_	-11.6214
▁existed	-11.6215
▁257	-11.6215
▁075	-11.6218
▁judgment	-11.6224
174	-11.6224
wg	-11.6229
▁longest	-11.6229
▁aspiration	-11.6231
▁renewal	-11.6232
▁slopes	-11.6232
▁dimers	-11.6234
▁era	-11.6241
▁synthesize	-11.6247
▁dim	-11.6247
▁virtually	-11.6251
▁friction	-11.6253
▁repository	-11.6253
▁blunt	-11.6253
▁oxidant	-11.6253
▁erosion	-11.6254
▁membership	-11.6255
▁afterwards	-11.6255
▁intergenic	-11.6256
▁carlo	-11.6257
▁nose	-11.6257
▁decide	-11.6258
▁fibro	-11.6258
▁barley	-11.6259
▁arb	-11.626
cardi	-11.626
▁secure	-11.6261
▁steroids	-11.6265
phosphorylation	-11.6267
▁cysts	-11.6267
iform	-11.6269
▁repressed	-11.6271
gar	-11.6276
▁dehydration	-11.6277
▁budget	-11.6277
▁patent	-11.6278
loc	-11.6281
▁shifting	-11.6284
▁dendrites	-11.6287
▁fk	-11.6287
▁kra	-11.6289
icular	-11.6292
▁dj	-11.6295
▁212	-11.6296
177	-11.6296
nus	-11.6297
bus	-11.6299
▁cdr	-11.6299
▁hypothalamus	-11.63
119	-11.6303
▁ageing	-11.6303
▁xenografts	-11.6305
▁shortening	-11.6306
▁276	-11.6306
ians	-11.6307
126	-11.6309
▁059	-11.631
ulate	-11.631
eh	-11.6315
▁fractionation	-11.6318
▁corner	-11.6321
▁rw	-11.6321
ort	-11.6321
point	-11.6321
▁permits	-11.6322
tl	-11.6322
▁religious	-11.6323
▁fungus	-11.6323
▁unadjusted	-11.6323
▁continuing	-11.6325
1000	-11.6325
ello	-11.6326
▁cfs	-11.6326
▁vertebrates	-11.6326
▁alternatives	-11.6327
▁abstracts	-11.6329
▁bear	-11.6332
▁gdm	-11.6333
▁outdoor	-11.6338
▁exploited	-11.6339
▁huge	-11.6341
ette	-11.6341
▁leishmania	-11.6346
▁adolescence	-11.6346
▁synchronization	-11.6346
▁psychology	-11.6346
▁helper	-11.6346
▁ids	-11.6349
▁postural	-11.635
▁wrist	-11.6351
day	-11.6352
▁wine	-11.6352
ash	-11.6353
▁spl	-11.6354
ogram	-11.6354
aka	-11.6356
▁download	-11.6357
▁spm	-11.6357
▁imagery	-11.6358
▁authority	-11.6358
▁behave	-11.6362
kr	-11.6364
rol	-11.6364
▁timp	-11.6364
▁inoculum	-11.6369
▁streptococcus	-11.637
▁pathogenicity	-11.6373
▁333	-11.6374
▁osm	-11.6374
▁coverslips	-11.6374
▁hyp	-11.6379
▁icam	-11.6381
▁dope	-11.6381
▁expanding	-11.6382
▁logic	-11.6382
▁pollutants	-11.6384
▁analogue	-11.6385
▁stack	-11.6389
iana	-11.639
ual	-11.6391
▁dab	-11.6391
▁jh	-11.6392
▁imputation	-11.6393
▁manifest	-11.6393
▁increment	-11.6394
▁ole	-11.6396
▁mucus	-11.6396
▁harvesting	-11.6399
▁sectors	-11.64
▁homes	-11.6401
▁follicles	-11.6404
▁readers	-11.6405
▁eukaryotes	-11.6405
▁gui	-11.6411
ota	-11.6412
▁ibs	-11.6415
▁sponsor	-11.6416
▁sympathetic	-11.6416
top	-11.6419
▁vg	-11.642
▁dmf	-11.6422
375	-11.6427
▁269	-11.6427
▁likert	-11.6428
ncia	-11.6433
▁disk	-11.6434
▁adaptor	-11.6434
mic	-11.6435
▁ameliorate	-11.6436
▁lacks	-11.6437
▁excitability	-11.6439
▁poultry	-11.6439
▁generator	-11.644
▁observing	-11.6444
▁068	-11.6444
▁rif	-11.6444
▁rot	-11.6449
▁pq	-11.6449
▁stabilize	-11.645
▁digest	-11.6454
▁volunteer	-11.6456
▁bilayer	-11.6456
▁ica	-11.6458
▁pups	-11.6461
▁assumes	-11.6462
▁applicability	-11.6463
▁fell	-11.6469
▁casp	-11.6469
189	-11.6469
▁possesses	-11.6472
▁spontaneously	-11.6476
▁adr	-11.6481
▁evolve	-11.6482
▁ara	-11.6484
▁capacities	-11.6486
▁cataract	-11.6486
▁sweet	-11.6487
▁clarified	-11.6488
▁conscious	-11.6489
aud	-11.6492
▁233	-11.6492
▁vocal	-11.6495
▁reconstruct	-11.6496
▁058	-11.6497
▁genotyped	-11.6497
▁flt	-11.6502
▁begins	-11.6504
▁1978	-11.6504
central	-11.6505
▁0004	-11.6506
▁continuum	-11.651
▁stringent	-11.651
▁segmented	-11.6511
▁irreversible	-11.6512
▁cargo	-11.6512
▁catalysts	-11.6514
▁estradiol	-11.6514
▁cages	-11.6518
▁mutational	-11.6519
▁stores	-11.6523
▁resemble	-11.6528
icola	-11.6532
▁reprogramming	-11.6534
▁terrestrial	-11.6534
▁endoplasmi	-11.6534
▁raising	-11.6535
▁hgf	-11.6535
▁veins	-11.6537
bank	-11.6542
▁afford	-11.6543
▁pul	-11.6544
zy	-11.6544
▁psd	-11.6546
adi	-11.6547
▁rom	-11.6548
▁alters	-11.6548
▁ij	-11.655
137	-11.655
▁osteoclast	-11.6551
▁pdgf	-11.6556
▁galactose	-11.6558
▁mah	-11.656
▁compete	-11.656
▁pw	-11.6563
▁hscs	-11.6563
pla	-11.6564
▁shaded	-11.6569
▁elongated	-11.6572
▁cck	-11.6573
ock	-11.6575
▁polypeptide	-11.6576
030	-11.6576
chemotherapeutic	-11.6577
▁221	-11.6577
eck	-11.6586
ites	-11.6587
▁rough	-11.6589
▁went	-11.659
▁secrete	-11.6591
mac	-11.6593
▁lobes	-11.6603
▁intraoperative	-11.6605
ila	-11.6605
172	-11.6605
▁titration	-11.6605
▁nonspecific	-11.6608
work	-11.661
▁follicle	-11.6617
▁archaea	-11.6619
▁qt	-11.662
▁proposal	-11.6623
▁monkey	-11.6623
▁cscs	-11.6628
▁wolf	-11.6628
ado	-11.6628
▁rearrangements	-11.6628
orf	-11.6631
115	-11.6632
▁cubic	-11.6635
▁ready	-11.6639
▁pathologic	-11.6642
▁hpi	-11.6643
protein	-11.6644
149	-11.6645
▁gga	-11.6645
▁diamond	-11.6647
▁crosses	-11.6647
▁cps	-11.6648
▁hoechst	-11.6653
▁hyperplasia	-11.6653
▁lupus	-11.6653
sha	-11.6663
pod	-11.6669
zer	-11.6672
▁hundreds	-11.6672
ney	-11.6673
▁lux	-11.6674
▁libitum	-11.6677
▁privacy	-11.6677
▁skeleton	-11.6677
▁vivax	-11.6677
▁falling	-11.6678
188	-11.6679
▁295	-11.6685
▁limbs	-11.6686
▁islets	-11.6688
▁sts	-11.669
▁267	-11.669
▁pea	-11.6692
▁bun	-11.6693
▁tcm	-11.6694
▁serving	-11.6695
▁1979	-11.6698
▁ampicillin	-11.6701
▁ejection	-11.6701
▁aggression	-11.6701
▁microsoft	-11.6701
▁reactivation	-11.6702
▁quadratic	-11.6703
▁esteem	-11.6704
pter	-11.6706
▁054	-11.6706
▁usefulness	-11.6708
wan	-11.6711
▁060	-11.6712
▁211	-11.6715
test	-11.6715
▁drops	-11.6716
▁alcoholic	-11.6719
▁antigenic	-11.6722
▁confident	-11.6724
▁malnutrition	-11.6725
▁tracing	-11.6725
▁maturity	-11.6725
▁spore	-11.6726
aac	-11.6727
▁grape	-11.6727
▁descending	-11.6729
▁consult	-11.673
▁ces	-11.6731
▁rmsd	-11.6735
▁traps	-11.6735
▁coi	-11.6736
▁erg	-11.6737
▁proteobacteria	-11.6741
▁erp	-11.6742
▁beat	-11.6744
▁glycan	-11.6745
▁accommodate	-11.6749
▁bru	-11.675
▁ghana	-11.675
▁tdcs	-11.6751
orin	-11.6752
gas	-11.6752
▁vortex	-11.6753
▁therapeutics	-11.6754
class	-11.6755
▁grades	-11.6761
▁twist	-11.6764
▁games	-11.6767
gone	-11.6769
▁transcriptomic	-11.6769
▁nodal	-11.6769
▁irrelevant	-11.6773
▁compressive	-11.6773
hemiluminescence	-11.6774
▁perceive	-11.6774
plastic	-11.6776
▁rabbits	-11.678
opod	-11.6781
splenic	-11.6781
▁warranted	-11.6781
▁histidine	-11.6782
▁hydrogels	-11.6792
209	-11.6794
▁299	-11.6796
▁aca	-11.6797
▁taa	-11.6797
▁anisotropy	-11.6797
▁polynomial	-11.6797
▁undetectable	-11.6797
▁msp	-11.6797
▁aiming	-11.6799
rib	-11.68
▁conjugation	-11.6801
iae	-11.6801
176	-11.6802
nis	-11.6805
▁oncogene	-11.6811
▁convex	-11.6821
▁deionized	-11.6822
▁weaning	-11.6822
▁062	-11.6823
▁thrombin	-11.6823
▁lrp	-11.6824
▁authorities	-11.6825
▁syndromes	-11.6827
lytic	-11.683
▁command	-11.6832
▁observers	-11.6835
cut	-11.6836
▁transit	-11.6837
▁lsd	-11.6837
▁ipsc	-11.6838
▁512	-11.6838
▁austria	-11.6838
▁sus	-11.684
▁fluoro	-11.6844
▁ssp	-11.6846
▁follicular	-11.6846
▁synergy	-11.6846
▁temporary	-11.6846
▁ontario	-11.6846
▁zhao	-11.6846
▁ancient	-11.6846
▁tactile	-11.6852
▁backgrounds	-11.6852
▁cbt	-11.6854
▁stereo	-11.6856
rat	-11.6859
▁063	-11.686
▁tsh	-11.6863
▁discharged	-11.6864
una	-11.6866
mark	-11.6867
▁capacitance	-11.6871
▁interpersonal	-11.6871
▁seawater	-11.6871
▁mca	-11.6875
▁stressful	-11.6877
▁zr	-11.6878
▁cbs	-11.6878
▁goes	-11.688
oyl	-11.6885
▁sediments	-11.6887
▁obstetric	-11.6891
▁277	-11.6892
▁autologous	-11.6895
▁bangladesh	-11.6895
undifferentiated	-11.6895
xb	-11.6896
▁blockers	-11.6897
▁king	-11.6897
wl	-11.6898
▁lapse	-11.6899
▁ganglion	-11.6901
▁surrounded	-11.6901
▁eae	-11.6902
▁neighbouring	-11.6904
▁uf	-11.6904
▁stocks	-11.6908
▁anal	-11.691
etin	-11.6911
▁exceeding	-11.6911
▁neoplastic	-11.6912
▁michael	-11.6918
▁autophagi	-11.692
▁bivariate	-11.692
▁pierce	-11.692
▁pars	-11.692
▁recruiting	-11.6922
▁sumo	-11.6924
▁evolving	-11.6924
▁crest	-11.6929
ford	-11.693
ih	-11.6932
▁dcm	-11.6932
▁api	-11.6938
media	-11.6939
▁lind	-11.6939
▁fossil	-11.6941
▁koh	-11.6943
▁qualitatively	-11.6944
▁confluence	-11.6944
▁extrinsic	-11.6944
▁damaging	-11.6944
▁lithium	-11.6944
▁latin	-11.6946
▁peter	-11.6946
pol	-11.695
▁tnbc	-11.6952
▁survived	-11.6955
▁247	-11.6957
▁067	-11.6959
▁convenient	-11.696
175	-11.696
▁raf	-11.6961
▁insertions	-11.6962
▁primed	-11.6964
▁unbiased	-11.6969
▁typing	-11.6969
▁gaze	-11.6971
▁representatives	-11.6973
▁guarantee	-11.6973
ere	-11.6976
▁rio	-11.6984
metric	-11.6986
▁bak	-11.6986
▁ccc	-11.6987
▁wd	-11.6989
▁teacher	-11.6992
▁hyperglycemia	-11.6994
▁quantitation	-11.6994
▁madison	-11.6994
▁variances	-11.6994
▁horses	-11.6996
▁grouping	-11.6997
▁postulated	-11.7003
vec	-11.7005
▁bones	-11.7005
etti	-11.7006
▁epoxy	-11.7006
▁mec	-11.7008
▁departments	-11.7008
▁tubules	-11.701
▁psp	-11.701
▁scheduled	-11.7012
▁325	-11.7013
immunodeficiency	-11.7018
▁atherosclerotic	-11.7018
▁coffee	-11.7018
▁umbilical	-11.7018
▁embedding	-11.7019
▁worst	-11.7019
▁wastewater	-11.7019
▁grp	-11.7019
▁minimiz	-11.7019
ku	-11.7019
▁lowered	-11.702
chlor	-11.7024
▁pda	-11.7025
ech	-11.7036
▁unigenes	-11.704
▁contributor	-11.7041
eurodegeneration	-11.7043
▁aegypti	-11.7043
▁suture	-11.7045
nv	-11.7047
▁tang	-11.7048
▁protons	-11.7049
▁ich	-11.7058
▁director	-11.7059
use	-11.7061
▁chow	-11.7062
▁visited	-11.7062
▁scs	-11.7064
▁pei	-11.7065
▁bai	-11.7066
▁congruent	-11.7068
▁inheritance	-11.7068
▁freshwater	-11.7069
▁postsynaptic	-11.707
▁ipv	-11.707
▁crossed	-11.7073
▁lev	-11.7079
▁malaysia	-11.7083
▁570	-11.7083
▁fibrin	-11.7085
▁pri	-11.7085
▁islet	-11.7086
▁tnm	-11.7087
▁switched	-11.7088
▁hir	-11.709
▁eo	-11.7091
▁tracks	-11.7092
▁308	-11.7093
▁aspergillus	-11.7093
▁cytometer	-11.7094
▁empathy	-11.7094
▁leader	-11.7097
▁player	-11.71
▁seeding	-11.7102
▁pts	-11.7103
▁logarithmic	-11.7105
▁replac	-11.7109
▁book	-11.7109
▁tibial	-11.711
▁rel	-11.7111
ett	-11.7111
▁methane	-11.7111
▁345	-11.7113
▁sz	-11.7116
▁strengthening	-11.7116
▁io	-11.7117
▁vegetative	-11.7118
▁originate	-11.7119
▁oligomers	-11.7119
▁pak	-11.712
▁inspire	-11.712
▁curation	-11.7121
▁distinguishing	-11.7121
▁nash	-11.7122
▁bull	-11.7122
tv	-11.7124
▁nap	-11.7127
ract	-11.7132
▁mutually	-11.7133
▁goodness	-11.7133
▁complet	-11.7136
▁moh	-11.7136
ned	-11.7138
▁protects	-11.7138
▁390	-11.7139
▁rising	-11.7141
▁permutation	-11.7141
▁ura	-11.7143
▁resuscitation	-11.7143
▁engaging	-11.7144
▁acuity	-11.7144
sto	-11.7146
▁formic	-11.7149
▁cnn	-11.7149
▁productive	-11.715
▁rag	-11.7151
▁cip	-11.7151
▁osteoarthritis	-11.7152
shi	-11.7152
▁packages	-11.7155
ref	-11.7158
qu	-11.7164
▁exerts	-11.7164
▁zhou	-11.7165
▁surfactant	-11.7167
▁subpopulation	-11.7167
data	-11.7168
▁heatmap	-11.7168
▁industries	-11.7169
▁irrigation	-11.7169
▁diffractometer	-11.7169
▁frailty	-11.7169
▁nitrite	-11.7169
▁complaints	-11.717
syn	-11.7172
▁307	-11.7178
▁subtract	-11.7179
▁ache	-11.718
166	-11.718
▁arr	-11.7181
▁supposed	-11.7185
▁outline	-11.7185
▁button	-11.719
▁mountain	-11.7191
▁tracts	-11.7192
▁aliquot	-11.7192
▁triangle	-11.7192
▁cfa	-11.7194
▁heritability	-11.7194
▁methodologies	-11.7194
▁observable	-11.7194
are	-11.7202
luc	-11.7204
▁trf	-11.7207
▁serological	-11.7208
▁wax	-11.7209
▁oxa	-11.7211
opathy	-11.7211
▁glo	-11.7215
▁microstructure	-11.7218
▁dbs	-11.722
▁everyday	-11.7221
▁ligated	-11.7221
▁valley	-11.7222
▁graphite	-11.7222
▁ven	-11.7223
▁lactic	-11.7223
▁pur	-11.7224
▁064	-11.7225
▁cleaned	-11.7226
▁294	-11.7227
▁274	-11.7227
▁dpph	-11.7231
▁ingredients	-11.7231
▁pec	-11.7232
cyto	-11.7232
▁fluxes	-11.7233
▁378	-11.7234
▁loose	-11.7234
▁hospitalized	-11.7238
omer	-11.7242
▁420	-11.7242
pet	-11.7243
▁nematode	-11.7243
▁pit	-11.7245
▁ext	-11.7246
▁mfi	-11.7246
208	-11.7247
▁vehicles	-11.7248
▁crossover	-11.7248
▁ost	-11.7248
▁retest	-11.7248
char	-11.7248
▁advantageous	-11.7249
▁concentrate	-11.7249
▁presentations	-11.725
ace	-11.7256
inus	-11.7257
▁huvecs	-11.7258
▁osteoblasts	-11.7259
▁oven	-11.726
ord	-11.7268
▁analys	-11.7268
▁reflex	-11.7269
▁serotypes	-11.7269
▁insensitive	-11.727
▁nanodrop	-11.727
▁copyright	-11.727
▁morphine	-11.7271
▁fib	-11.7271
vert	-11.7271
▁pdms	-11.7273
▁doping	-11.7273
▁aor	-11.7275
▁personalized	-11.7275
▁converting	-11.7275
▁curved	-11.7277
▁dsb	-11.7278
▁scrambled	-11.728
158	-11.7281
bm	-11.7281
▁hook	-11.7282
para	-11.7282
▁yb	-11.7282
▁dealing	-11.7283
▁donation	-11.7283
▁israel	-11.7285
▁requested	-11.7287
▁phi	-11.7288
▁bri	-11.7294
▁bicarbonate	-11.7296
▁neuroimaging	-11.7296
▁pathologies	-11.7296
▁probabilistic	-11.7296
▁uncertainties	-11.7296
▁provincial	-11.7296
rel	-11.7298
▁ticks	-11.7299
▁dermal	-11.73
▁afp	-11.7301
▁lamin	-11.7302
▁pho	-11.7303
▁bread	-11.7305
▁rigorous	-11.7312
▁ggt	-11.7313
131	-11.7314
▁490	-11.7315
▁averages	-11.7315
▁qui	-11.7316
▁nations	-11.7317
▁bet	-11.7319
▁indexes	-11.732
▁euthanized	-11.7321
▁taxonomy	-11.7321
▁psychometric	-11.7321
▁confusion	-11.7321
▁drives	-11.7323
▁bj	-11.7323
▁crown	-11.7328
osomes	-11.733
▁wait	-11.7334
▁depths	-11.7339
▁ipscs	-11.7339
▁dat	-11.7339
onia	-11.7339
kd	-11.7342
▁bilirubin	-11.7346
▁illustrating	-11.7347
▁linguistic	-11.7347
▁retrograde	-11.7347
▁ligament	-11.7347
▁ketamine	-11.7347
▁nanog	-11.7347
▁cll	-11.7347
▁sheldr	-11.7348
▁friendly	-11.7352
▁gill	-11.7353
▁tur	-11.7354
polar	-11.736
▁triplet	-11.7362
statin	-11.7372
▁recycling	-11.7373
▁enos	-11.7377
yp	-11.7379
▁bpa	-11.7379
▁belonged	-11.738
▁cct	-11.7381
▁dep	-11.7381
carboxylic	-11.7382
090	-11.7384
▁prolong	-11.7385
▁tsa	-11.7385
fb	-11.7386
▁263	-11.7386
toxin	-11.7387
▁refine	-11.7387
▁cape	-11.7387
▁dihydro	-11.7389
borne	-11.7394
▁nab	-11.7396
▁forty	-11.74
▁til	-11.7401
▁nas	-11.7402
cac	-11.7404
wer	-11.7406
▁cent	-11.7407
cta	-11.7408
▁sel	-11.7412
▁shp	-11.7423
▁comorbid	-11.7423
▁243	-11.7423
▁capturing	-11.7424
▁differentiating	-11.7424
idium	-11.7425
▁creates	-11.7427
▁tin	-11.7428
▁slit	-11.7429
▁disappeared	-11.743
▁sic	-11.7432
▁cleared	-11.7432
▁polyphenols	-11.7434
nf	-11.7436
▁mmse	-11.7441
▁vb	-11.7445
▁cep	-11.7446
▁gabaergic	-11.745
▁dipole	-11.745
▁meant	-11.7451
▁066	-11.7451
▁steep	-11.7451
phen	-11.7452
▁rain	-11.7458
▁mart	-11.7462
▁adjustments	-11.7462
▁printing	-11.7466
▁tro	-11.7468
199	-11.7469
▁covalent	-11.747
▁gus	-11.747
▁nuclease	-11.7476
▁occupy	-11.7476
▁canopy	-11.7476
▁neuroprotective	-11.7476
▁silent	-11.7476
▁remainder	-11.7478
omy	-11.7478
icin	-11.7482
▁giant	-11.7483
▁nation	-11.7483
▁cite	-11.7484
▁335	-11.7486
orum	-11.7489
▁drinks	-11.749
▁bayes	-11.749
conductive	-11.7491
▁miller	-11.7492
▁315	-11.7496
▁ncs	-11.7498
▁287	-11.7501
▁305	-11.7501
▁wireless	-11.7503
▁rearrangement	-11.7503
▁cow	-11.7504
▁tamoxifen	-11.7504
▁pertain	-11.7506
▁monolayers	-11.7507
▁regimes	-11.7509
▁647	-11.7511
▁granular	-11.7515
nuclear	-11.752
▁prion	-11.7522
▁cro	-11.7523
▁homogenous	-11.7528
▁culturing	-11.7528
▁ireland	-11.7529
▁reinforcement	-11.7529
▁cpp	-11.753
▁cml	-11.753
▁couples	-11.7532
▁fer	-11.7533
▁nil	-11.7533
165	-11.7538
▁completeness	-11.7543
▁1977	-11.7545
spanning	-11.7546
▁ire	-11.7548
▁offering	-11.7549
but	-11.7549
▁huh	-11.7553
▁discriminant	-11.7554
▁scratch	-11.7554
▁applies	-11.7554
▁williams	-11.7555
▁resist	-11.7558
▁moves	-11.7561
til	-11.7562
197	-11.7563
▁286	-11.7564
▁duplicates	-11.7568
ning	-11.7568
▁silk	-11.7569
474	-11.7569
fluor	-11.7571
▁rmse	-11.7572
▁languages	-11.7574
▁pao	-11.7574
▁shot	-11.7575
▁consume	-11.7578
▁earliest	-11.7581
▁transparency	-11.7581
▁velocities	-11.7581
▁catch	-11.7583
▁waveform	-11.7583
▁tlc	-11.7584
▁habit	-11.7584
▁quantile	-11.7584
▁yrs	-11.7585
▁pkd	-11.7591
▁fragmented	-11.7593
▁capita	-11.7596
▁reef	-11.76
▁keto	-11.7603
▁ker	-11.7603
128	-11.7607
▁gv	-11.7607
▁encouraging	-11.7607
▁intuitive	-11.7607
▁suitability	-11.7607
▁funnel	-11.7607
▁spiking	-11.7607
win	-11.7608
▁adipocyte	-11.7608
▁hepatocyte	-11.7609
▁situated	-11.7609
gly	-11.7611
▁adsorbed	-11.7612
▁metabolomics	-11.7613
▁indole	-11.7614
▁receives	-11.7614
▁284	-11.7617
dan	-11.7617
▁paris	-11.7617
▁061	-11.762
sat	-11.7622
▁anderson	-11.7623
260	-11.7625
▁quit	-11.7625
▁diagrams	-11.7628
▁lipofectamine	-11.7633
▁outperform	-11.7633
▁permeabilize	-11.7633
▁temperate	-11.7633
▁vicinity	-11.7633
▁magenta	-11.7633
▁detergent	-11.7633
tur	-11.7634
▁editorial	-11.7634
▁depolarization	-11.7634
▁regenerative	-11.7634
▁saint	-11.7634
▁incubat	-11.7635
▁sons	-11.7637
ien	-11.7641
▁gathered	-11.7643
▁cores	-11.7643
▁gbs	-11.7643
139	-11.7643
▁terminated	-11.7644
▁phosphorylate	-11.7647
▁tell	-11.7651
▁microarrays	-11.7653
▁strip	-11.7655
elo	-11.7657
▁convenience	-11.766
▁glycemic	-11.766
▁meiotic	-11.766
▁viii	-11.766
▁willingness	-11.7661
▁consciousness	-11.7661
▁ascending	-11.7662
▁cbf	-11.7665
▁placing	-11.7666
▁tal	-11.7666
mont	-11.7666
link	-11.7669
▁nup	-11.7669
▁0007	-11.7671
▁ih	-11.7671
scribed	-11.7672
phor	-11.7674
▁atr	-11.7676
lus	-11.7677
ress	-11.7677
▁thorough	-11.7677
▁mandibular	-11.7677
▁latest	-11.7681
204	-11.7682
▁discs	-11.7683
▁tdp	-11.7683
▁xps	-11.7683
▁dsc	-11.7685
▁prepar	-11.7686
▁efficiencies	-11.7686
▁redundancy	-11.7686
▁wolbachia	-11.7686
▁sah	-11.7687
▁recogniz	-11.7687
▁ics	-11.7687
▁practitioner	-11.7688
▁tensor	-11.769
▁contrasts	-11.7696
▁flasks	-11.7699
460	-11.7699
uan	-11.7701
▁packed	-11.7703
hua	-11.7704
mis	-11.7712
▁antiretroviral	-11.7713
▁inequalities	-11.7713
▁nomenclature	-11.7713
▁parentheses	-11.7713
▁fibrillation	-11.7713
▁plos	-11.7713
▁dock	-11.7714
▁dehydrate	-11.7715
▁probiotic	-11.7715
▁opinions	-11.7716
poly	-11.7717
▁530	-11.7722
▁soma	-11.7723
▁pairing	-11.7723
▁normalised	-11.7725
▁conform	-11.7725
▁sexually	-11.7728
▁hmm	-11.7731
▁mail	-11.7732
▁ptb	-11.7732
▁mcd	-11.7733
▁316	-11.7736
▁sen	-11.7737
oke	-11.7739
▁deprived	-11.774
▁tetracycline	-11.774
▁synchronous	-11.774
▁gnrh	-11.774
▁gpx	-11.7741
▁stm	-11.7742
cle	-11.7742
▁tele	-11.7744
148	-11.7745
▁traf	-11.7746
▁proteinase	-11.7748
itt	-11.775
▁rhoa	-11.775
ky	-11.7751
▁trip	-11.7751
▁mimick	-11.7755
ars	-11.7755
250	-11.7756
bn	-11.7756
258	-11.7759
▁plug	-11.7761
▁shr	-11.7764
▁gla	-11.7766
▁longevity	-11.7766
▁rotating	-11.7767
▁053	-11.7768
bot	-11.7769
▁granule	-11.7769
sup	-11.7769
▁escc	-11.777
111	-11.777
ifty	-11.7773
▁mito	-11.7777
stone	-11.7778
▁exome	-11.7779
▁wgs	-11.778
▁mev	-11.7785
▁vic	-11.7785
▁approached	-11.7786
▁siblings	-11.7788
▁son	-11.7793
▁sul	-11.7793
▁locomotion	-11.7793
▁effusion	-11.7793
▁nucleation	-11.7793
▁cytometric	-11.7793
▁mobilization	-11.7793
▁deployment	-11.7793
aff	-11.7794
▁520	-11.7795
▁chief	-11.7795
▁ctr	-11.7797
gent	-11.7798
▁hum	-11.7799
▁flex	-11.78
▁encapsulated	-11.7801
▁proc	-11.7802
cultur	-11.7802
▁parenting	-11.7803
▁synchronized	-11.7803
▁faced	-11.7803
▁vps	-11.7805
pcs	-11.7807
gram	-11.781
▁aga	-11.7813
▁tha	-11.7815
303	-11.7818
▁speeds	-11.7819
yama	-11.782
▁curriculum	-11.782
▁reflectance	-11.7822
▁opened	-11.7823
▁workshop	-11.7823
▁alleviate	-11.7824
▁surveyed	-11.7829
▁energetic	-11.7829
135	-11.7829
▁273	-11.7832
▁dft	-11.7833
▁pneumococc	-11.7834
rid	-11.7839
▁benzo	-11.7839
vd	-11.784
▁petri	-11.784
mos	-11.7841
▁hw	-11.7844
▁aryl	-11.7846
▁cardiomyopathy	-11.7847
▁laparoscopic	-11.7847
▁necessity	-11.7847
▁thalamus	-11.7847
▁eleven	-11.7847
▁infectivity	-11.7847
▁neuropathy	-11.7847
▁derivation	-11.7848
lum	-11.7848
▁workload	-11.7849
▁therapist	-11.785
▁educated	-11.7855
▁cpr	-11.7856
▁pakistan	-11.7858
pur	-11.7859
▁och	-11.7862
▁hor	-11.7862
vol	-11.7868
▁flood	-11.7868
▁passages	-11.7868
▁540	-11.787
▁affiliated	-11.7874
▁contemporar	-11.7874
▁dyslipidemia	-11.7874
▁immunoassay	-11.7874
▁paragraph	-11.7874
▁contacted	-11.7876
▁topography	-11.7876
▁adaptations	-11.7876
▁presumed	-11.7877
▁dislocation	-11.7877
▁distortion	-11.7878
xt	-11.7878
▁trying	-11.7884
▁440	-11.7885
▁flows	-11.7889
▁upr	-11.7891
▁preferential	-11.7892
▁duplicated	-11.7894
▁srs	-11.7898
▁euclid	-11.7901
▁comb	-11.7902
troph	-11.7903
thi	-11.7904
▁cultivar	-11.7905
▁neglect	-11.7915
▁376	-11.7915
rit	-11.7917
▁fetus	-11.7918
▁tank	-11.7919
▁phyla	-11.7919
▁tuned	-11.7919
▁cations	-11.7919
▁ghz	-11.792
▁lar	-11.7923
▁polysaccharides	-11.7924
▁declines	-11.7925
▁625	-11.7926
▁beckman	-11.7926
▁glucan	-11.7927
▁uniprot	-11.7928
▁hierarchy	-11.7928
▁infiltrating	-11.7928
▁uncontrolled	-11.7928
▁hardware	-11.7928
▁cortico	-11.7929
▁radiographic	-11.7929
▁lbp	-11.7929
▁polysaccharide	-11.7933
▁consultant	-11.7933
▁caf	-11.7933
▁mpo	-11.7934
▁manifestation	-11.7934
▁intersection	-11.7937
tinib	-11.7938
▁9800	-11.794
vm	-11.7945
▁pcos	-11.7946
▁cornea	-11.7946
▁ubiquitous	-11.7946
▁lentivirus	-11.7953
▁bark	-11.7955
▁460	-11.7955
▁ttc	-11.7955
▁autonomic	-11.7955
▁steatosis	-11.7955
▁nickel	-11.7956
▁connective	-11.7957
▁maxillary	-11.7957
▁pva	-11.7959
▁quadrant	-11.796
▁reinforce	-11.7961
▁alkyl	-11.7965
178	-11.7967
cel	-11.7968
▁administer	-11.7969
▁centrality	-11.7975
▁illnesses	-11.7975
anti	-11.7979
▁ror	-11.7979
▁gfr	-11.7982
▁stirring	-11.7983
▁disparities	-11.7983
▁vertex	-11.7983
▁pharmaceuticals	-11.7984
▁downward	-11.7985
▁campaign	-11.7987
▁royal	-11.7988
▁aac	-11.7988
▁nucleosome	-11.799
▁indels	-11.7994
▁279	-11.7998
▁mill	-11.7998
▁bap	-11.7998
▁dfs	-11.8002
▁pdac	-11.8002
▁pup	-11.8003
uma	-11.8003
▁partitioning	-11.8007
eman	-11.8011
oper	-11.8011
▁feces	-11.8013
▁swine	-11.8014
une	-11.8015
▁ptv	-11.8017
▁toll	-11.8018
▁communicate	-11.8019
▁peers	-11.8019
▁plga	-11.802
▁logical	-11.8021
▁recognised	-11.8022
▁gk	-11.8029
▁egr	-11.8033
▁diagnose	-11.8034
▁470	-11.8038
▁pandemic	-11.8038
▁universities	-11.8038
▁resorption	-11.8038
▁htlv	-11.8039
udi	-11.804
▁aneurysm	-11.8042
▁quintile	-11.8043
▁iteration	-11.8043
▁rim	-11.8043
▁297	-11.8044
▁outlier	-11.8044
fit	-11.8046
▁ash	-11.8048
▁prl	-11.8049
▁neglected	-11.8051
▁gre	-11.8053
▁pes	-11.8053
▁orthologo	-11.8059
▁mounting	-11.8064
rim	-11.8064
308	-11.8065
▁adiposity	-11.8065
▁lentiviral	-11.8065
▁wellbeing	-11.8065
▁transmit	-11.8065
▁monotherapy	-11.8066
▁bpd	-11.8069
▁nsc	-11.8072
san	-11.8072
▁sms	-11.8075
▁grip	-11.8075
▁feet	-11.8076
▁astrocyte	-11.8076
▁078	-11.8082
yne	-11.8086
▁cst	-11.8088
▁cdkn	-11.809
▁1975	-11.8091
lia	-11.8093
▁fuzzy	-11.8093
▁apps	-11.8093
▁carries	-11.8094
shire	-11.8095
▁tcc	-11.8095
lite	-11.8096
▁colonize	-11.8096
▁deployed	-11.8097
▁bip	-11.8097
▁hallmark	-11.8098
▁florida	-11.8101
▁377	-11.8105
flex	-11.8109
▁mitigate	-11.8112
ement	-11.8112
mers	-11.8114
▁subcutaneously	-11.8114
light	-11.8114
230	-11.8117
▁physicochemical	-11.8121
multidimensional	-11.8121
▁hydration	-11.8121
▁dextran	-11.8122
▁colocalization	-11.8122
▁fibrinogen	-11.8123
▁luminescence	-11.8127
▁epo	-11.8127
171	-11.8128
▁barcode	-11.8128
▁quench	-11.8128
ylation	-11.813
▁069	-11.8133
▁080	-11.8134
▁locate	-11.8143
las	-11.8143
▁linearity	-11.8144
▁trophic	-11.8146
▁mers	-11.8146
▁provinces	-11.8146
▁366	-11.8147
▁eradication	-11.8148
▁microvascular	-11.8149
enberg	-11.8149
▁boy	-11.815
▁phy	-11.8155
207	-11.8158
▁rbcs	-11.8158
nts	-11.8159
▁adl	-11.816
gat	-11.816
▁harmonic	-11.8161
▁invad	-11.8161
jc	-11.8163
▁myd	-11.8164
precipitated	-11.8166
▁symmetrical	-11.8167
▁qds	-11.8168
hh	-11.817
195	-11.8173
▁309	-11.8173
uca	-11.8175
▁zhu	-11.8175
▁ptp	-11.8176
▁unnecessary	-11.8176
▁560	-11.8179
▁erythrocyte	-11.8181
▁instar	-11.8183
▁abnormality	-11.8183
▁trx	-11.8183
▁tcs	-11.8184
▁condensation	-11.8185
▁charts	-11.8187
▁jose	-11.8188
▁lock	-11.8189
▁337	-11.8191
143	-11.8192
▁bromo	-11.8192
▁robotic	-11.8193
▁stx	-11.8195
cit	-11.8202
ations	-11.8202
▁bus	-11.8204
▁characterizing	-11.8205
▁cruzi	-11.8207
▁mucin	-11.8209
▁chop	-11.8212
hypersensitivity	-11.8215
▁vap	-11.8217
▁kas	-11.8218
▁phylo	-11.8218
▁fluorescein	-11.8219
▁enhancers	-11.8219
▁anc	-11.822
228	-11.8229
kg	-11.8229
▁insignificant	-11.823
▁tub	-11.823
▁accumulating	-11.8232
▁balloon	-11.8232
▁ali	-11.8233
▁myeloma	-11.8233
rant	-11.8233
▁torsion	-11.8233
▁077	-11.8234
▁barr	-11.8234
▁charges	-11.8234
kan	-11.8235
▁aza	-11.8244
▁contrasting	-11.8246
▁floral	-11.8248
▁bait	-11.8249
▁388	-11.8251
flu	-11.8251
▁adhere	-11.8251
▁analogs	-11.8251
488	-11.8253
▁zoo	-11.8253
▁339	-11.8255
▁develops	-11.8258
▁mitogen	-11.8259
▁detoxification	-11.826
▁hereafter	-11.826
▁military	-11.826
▁ownership	-11.826
▁psychosis	-11.8261
▁initiatives	-11.8263
▁accelerometer	-11.8267
ometry	-11.8267
▁photons	-11.8271
▁folds	-11.8271
▁anchor	-11.8272
trophic	-11.8275
▁sponge	-11.8276
▁translate	-11.8277
nos	-11.8278
508	-11.8288
▁cathepsin	-11.8288
▁suboptimal	-11.8288
▁typhimurium	-11.8288
▁chemotaxis	-11.8288
▁revising	-11.8289
▁intakes	-11.8291
far	-11.8292
▁compiled	-11.8293
▁grading	-11.8296
vt	-11.8301
tip	-11.8302
▁meals	-11.8304
▁dmp	-11.8305
080	-11.8306
▁consequent	-11.8307
▁attain	-11.8308
▁told	-11.8311
▁314	-11.8311
▁gemcitabine	-11.8317
▁idiopathic	-11.8317
▁notice	-11.832
▁precede	-11.832
mean	-11.8321
rec	-11.8321
▁overlay	-11.8321
▁bon	-11.8323
▁experimentation	-11.8324
▁stz	-11.8324
▁phc	-11.8327
▁theta	-11.8329
▁pfam	-11.833
▁standardised	-11.8331
▁invade	-11.8335
▁orientations	-11.8336
eth	-11.834
▁discontinuation	-11.8345
▁suggestion	-11.8345
▁attribution	-11.8345
▁iptg	-11.8346
ough	-11.8352
▁insecticide	-11.8352
▁primates	-11.8353
▁latitude	-11.8358
134	-11.8358
▁herb	-11.8362
▁lectin	-11.8363
▁choline	-11.8363
▁walker	-11.837
▁orfs	-11.8372
▁doubt	-11.8373
▁museum	-11.8373
▁interior	-11.8373
▁spend	-11.8374
▁trapping	-11.8374
▁neuroscience	-11.8374
▁hercule	-11.8374
▁wildlife	-11.8374
▁helicase	-11.8375
▁cdh	-11.8375
▁laminin	-11.838
▁constantly	-11.8387
▁berg	-11.839
▁ramp	-11.8391
▁cts	-11.8394
gue	-11.8394
score	-11.8395
▁reside	-11.8396
▁bro	-11.84
▁uniquely	-11.8401
▁shannon	-11.8402
▁garden	-11.8403
idal	-11.8404
bel	-11.8406
▁upregulate	-11.8414
▁rig	-11.8414
▁cort	-11.8417
▁sixth	-11.8419
229	-11.8427
164	-11.8429
▁faecal	-11.8429
▁identities	-11.843
▁infertility	-11.843
▁memories	-11.843
▁psoriasis	-11.843
▁gently	-11.8431
▁thymus	-11.8431
▁trapped	-11.8431
meric	-11.8434
ethyltransferase	-11.8438
▁mun	-11.8438
▁fluctuation	-11.8439
▁flox	-11.8441
▁methylene	-11.8443
121	-11.8445
▁reflux	-11.8446
▁apr	-11.8447
▁identifier	-11.8449
imi	-11.8451
▁funders	-11.8453
▁mold	-11.8453
235	-11.8454
▁435	-11.8454
▁vero	-11.8455
▁yan	-11.8459
▁convey	-11.8459
▁immobilization	-11.8459
▁elaborate	-11.846
vascular	-11.8464
▁disagreement	-11.8464
mcs	-11.8464
▁bigger	-11.8465
▁err	-11.8467
▁biotic	-11.847
▁seedling	-11.8471
▁scid	-11.8471
▁ascertain	-11.8474
▁ccs	-11.8475
118	-11.8476
▁agr	-11.8479
▁story	-11.8481
▁patterning	-11.8484
ode	-11.8485
▁spiral	-11.8485
▁anticoagulant	-11.8488
▁lysozyme	-11.8488
▁mission	-11.8488
▁hex	-11.8489
▁chitin	-11.849
▁imrt	-11.8492
▁430	-11.8494
187	-11.8495
▁artifact	-11.8497
▁glucocorticoid	-11.8497
268	-11.8499
plex	-11.8499
▁arbor	-11.8499
▁dag	-11.85
▁072	-11.8501
▁pfu	-11.8502
▁cary	-11.8503
▁duplications	-11.8503
▁vent	-11.8504
▁306	-11.8507
▁engine	-11.8513
▁multidrug	-11.8517
▁ffa	-11.8522
pal	-11.8522
▁xt	-11.8522
▁nodule	-11.8522
▁dom	-11.8522
▁glycans	-11.8523
cis	-11.8523
▁narrative	-11.8526
▁fistula	-11.8526
▁piglets	-11.8527
▁poc	-11.8528
hon	-11.8529
▁adds	-11.8531
▁shares	-11.8534
phi	-11.8537
▁associates	-11.854
aco	-11.8545
▁diaphragm	-11.8546
▁dodecyl	-11.8546
▁sorafenib	-11.8546
▁2020	-11.8547
viruses	-11.8548
▁deeply	-11.8552
▁contractil	-11.8555
▁soy	-11.8557
▁readings	-11.8557
ments	-11.8558
▁kpa	-11.8558
179	-11.8559
▁snow	-11.8561
▁mmps	-11.8567
▁076	-11.8569
hg	-11.8573
▁cool	-11.8574
▁pai	-11.8574
▁deterministic	-11.8575
▁histopathology	-11.8575
▁alginate	-11.8575
▁hydrochloride	-11.8575
▁shedding	-11.8575
▁brackets	-11.8575
▁outgrowth	-11.8576
▁0008	-11.8578
long	-11.8578
▁lewis	-11.8578
202	-11.8584
iu	-11.8586
▁blocker	-11.8587
▁gam	-11.8595
▁355	-11.8597
▁screens	-11.8599
▁neuropathi	-11.8601
▁074	-11.8601
▁1976	-11.8602
▁468	-11.8602
▁thickening	-11.8604
▁virulent	-11.8604
▁packaging	-11.8604
▁xylose	-11.8604
▁willing	-11.8607
▁mst	-11.8609
▁bid	-11.8613
star	-11.8613
rez	-11.8614
▁253	-11.8614
▁tablet	-11.8622
atic	-11.8625
_3	-11.8627
illo	-11.8628
▁maintains	-11.8628
ois	-11.863
uck	-11.8632
▁appetite	-11.8633
▁implied	-11.8633
▁morphologies	-11.8633
▁ghrelin	-11.8633
▁wellcome	-11.8633
▁egcg	-11.8633
▁phospholipid	-11.8633
▁nice	-11.8633
▁hnscc	-11.8635
▁bx	-11.8635
▁rneasy	-11.8636
▁homogenates	-11.8637
▁pdgfr	-11.8637
▁momentum	-11.8638
▁nothing	-11.8638
new	-11.8643
▁partnership	-11.8643
▁packet	-11.8643
▁bronchial	-11.8644
▁lsm	-11.8645
▁sgrna	-11.8645
▁undergoes	-11.8647
▁9700	-11.8649
▁granted	-11.8651
▁sav	-11.8651
▁bonded	-11.8652
▁killer	-11.8652
vel	-11.8661
▁gentamicin	-11.8662
▁aperture	-11.8662
▁counselling	-11.8662
▁continuity	-11.8662
thophysiological	-11.8663
▁tir	-11.8663
itz	-11.8664
rill	-11.8665
▁disadvantages	-11.8666
rip	-11.8668
▁cationic	-11.8669
▁tcp	-11.867
▁analogues	-11.8672
790	-11.8672
▁repressor	-11.8673
▁boards	-11.8674
▁migrated	-11.8675
185	-11.8678
uti	-11.8681
ably	-11.8684
▁bou	-11.8687
397	-11.8687
eau	-11.869
▁cadmium	-11.8691
▁mercury	-11.8691
▁wilson	-11.8692
▁inflam	-11.8692
▁splitting	-11.8692
▁intercellular	-11.8694
▁clip	-11.8695
▁mediation	-11.8696
▁gat	-11.8698
cw	-11.8698
▁tablets	-11.87
▁glyco	-11.8705
▁flavonoid	-11.8707
▁phosphor	-11.8707
ifer	-11.8709
▁wf	-11.8711
▁grafts	-11.8714
▁anger	-11.8715
▁catalog	-11.8715
▁317	-11.8716
▁iaa	-11.8717
▁uncommon	-11.8721
▁sigmoid	-11.8721
▁stabilizing	-11.8721
▁sterilized	-11.8722
▁ek	-11.8722
▁endotoxin	-11.8723
161	-11.8723
▁igfbp	-11.8723
▁newborns	-11.8724
▁ple	-11.8725
▁tpa	-11.8729
▁jaw	-11.873
▁rk	-11.873
▁ak	-11.8732
▁vac	-11.8737
▁tel	-11.8738
▁2100	-11.874
ulus	-11.874
▁beams	-11.874
▁hai	-11.8741
carb	-11.8744
▁spliced	-11.8746
▁addresses	-11.8748
▁paralog	-11.8748
▁lysosomes	-11.8749
▁sonication	-11.875
▁cylindrical	-11.875
▁loadings	-11.8754
▁272	-11.8755
▁thoughts	-11.876
▁bottle	-11.8761
▁338	-11.8762
▁510	-11.8762
▁citation	-11.8763
▁chem	-11.8764
▁poses	-11.8764
▁rotational	-11.8769
184	-11.8772
▁universit	-11.8772
roc	-11.8773
▁xx	-11.8775
▁ups	-11.8776
▁nan	-11.8776
▁369	-11.8777
▁opn	-11.8779
▁gondii	-11.878
▁monocytogenes	-11.878
▁mandatory	-11.878
▁sandwich	-11.878
▁normalize	-11.878
152	-11.8784
▁385	-11.8785
▁carb	-11.8786
▁304	-11.8786
▁dissociated	-11.8789
▁328	-11.8789
▁retrospectively	-11.8791
▁peptidase	-11.8791
▁arrowhead	-11.8792
▁vip	-11.8795
▁subtracted	-11.8796
▁assignments	-11.88
▁costly	-11.8802
▁siv	-11.8803
▁consultations	-11.8803
▁gem	-11.8809
▁crosstalk	-11.8809
▁southeast	-11.8809
▁proteolysis	-11.8809
toxic	-11.881
▁propidium	-11.881
▁glycolytic	-11.881
▁conidia	-11.881
▁vestibular	-11.8811
▁zeb	-11.8812
▁circrnas	-11.8818
▁ductal	-11.8818
▁pdt	-11.882
▁contraceptive	-11.8821
▁087	-11.8822
▁reactor	-11.8824
▁uric	-11.8826
▁590	-11.8829
▁282	-11.8829
▁mcg	-11.8831
▁omp	-11.8832
▁livers	-11.8834
▁pest	-11.8834
▁exam	-11.8836
▁nmdar	-11.8836
lay	-11.8837
▁aj	-11.8838
▁vietnam	-11.8839
▁google	-11.8839
▁abrogate	-11.8839
▁genotypic	-11.8839
▁multiply	-11.8839
▁comprehension	-11.884
▁charles	-11.884
▁sophisticated	-11.884
▁branched	-11.8841
▁ensured	-11.8843
▁warning	-11.8844
▁menstrual	-11.8844
▁deduced	-11.8846
▁347	-11.8846
▁agg	-11.8846
▁fees	-11.8847
▁executed	-11.885
▁groove	-11.8851
▁rearing	-11.8851
iel	-11.8853
aut	-11.8854
▁failures	-11.8855
thy	-11.8857
tec	-11.8858
▁stick	-11.8859
▁ben	-11.8859
▁079	-11.886
▁070	-11.8861
▁aps	-11.8862
▁precipitate	-11.8863
▁stacking	-11.8865
olic	-11.8868
▁firmicutes	-11.8869
▁ferritin	-11.8869
psychological	-11.8869
▁hyperactivity	-11.8869
▁ssdna	-11.887
▁noticeable	-11.887
▁cci	-11.8871
morph	-11.8872
▁stimulatory	-11.8873
▁separat	-11.8874
▁esbl	-11.8875
▁368	-11.8875
▁potentiate	-11.8875
▁367	-11.8877
▁substitute	-11.8878
nan	-11.8879
▁perk	-11.8879
▁scott	-11.888
▁389	-11.8881
▁ridge	-11.8881
wd	-11.8883
▁pani	-11.8883
473	-11.8887
▁etoh	-11.8888
▁overt	-11.8889
▁didn	-11.8891
cur	-11.8896
atin	-11.8897
▁relatedness	-11.8897
▁262	-11.8898
aya	-11.8902
xy	-11.8907
▁spacer	-11.891
▁analyte	-11.8911
▁whenever	-11.8912
▁proteinuria	-11.8913
288	-11.8915
▁429	-11.8917
▁fvc	-11.8922
▁wg	-11.8923
▁sab	-11.8924
flow	-11.8924
▁mate	-11.8924
▁triangular	-11.8929
▁prophylactic	-11.8929
▁subsection	-11.893
937	-11.893
▁1960	-11.8931
▁jump	-11.8933
aris	-11.8938
▁dynamical	-11.8938
▁pgl	-11.8939
2000	-11.8941
▁395	-11.8941
▁ripa	-11.8942
xl	-11.8942
▁corticosteroids	-11.8946
▁rhythms	-11.8947
▁mtx	-11.8948
▁generalization	-11.8954
▁rar	-11.8955
266	-11.8959
▁hydroxide	-11.8959
▁brainstem	-11.896
▁equilibrate	-11.896
▁084	-11.896
▁neat	-11.8966
wc	-11.8967
▁counteract	-11.8971
▁sensation	-11.8973
290	-11.8975
▁pst	-11.8976
▁fun	-11.8976
▁ccn	-11.8979
ional	-11.898
▁definite	-11.898
▁hel	-11.8981
trop	-11.8984
▁operators	-11.8985
▁swi	-11.8988
gin	-11.8988
▁elbow	-11.8989
▁osteosarcoma	-11.8989
▁pluripotent	-11.8989
▁magnetization	-11.899
▁fibrous	-11.8993
▁ez	-11.8993
pel	-11.8996
▁door	-11.8996
pho	-11.8997
▁deviate	-11.8997
▁manufacturers	-11.8998
ges	-11.8999
▁insufficiency	-11.8999
▁proceed	-11.8999
tk	-11.9
▁farming	-11.9002
▁heterodimer	-11.9003
▁327	-11.9004
▁tracked	-11.9005
▁znf	-11.9006
▁clc	-11.9006
omi	-11.9007
▁inserts	-11.9007
▁naf	-11.901
▁083	-11.9011
▁bos	-11.9014
▁ehr	-11.9015
▁horizon	-11.902
▁cytoskeletal	-11.902
▁episodic	-11.902
▁galactosidase	-11.902
▁kyoto	-11.902
osus	-11.9021
▁inbred	-11.9022
num	-11.9026
▁migrants	-11.9027
▁skewed	-11.9029
▁resid	-11.903
ovirus	-11.903
▁relaxed	-11.9031
▁1974	-11.9032
▁hay	-11.9033
utter	-11.9034
▁fil	-11.9035
▁mim	-11.9041
▁jia	-11.9041
▁ineffective	-11.9045
▁assemble	-11.9045
▁nz	-11.905
▁singapore	-11.905
▁synthetase	-11.905
▁unfavorable	-11.905
▁consolidation	-11.905
▁permitted	-11.9051
▁374	-11.9051
gra	-11.9051
▁lai	-11.9054
▁painful	-11.9055
▁515	-11.9057
odi	-11.9058
▁yo	-11.9059
▁hardly	-11.9061
▁pace	-11.9061
erial	-11.9063
▁constituent	-11.9064
▁hatch	-11.9064
124	-11.9069
▁349	-11.9069
sub	-11.907
▁tie	-11.907
pore	-11.9071
▁rts	-11.9074
▁cnvs	-11.9074
▁functionalized	-11.9078
▁lexical	-11.9081
▁donkey	-11.9081
▁curative	-11.9081
▁danish	-11.9081
▁lethality	-11.9083
ient	-11.9088
▁arv	-11.909
▁photographed	-11.9092
▁huvec	-11.9095
▁lep	-11.9097
066	-11.91
▁ctla	-11.9101
▁073	-11.9102
▁chlor	-11.9103
▁layered	-11.9104
▁wl	-11.9107
▁organisations	-11.9107
▁abscess	-11.9108
▁happen	-11.9109
▁suicidal	-11.911
▁bidirectional	-11.9111
▁trastuzumab	-11.9111
▁mechanically	-11.9111
▁eliminat	-11.9112
idi	-11.9112
▁volumetric	-11.9113
▁tsp	-11.9114
▁suv	-11.9122
rod	-11.9123
▁spc	-11.9123
uring	-11.9124
bro	-11.9126
▁supp	-11.9127
ici	-11.9128
▁241	-11.9128
▁linc	-11.913
▁281	-11.9135
▁vpa	-11.9135
▁bz	-11.9136
▁persisted	-11.9136
pas	-11.9136
▁364	-11.9136
003_	-11.9138
▁appraisal	-11.9142
▁densitometry	-11.9142
▁enrolment	-11.9142
▁isoflurane	-11.9142
▁leisure	-11.9142
▁reconstituted	-11.9142
270	-11.9142
▁enlargement	-11.9142
▁0009	-11.9142
▁destination	-11.9143
▁marginally	-11.9143
▁polyethylene	-11.9144
ein	-11.9145
mscs	-11.9145
▁zeta	-11.9146
ration	-11.9147
▁wavelet	-11.9148
▁som	-11.9148
alin	-11.9162
▁shoots	-11.9163
▁hen	-11.9163
▁quenching	-11.9164
186	-11.9166
phosphate	-11.9171
▁happens	-11.9172
▁meningitis	-11.9173
▁normative	-11.9173
neurotransmitter	-11.9173
▁integrative	-11.9174
▁shunt	-11.9174
▁edition	-11.9174
▁cook	-11.9176
tia	-11.9178
burg	-11.9179
▁reconstructions	-11.918
▁283	-11.9181
▁satisfy	-11.9184
▁llc	-11.9184
▁equi	-11.9185
▁underlined	-11.9185
▁vari	-11.9186
▁cyc	-11.9186
▁bioscience	-11.9189
▁physics	-11.9189
141	-11.9193
▁242	-11.9195
▁pie	-11.9196
▁nrp	-11.9197
▁hemo	-11.9198
▁send	-11.9198
▁allergen	-11.9201
▁pesticides	-11.9201
▁660	-11.9203
▁ciprofloxacin	-11.9203
▁endurance	-11.9203
▁neuroblastoma	-11.9204
▁psychotic	-11.9204
▁toxicities	-11.9205
▁drag	-11.9205
▁advisory	-11.9206
rig	-11.9207
▁dako	-11.9208
xillary	-11.9208
▁532	-11.921
▁diode	-11.9212
▁329	-11.9214
▁datablock	-11.9214
▁empirically	-11.9215
genesis	-11.9217
231	-11.9219
▁resp	-11.9219
rii	-11.922
▁employee	-11.922
care	-11.922
▁pharmacists	-11.9223
▁hsf	-11.9226
▁dem	-11.9227
▁demanding	-11.9231
▁natal	-11.9234
▁doxycycline	-11.9234
▁pheromone	-11.9234
▁thermofisher	-11.9234
▁allosteric	-11.9235
▁detachment	-11.9235
▁mitral	-11.9235
▁hiseq	-11.9237
▁esters	-11.9237
ultidisciplinary	-11.9238
256	-11.924
▁336	-11.924
▁cj	-11.924
▁endosomes	-11.9241
▁fri	-11.9242
▁reared	-11.9243
hara	-11.9243
▁sept	-11.9245
rz	-11.9245
fg	-11.9246
▁estimator	-11.925
▁analgesic	-11.925
▁ber	-11.9251
▁ax	-11.9252
▁mai	-11.9252
▁ignored	-11.9256
eur	-11.9258
▁gca	-11.9258
151	-11.9258
▁washes	-11.9261
▁borders	-11.9263
ante	-11.9265
▁verbatim	-11.9265
▁diversification	-11.9266
▁specialty	-11.9268
last	-11.9274
▁favored	-11.9275
▁mep	-11.9278
▁052	-11.9279
km	-11.9279
▁condom	-11.9282
▁251	-11.9284
▁benzyl	-11.9287
620	-11.9288
▁therapists	-11.9293
▁extremity	-11.9297
▁penetrate	-11.9297
▁mexican	-11.9297
▁ffpe	-11.9297
112	-11.9298
plus	-11.9299
▁dimerization	-11.9299
▁readout	-11.9299
▁evenly	-11.9303
▁chiral	-11.9306
▁worsening	-11.9306
▁rejected	-11.9308
▁striat	-11.9309
▁antidepressant	-11.9313
▁centroid	-11.9313
▁sag	-11.9315
▁beverages	-11.9315
▁594	-11.9316
▁reinforced	-11.932
▁386	-11.9327
▁analgesia	-11.9328
▁sapiens	-11.9328
286	-11.9328
▁pedigree	-11.9328
▁flush	-11.9329
▁lactation	-11.9329
▁094	-11.933
▁trn	-11.9333
ope	-11.9333
▁monomeric	-11.9336
vc	-11.9339
396	-11.934
▁tps	-11.9341
▁pupil	-11.9343
▁implication	-11.9344
▁shield	-11.9347
▁alert	-11.9348
▁fra	-11.9352
bw	-11.9356
▁adenovirus	-11.9356
▁cpc	-11.9356
▁alternating	-11.9359
▁telomerase	-11.9359
▁undergraduate	-11.9359
▁unemployed	-11.9359
imp	-11.9359
▁colorimetric	-11.9359
erman	-11.936
▁pectin	-11.936
▁dsdna	-11.936
_02	-11.9361
▁washington	-11.9362
▁straw	-11.9362
▁fsh	-11.9364
cortical	-11.9364
▁segmental	-11.9365
▁complementation	-11.9367
▁630	-11.9369
fil	-11.9369
odes	-11.9371
▁tfa	-11.9372
▁diff	-11.9375
505	-11.9376
▁caa	-11.9376
▁phos	-11.9376
▁311	-11.9377
▁shortly	-11.9377
cz	-11.9379
▁puncta	-11.938
▁mei	-11.9381
▁pub	-11.9382
▁fli	-11.9388
▁mecp	-11.9388
mia	-11.9388
▁deficiencies	-11.9391
▁particulate	-11.9391
▁plastid	-11.9391
▁071	-11.9393
▁taylor	-11.9393
▁bean	-11.9394
▁actors	-11.9394
▁quartiles	-11.9396
▁hypothalami	-11.94
301	-11.94
wh	-11.9402
▁descriptors	-11.9403
▁convolution	-11.9404
▁firm	-11.9408
ther	-11.9409
▁bundles	-11.9409
▁antagonistic	-11.9412
cyt	-11.9416
▁interfaci	-11.9417
uga	-11.9418
▁fibrils	-11.9418
▁duplex	-11.9419
▁vacuoles	-11.9421
▁keratin	-11.9422
▁srebp	-11.9423
181	-11.9424
▁dsbs	-11.9425
▁superimposed	-11.9425
ril	-11.9425
309	-11.9426
▁palp	-11.9426
▁ordering	-11.9427
▁301	-11.9428
▁amplifier	-11.9429
▁purchase	-11.9432
▁stra	-11.9432
▁repetitions	-11.9434
▁lytic	-11.9435
154	-11.9435
▁cylinder	-11.9439
popolysaccharide	-11.944
▁379	-11.944
▁nlr	-11.944
▁chat	-11.944
tain	-11.9441
yi	-11.9446
▁sno	-11.9446
▁norwegian	-11.9454
▁babies	-11.9454
▁queries	-11.9454
▁dysregulated	-11.9455
▁caps	-11.9456
▁fails	-11.9457
▁ril	-11.9458
▁browser	-11.9459
▁phosphatidyl	-11.946
▁plating	-11.9465
ebp	-11.947
▁hox	-11.9471
▁zen	-11.9471
▁motivational	-11.9472
▁attach	-11.9474
▁dor	-11.9476
tric	-11.9477
▁incentives	-11.948
▁blinding	-11.9481
cop	-11.9481
▁oi	-11.9481
▁dunn	-11.9482
▁lw	-11.9485
▁biolegend	-11.9486
▁rectangula	-11.9486
▁cholinergic	-11.9486
▁happy	-11.9486
nch	-11.9487
aux	-11.949
▁hematological	-11.949
▁387	-11.9491
▁compressed	-11.9492
▁marketing	-11.9494
▁alloys	-11.9496
▁synuclein	-11.9498
▁relied	-11.9498
▁percentiles	-11.9502
▁assistant	-11.9503
▁mdc	-11.9503
▁aptamer	-11.9503
band	-11.9504
▁rbp	-11.9504
▁payment	-11.9504
▁cofactor	-11.9505
▁turning	-11.9512
▁lpa	-11.9513
▁485	-11.9514
oro	-11.9517
▁scalp	-11.9517
▁uterus	-11.9517
ordinary	-11.9518
tsch	-11.9527
▁turns	-11.9528
heim	-11.9528
▁kw	-11.9529
▁lying	-11.953
▁354	-11.9532
▁iris	-11.9537
▁speaker	-11.9538
▁triplicates	-11.9539
ically	-11.9541
▁cognate	-11.955
▁morphogenesis	-11.955
▁laws	-11.9551
▁favourable	-11.9553
▁scha	-11.9555
▁herd	-11.9558
▁paradigms	-11.9558
▁rash	-11.9559
quin	-11.956
phenol	-11.9563
▁ars	-11.9563
▁minimized	-11.9565
▁liter	-11.9569
▁exceptions	-11.9571
opt	-11.9571
▁998	-11.9571
ethyl	-11.9572
▁wilk	-11.9572
ipping	-11.9573
▁zt	-11.9575
▁stn	-11.9578
3_	-11.9578
ign	-11.9578
▁macaques	-11.9579
▁cuff	-11.9581
▁settlement	-11.9583
pase	-11.9583
▁percutaneous	-11.9584
olo	-11.9584
nip	-11.9584
▁qualified	-11.9585
▁850	-11.9585
▁counties	-11.9586
▁cftr	-11.9588
▁subsp	-11.9588
▁cleft	-11.9589
omorph	-11.959
els	-11.959
▁judgments	-11.9594
276	-11.9596
lit	-11.9597
▁pct	-11.9598
▁rater	-11.9598
▁perfectly	-11.9604
▁tad	-11.9606
hz	-11.9609
▁swab	-11.961
▁indexed	-11.9612
▁boil	-11.9613
358	-11.9613
▁confluent	-11.9614
▁vancomycin	-11.9614
011	-11.9614
▁adenine	-11.9614
▁kanamycin	-11.9614
▁mandible	-11.9614
ces	-11.9614
▁dihedral	-11.9614
▁dinucleotide	-11.9614
▁macular	-11.9614
▁odd	-11.9615
▁cdi	-11.9616
▁broncho	-11.9618
▁drain	-11.9618
▁scfv	-11.9619
▁uiso	-11.962
▁basement	-11.962
▁idh	-11.962
▁standardization	-11.9622
▁pros	-11.9622
▁else	-11.9623
▁emp	-11.9624
▁ppd	-11.9626
305	-11.9627
vas	-11.9629
▁gmp	-11.9635
eva	-11.9636
▁357	-11.9638
press	-11.9639
iness	-11.964
▁pz	-11.9643
▁clay	-11.9644
vr	-11.9646
▁dickinson	-11.9646
▁predominate	-11.9646
▁phagocyti	-11.9646
▁spotted	-11.9647
▁lncap	-11.9647
tine	-11.965
▁danger	-11.9651
▁randomisation	-11.9651
▁priorities	-11.9653
▁398	-11.9653
▁nanomaterials	-11.9658
▁divisions	-11.9661
ott	-11.9661
▁sor	-11.9661
aked	-11.9661
▁golden	-11.9665
▁facilitators	-11.9666
chrom	-11.9671
▁histologic	-11.9672
245	-11.9674
▁aberrations	-11.9674
▁344	-11.9675
▁aag	-11.9675
▁doubling	-11.9678
▁multiplied	-11.9678
▁dlbcl	-11.9678
▁fission	-11.9678
▁kor	-11.9682
▁interventional	-11.9683
▁mam	-11.9684
▁bill	-11.9684
▁clara	-11.9685
▁hem	-11.969
genes	-11.9693
▁cz	-11.9694
nar	-11.9695
▁pooling	-11.9695
ulation	-11.9697
▁predators	-11.9697
▁bubble	-11.9698
▁russia	-11.9699
▁318	-11.9701
▁rgo	-11.9709
▁sensori	-11.9709
▁disequilibrium	-11.9711
▁perforation	-11.9711
▁predefine	-11.9711
▁hbsag	-11.9711
▁rubber	-11.9711
▁attainment	-11.9711
▁boston	-11.9711
▁exported	-11.9712
▁lei	-11.9712
▁shelf	-11.9712
▁fermi	-11.9713
▁pyridine	-11.9713
▁economy	-11.9713
rom	-11.9716
▁frameworks	-11.9722
▁statins	-11.9723
▁summed	-11.9724
▁heading	-11.9726
▁cleave	-11.9726
vf	-11.9729
▁rendered	-11.973
▁sweep	-11.9731
▁impression	-11.9731
▁threats	-11.9732
▁cooking	-11.9732
▁breaking	-11.9734
▁testes	-11.9735
▁wheel	-11.9737
▁410	-11.9739
▁intravenously	-11.9741
▁wei	-11.9742
lysin	-11.9743
▁bloom	-11.9743
▁catalysis	-11.9743
▁ultraviolet	-11.9743
▁agitation	-11.9744
▁crisis	-11.9744
▁borderline	-11.9744
▁gentle	-11.9747
▁nar	-11.9748
anol	-11.9749
▁weighing	-11.975
osome	-11.975
ologic	-11.975
ility	-11.9752
tosis	-11.9754
position	-11.9755
▁085	-11.9758
▁possessed	-11.9761
▁centred	-11.9762
▁bmc	-11.9762
▁imidazole	-11.9762
ibility	-11.9763
▁prescriptions	-11.9763
▁gtpase	-11.9765
▁knowing	-11.977
▁flav	-11.9771
ente	-11.9771
aea	-11.9772
rot	-11.9772
▁mul	-11.9774
▁303	-11.9774
▁affinities	-11.9776
▁fifteen	-11.9776
▁python	-11.9776
▁coulter	-11.9776
▁mesenteric	-11.9776
▁orbit	-11.9776
▁drastically	-11.9777
▁subsample	-11.9777
▁356	-11.978
196	-11.978
▁void	-11.9786
▁socially	-11.9787
▁vn	-11.9788
▁nls	-11.9789
▁morph	-11.979
calc	-11.9791
dent	-11.9791
yer	-11.9794
▁rein	-11.9796
▁citations	-11.9796
173	-11.9797
▁regressions	-11.9798
▁pld	-11.9799
▁nanostructures	-11.98
▁fault	-11.98
mmunosuppression	-11.9801
▁simpler	-11.9802
506	-11.9806
▁fathers	-11.9806
▁gct	-11.9807
▁github	-11.9809
▁instantaneous	-11.9809
▁measurable	-11.9809
▁cerebrovascular	-11.9809
▁degrading	-11.9809
▁contradictory	-11.9809
▁sativa	-11.9809
▁exhaustive	-11.9809
[...]
