<unk>	0
▁the	-3.0861
▁of	-3.50052
▁and	-3.65269
▁in	-3.88054
▁to	-4.16069
▁a	-4.29446
▁0	-4.48207
▁1	-4.70661
▁for	-4.75116
▁with	-4.80551
s	-5.04604
▁is	-5.04813
▁was	-5.06707
▁2	-5.06784
▁were	-5.08347
▁that	-5.12007
▁as	-5.22367
▁by	-5.25531
▁	-5.27653
▁3	-5.28247
2	-5.43867
1	-5.45906
▁c	-5.48716
▁5	-5.49612
▁on	-5.53641
▁from	-5.55369
▁are	-5.56506
▁4	-5.58885
▁at	-5.60796
▁or	-5.65984
▁this	-5.66073
▁be	-5.73367
▁s	-5.77167
▁p	-5.83691
▁we	-5.9155
▁6	-5.92044
a	-5.94899
▁an	-5.99123
▁not	-6.06833
▁cells	-6.0887
▁al	-6.09294
▁7	-6.10117
▁10	-6.10632
▁et	-6.13352
3	-6.17827
▁8	-6.19691
▁n	-6.20499
▁which	-6.20882
▁h	-6.22623
▁data	-6.23438
▁study	-6.26317
▁have	-6.28216
▁between	-6.34427
▁figure	-6.34566
▁using	-6.34573
▁these	-6.35815
▁it	-6.35987
▁9	-6.38837
▁b	-6.40309
▁all	-6.41232
▁e	-6.43255
▁t	-6.4392
b	-6.4497
▁also	-6.48463
▁used	-6.50433
▁cell	-6.51672
▁patients	-6.52899
d	-6.55282
▁g	-6.57123
▁can	-6.60005
▁analysis	-6.60307
c	-6.60935
4	-6.6158
▁d	-6.63102
▁no	-6.63152
▁m	-6.64225
▁fig	-6.65487
▁i	-6.66029
▁been	-6.66213
▁has	-6.66853
▁two	-6.68775
▁after	-6.70182
▁than	-6.72608
▁each	-6.72773
▁expression	-6.73098
▁other	-6.74139
▁results	-6.74145
▁their	-6.75045
▁more	-6.75508
▁one	-6.79327
▁time	-6.79397
▁table	-6.82257
m	-6.82698
▁may	-6.83253
▁12	-6.83273
e	-6.84366
▁our	-6.84477
▁different	-6.86855
▁20	-6.8831
▁both	-6.90576
▁group	-6.90705
▁studies	-6.9231
▁μ	-6.93346
▁but	-6.93579
▁15	-6.94512
▁l	-6.95086
▁high	-6.97083
▁protein	-6.97712
▁f	-6.9898
▁based	-6.99888
▁such	-7.00054
▁number	-7.00517
▁r	-7.00585
▁treatment	-7.02261
▁control	-7.02525
▁11	-7.04083
▁only	-7.04268
g	-7.04367
▁however	-7.04995
▁model	-7.05832
▁during	-7.0894
▁13	-7.12298
▁14	-7.12427
▁when	-7.12737
▁30	-7.13479
▁into	-7.13616
▁shown	-7.13635
▁significant	-7.14421
l	-7.14677
▁16	-7.15195
▁gene	-7.15526
▁levels	-7.16094
▁found	-7.16226
▁18	-7.18323
▁non	-7.18486
▁compared	-7.18787
h	-7.18875
▁genes	-7.1899
5	-7.19063
▁there	-7.19165
ing	-7.19262
▁25	-7.22514
▁had	-7.23781
▁well	-7.24068
▁three	-7.24218
▁they	-7.2443
▁24	-7.25032
▁health	-7.26369
▁activity	-7.26933
▁effect	-7.27368
▁50	-7.28685
▁could	-7.29311
▁observed	-7.29329
▁17	-7.29384
▁most	-7.29567
o	-7.29995
▁reported	-7.30255
▁associated	-7.30312
▁first	-7.30586
▁performed	-7.30616
▁100	-7.31017
n	-7.31702
▁test	-7.31933
6	-7.32328
▁use	-7.33371
r	-7.33795
▁level	-7.34615
▁mean	-7.35709
▁its	-7.35839
▁total	-7.3606
▁k	-7.3677
▁higher	-7.3713
▁ml	-7.39127
ed	-7.39503
▁v	-7.39839
▁19	-7.40085
▁increased	-7.40172
▁mm	-7.40321
▁mice	-7.41406
▁specific	-7.41812
▁samples	-7.41993
▁cancer	-7.42022
▁x	-7.42244
▁low	-7.42437
▁05	-7.42911
▁research	-7.43161
▁type	-7.44352
▁values	-7.44955
▁age	-7.45077
p	-7.45107
▁within	-7.45727
▁showed	-7.46071
▁effects	-7.46468
▁o	-7.4884
▁while	-7.49443
▁cd	-7.49751
▁significantly	-7.50642
▁groups	-7.51154
▁system	-7.52275
i	-7.52433
▁human	-7.53257
t	-7.53258
f	-7.53644
▁some	-7.53727
▁then	-7.53745
▁min	-7.54693
▁disease	-7.548
▁21	-7.54868
▁response	-7.55036
▁information	-7.55663
▁further	-7.56147
▁if	-7.56408
▁related	-7.56503
▁under	-7.56578
▁same	-7.5705
▁up	-7.57368
▁value	-7.57899
▁over	-7.58203
▁will	-7.58261
▁clinical	-7.58543
▁species	-7.59082
▁respectively	-7.59271
▁due	-7.5958
▁through	-7.59693
7	-7.59778
▁22	-7.59859
▁dna	-7.60087
▁including	-7.60089
▁40	-7.60607
▁those	-7.6137
▁risk	-7.623
▁rate	-7.62375
8	-7.62512
▁years	-7.62571
▁co	-7.62692
▁additional	-7.62879
▁sample	-7.6386
▁similar	-7.63902
▁positive	-7.63909
▁where	-7.64694
▁23	-7.64818
▁95	-7.64924
▁among	-7.64953
▁per	-7.66608
▁proteins	-7.674
▁function	-7.67487
▁increase	-7.6844
▁present	-7.68767
▁anti	-7.69248
▁factors	-7.70022
▁methods	-7.70221
▁mg	-7.70307
▁obtained	-7.70523
▁28	-7.71613
▁thus	-7.72396
k	-7.72497
▁patient	-7.72813
▁who	-7.72913
▁following	-7.73177
▁26	-7.73721
▁important	-7.73963
▁therefore	-7.741
9	-7.74313
▁001	-7.74622
▁population	-7.74876
▁lower	-7.75186
▁would	-7.75411
▁participants	-7.75499
▁described	-7.7668
▁differences	-7.76694
▁conditions	-7.77573
▁27	-7.77729
▁because	-7.77766
▁method	-7.77801
▁size	-7.78474
▁potential	-7.78818
▁induced	-7.79419
▁treated	-7.79543
▁any	-7.79695
▁37	-7.79781
▁growth	-7.7982
▁addition	-7.79927
▁j	-7.80059
▁changes	-7.80314
▁identified	-7.80695
▁did	-7.80769
▁60	-7.81194
▁role	-7.81337
▁out	-7.81354
ly	-7.81488
▁29	-7.8257
▁authors	-7.82609
▁about	-7.83342
▁35	-7.83731
▁development	-7.84159
▁β	-7.84581
▁01	-7.8488
▁single	-7.86581
▁blood	-7.86711
▁day	-7.87291
▁il	-7.87312
▁y	-7.87913
▁acid	-7.88038
▁tumor	-7.88065
10	-7.88715
▁although	-7.8881
▁care	-7.89663
▁case	-7.9032
▁several	-7.90431
▁days	-7.90738
▁set	-7.90771
▁experiments	-7.91423
▁33	-7.91454
▁without	-7.91626
▁binding	-7.92028
▁new	-7.92078
▁water	-7.92092
▁32	-7.92137
▁range	-7.9226
▁according	-7.92697
▁work	-7.92847
▁supplementary	-7.93481
▁measured	-7.93731
▁α	-7.9382
▁process	-7.94136
▁31	-7.94921
▁tissue	-7.95084
▁previous	-7.9539
▁de	-7.9634
▁included	-7.96432
▁small	-7.96553
▁see	-7.96624
▁cases	-7.96632
▁structure	-7.96829
▁36	-7.96963
x	-7.97097
▁factor	-7.97535
▁standard	-7.97863
▁should	-7.97988
▁file	-7.98353
▁post	-7.9836
▁negative	-7.98373
▁48	-7.98496
▁presence	-7.99185
▁ca	-7.99439
y	-7.99505
▁like	-7.99967
▁34	-8.00348
▁large	-8.00604
0	-8.00774
▁less	-8.00895
▁concentration	-8.00956
▁surface	-8.01348
▁nm	-8.01539
▁many	-8.01604
▁here	-8.0171
▁difference	-8.02241
▁change	-8.0297
▁four	-8.03283
▁u	-8.03383
▁previously	-8.03494
▁models	-8.03594
▁45	-8.03804
▁80	-8.04186
▁region	-8.04293
▁pcr	-8.04407
▁analyses	-8.04515
▁temperature	-8.04528
▁before	-8.0468
▁z	-8.04822
▁infection	-8.0501
▁sequence	-8.05698
▁order	-8.05864
▁so	-8.0616
▁primary	-8.06582
▁pre	-8.06588
▁expressed	-8.07214
▁given	-8.07244
▁00	-8.07446
▁phase	-8.07495
▁average	-8.07523
▁normal	-8.07608
▁available	-8.0815
▁rna	-8.08196
▁line	-8.08275
▁target	-8.09356
▁reduced	-8.09375
▁considered	-8.09835
▁38	-8.09912
▁activation	-8.10113
▁w	-8.10584
▁individual	-8.10765
▁show	-8.11332
▁possible	-8.11357
_	-8.11386
▁distribution	-8.11514
▁ci	-8.11649
▁vs	-8.11786
▁stress	-8.13198
▁area	-8.13462
▁cm	-8.13499
▁current	-8.13914
▁multiple	-8.14273
▁known	-8.14312
▁relative	-8.14354
▁do	-8.14559
▁ii	-8.14686
▁being	-8.14765
▁long	-8.14954
▁result	-8.1498
▁analyzed	-8.15054
12	-8.15206
▁since	-8.15396
▁determined	-8.15628
▁39	-8.15812
▁very	-8.15876
11	-8.16182
▁whether	-8.1623
▁000	-8.16502
▁complex	-8.16677
▁children	-8.16833
▁might	-8.16877
▁calculated	-8.17093
▁indicated	-8.17141
es	-8.17643
▁ms	-8.17735
▁evidence	-8.17857
▁second	-8.17892
▁usa	-8.17926
▁containing	-8.17954
▁ratio	-8.18054
▁parameters	-8.18128
▁90	-8.1823
▁mir	-8.18296
▁findings	-8.19003
▁statistical	-8.19038
▁scale	-8.19092
▁70	-8.19348
▁ph	-8.19639
▁brain	-8.19734
▁support	-8.1979
▁example	-8.20457
▁women	-8.20485
er	-8.20802
▁involved	-8.20874
▁42	-8.20878
▁either	-8.2107
▁state	-8.22219
▁weight	-8.22761
▁quality	-8.23408
▁above	-8.23973
▁body	-8.24002
▁experimental	-8.24149
▁site	-8.24457
▁against	-8.24709
▁detected	-8.25372
▁75	-8.25661
▁likely	-8.25696
▁length	-8.25741
▁production	-8.25754
▁score	-8.25869
▁regions	-8.25939
▁shows	-8.26098
▁43	-8.26135
▁across	-8.263
▁point	-8.26504
▁presented	-8.26535
▁sequences	-8.26722
▁early	-8.26823
▁44	-8.2738
al	-8.27447
▁approach	-8.27732
▁assay	-8.27837
▁even	-8.28132
▁41	-8.28273
▁year	-8.28506
▁molecular	-8.28682
▁dependent	-8.28929
▁demonstrated	-8.28954
▁frequency	-8.29128
▁period	-8.29681
▁comparison	-8.29733
▁independent	-8.29808
▁sd	-8.30024
▁least	-8.30052
▁performance	-8.30202
▁how	-8.30209
▁left	-8.30339
▁lines	-8.30368
▁genome	-8.30588
▁manuscript	-8.30601
▁functional	-8.30678
▁red	-8.31231
▁interaction	-8.3168
▁individuals	-8.31717
▁sites	-8.32106
▁pathway	-8.32155
▁46	-8.32679
▁overall	-8.32933
v	-8.33194
▁q	-8.33478
▁months	-8.33499
▁association	-8.33681
▁correlation	-8.33721
▁re	-8.33939
▁various	-8.33951
▁part	-8.33979
▁medical	-8.34104
▁genetic	-8.34264
▁solution	-8.34342
▁serum	-8.34371
▁55	-8.34407
▁family	-8.3469
▁free	-8.34717
▁right	-8.34853
▁concentrations	-8.34902
▁drug	-8.34916
▁life	-8.35288
▁conducted	-8.35293
▁47	-8.3558
▁2013	-8.35756
▁common	-8.35758
▁signaling	-8.35875
▁medium	-8.35915
▁collected	-8.35956
▁stage	-8.36193
▁provided	-8.36339
▁defined	-8.36421
▁via	-8.3662
▁2012	-8.36763
▁characteristics	-8.37163
▁membrane	-8.37424
▁formation	-8.37873
▁signal	-8.38057
▁mouse	-8.38238
▁design	-8.3884
▁provide	-8.39052
▁network	-8.39058
▁general	-8.39073
▁resistance	-8.39503
13	-8.39715
▁decreased	-8.39726
▁exposure	-8.40077
▁form	-8.40089
▁end	-8.40099
▁contrast	-8.40148
▁energy	-8.40216
▁variables	-8.40258
▁49	-8.40476
▁loss	-8.40559
▁2014	-8.40582
▁survival	-8.40872
▁self	-8.41148
▁selected	-8.41415
▁animals	-8.41474
▁light	-8.41645
▁times	-8.4166
▁interest	-8.41874
▁followed	-8.42065
▁65	-8.42087
▁major	-8.42355
▁dose	-8.42496
▁applied	-8.42761
▁images	-8.42946
16	-8.43195
▁culture	-8.43464
14	-8.43824
▁final	-8.43843
▁reference	-8.44026
▁indicate	-8.44039
▁responses	-8.44139
▁status	-8.44159
▁subjects	-8.44314
▁university	-8.44354
▁72	-8.44408
▁rates	-8.44613
▁materials	-8.44785
▁kg	-8.448
▁field	-8.44985
▁material	-8.4503
▁flow	-8.45092
α	-8.45098
in	-8.45163
▁2011	-8.45436
▁five	-8.45469
▁required	-8.46187
▁types	-8.46277
▁reduction	-8.46308
▁another	-8.46418
▁mass	-8.46513
▁2015	-8.46706
▁derived	-8.47174
▁main	-8.47179
▁wt	-8.47247
β	-8.47305
▁density	-8.47538
▁2010	-8.47556
▁na	-8.48104
▁recent	-8.4812
▁54	-8.48241
▁active	-8.48489
▁content	-8.48582
▁receptor	-8.4885
▁56	-8.48871
▁strain	-8.48994
▁social	-8.49061
▁detection	-8.49416
▁revealed	-8.49432
▁corresponding	-8.50258
▁52	-8.5065
▁hiv	-8.50728
▁domain	-8.5074
▁therapy	-8.50989
▁whereas	-8.50989
▁53	-8.51178
▁tested	-8.51211
▁term	-8.51488
▁developed	-8.51697
▁58	-8.51891
▁furthermore	-8.5213
▁highly	-8.52237
▁51	-8.52239
▁57	-8.52312
▁male	-8.52588
15	-8.52756
▁sub	-8.5285
▁reaction	-8.53129
th	-8.53469
ic	-8.53689
▁suggest	-8.53753
▁antibody	-8.53891
▁99	-8.53944
▁mrna	-8.54185
▁physical	-8.5423
▁consistent	-8.54272
▁64	-8.54412
▁hospital	-8.54641
▁review	-8.55042
▁96	-8.55116
▁67	-8.55148
▁national	-8.55294
▁software	-8.5537
▁greater	-8.55392
▁systems	-8.55763
▁59	-8.55805
▁areas	-8.55888
▁discussion	-8.56151
▁200	-8.5616
▁controls	-8.56215
▁training	-8.56609
▁impact	-8.56618
▁prior	-8.56672
▁determine	-8.56679
▁baseline	-8.56687
▁index	-8.57299
▁experiment	-8.57328
▁weeks	-8.57358
▁volume	-8.57389
▁initial	-8.57625
▁does	-8.57744
▁strains	-8.58084
18	-8.58618
▁better	-8.59132
▁regulation	-8.59477
▁condition	-8.59728
▁2009	-8.59732
▁mechanisms	-8.59765
▁immune	-8.59787
▁image	-8.59963
▁made	-8.60091
▁female	-8.60532
▁increasing	-8.60608
▁intervention	-8.60689
▁moreover	-8.60791
▁local	-8.60847
▁represent	-8.61167
▁way	-8.61185
▁relationship	-8.61516
▁inflammatory	-8.61528
▁key	-8.6161
▁63	-8.61653
▁animal	-8.61852
▁liver	-8.61983
17	-8.62228
▁decrease	-8.62591
▁plant	-8.6262
▁properties	-8.62693
▁2016	-8.63014
▁interactions	-8.63021
▁mechanism	-8.63041
▁effective	-8.63132
▁inhibition	-8.63162
▁cross	-8.63494
▁66	-8.635
19	-8.63717
▁diagnosis	-8.6389
▁pressure	-8.63971
▁wild	-8.64246
▁populations	-8.64273
▁ability	-8.64783
▁glucose	-8.64799
▁neurons	-8.64879
▁mediated	-8.64945
▁need	-8.65007
▁incubated	-8.65146
▁us	-8.65273
q	-8.65324
▁generated	-8.65374
▁68	-8.65395
▁85	-8.65413
▁added	-8.65528
▁62	-8.66275
▁follow	-8.6628
▁still	-8.6639
▁food	-8.66468
▁scores	-8.66482
▁transcription	-8.665
▁often	-8.6653
▁biological	-8.66559
▁sensitivity	-8.6675
▁plasma	-8.66795
▁tissues	-8.6687
▁error	-8.66914
▁2008	-8.6695
▁estimated	-8.67392
us	-8.6743
▁assessed	-8.67472
▁step	-8.67542
▁69	-8.677
▁expected	-8.67828
▁people	-8.67852
▁fold	-8.68009
▁limited	-8.68012
▁02	-8.68016
▁them	-8.68183
▁journal	-8.68397
▁pathways	-8.68564
▁infected	-8.68663
▁points	-8.68772
▁features	-8.68816
▁resulting	-8.69073
▁amino	-8.6947
▁full	-8.69475
▁include	-8.69557
▁paper	-8.69674
▁diseases	-8.69724
▁61	-8.69776
▁proposed	-8.69803
▁processes	-8.6981
▁symptoms	-8.70114
▁tests	-8.70477
▁cellular	-8.70517
▁trial	-8.7058
▁knowledge	-8.70678
▁outcomes	-8.70769
▁median	-8.70839
▁selection	-8.70988
▁vitro	-8.71007
▁measurements	-8.71083
▁identify	-8.71131
▁assessment	-8.71277
▁green	-8.71296
▁source	-8.71328
▁maximum	-8.71478
▁absence	-8.71585
▁cycle	-8.71615
▁short	-8.71672
▁intensity	-8.71699
▁supported	-8.71718
▁antibodies	-8.71832
▁pattern	-8.71866
▁program	-8.72053
▁muscle	-8.72054
21	-8.72255
▁03	-8.72429
▁influence	-8.72452
j	-8.72457
▁sp	-8.72546
▁secondary	-8.72561
▁bone	-8.72733
▁plants	-8.72931
▁vivo	-8.73128
▁pain	-8.73171
20	-8.73204
▁lung	-8.73441
▁staining	-8.73574
▁98	-8.73611
▁whole	-8.73726
▁direct	-8.7386
▁position	-8.74023
▁mutations	-8.74171
▁trials	-8.74354
▁bp	-8.74501
▁combination	-8.74524
▁death	-8.74621
▁means	-8.74645
▁particular	-8.74756
▁report	-8.74862
▁terms	-8.74972
▁78	-8.75178
▁taken	-8.75197
▁carried	-8.75229
▁blue	-8.75313
50	-8.75426
▁rt	-8.75501
▁suggested	-8.75701
▁patterns	-8.75821
▁six	-8.75853
▁04	-8.76099
▁73	-8.76104
▁mutant	-8.76171
▁measures	-8.76183
▁evaluated	-8.76449
▁immuno	-8.76461
▁76	-8.76669
▁community	-8.76861
▁collection	-8.76974
▁74	-8.77224
▁mortality	-8.77261
▁virus	-8.7731
▁prevalence	-8.77318
▁examined	-8.77364
▁future	-8.77403
▁section	-8.77659
▁pro	-8.77662
▁components	-8.77671
▁events	-8.77759
▁77	-8.778
▁buffer	-8.7792
▁structures	-8.78014
▁complete	-8.7805
▁breast	-8.78052
▁along	-8.78054
▁criteria	-8.78057
▁much	-8.7811
▁regression	-8.78123
▁down	-8.7815
▁confirmed	-8.78171
▁linear	-8.78229
▁percentage	-8.78244
▁good	-8.7844
▁outcome	-8.78458
▁power	-8.78682
▁go	-8.78899
▁distance	-8.79037
▁hand	-8.79111
▁chronic	-8.79138
▁matrix	-8.79182
▁introduction	-8.79362
▁71	-8.79544
▁2007	-8.79773
▁approximately	-8.79831
▁iii	-8.79948
▁sex	-8.79964
▁showing	-8.79981
▁activities	-8.80052
▁imaging	-8.80067
▁cause	-8.80068
▁together	-8.80103
▁seen	-8.80111
▁rs	-8.80138
▁real	-8.80314
▁able	-8.80432
▁note	-8.80494
▁88	-8.80549
▁healthy	-8.80553
▁97	-8.80567
▁variation	-8.8057
▁bio	-8.80688
▁isolated	-8.80787
▁western	-8.81022
▁compounds	-8.81287
▁suggesting	-8.8131
▁proliferation	-8.8133
▁86	-8.81351
▁79	-8.81359
▁behavior	-8.81552
▁amount	-8.81659
▁version	-8.81879
▁94	-8.8188
▁lead	-8.81925
▁measure	-8.81976
▁larger	-8.82104
▁host	-8.82111
▁hours	-8.82135
▁functions	-8.82311
▁peak	-8.82476
▁strong	-8.82512
▁indicates	-8.8259
▁investigated	-8.82768
▁89	-8.82782
▁recently	-8.82802
▁variable	-8.82888
▁1371	-8.83085
▁83	-8.83119
▁increases	-8.83194
▁rats	-8.83253
▁directly	-8.83256
▁side	-8.83828
▁versus	-8.8384
▁81	-8.83869
table	-8.83919
53	-8.84018
▁84	-8.84059
▁task	-8.84258
▁week	-8.84291
▁93	-8.84306
▁finally	-8.84606
▁protocol	-8.84937
▁testing	-8.85036
▁87	-8.85085
▁upon	-8.85166
▁sequencing	-8.85223
▁central	-8.85333
▁below	-8.85349
▁approved	-8.85397
▁predicted	-8.85461
▁china	-8.85526
▁ct	-8.85653
▁few	-8.85707
▁environment	-8.8575
▁bacterial	-8.86051
▁lack	-8.86571
▁indicating	-8.86884
▁regulated	-8.87106
▁06	-8.87269
▁natural	-8.87351
▁literature	-8.87465
▁molecules	-8.87552
▁92	-8.87698
▁evaluation	-8.87841
▁82	-8.88106
▁fact	-8.88159
▁what	-8.88215
▁received	-8.88555
▁pi	-8.88829
▁numbers	-8.88965
▁differentiation	-8.88967
▁especially	-8.89194
▁published	-8.89303
▁designed	-8.89359
▁produced	-8.89426
▁severe	-8.89519
▁vector	-8.89646
▁white	-8.89894
▁affected	-8.90065
▁old	-8.90085
▁markers	-8.9022
▁affect	-8.90232
▁pbs	-8.90296
▁states	-8.90318
▁rather	-8.90354
▁best	-8.90359
▁relevant	-8.9036
▁2017	-8.90622
▁relatively	-8.90722
▁apoptosis	-8.90889
▁combined	-8.90942
▁procedure	-8.91106
▁highest	-8.9112
▁management	-8.91313
▁500	-8.91342
▁multi	-8.91557
▁significance	-8.91598
▁2006	-8.91684
is	-8.91814
▁measurement	-8.91989
▁91	-8.92035
▁micro	-8.92041
▁diabetes	-8.92137
▁around	-8.92488
▁fluorescence	-8.92561
▁suggests	-8.92561
▁synthesis	-8.92789
▁education	-8.92843
▁recorded	-8.92852
▁pd	-8.92863
▁cost	-8.92955
▁products	-8.93031
▁background	-8.93086
▁surgery	-8.93125
▁08	-8.93194
▁layer	-8.9322
▁next	-8.9324
▁center	-8.93281
▁release	-8.93542
▁click	-8.93568
▁processing	-8.93584
▁ma	-8.93601
▁ch	-8.93775
▁duration	-8.94182
▁representative	-8.942
▁assess	-8.94332
▁studied	-8.94434
▁critical	-8.94511
▁07	-8.94696
▁cluster	-8.9496
▁kit	-8.95436
▁reduce	-8.95608
▁adult	-8.95632
▁top	-8.95813
▁panel	-8.95826
▁interests	-8.95962
▁proportion	-8.96143
▁statistically	-8.96205
▁heart	-8.96239
▁ng	-8.96241
▁metabolic	-8.96354
▁laboratory	-8.96553
▁caused	-8.96669
▁component	-8.9671
▁bacteria	-8.96735
▁acute	-8.97032
▁mutation	-8.97129
▁ns	-8.9718
▁competing	-8.97397
▁consent	-8.97461
▁history	-8.9755
▁un	-8.97753
▁improve	-8.97805
▁fixed	-8.97877
▁represents	-8.9805
▁class	-8.98231
w	-8.98443
▁yes	-8.98469
▁database	-8.98516
▁identification	-8.98551
▁gfp	-8.98592
▁st	-8.98686
▁2005	-8.99219
▁open	-8.99404
▁stimulation	-8.99443
▁environmental	-8.99548
▁pone	-8.99562
▁despite	-8.99636
▁contributions	-8.99672
▁tumors	-8.99746
25	-8.99779
▁he	-9.0029
▁project	-9.00346
▁novel	-9.00351
▁her	-9.00519
▁hr	-9.00547
▁having	-9.00681
▁09	-9.00728
▁global	-9.00729
▁damage	-9.00778
▁viral	-9.00789
▁men	-9.00863
▁prepared	-9.01428
▁regarding	-9.01491
▁remains	-9.01521
▁location	-9.01546
▁cohort	-9.01623
▁injury	-9.01901
▁black	-9.01957
▁activated	-9.02232
▁chemical	-9.02264
▁learning	-9.02331
22	-9.02406
▁cognitive	-9.02562
▁iv	-9.02594
▁drugs	-9.02702
▁algorithm	-9.02758
▁accuracy	-9.02955
▁120	-9.03007
▁third	-9.03249
▁pa	-9.03259
▁random	-9.03427
▁particularly	-9.03655
▁er	-9.03715
▁enzyme	-9.03746
▁inhibitor	-9.03794
▁application	-9.03973
▁help	-9.04054
▁2000	-9.04078
▁degree	-9.04091
▁every	-9.04406
▁structural	-9.04482
▁bar	-9.04483
▁public	-9.04488
▁map	-9.04776
▁ad	-9.0478
▁countries	-9.04865
▁improved	-9.04871
▁understanding	-9.05086
▁until	-9.05094
▁last	-9.05369
▁wide	-9.05518
▁se	-9.05873
▁metabolism	-9.05953
▁leading	-9.06014
▁established	-9.0604
▁context	-9.0613
▁log	-9.06258
▁quantitative	-9.06391
▁practice	-9.06563
▁essential	-9.06653
▁poor	-9.06739
▁genomic	-9.06856
▁dr	-9.06935
▁needed	-9.06937
24	-9.071
▁enhanced	-9.07125
▁hz	-9.07196
▁specifically	-9.07226
▁inter	-9.07276
▁visual	-9.07287
▁nature	-9.07479
▁access	-9.07547
ation	-9.07712
▁administration	-9.07872
▁his	-9.08037
▁ha	-9.08143
▁play	-9.08462
▁mainly	-9.08475
▁located	-9.08484
▁threshold	-9.0854
▁correlated	-9.08713
▁survey	-9.08818
▁core	-9.08979
▁alone	-9.0901
▁peptide	-9.09019
▁lipid	-9.09181
▁adjusted	-9.09268
▁http	-9.09366
▁clear	-9.09427
▁nuclear	-9.09497
▁capacity	-9.09708
27	-9.0983
▁insulin	-9.09846
▁inflammation	-9.0989
▁gender	-9.09915
u	-9.09951
▁skin	-9.09992
▁signals	-9.10093
▁2004	-9.10128
▁resulted	-9.10139
▁evaluate	-9.10203
▁exposed	-9.10231
▁extracted	-9.10354
um	-9.10472
▁diet	-9.10529
▁stem	-9.10708
▁figures	-9.10788
▁assays	-9.10955
▁generation	-9.10985
▁memory	-9.11281
z	-9.11354
▁sections	-9.11376
▁members	-9.11756
▁screening	-9.1189
▁appropriate	-9.1208
st	-9.12132
▁strategy	-9.12141
▁mixed	-9.12282
▁0001	-9.12329
▁probability	-9.12426
▁acids	-9.12689
▁la	-9.12744
▁spatial	-9.12814
▁services	-9.1283
▁room	-9.12996
on	-9.13004
▁sem	-9.13015
▁sampling	-9.13062
▁characterized	-9.13155
▁action	-9.13305
▁mitochondrial	-9.13377
23	-9.1382
▁space	-9.13949
▁view	-9.13952
▁promoter	-9.14012
▁original	-9.14116
▁provides	-9.14185
▁kinase	-9.14279
▁bias	-9.14329
▁linked	-9.1454
▁daily	-9.14629
▁necessary	-9.1484
▁read	-9.14853
▁progression	-9.14877
▁substrate	-9.14877
▁parameter	-9.14913
▁you	-9.14924
ii	-9.15185
▁series	-9.15336
▁phenotype	-9.15518
▁additionally	-9.15688
▁incidence	-9.15812
me	-9.15919
▁classification	-9.1598
▁science	-9.16214
▁product	-9.16234
▁subsequent	-9.16567
▁make	-9.1663
▁bars	-9.16706
▁stable	-9.16718
▁th	-9.16744
▁residues	-9.16798
▁axis	-9.16917
▁chain	-9.16941
▁induction	-9.16967
ers	-9.17006
▁adults	-9.17078
▁upper	-9.17128
▁bmi	-9.17255
▁meta	-9.17401
▁resolution	-9.17447
▁technology	-9.17664
▁transmission	-9.178
▁similarly	-9.17814
▁distinct	-9.1784
▁efficiency	-9.17955
▁author	-9.17981
▁phosphorylation	-9.18037
▁investigate	-9.18147
▁1000	-9.18168
▁later	-9.18262
▁therapeutic	-9.18305
▁generally	-9.18392
▁dataset	-9.18462
▁others	-9.18467
▁marker	-9.18507
▁contact	-9.18512
▁fe	-9.18592
▁strategies	-9.18753
▁scientific	-9.18826
▁injection	-9.1883
▁half	-9.18838
▁unit	-9.19014
▁profile	-9.19058
▁importance	-9.19309
▁reports	-9.19394
▁school	-9.19408
▁media	-9.19442
▁hypothesis	-9.19449
▁di	-9.19525
▁fat	-9.19557
▁child	-9.19759
▁occur	-9.19777
▁treatments	-9.19875
▁focus	-9.20016
▁cultured	-9.20171
▁females	-9.20187
▁experience	-9.20193
rs	-9.20391
▁account	-9.20444
▁sigma	-9.20485
re	-9.20512
▁majority	-9.2053
▁problem	-9.20869
▁interval	-9.20897
▁modified	-9.20948
▁receptors	-9.20978
▁search	-9.2103
▁constant	-9.21046
▁indeed	-9.21098
▁must	-9.21114
or	-9.21131
▁internal	-9.21138
▁composition	-9.21152
▁109	-9.21153
▁declare	-9.2129
▁longer	-9.21412
▁controlled	-9.21457
ity	-9.2148
▁approaches	-9.21647
▁stained	-9.21703
▁soil	-9.21717
▁coli	-9.21767
▁oxygen	-9.21861
▁funding	-9.21868
▁fraction	-9.21994
▁compound	-9.22
▁finding	-9.22019
▁nf	-9.22027
▁uk	-9.22064
▁carbon	-9.22296
▁terminal	-9.22329
▁150	-9.22469
▁tnf	-9.22557
▁efficacy	-9.22604
▁poly	-9.22688
ia	-9.22977
▁sensitive	-9.22978
▁stages	-9.23135
▁cannot	-9.23288
▁input	-9.23335
38	-9.23558
▁reverse	-9.23658
▁thank	-9.2387
▁migration	-9.23879
▁contribute	-9.24072
at	-9.24161
▁subject	-9.24169
▁interestingly	-9.24197
▁anova	-9.24385
▁estimates	-9.24443
▁gel	-9.2453
▁curve	-9.24718
▁preparation	-9.24853
▁interventions	-9.24882
os	-9.24981
▁off	-9.25002
▁si	-9.25063
▁exercise	-9.25116
▁accumulation	-9.25138
▁confidence	-9.25148
▁estimate	-9.25186
▁diversity	-9.25287
▁led	-9.25342
▁variants	-9.25424
▁expressing	-9.2553
▁mental	-9.25606
▁problems	-9.25626
▁targets	-9.25646
▁double	-9.25695
▁base	-9.25859
▁strength	-9.25918
▁2003	-9.25933
▁variance	-9.2605
▁domains	-9.26124
▁strongly	-9.26175
▁disorders	-9.2623
▁head	-9.26256
▁300	-9.26399
▁motor	-9.26436
▁germany	-9.26437
▁males	-9.26452
▁decision	-9.266
▁washed	-9.26796
▁deviation	-9.26909
▁conclusion	-9.27078
▁induce	-9.27182
▁difficult	-9.2721
▁removed	-9.27318
▁ros	-9.27319
▁mo	-9.27364
▁depression	-9.27369
▁obtain	-9.27377
▁detect	-9.27682
▁electron	-9.27745
▁moderate	-9.27807
▁cl	-9.27844
▁young	-9.27849
▁items	-9.27884
ca	-9.27942
▁ko	-9.28056
▁elements	-9.28081
▁failure	-9.28094
▁extraction	-9.28131
▁degradation	-9.28132
▁grade	-9.28353
▁stability	-9.28448
▁li	-9.28487
▁procedures	-9.28663
▁infections	-9.28699
▁pc	-9.28755
▁actin	-9.28902
▁normalized	-9.29053
▁consumption	-9.29193
id	-9.29199
▁close	-9.29214
▁smaller	-9.29236
▁onset	-9.29292
▁primers	-9.29368
▁ifn	-9.29412
▁represented	-9.29512
28	-9.29723
▁done	-9.29739
▁tree	-9.29882
▁hence	-9.299
▁air	-9.29919
▁clusters	-9.29968
▁produce	-9.30075
▁equation	-9.30101
▁basis	-9.30144
▁cardiac	-9.30254
30	-9.30306
26	-9.30401
▁solid	-9.30567
▁transport	-9.30606
▁diagnostic	-9.30612
▁relationships	-9.30709
▁delivery	-9.30724
▁sets	-9.30781
▁conflict	-9.30798
▁alcohol	-9.30815
▁yield	-9.30843
▁incubation	-9.31028
▁certain	-9.31132
▁transfer	-9.31186
▁older	-9.31197
▁usually	-9.3122
▁heat	-9.31272
▁placed	-9.31277
▁cultures	-9.31436
▁responsible	-9.31521
▁far	-9.31616
▁prediction	-9.31639
▁yet	-9.31639
▁unique	-9.31645
▁alternative	-9.31771
ta	-9.31867
▁allow	-9.31877
▁article	-9.3188
▁continuous	-9.31897
▁find	-9.31909
▁month	-9.32041
▁minutes	-9.32124
▁tool	-9.32335
40	-9.32336
▁resistant	-9.3268
▁currently	-9.3272
▁institute	-9.32813
▁course	-9.3285
▁excluded	-9.32875
▁conclusions	-9.32919
▁mixture	-9.32959
▁os	-9.32983
▁lc	-9.32984
▁regulatory	-9.32989
▁grant	-9.33096
▁intake	-9.33103
▁follows	-9.3314
▁leads	-9.33193
▁oral	-9.33282
▁act	-9.33289
▁mode	-9.33393
▁potentially	-9.33438
▁reads	-9.33453
▁observation	-9.33523
▁elevated	-9.33533
▁respect	-9.33552
▁students	-9.33644
▁www	-9.33682
▁ethics	-9.337
en	-9.33726
▁almost	-9.3379
▁pairs	-9.33982
▁contains	-9.34094
▁ir	-9.34138
▁isolates	-9.34191
▁networks	-9.34239
▁making	-9.34351
▁mutants	-9.34601
▁smoking	-9.34653
▁root	-9.34667
▁unknown	-9.34671
▁once	-9.34737
▁middle	-9.34856
▁contributed	-9.34927
▁temporal	-9.34968
▁coefficient	-9.35159
▁diameter	-9.35203
▁spectra	-9.3524
▁profiles	-9.35253
▁subsequently	-9.35268
▁igg	-9.35324
▁now	-9.35344
▁tb	-9.35459
▁extract	-9.35519
▁intracellular	-9.35573
▁inhibitors	-9.35577
▁oxidative	-9.35699
▁clearly	-9.35864
▁techniques	-9.36045
▁direction	-9.36098
▁observations	-9.3612
▁availability	-9.36158
▁towards	-9.36305
▁technique	-9.36398
▁questionnaire	-9.36415
▁none	-9.36551
▁world	-9.36759
▁agreement	-9.36785
able	-9.36877
▁throughout	-9.37154
▁abundance	-9.37272
▁underlying	-9.37357
▁bi	-9.37407
▁except	-9.37471
▁equal	-9.37512
▁achieved	-9.37565
▁specificity	-9.37571
▁methylation	-9.37623
▁committee	-9.37776
▁useful	-9.37846
▁coding	-9.37849
▁rat	-9.37852
▁band	-9.37936
▁2002	-9.37942
▁color	-9.38056
▁extent	-9.38154
▁feature	-9.38406
▁transfected	-9.38464
▁fish	-9.38479
▁channel	-9.38494
▁supporting	-9.38549
▁enzymes	-9.38574
ally	-9.38676
▁me	-9.38736
▁optimal	-9.38907
▁noise	-9.39112
▁though	-9.39228
▁comparisons	-9.39249
▁noted	-9.39284
▁birth	-9.39372
▁macrophages	-9.39517
▁questions	-9.39552
▁column	-9.39567
▁improvement	-9.39572
▁vascular	-9.39589
co	-9.39595
▁home	-9.39658
▁grown	-9.39744
▁attention	-9.39812
▁medicine	-9.39892
▁repeated	-9.39952
▁genotype	-9.4002
▁minimum	-9.40149
▁demonstrate	-9.40166
▁limitations	-9.40222
▁sources	-9.40237
▁chromosome	-9.40334
▁allele	-9.40469
▁summary	-9.40604
▁guidelines	-9.40672
▁detailed	-9.40734
▁forms	-9.40781
▁nodes	-9.40845
▁event	-9.40876
▁eight	-9.40886
▁transition	-9.40967
▁late	-9.41009
▁simple	-9.41022
▁ab	-9.41106
▁renal	-9.41113
▁sensor	-9.41125
▁causes	-9.41173
▁publication	-9.41271
▁microscopy	-9.41352
▁stimuli	-9.41404
▁details	-9.41425
▁monitoring	-9.41445
▁primer	-9.41456
▁plates	-9.41482
▁occurred	-9.41495
▁lesions	-9.41688
▁mb	-9.41695
▁formed	-9.41773
▁neural	-9.41793
▁compare	-9.41802
▁develop	-9.41897
34	-9.42043
▁particles	-9.42063
▁dynamics	-9.42064
▁400	-9.42099
▁radiation	-9.42629
▁node	-9.42634
▁developing	-9.42659
▁epithelial	-9.42733
▁comparing	-9.42835
▁conserved	-9.43
man	-9.43046
▁providing	-9.43089
▁back	-9.43095
▁slightly	-9.4319
▁near	-9.43327
▁informed	-9.43447
▁units	-9.43482
▁cortex	-9.43552
▁cut	-9.43556
▁occurs	-9.43669
▁associations	-9.43737
▁bound	-9.43849
▁physiological	-9.43881
▁fully	-9.43893
▁fit	-9.43926
▁participant	-9.44005
▁resources	-9.44086
▁surgical	-9.44087
▁pregnancy	-9.44127
▁uptake	-9.44155
▁validation	-9.44262
▁seven	-9.44336
▁force	-9.4436
▁healthcare	-9.44531
▁transcriptional	-9.44543
▁spectrum	-9.44574
▁sc	-9.44577
▁reactions	-9.4465
▁phosphate	-9.44696
▁ion	-9.44801
▁intra	-9.44822
▁2018	-9.44917
▁snps	-9.45032
▁become	-9.45073
▁date	-9.45097
▁maternal	-9.45149
▁working	-9.45163
▁exhibited	-9.45323
▁rapid	-9.45376
▁2001	-9.4553
▁blot	-9.45559
▁wall	-9.45623
▁allowed	-9.45641
▁already	-9.45945
▁little	-9.45953
▁shape	-9.45965
as	-9.46027
▁movement	-9.46248
ch	-9.46259
▁labeled	-9.46289
▁take	-9.46332
▁gc	-9.46349
▁service	-9.46365
▁humans	-9.46389
▁setting	-9.46422
▁remaining	-9.46438
▁probe	-9.46562
▁cu	-9.4667
ization	-9.46706
▁employed	-9.46746
▁examination	-9.46768
ine	-9.46865
▁antigen	-9.46905
▁differential	-9.4691
▁focused	-9.47005
▁purified	-9.47149
▁stroke	-9.47234
▁categories	-9.47245
▁plate	-9.47266
▁needs	-9.473
▁mirna	-9.47438
▁lateral	-9.47554
▁atp	-9.47584
▁depth	-9.47641
▁recovery	-9.47702
▁foundation	-9.47741
▁curves	-9.47765
ac	-9.47776
▁dl	-9.47793
▁contained	-9.4781
▁explained	-9.47932
▁106	-9.48051
▁agents	-9.48114
▁da	-9.48122
▁commonly	-9.4814
▁targeting	-9.48183
▁list	-9.48248
▁syndrome	-9.4828
▁gas	-9.48645
▁cr	-9.48648
▁peripheral	-9.48732
▁aged	-9.4875
▁reducing	-9.48882
▁id	-9.48938
▁interpretation	-9.48954
▁posterior	-9.49004
▁targeted	-9.49034
▁kb	-9.49051
▁widely	-9.49115
▁basal	-9.49143
▁variability	-9.4916
▁simulation	-9.49192
▁crystal	-9.49229
57	-9.49474
▁considering	-9.49587
▁evolution	-9.49611
▁generate	-9.49645
▁speed	-9.49674
▁question	-9.49835
▁plasmid	-9.49902
▁block	-9.49923
▁plus	-9.50004
▁plot	-9.50034
▁past	-9.50066
▁place	-9.50224
▁sodium	-9.5024
▁105	-9.50446
▁alpha	-9.50669
▁online	-9.50695
▁implementation	-9.50739
▁living	-9.51
▁stimulus	-9.51048
▁nano	-9.5126
▁endothelial	-9.51269
▁pr	-9.51327
ness	-9.51361
▁thickness	-9.51383
▁south	-9.51405
▁mirnas	-9.51422
▁sufficient	-9.51513
▁manner	-9.51525
▁external	-9.5163
▁trans	-9.51644
▁steps	-9.51645
▁reviewed	-9.51659
▁allows	-9.51675
▁acquisition	-9.51887
▁hyper	-9.51896
▁calcium	-9.51986
▁manufacturer	-9.51992
▁obesity	-9.52109
▁analysed	-9.52171
▁ag	-9.52267
▁height	-9.5227
▁specimens	-9.52304
▁angle	-9.52354
ns	-9.52451
ct	-9.52487
▁statistics	-9.52533
▁instead	-9.526
▁quantification	-9.52633
▁localization	-9.52744
▁liquid	-9.52779
▁investigation	-9.53032
45	-9.53069
▁kidney	-9.53084
▁includes	-9.53105
an	-9.53128
▁separate	-9.53399
▁peptides	-9.53502
▁lps	-9.53566
▁typical	-9.53617
▁neuronal	-9.53687
▁respiratory	-9.53722
▁classified	-9.53727
▁ar	-9.53744
▁basic	-9.53764
▁correlations	-9.53771
▁displayed	-9.53796
▁hydrogen	-9.53905
32	-9.54036
▁tg	-9.54077
▁severity	-9.54221
▁called	-9.54288
▁earlier	-9.543
▁possibility	-9.54308
▁divided	-9.54311
▁just	-9.54373
▁metal	-9.54404
▁maintained	-9.54538
▁cytokines	-9.54557
▁ap	-9.54563
▁transcripts	-9.5472
▁bottom	-9.54908
▁dynamic	-9.54963
▁understand	-9.54982
▁sleep	-9.5499
▁beta	-9.5505
▁explain	-9.55064
▁replication	-9.55128
▁examine	-9.55206
▁appears	-9.55207
▁nd	-9.55276
31	-9.55294
▁costs	-9.5536
▁variety	-9.55389
▁molecule	-9.55405
▁true	-9.55471
ate	-9.55475
▁tools	-9.5557
▁international	-9.55575
▁requires	-9.55679
▁output	-9.55766
▁coverage	-9.55972
▁promote	-9.55998
ar	-9.56112
▁snp	-9.562
▁org	-9.56213
▁trend	-9.56222
▁inclusion	-9.56293
▁forward	-9.56313
▁dark	-9.56345
▁ec	-9.56494
▁en	-9.5651
▁met	-9.56631
▁mechanical	-9.56673
▁prevent	-9.56685
▁typically	-9.56733
▁institutional	-9.56745
▁ra	-9.56766
▁neutral	-9.5681
▁disorder	-9.56851
▁ni	-9.56852
▁119	-9.56915
▁magnetic	-9.56933
▁mmol	-9.56971
▁complexes	-9.57201
▁technologies	-9.57246
▁datasets	-9.57379
▁fluid	-9.57426
▁applications	-9.57448
▁eye	-9.57544
29	-9.57553
▁missing	-9.57657
▁entire	-9.57683
▁japan	-9.57747
▁cholesterol	-9.57937
▁acquired	-9.58016
▁start	-9.58207
▁researchers	-9.58271
▁families	-9.58354
▁frequently	-9.58374
▁student	-9.58413
▁device	-9.58494
▁morphology	-9.58531
ra	-9.58562
▁discussed	-9.58573
▁ratios	-9.58598
▁contribution	-9.5868
▁maps	-9.58724
▁overexpression	-9.58729
▁extracellular	-9.58842
▁pm	-9.58857
▁cdna	-9.58916
▁conventional	-9.58934
▁leaf	-9.59126
36	-9.59238
ion	-9.59284
ve	-9.59491
▁optical	-9.59565
▁consider	-9.59669
▁safety	-9.59706
▁gain	-9.59708
▁250	-9.59713
▁methyl	-9.59718
▁department	-9.59859
▁akt	-9.6012
▁run	-9.60255
▁distributed	-9.60273
▁ref	-9.60322
▁nucleotide	-9.60379
▁adverse	-9.60434
▁iron	-9.6069
▁pair	-9.60767
▁mentioned	-9.60872
▁comparable	-9.60877
▁existing	-9.60884
▁assembly	-9.60931
▁inhibitory	-9.60945
▁phylogenetic	-9.60996
▁roles	-9.6102
▁ethanol	-9.61023
▁behavioral	-9.61038
▁ligand	-9.61069
▁require	-9.61212
▁partial	-9.613
▁ex	-9.61375
▁anterior	-9.61565
▁fatty	-9.61616
▁fast	-9.61664
▁cardiovascular	-9.61721
▁text	-9.61728
▁confirm	-9.61752
▁remained	-9.61767
01	-9.61794
▁parents	-9.61868
▁regard	-9.61878
001	-9.61973
▁mri	-9.62002
▁oil	-9.62031
▁contain	-9.62079
▁relation	-9.62103
▁separated	-9.62191
▁box	-9.62213
▁malaria	-9.62288
▁origin	-9.62334
▁ensure	-9.62352
▁md	-9.62383
▁again	-9.62572
▁shift	-9.6262
▁similarity	-9.6264
▁ic	-9.62673
▁staff	-9.62679
▁my	-9.62737
▁leaves	-9.6278
▁recognition	-9.62782
▁sirna	-9.62791
▁choice	-9.62812
▁intervals	-9.62846
▁oh	-9.62955
▁perform	-9.63004
▁characteristic	-9.63064
▁chi	-9.63093
bl	-9.63174
ma	-9.63259
▁positions	-9.63295
44	-9.6335
▁taking	-9.63449
▁chosen	-9.63453
▁gp	-9.63547
▁square	-9.63596
di	-9.63611
▁encoding	-9.63671
▁limit	-9.63682
▁face	-9.63715
▁prevention	-9.63718
▁zero	-9.63864
▁enriched	-9.63898
▁efficient	-9.64044
▁category	-9.64116
▁anxiety	-9.64135
fig	-9.64202
▁errors	-9.64223
▁assigned	-9.64253
▁deletion	-9.64335
▁benefit	-9.64373
▁stored	-9.64431
▁tgf	-9.64445
▁nmr	-9.64486
▁appear	-9.64497
▁laser	-9.64518
▁sh	-9.64542
▁nc	-9.64572
cl	-9.64593
▁cc	-9.6463
▁reason	-9.64664
ne	-9.64672
▁communication	-9.64734
▁written	-9.64779
▁onto	-9.64867
▁differ	-9.64881
▁injected	-9.64958
▁uv	-9.64964
▁fusion	-9.65037
na	-9.65046
▁feedback	-9.65152
▁ten	-9.65183
▁chemotherapy	-9.65277
▁invasion	-9.65309
▁raw	-9.65315
▁count	-9.6533
▁own	-9.65386
▁dietary	-9.65549
▁thermo	-9.65585
▁approval	-9.65729
▁correct	-9.65787
▁cat	-9.65825
▁viability	-9.65877
▁carcinoma	-9.65903
70	-9.65903
▁seq	-9.65992
▁genomes	-9.66025
▁frequencies	-9.66183
▁aim	-9.6622
▁pt	-9.66227
▁microscope	-9.66269
▁altered	-9.66335
▁cycles	-9.66393
▁nt	-9.66394
▁nitrogen	-9.66442
▁sizes	-9.66448
▁plots	-9.66474
▁metastasis	-9.6666
▁reflect	-9.66733
figure	-9.66752
▁aspects	-9.6677
▁avoid	-9.66812
▁seems	-9.66836
▁putative	-9.66877
▁depending	-9.66928
▁transferred	-9.66936
▁np	-9.66973
▁thermal	-9.66991
▁mn	-9.66992
▁united	-9.67184
▁recruitment	-9.67213
▁bd	-9.67334
▁mi	-9.67342
▁organization	-9.67421
▁european	-9.67447
▁vaccine	-9.67573
te	-9.67644
le	-9.67659
▁framework	-9.67753
35	-9.68059
▁involvement	-9.68291
▁financial	-9.68457
▁advanced	-9.68541
▁complications	-9.68558
▁secretion	-9.68704
▁randomly	-9.68711
▁diagnosed	-9.68717
▁stat	-9.68852
▁participate	-9.6891
▁parallel	-9.68915
▁challenge	-9.68935
▁completed	-9.68971
ized	-9.69054
▁she	-9.69106
▁hypertension	-9.69161
▁alignment	-9.69196
▁completely	-9.69285
▁recombinant	-9.6932
▁involving	-9.69324
▁absorption	-9.69337
▁administered	-9.69361
▁probably	-9.6937
▁demographic	-9.69385
▁repair	-9.69391
33	-9.6945
▁inhibited	-9.69481
▁systematic	-9.69504
▁variant	-9.6959
▁overnight	-9.69639
▁load	-9.697
▁traditional	-9.69727
▁issues	-9.69791
▁enrichment	-9.69808
▁pe	-9.69835
▁yeast	-9.69906
▁electronic	-9.70002
▁toward	-9.70018
▁125	-9.70023
▁income	-9.70064
▁mapping	-9.7016
▁array	-9.702
▁candidate	-9.70208
▁differentially	-9.70212
▁art	-9.70302
▁predict	-9.70313
90	-9.7032
▁users	-9.70397
▁sa	-9.70405
▁quantified	-9.7044
no	-9.70447
▁country	-9.70449
▁simulations	-9.70486
▁commercial	-9.70516
▁peaks	-9.70517
▁cortical	-9.70535
ps	-9.70571
▁toxicity	-9.70655
▁objective	-9.70788
▁fa	-9.70816
▁rich	-9.7092
▁organic	-9.71015
▁dm	-9.71044
▁solutions	-9.71106
▁traits	-9.71137
▁selective	-9.7119
▁arm	-9.712
▁qpcr	-9.71283
▁doses	-9.71292
it	-9.71307
▁amplification	-9.71329
▁effectiveness	-9.7134
▁subjected	-9.71373
▁mt	-9.71468
▁isolation	-9.71486
▁introduced	-9.71512
▁team	-9.71527
▁always	-9.71572
▁behaviour	-9.71704
▁pet	-9.71752
▁computed	-9.71804
▁plays	-9.71869
▁settings	-9.71879
▁104	-9.71892
▁membranes	-9.71941
▁systemic	-9.72013
▁scan	-9.72188
▁pulmonary	-9.72192
▁stimulated	-9.72275
▁reporting	-9.72292
▁downstream	-9.72321
▁instance	-9.72388
▁remain	-9.72533
▁cold	-9.72618
▁motion	-9.72698
bp	-9.72728
▁occurrence	-9.72748
▁saline	-9.72748
▁correction	-9.72767
ab	-9.72774
▁rabbit	-9.72831
▁language	-9.7285
▁km	-9.72855
▁code	-9.72866
▁108	-9.72897
▁perceived	-9.72912
42	-9.72937
max	-9.73053
▁dry	-9.73077
▁vitamin	-9.73083
▁inc	-9.73108
▁microbial	-9.73149
▁joint	-9.73163
▁whose	-9.73227
▁vehicle	-9.7338
▁yellow	-9.73474
▁supplemented	-9.73524
▁gal	-9.7361
▁latter	-9.73666
▁mr	-9.73778
▁nucleus	-9.73808
de	-9.73846
▁fluorescent	-9.73847
▁integrated	-9.73907
▁achieve	-9.73948
▁lowest	-9.73952
▁person	-9.74103
▁sds	-9.74132
▁scheme	-9.74135
▁exhibit	-9.74177
▁protection	-9.74256
▁filter	-9.74333
yl	-9.74397
▁turn	-9.74562
▁channels	-9.74569
▁endogenous	-9.74916
▁002	-9.74981
▁amplitude	-9.75012
▁tlr	-9.75018
▁collagen	-9.75054
▁address	-9.75099
▁nevertheless	-9.7528
▁immediately	-9.75413
▁communities	-9.75454
cs	-9.75468
▁likelihood	-9.75494
▁loading	-9.75554
▁economic	-9.75567
▁inhibit	-9.75609
▁tr	-9.75747
▁nor	-9.75765
▁description	-9.75835
▁br	-9.7591
▁tube	-9.75975
▁loop	-9.75993
▁1999	-9.76088
▁ranging	-9.76156
▁elisa	-9.76213
▁respective	-9.76235
▁equivalent	-9.76261
▁explore	-9.76331
▁sum	-9.76417
▁intermediate	-9.76504
▁com	-9.76516
▁regulate	-9.76561
▁estimation	-9.76584
▁cytokine	-9.76606
▁theory	-9.76694
▁extracts	-9.76714
▁reasons	-9.76913
▁false	-9.76971
▁reached	-9.76993
▁marked	-9.76995
▁removal	-9.76999
▁thereby	-9.77035
▁feeding	-9.77167
▁dysfunction	-9.77193
▁fc	-9.77213
▁recommended	-9.77439
▁fisher	-9.77499
▁genotypes	-9.77613
▁enhance	-9.77694
▁loci	-9.7777
▁identity	-9.77836
▁crucial	-9.77909
▁mid	-9.7791
▁clustering	-9.7802
▁rare	-9.78062
▁110	-9.78159
▁asked	-9.78182
▁ev	-9.78214
▁107	-9.7827
▁embryos	-9.78282
▁identical	-9.78295
▁ring	-9.78342
▁technical	-9.78369
▁ray	-9.78389
▁native	-9.78478
▁005	-9.78559
ant	-9.78597
▁item	-9.78816
▁representation	-9.78819
▁mmp	-9.78844
▁million	-9.78845
▁cp	-9.78879
▁medication	-9.78885
▁broad	-9.7891
▁suitable	-9.78971
▁egfr	-9.79035
▁salt	-9.79055
▁briefly	-9.79116
▁nr	-9.79186
▁matched	-9.79208
▁ne	-9.79212
▁successful	-9.79284
▁absolute	-9.79342
▁developmental	-9.79427
▁viruses	-9.79493
▁affinity	-9.79498
▁tri	-9.79656
▁seed	-9.7966
▁intestinal	-9.79733
▁urban	-9.7976
▁sf	-9.79766
▁shared	-9.79785
▁knockdown	-9.79809
▁tolerance	-9.79893
▁benefits	-9.79918
▁accordance	-9.79968
▁am	-9.7997
▁agent	-9.80048
▁ga	-9.80057
▁gradient	-9.80112
▁starting	-9.80136
▁rad	-9.80284
▁ht	-9.80293
▁transgenic	-9.80325
▁instructions	-9.80381
▁mol	-9.80424
▁nh	-9.80439
▁fed	-9.80517
▁gap	-9.80584
▁twice	-9.80586
▁clinic	-9.8071
▁rest	-9.8077
▁listed	-9.80778
ian	-9.80798
▁experienced	-9.80883
▁driven	-9.81083
▁interface	-9.81183
▁locations	-9.81188
▁rank	-9.81204
▁invasive	-9.81279
▁policy	-9.81311
▁pg	-9.81324
▁minimal	-9.81376
▁programs	-9.81391
▁balance	-9.81423
▁gm	-9.81441
▁dimensional	-9.8147
▁voltage	-9.81484
ts	-9.81607
▁ac	-9.81612
▁sexual	-9.81673
▁element	-9.81679
▁tasks	-9.81704
▁growing	-9.81731
100	-9.81875
▁accurate	-9.81892
▁workers	-9.8192
▁metabolites	-9.81928
min	-9.82108
▁american	-9.82182
▁implemented	-9.82183
▁caspase	-9.82186
▁emotional	-9.82197
▁user	-9.82202
▁heterogeneity	-9.8227
▁percent	-9.82344
▁closely	-9.82352
▁variations	-9.82466
▁amounts	-9.82506
▁great	-9.82536
▁extended	-9.8254
▁mostly	-9.82577
▁locus	-9.82608
▁transcript	-9.82663
▁construct	-9.82664
▁aldrich	-9.8272
▁ethical	-9.82769
▁impaired	-9.82776
▁determination	-9.82908
▁give	-9.82936
▁fragments	-9.82981
▁live	-9.82986
pt	-9.83042
▁centre	-9.83053
▁consequently	-9.83061
▁dominant	-9.83083
▁particle	-9.83108
▁describe	-9.83115
▁odds	-9.83224
▁translation	-9.83252
▁cancers	-9.83267
▁dc	-9.83314
▁ps	-9.83381
▁thought	-9.8343
▁distributions	-9.83489
▁mild	-9.83509
▁reach	-9.83511
▁cs	-9.83523
▁robust	-9.83549
▁decreases	-9.83586
▁mono	-9.83588
▁burden	-9.83654
▁chinese	-9.83703
▁referred	-9.83708
▁cox	-9.83818
▁devices	-9.83846
▁wave	-9.8389
▁adhesion	-9.83914
▁abbreviations	-9.84141
▁purchased	-9.84161
ms	-9.84207
▁respondents	-9.84256
▁integration	-9.84306
▁outside	-9.84368
▁counts	-9.84372
▁personal	-9.84398
▁motif	-9.84479
▁primarily	-9.84519
▁transfection	-9.84549
▁ge	-9.84585
▁nacl	-9.84749
▁eq	-9.84778
▁parts	-9.84793
▁milk	-9.84824
▁predictive	-9.84852
▁interesting	-9.84858
ous	-9.84883
▁con	-9.84888
▁max	-9.84982
▁initially	-9.85033
▁fragment	-9.85062
▁diabetic	-9.85087
▁tc	-9.85182
▁vi	-9.85323
▁csf	-9.85398
▁matter	-9.85406
▁constructed	-9.85454
▁modification	-9.85456
▁eu	-9.85468
▁magnitude	-9.85484
▁initiation	-9.85584
▁attributed	-9.85585
▁diverse	-9.85657
et	-9.85794
▁sense	-9.85836
▁exact	-9.85877
▁bond	-9.85929
▁presentation	-9.85946
▁link	-9.85995
▁possibly	-9.85999
▁purpose	-9.86032
▁substantial	-9.8605
▁validated	-9.86136
▁writing	-9.86203
▁randomized	-9.86247
▁van	-9.86247
▁tumour	-9.86374
▁library	-9.8641
▁nerve	-9.86809
▁pp	-9.86899
▁diluted	-9.86907
▁fiber	-9.86997
▁express	-9.87
▁measuring	-9.87005
▁untreated	-9.87066
▁ice	-9.87118
▁platform	-9.87284
▁subunit	-9.87289
characterization	-9.8738
ene	-9.87393
▁prostate	-9.87396
▁deep	-9.87409
▁diffusion	-9.87505
▁hcc	-9.8754
▁positively	-9.87602
▁appeared	-9.87613
▁participated	-9.87668
▁numerous	-9.87688
▁velocity	-9.87698
▁cf	-9.87794
▁ser	-9.87933
▁concept	-9.88062
▁processed	-9.88062
▁graph	-9.88063
▁classes	-9.88066
▁tp	-9.88068
▁reactive	-9.88133
▁replicates	-9.88198
▁assumed	-9.88205
37	-9.88304
▁width	-9.88372
▁film	-9.88405
▁lesion	-9.88428
▁layers	-9.88435
▁coefficients	-9.88455
▁minor	-9.88637
▁pb	-9.88717
▁nanoparticles	-9.88736
▁alterations	-9.8874
▁behaviors	-9.88795
▁mc	-9.88816
▁fl	-9.89025
▁induces	-9.89057
el	-9.89065
▁actual	-9.89132
▁participation	-9.89176
▁plane	-9.89178
▁nk	-9.8924
ase	-9.89277
▁largely	-9.89279
▁atoms	-9.89284
▁maintenance	-9.89293
▁cv	-9.89316
▁103	-9.89318
▁issue	-9.89476
▁em	-9.89478
▁north	-9.89542
▁page	-9.89673
▁independently	-9.89679
▁regional	-9.89726
▁periods	-9.89743
▁para	-9.89746
ton	-9.89773
▁receiving	-9.89775
▁antioxidant	-9.8979
65	-9.89879
▁electrode	-9.90031
ul	-9.90091
▁rural	-9.90119
▁simulated	-9.90132
▁net	-9.9021
▁maintain	-9.90224
▁gi	-9.90255
▁expansion	-9.9026
▁definition	-9.90344
▁apoptotic	-9.90353
▁chip	-9.90374
▁hour	-9.90463
▁mature	-9.90475
▁1998	-9.90481
▁weak	-9.90526
▁phenotypes	-9.90578
▁fetal	-9.9059
▁copy	-9.90603
▁changed	-9.90702
▁words	-9.9072
▁protective	-9.90754
ci	-9.9078
▁charge	-9.90812
▁africa	-9.90894
▁easily	-9.90987
▁partially	-9.9103
▁rice	-9.91175
▁oxidation	-9.91179
▁unclear	-9.91253
▁organ	-9.91255
▁cas	-9.91298
▁separation	-9.91352
▁amplified	-9.91361
▁zone	-9.91464
▁susceptibility	-9.91498
ated	-9.91513
▁photo	-9.9153
▁bc	-9.91552
▁pf	-9.91569
▁gut	-9.91623
▁why	-9.9163
▁glass	-9.9171
▁created	-9.91728
▁exon	-9.91901
▁paired	-9.91943
▁goal	-9.91945
▁ti	-9.91948
▁invitrogen	-9.91955
ler	-9.92006
▁transformation	-9.92128
▁adjacent	-9.92134
▁autophagy	-9.92144
▁semi	-9.92218
▁varied	-9.92454
▁nine	-9.92504
▁defects	-9.92666
▁mv	-9.9282
▁wrote	-9.9297
▁temperatures	-9.92973
▁deficiency	-9.92975
ae	-9.92975
▁success	-9.92978
▁artery	-9.93013
to	-9.93024
▁tm	-9.93025
▁sea	-9.93092
▁influenced	-9.9313
▁representing	-9.9313
▁coupled	-9.93267
▁importantly	-9.93314
▁know	-9.9339
▁ki	-9.93414
41	-9.93635
▁synaptic	-9.93677
▁cytometry	-9.93732
▁fields	-9.93736
▁sensors	-9.93953
ds	-9.94034
▁weighted	-9.94083
▁protocols	-9.94122
▁erk	-9.94125
▁storage	-9.94183
▁ip	-9.94214
▁dorsal	-9.94215
▁cyp	-9.94223
▁exist	-9.94232
▁restricted	-9.94245
▁orientation	-9.94298
▁forest	-9.94318
nd	-9.94329
▁neuro	-9.94477
▁transformed	-9.94513
▁facilitate	-9.94527
▁car	-9.94536
▁residue	-9.94548
▁alleles	-9.94664
▁logistic	-9.94669
▁vegf	-9.94769
▁df	-9.94823
43	-9.94891
▁analyze	-9.94913
▁consensus	-9.9496
ur	-9.9499
▁003	-9.95007
▁slow	-9.9503
002	-9.95075
▁frequent	-9.95153
▁delay	-9.9519
▁successfully	-9.95212
▁subset	-9.95274
▁beyond	-9.9528
▁zn	-9.95346
▁session	-9.95361
▁dmso	-9.9537
▁doi	-9.95376
▁extensive	-9.95376
▁san	-9.95419
▁comprehensive	-9.95512
▁probes	-9.95517
▁colon	-9.95521
▁arrows	-9.95554
▁donor	-9.95564
cr	-9.95742
▁synthesized	-9.95745
▁records	-9.95865
▁articles	-9.96024
▁deficient	-9.96027
▁lymph	-9.96202
▁bm	-9.96256
▁object	-9.96292
▁supplement	-9.96321
▁nuclei	-9.96468
▁composed	-9.96555
▁display	-9.96606
▁screen	-9.9661
▁emission	-9.96616
▁beneficial	-9.9667
▁segment	-9.96712
▁chamber	-9.96719
br	-9.96784
▁rapidly	-9.96786
▁antibiotic	-9.96886
▁impairment	-9.96919
▁gold	-9.96967
▁conjugated	-9.97035
▁ions	-9.97066
39	-9.9707
▁special	-9.97128
▁resource	-9.97166
est	-9.972
▁discovery	-9.97295
▁bind	-9.97333
▁hsp	-9.97374
▁vaccination	-9.9744
▁overlap	-9.97456
▁seem	-9.9752
▁118	-9.97523
▁corrected	-9.97717
▁placebo	-9.97755
▁apparent	-9.97756
▁tris	-9.97787
▁package	-9.97795
▁frame	-9.97798
▁bands	-9.97872
▁separately	-9.98036
▁name	-9.98057
▁member	-9.98207
▁inside	-9.98252
▁practices	-9.98259
▁advantage	-9.98337
▁depends	-9.98345
ga	-9.98357
▁consists	-9.98386
▁get	-9.98437
▁residual	-9.98447
se	-9.98448
▁edge	-9.98469
▁upregulated	-9.98576
▁hepatic	-9.98693
si	-9.98694
▁extension	-9.98723
▁lab	-9.98759
▁mitochondria	-9.98789
▁psychological	-9.9886
▁largest	-9.98914
▁organisms	-9.98926
▁gastric	-9.99012
▁multivariate	-9.99041
▁mda	-9.99051
▁applicable	-9.99137
▁capture	-9.99138
▁te	-9.99229
▁examples	-9.99324
▁sciences	-9.99343
▁conversion	-9.99392
▁microarray	-9.99442
per	-9.99457
▁sensory	-9.99575
▁chromatin	-9.99601
▁consisted	-9.99604
▁fractions	-9.99644
▁1997	-9.99695
▁plan	-9.99846
▁130	-10.0005
▁clinically	-10.0011
▁spinal	-10.0012
▁climate	-10.0015
▁substrates	-10.002
▁household	-10.0021
▁connected	-10.0022
▁evolutionary	-10.0025
ri	-10.0025
60	-10.0027
▁vertical	-10.003
▁gr	-10.0041
▁itself	-10.0046
▁affects	-10.005
mo	-10.0052
pa	-10.0056
▁etc	-10.0065
▁varying	-10.0066
▁myc	-10.0076
▁le	-10.0099
▁parent	-10.0101
▁polymer	-10.0105
▁fresh	-10.0105
▁reporter	-10.0123
▁au	-10.0127
▁visible	-10.0139
▁released	-10.0141
▁qualitative	-10.0157
▁land	-10.016
▁ho	-10.0161
▁producing	-10.0162
▁hybrid	-10.0164
▁suppression	-10.0167
▁nearly	-10.0169
▁od	-10.0169
▁aging	-10.0171
ha	-10.0171
▁situation	-10.0172
▁metastatic	-10.0174
56	-10.0176
▁pca	-10.0179
▁allowing	-10.018
51	-10.0182
▁theoretical	-10.0182
▁hg	-10.0184
▁biomass	-10.0185
▁never	-10.0186
▁modeling	-10.0188
iv	-10.0189
▁regular	-10.019
▁pseudo	-10.0194
▁infants	-10.0195
▁wnt	-10.0204
▁biomarkers	-10.0205
▁statement	-10.0209
▁cre	-10.021
▁coated	-10.0223
▁conflicts	-10.0227
▁identifying	-10.0232
▁soluble	-10.0234
▁calculate	-10.0235
▁abnormal	-10.0236
▁lv	-10.0246
▁pathogen	-10.0248
▁synthetic	-10.025
▁128	-10.0252
▁modifications	-10.0252
▁signs	-10.0259
▁recognized	-10.0272
▁pulse	-10.0279
▁null	-10.0285
▁barrier	-10.0286
ni	-10.0289
▁directed	-10.0289
▁abundant	-10.0293
▁hf	-10.0303
▁scanning	-10.0311
▁influenza	-10.0312
▁db	-10.0313
▁detail	-10.0314
▁af	-10.0326
▁es	-10.0329
▁ta	-10.033
▁makes	-10.0333
▁reading	-10.0335
▁pl	-10.0335
▁interact	-10.0338
▁ltd	-10.0339
▁longitudinal	-10.0346
▁enough	-10.0347
▁supernatant	-10.0348
▁decline	-10.035
▁complexity	-10.0351
▁ground	-10.0355
▁reliability	-10.0361
▁hoc	-10.0361
▁polymerase	-10.0373
▁efforts	-10.0378
▁pure	-10.0382
▁entry	-10.0398
▁exclusion	-10.04
▁pathological	-10.0402
▁distal	-10.0405
▁prognosis	-10.0415
▁trained	-10.0417
▁fruit	-10.042
▁biochemical	-10.0421
▁spread	-10.0424
▁hpv	-10.0425
▁visit	-10.0425
▁recruited	-10.0434
▁tables	-10.0435
ex	-10.0439
▁perception	-10.0445
▁environments	-10.0454
▁dilution	-10.0456
▁bovine	-10.0458
▁adaptation	-10.0461
▁cord	-10.0463
▁skills	-10.0466
ium	-10.0469
▁simultaneously	-10.0475
▁fibrosis	-10.0481
▁window	-10.0487
▁par	-10.0491
▁180	-10.0493
▁parental	-10.0498
mm	-10.0498
▁limitation	-10.0499
pro	-10.05
▁annual	-10.051
▁asthma	-10.051
▁ed	-10.0513
▁rr	-10.0513
▁promising	-10.0515
▁challenges	-10.0518
▁gray	-10.0536
▁reliable	-10.0537
▁rh	-10.0545
▁morphological	-10.0545
▁600	-10.0554
▁ba	-10.056
▁forming	-10.0562
son	-10.0563
▁superior	-10.0568
▁principal	-10.0571
▁illness	-10.0577
ive	-10.0583
▁vectors	-10.0584
▁pathogens	-10.0586
▁otherwise	-10.0596
ti	-10.0597
▁bl	-10.0599
▁calculation	-10.0604
bi	-10.0612
▁planning	-10.0618
▁biosynthesis	-10.0619
▁negatively	-10.0624
▁figs	-10.0626
▁kda	-10.0632
▁your	-10.0632
▁solvent	-10.0633
▁regulating	-10.0645
mol	-10.0647
▁standards	-10.0655
▁algorithms	-10.0655
da	-10.0655
▁kept	-10.0657
▁extra	-10.0658
67	-10.066
▁mothers	-10.0667
ap	-10.067
ie	-10.068
▁sec	-10.0684
▁phases	-10.0685
▁tract	-10.07
▁template	-10.07
▁antibiotics	-10.0702
▁trees	-10.0707
▁adaptive	-10.0716
▁inner	-10.0717
▁wound	-10.0718
▁cg	-10.072
▁harvested	-10.0724
▁reduces	-10.0724
▁ovarian	-10.0735
▁pancreatic	-10.0738
ph	-10.0739
▁140	-10.0745
▁cleavage	-10.0747
▁dried	-10.0747
▁path	-10.0747
▁shorter	-10.0748
▁spin	-10.0753
▁syn	-10.0757
▁dual	-10.0767
▁too	-10.0775
▁004	-10.0779
▁documented	-10.0781
rd	-10.0787
▁abdominal	-10.0791
▁fibers	-10.0793
▁modulation	-10.0794
▁monitored	-10.0798
▁luciferase	-10.0798
▁exchange	-10.0811
▁tag	-10.0814
▁aa	-10.0814
▁utilized	-10.0816
▁absent	-10.0817
▁rise	-10.0817
46	-10.0824
▁recurrence	-10.0826
▁connectivity	-10.0826
▁facility	-10.0836
▁prognostic	-10.0838
▁adherence	-10.0841
▁repeat	-10.0855
▁rf	-10.0855
▁receive	-10.0859
▁reagent	-10.086
▁brown	-10.0861
▁facilities	-10.0865
▁define	-10.0877
▁electro	-10.0879
▁sm	-10.0879
▁funded	-10.0879
▁coupling	-10.0884
▁effectively	-10.0888
▁explored	-10.0897
po	-10.0904
▁hd	-10.0906
▁african	-10.0908
▁larvae	-10.0912
▁histone	-10.0917
▁physicians	-10.0925
▁ld	-10.0925
▁thin	-10.0926
ry	-10.0929
▁schematic	-10.0933
▁auc	-10.0934
▁sn	-10.0942
▁pan	-10.0952
▁hospitals	-10.096
▁col	-10.0965
▁board	-10.0969
▁pooled	-10.0973
▁blocks	-10.1003
▁occurring	-10.1008
▁depletion	-10.1009
▁namely	-10.1009
▁distances	-10.1014
▁notably	-10.1017
▁genus	-10.1019
003	-10.1019
▁hcv	-10.1024
▁segments	-10.1028
acknowledgements	-10.1029
▁infectious	-10.1032
▁vary	-10.1041
▁phospho	-10.1042
▁recommendations	-10.1043
▁mp	-10.1045
▁dependence	-10.1046
▁methodology	-10.1057
▁interviews	-10.1057
▁mother	-10.1062
▁sessions	-10.1071
▁soft	-10.1074
▁arabidopsis	-10.1075
▁scales	-10.1079
▁urine	-10.1083
▁bcl	-10.1098
▁city	-10.1104
▁localized	-10.1106
▁composite	-10.1112
▁ranged	-10.1114
ba	-10.1117
▁catalytic	-10.1117
▁improving	-10.1122
am	-10.1124
▁hla	-10.1125
▁neuron	-10.1131
vi	-10.1153
▁panels	-10.1154
hi	-10.1159
▁101	-10.1164
▁assistance	-10.1188
▁reveal	-10.1189
▁beam	-10.1194
▁web	-10.1203
▁coronary	-10.1206
▁sr	-10.1207
ter	-10.1207
▁refinement	-10.1213
▁1996	-10.1219
▁government	-10.1227
▁deaths	-10.1229
▁hs	-10.1229
▁construction	-10.1231
▁inhibits	-10.1231
▁operation	-10.1235
▁computer	-10.124
▁tf	-10.124
▁clones	-10.1244
▁corresponds	-10.1245
▁outer	-10.1245
48	-10.1245
▁cervical	-10.1247
▁standardized	-10.1248
▁underwent	-10.1249
▁nih	-10.1251
▁precision	-10.1252
▁super	-10.126
▁computational	-10.1261
▁adolescents	-10.1261
▁instrument	-10.1275
▁scenario	-10.1297
▁combinations	-10.1298
▁cap	-10.1303
▁reflections	-10.1307
▁atom	-10.1315
▁strand	-10.1316
▁116	-10.1348
▁spectral	-10.1352
▁reproductive	-10.1357
▁involves	-10.1361
▁tip	-10.1364
▁video	-10.1369
▁annotation	-10.137
▁create	-10.1371
▁observe	-10.1372
▁hormone	-10.1372
ge	-10.1384
▁parasite	-10.1385
▁qrt	-10.1386
▁oa	-10.1389
▁sampled	-10.1389
▁remove	-10.139
▁files	-10.1391
▁121	-10.1393
▁cerebral	-10.1394
▁treat	-10.1402
▁promoting	-10.1405
▁app	-10.1406
▁du	-10.1409
▁pathogenesis	-10.1417
▁validity	-10.1419
▁experiences	-10.142
80	-10.1424
ir	-10.1425
▁111	-10.1431
▁affecting	-10.1434
▁share	-10.1436
▁proximal	-10.144
▁mscs	-10.145
▁man	-10.1455
▁accession	-10.1457
▁deposition	-10.1458
▁tail	-10.1458
▁decreasing	-10.1466
▁biology	-10.1467
▁organs	-10.1468
▁nps	-10.1469
▁horizontal	-10.1478
ata	-10.1483
▁cy	-10.1484
62	-10.1485
▁admission	-10.1493
▁spp	-10.1501
▁society	-10.1502
▁explanation	-10.1504
▁117	-10.1506
▁promotes	-10.1511
▁routine	-10.1515
▁el	-10.1515
▁lost	-10.1518
▁evident	-10.1525
li	-10.1542
▁failed	-10.1544
▁signalling	-10.1546
▁filtered	-10.1548
▁cover	-10.155
▁crc	-10.1552
▁module	-10.1557
▁im	-10.1565
▁consequence	-10.1584
▁therapies	-10.1592
▁mammalian	-10.1597
▁summarized	-10.1597
▁susceptible	-10.1607
▁consequences	-10.1608
▁highlighted	-10.1613
▁surrounding	-10.1622
▁predictions	-10.1624
▁fungal	-10.1625
▁gave	-10.1627
▁hypoxia	-10.1628
▁ka	-10.1635
▁006	-10.1642
▁oxide	-10.1652
ij	-10.1655
▁professional	-10.1656
ko	-10.1658
ment	-10.1659
▁mobile	-10.1661
▁phenotypic	-10.1664
▁hypo	-10.1666
▁trait	-10.1666
▁acetate	-10.1667
▁cis	-10.1668
▁adding	-10.1675
▁started	-10.1678
▁pathology	-10.1678
▁besides	-10.1686
▁adequate	-10.1688
one	-10.169
▁ppm	-10.1691
ro	-10.1706
▁stronger	-10.1712
▁indicators	-10.1727
▁nutrient	-10.1728
▁auto	-10.1728
▁interview	-10.1732
▁transient	-10.1741
▁capable	-10.1742
▁malignant	-10.1747
▁guide	-10.1749
▁histological	-10.1753
▁115	-10.1762
▁consisting	-10.1765
▁indirect	-10.1769
▁beginning	-10.1774
▁let	-10.1775
aa	-10.1775
▁epi	-10.1778
▁situ	-10.1778
▁shock	-10.1781
▁surfaces	-10.1786
▁postoperative	-10.1791
▁correspond	-10.1797
▁recombination	-10.1799
▁clone	-10.1802
▁aimed	-10.1804
▁constructs	-10.1811
▁fibroblasts	-10.1815
▁loaded	-10.1821
ling	-10.1821
▁determining	-10.1822
ad	-10.1827
ip	-10.183
▁colleagues	-10.1833
▁differentiated	-10.1837
▁antimicrobial	-10.1838
▁rrna	-10.1842
▁spss	-10.1846
▁sequenced	-10.1852
▁dimensions	-10.1864
▁sectional	-10.1869
▁establish	-10.187
▁uses	-10.1871
▁confocal	-10.1874
▁regardless	-10.1888
▁causing	-10.1891
▁displacement	-10.1894
▁fixation	-10.1897
▁tau	-10.1898
▁colony	-10.1899
▁covered	-10.1902
▁visits	-10.1914
▁https	-10.1919
▁cytoplasmic	-10.1926
▁prospective	-10.1935
dm	-10.1939
▁serve	-10.1941
nt	-10.1944
▁adapted	-10.1946
▁plotted	-10.1951
▁roots	-10.1952
▁controlling	-10.1955
▁programme	-10.1957
▁regulates	-10.1957
▁centrifuged	-10.1976
▁toxic	-10.1989
47	-10.1995
▁pool	-10.2
▁phenomenon	-10.2003
▁fewer	-10.2008
▁plasmids	-10.2009
▁mapped	-10.2023
▁excellent	-10.2025
▁word	-10.2034
▁record	-10.2038
▁fitness	-10.2041
▁blotting	-10.2048
▁insertion	-10.2052
▁averaged	-10.2061
▁quite	-10.2064
▁digital	-10.2067
▁lineage	-10.2067
▁myocardial	-10.2075
▁performing	-10.2078
▁resonance	-10.2079
ensis	-10.2079
▁calibration	-10.2085
▁dissolved	-10.2109
up	-10.211
▁ds	-10.211
▁fine	-10.2116
▁fr	-10.2116
▁pregnant	-10.2116
▁hp	-10.2121
▁formula	-10.2122
▁1995	-10.2126
▁129	-10.2126
▁becomes	-10.2128
▁surveillance	-10.2133
▁neither	-10.2148
▁actions	-10.215
▁opposite	-10.2151
▁immunity	-10.2165
▁wang	-10.2166
▁maximal	-10.2166
ley	-10.2168
▁des	-10.2194
▁restriction	-10.2197
▁enhancement	-10.22
▁cdc	-10.2205
▁consistently	-10.2216
▁sham	-10.2219
▁diagram	-10.2222
▁activate	-10.2228
▁seeds	-10.2228
▁canada	-10.2233
ite	-10.2238
▁obese	-10.2239
▁embedded	-10.224
▁007	-10.2243
▁arrow	-10.2244
▁upstream	-10.2246
▁126	-10.2249
ating	-10.225
▁college	-10.225
▁retention	-10.2252
▁perspective	-10.2264
▁intact	-10.2266
▁gh	-10.2269
▁ligands	-10.2269
▁aligned	-10.2274
▁protease	-10.2277
▁ef	-10.2281
ner	-10.2281
▁educational	-10.2286
▁gamma	-10.2286
02	-10.2288
▁vessels	-10.2293
▁indicator	-10.2294
▁methanol	-10.2298
▁colonies	-10.2301
▁hc	-10.2303
▁marrow	-10.2312
▁circulating	-10.2313
▁excess	-10.2318
▁discharge	-10.2321
▁alter	-10.2321
▁008	-10.2322
▁australia	-10.2323
μ	-10.2323
▁season	-10.2329
49	-10.2336
▁sw	-10.2342
▁took	-10.2346
▁intrinsic	-10.235
▁chromatography	-10.236
▁mcf	-10.2362
▁trauma	-10.2364
▁melanoma	-10.2381
63	-10.2381
▁assessing	-10.2388
▁motifs	-10.2396
pr	-10.2406
▁considerable	-10.2416
▁agar	-10.2418
▁timing	-10.2421
▁illumina	-10.2421
▁102	-10.2426
▁frontal	-10.2428
▁blocking	-10.2441
tic	-10.2446
▁sl	-10.2448
▁implicated	-10.245
▁excitation	-10.2459
▁heavy	-10.2465
▁ce	-10.2466
▁databases	-10.2468
▁mix	-10.247
▁hcl	-10.2472
ec	-10.2475
68	-10.2476
▁electrical	-10.248
▁blast	-10.2485
cc	-10.249
▁purification	-10.2491
▁easy	-10.2499
▁hdl	-10.2504
▁concerns	-10.2508
▁rule	-10.251
▁rv	-10.2511
▁pathogenic	-10.2522
▁arg	-10.2535
▁hypothesized	-10.2537
ism	-10.2538
▁123	-10.2541
▁iso	-10.2544
▁west	-10.2545
▁grey	-10.2545
▁younger	-10.2546
▁functioning	-10.2546
▁spontaneous	-10.2548
▁conservation	-10.2549
▁124	-10.2549
▁hip	-10.2554
▁skeletal	-10.2557
▁portion	-10.256
▁santa	-10.2566
▁microbiota	-10.2566
▁closed	-10.2566
▁manual	-10.2568
▁rp	-10.2571
▁requirements	-10.2575
▁122	-10.2578
▁row	-10.2583
▁extremely	-10.2586
ary	-10.2588
▁160	-10.2594
▁delayed	-10.2597
▁ones	-10.2604
▁igf	-10.2604
▁ways	-10.2606
au	-10.2608
52	-10.2614
▁acc	-10.2615
▁smooth	-10.2621
▁comparative	-10.2624
▁specimen	-10.2627
▁subgroup	-10.2633
▁appendix	-10.2634
lo	-10.2638
▁hif	-10.2644
▁newly	-10.2644
▁mann	-10.2649
▁eyes	-10.2655
▁peg	-10.2658
▁magnification	-10.2659
▁arterial	-10.2663
▁optimization	-10.2663
▁aureus	-10.267
▁reconstruction	-10.2671
▁lacking	-10.2673
▁idea	-10.2676
▁changing	-10.2678
la	-10.2678
▁analytical	-10.2691
pi	-10.2695
▁flux	-10.2697
▁applying	-10.2708
▁nurses	-10.2709
▁homeostasis	-10.2711
▁chromosomes	-10.2712
gs	-10.2712
▁revised	-10.2716
▁movements	-10.2717
▁mapk	-10.272
▁assumption	-10.272
▁oct	-10.2721
▁centers	-10.2728
▁appearance	-10.273
▁claims	-10.2731
▁bsa	-10.2735
▁slope	-10.2738
▁retinal	-10.2743
▁embryonic	-10.2753
▁blocked	-10.2755
▁wheat	-10.2757
▁irradiation	-10.276
▁ldl	-10.2769
▁illustrated	-10.2769
ka	-10.2771
005	-10.2772
▁providers	-10.2775
▁fbs	-10.2775
▁progress	-10.2775
▁gram	-10.2788
ot	-10.2797
▁document	-10.28
▁select	-10.2804
▁recording	-10.2807
▁criterion	-10.2808
pe	-10.2812
▁private	-10.2819
▁obvious	-10.282
▁laboratories	-10.2825
▁dye	-10.2827
▁hb	-10.2847
▁accordingly	-10.2847
▁interpreted	-10.2854
▁fracture	-10.2861
▁neck	-10.2862
▁ln	-10.2864
▁barriers	-10.2864
▁mis	-10.2869
▁neurological	-10.2871
▁contents	-10.2871
ax	-10.2871
ability	-10.2874
pp	-10.2876
▁encoded	-10.288
package	-10.2882
▁division	-10.2885
▁understood	-10.2887
▁transplantation	-10.2892
▁electrodes	-10.2894
▁demonstrating	-10.2909
▁emergency	-10.2911
▁tobacco	-10.2915
▁precursor	-10.2919
cu	-10.2924
▁lp	-10.2925
▁ts	-10.2926
▁114	-10.293
▁ranges	-10.293
▁ventricular	-10.2938
▁fp	-10.295
004	-10.2951
▁normally	-10.2951
▁implications	-10.2954
▁round	-10.2955
▁conceived	-10.2957
▁lu	-10.2958
▁calculations	-10.2959
▁supports	-10.2963
▁predictor	-10.2969
▁chains	-10.2976
▁cumulative	-10.2977
▁lb	-10.2979
▁taxa	-10.298
▁zinc	-10.298
▁investigations	-10.2982
▁biofilm	-10.2986
▁frozen	-10.2994
ted	-10.2994
▁dashed	-10.2995
so	-10.3001
▁tem	-10.3007
▁pol	-10.3008
▁enable	-10.301
▁ventral	-10.3013
▁integrity	-10.302
▁dis	-10.3024
▁murine	-10.3027
fs	-10.3028
▁carrying	-10.3031
▁sensing	-10.3031
▁monoclonal	-10.3032
▁biopsy	-10.3041
▁weights	-10.3043
▁predictors	-10.3046
▁dd	-10.3047
▁india	-10.3048
▁southern	-10.3052
▁addressed	-10.3057
▁aggregation	-10.3061
87	-10.3065
▁supply	-10.3071
▁wavelength	-10.3073
▁aqueous	-10.3075
▁themselves	-10.3076
▁ncbi	-10.3077
▁dt	-10.3081
▁bonds	-10.3084
▁camp	-10.3084
▁delivered	-10.3089
▁centrifugation	-10.3089
tr	-10.3103
▁trends	-10.3118
▁limits	-10.312
▁respond	-10.3121
▁dp	-10.313
▁009	-10.313
▁cytoplasm	-10.3132
gen	-10.3134
▁kd	-10.3144
▁risks	-10.3146
▁mw	-10.3148
▁regulator	-10.315
▁gy	-10.3152
▁elderly	-10.3158
▁defect	-10.3161
▁sb	-10.3163
fe	-10.3172
▁gapdh	-10.3176
▁sometimes	-10.3184
600	-10.3191
▁interference	-10.3198
▁relevance	-10.3199
▁maturation	-10.3201
▁prolonged	-10.3203
▁cns	-10.3203
▁draft	-10.3204
▁hplc	-10.3215
▁presents	-10.3219
▁concern	-10.3227
▁films	-10.3228
▁ve	-10.3229
▁inducing	-10.3233
▁lysates	-10.3236
▁800	-10.3236
▁serious	-10.3239
▁captured	-10.324
▁ras	-10.3241
▁stop	-10.3242
ol	-10.3243
fluorescence	-10.3244
▁awareness	-10.3245
▁pearson	-10.3246
▁effort	-10.3246
▁sugar	-10.325
▁became	-10.3253
▁professionals	-10.3261
▁equally	-10.3262
▁utr	-10.3266
▁derivatives	-10.3267
▁walking	-10.327
▁leg	-10.3272
▁counted	-10.3277
▁abnormalities	-10.3278
ce	-10.3278
▁actually	-10.3284
▁france	-10.3293
▁mar	-10.3294
▁ccl	-10.3298
▁pore	-10.3299
oc	-10.33
▁dementia	-10.33
▁english	-10.3303
▁mini	-10.3314
▁beads	-10.3315
▁specified	-10.3321
▁binds	-10.3321
▁thyroid	-10.3322
▁northern	-10.3323
▁muscles	-10.333
▁recall	-10.333
▁predominantly	-10.3334
▁tend	-10.3334
▁lymphocytes	-10.3335
▁symptom	-10.3338
il	-10.3338
im	-10.3343
▁stated	-10.3344
▁necrosis	-10.3344
ev	-10.3346
▁rpm	-10.3347
▁filled	-10.3348
▁icu	-10.335
▁dogs	-10.3352
▁resection	-10.3354
▁wi	-10.3354
▁hybridization	-10.3357
▁absorbance	-10.3358
▁disability	-10.3363
▁matching	-10.3368
▁province	-10.3373
▁chr	-10.3374
▁112	-10.3383
▁127	-10.3384
▁knockout	-10.3389
▁equations	-10.3396
▁consideration	-10.3397
▁reasonable	-10.3401
▁linkage	-10.3402
lin	-10.3417
▁faster	-10.3421
▁upregulation	-10.3421
▁annotated	-10.3422
▁worldwide	-10.3422
▁macro	-10.3439
▁eeg	-10.344
▁childhood	-10.3443
▁preference	-10.3445
▁bold	-10.3446
54	-10.3446
▁catenin	-10.3449
▁concerning	-10.345
▁healing	-10.345
▁flag	-10.3458
▁unable	-10.3459
▁reviews	-10.3459
▁breeding	-10.3461
▁labeling	-10.3461
▁potent	-10.3463
▁nutrition	-10.3465
▁boundary	-10.3467
▁continued	-10.3467
▁operating	-10.3468
▁valuable	-10.3471
▁hippocampus	-10.3471
▁morbidity	-10.3472
be	-10.3475
▁contributes	-10.3485
▁113	-10.3485
▁pdf	-10.3491
▁classical	-10.3496
▁urinary	-10.3502
▁habitat	-10.3503
▁editing	-10.3508
▁peri	-10.3509
▁rotation	-10.3514
▁detectable	-10.3514
ies	-10.3515
▁fitting	-10.352
▁edta	-10.3521
less	-10.3523
▁europe	-10.3524
line	-10.3533
▁orange	-10.3539
ak	-10.3543
▁slides	-10.3544
▁crp	-10.3551
▁consecutive	-10.3552
▁kind	-10.3553
▁lane	-10.3553
▁isolate	-10.3558
▁enzymatic	-10.356
con	-10.3566
▁overlapping	-10.3569
▁match	-10.3569
▁safe	-10.357
▁camera	-10.3571
▁race	-10.3573
▁distinguish	-10.3578
▁recovered	-10.3579
▁ep	-10.3583
age	-10.3587
▁embryo	-10.3589
▁council	-10.359
▁1990	-10.359
▁equilibrium	-10.3591
▁visualized	-10.3591
▁suspension	-10.3593
▁epigenetic	-10.3593
▁pv	-10.3597
sp	-10.3598
▁building	-10.3599
▁hi	-10.3609
▁partner	-10.3609
▁machine	-10.3611
▁ultrasound	-10.3613
▁hard	-10.3613
▁replacement	-10.3616
▁po	-10.3619
▁satisfaction	-10.3621
ist	-10.3623
▁sod	-10.3626
▁practical	-10.3627
ised	-10.3629
▁physician	-10.3646
▁codes	-10.3649
▁tt	-10.3662
▁drawn	-10.3667
▁preferred	-10.3669
▁indices	-10.3678
88	-10.3684
▁existence	-10.3685
▁uncertainty	-10.3692
▁grain	-10.3701
▁recurrent	-10.3706
▁monitor	-10.3709
▁ministry	-10.3715
95	-10.3722
▁steady	-10.3724
▁heterogeneous	-10.3726
▁initiated	-10.3727
▁replaced	-10.3727
▁sign	-10.3728
▁suppressed	-10.373
▁135	-10.3733
▁ru	-10.3736
▁east	-10.3745
▁believe	-10.3745
tm	-10.3749
▁supplementation	-10.375
ag	-10.3752
▁fatigue	-10.3752
▁sk	-10.3756
▁proportional	-10.3759
▁greatly	-10.3765
▁options	-10.3766
▁seeded	-10.3769
▁think	-10.3773
▁ck	-10.3773
ana	-10.3776
▁unlike	-10.3778
▁hu	-10.3778
▁option	-10.3779
▁feed	-10.3781
69	-10.3786
▁goat	-10.3791
▁dmem	-10.3793
▁utilization	-10.38
▁advantages	-10.3803
▁acts	-10.381
▁silencing	-10.3813
▁drinking	-10.3813
ial	-10.3814
▁mobility	-10.3815
▁reflected	-10.382
▁platelet	-10.3822
▁away	-10.3822
▁dental	-10.3824
▁focal	-10.3825
▁iqr	-10.3826
▁complement	-10.3827
▁volumes	-10.3831
▁fourth	-10.3835
▁persons	-10.3844
▁instruments	-10.3847
ins	-10.385
▁sperm	-10.3854
▁adopted	-10.3856
op	-10.3859
ox	-10.386
▁maintaining	-10.3861
▁deposited	-10.3863
▁river	-10.3865
▁perhaps	-10.3867
▁decisions	-10.3872
▁cavity	-10.3873
▁macrophage	-10.3876
▁substantially	-10.3876
▁fundamental	-10.3876
▁refer	-10.3881
▁albumin	-10.3891
▁intensive	-10.3897
▁concluded	-10.3897
▁inhibiting	-10.3899
▁coordinates	-10.3908
▁precise	-10.3913
▁partners	-10.3914
▁disruption	-10.3918
▁notch	-10.3923
▁monocytes	-10.3929
mann	-10.3932
▁formal	-10.3934
▁brief	-10.3935
▁retrospective	-10.3936
▁parasites	-10.3937
▁demonstrates	-10.3939
▁ongoing	-10.394
▁verified	-10.3945
75	-10.3949
▁reagents	-10.3957
▁peer	-10.3957
▁phosphorylated	-10.396
▁proper	-10.3972
▁influences	-10.3974
▁rnai	-10.3974
▁egfp	-10.3975
▁synthase	-10.3978
▁cytotoxicity	-10.3978
▁adjustment	-10.3979
▁don	-10.3983
rt	-10.3984
▁difficulty	-10.3984
▁empirical	-10.3984
▁subunits	-10.3985
▁mu	-10.3988
▁bodies	-10.399
▁attached	-10.3991
▁academic	-10.3992
▁running	-10.4002
▁triplicate	-10.4002
▁nervous	-10.4013
▁objects	-10.4015
ula	-10.4016
dr	-10.4016
▁tagged	-10.402
▁genbank	-10.4035
▁uniform	-10.4042
▁characterize	-10.4047
▁145	-10.4051
▁lipids	-10.4051
▁marine	-10.4054
▁depend	-10.4056
▁socio	-10.4062
▁mic	-10.4066
▁aspect	-10.4068
▁secreted	-10.407
ina	-10.4074
▁fever	-10.4078
▁comments	-10.408
▁mhz	-10.408
▁mmhg	-10.4083
▁fall	-10.4087
▁vp	-10.4088
▁involve	-10.4098
▁binary	-10.4098
▁limiting	-10.4099
▁cb	-10.4111
▁subtypes	-10.4111
▁limb	-10.4113
▁transcriptome	-10.4114
55	-10.4118
▁bearing	-10.4121
▁infant	-10.4122
▁deviations	-10.4123
▁stock	-10.4124
sen	-10.4129
▁va	-10.413
▁configuration	-10.4132
▁label	-10.4136
▁aid	-10.4143
▁dehydrogenase	-10.4144
▁cultural	-10.415
▁bulk	-10.4156
▁branch	-10.416
▁ly	-10.4164
▁colorectal	-10.4165
▁pass	-10.4183
ea	-10.4188
▁supplemental	-10.4193
▁trust	-10.4194
▁codon	-10.4196
▁tuberculosis	-10.4197
▁assume	-10.4198
▁elevation	-10.4201
▁shaped	-10.4203
▁progressive	-10.4209
▁eligible	-10.4212
▁1994	-10.4213
res	-10.4218
land	-10.4218
▁surveys	-10.4219
▁coordination	-10.4226
▁drop	-10.4232
▁qiagen	-10.4234
▁substitution	-10.4234
▁kinetics	-10.4238
▁virulence	-10.4239
▁circles	-10.4242
▁sch	-10.4251
▁pharmacological	-10.4251
▁principle	-10.4253
▁vein	-10.4257
▁simply	-10.4275
fa	-10.4275
▁effector	-10.4277
isation	-10.4278
▁bladder	-10.4279
▁clade	-10.4287
▁fitted	-10.4289
▁check	-10.4291
▁modes	-10.4293
▁vessel	-10.4294
▁tubes	-10.4299
▁district	-10.4301
▁auditory	-10.4304
▁enrolled	-10.4309
▁optimized	-10.4309
▁neutrophils	-10.431
mi	-10.4317
▁angiogenesis	-10.4322
▁quantify	-10.4338
▁evaluating	-10.4339
▁adsorption	-10.4339
▁lm	-10.4342
▁ischemic	-10.4345
▁converted	-10.4348
▁hek	-10.4349
▁eg	-10.4349
▁hydroxy	-10.4351
▁antigens	-10.4354
▁fear	-10.4356
▁contributing	-10.4358
▁interacting	-10.436
▁reflects	-10.4361
▁cpg	-10.4364
▁architecture	-10.4364
_0	-10.4366
▁differed	-10.4376
▁sepsis	-10.4382
▁accompanied	-10.4398
▁hela	-10.4404
▁smokers	-10.4409
▁radical	-10.4416
▁ver	-10.4425
200	-10.4425
▁hot	-10.4426
▁lin	-10.443
▁inoculated	-10.4435
▁polymorphism	-10.4439
▁built	-10.4441
▁scoring	-10.4442
▁mhc	-10.4444
▁dcs	-10.4445
▁copd	-10.4446
▁knee	-10.4448
▁neonatal	-10.4453
▁copies	-10.4453
▁persistent	-10.4453
▁donors	-10.4454
▁zhang	-10.4467
▁tyrosine	-10.4478
▁fm	-10.448
▁percentages	-10.4486
▁ideal	-10.4488
▁acting	-10.449
▁medial	-10.4495
▁accepted	-10.4497
ella	-10.4498
▁responsive	-10.4499
▁depicted	-10.4505
▁pairwise	-10.4506
▁psychiatric	-10.4514
▁146	-10.4517
▁america	-10.4517
▁scored	-10.4518
▁sv	-10.4519
▁splicing	-10.452
▁geometry	-10.4521
hl	-10.4522
▁whitney	-10.4525
▁poorly	-10.4532
▁discrimination	-10.4538
▁improvements	-10.4543
▁nutritional	-10.4546
act	-10.4548
▁fu	-10.455
▁downregulated	-10.4551
▁pilot	-10.4552
▁uc	-10.4556
▁degrees	-10.4558
▁ppar	-10.4558
▁sucrose	-10.4558
▁tracking	-10.4559
▁offer	-10.4568
▁insight	-10.4568
▁133	-10.4572
▁ku	-10.4577
▁resolved	-10.4582
▁takes	-10.4583
bio	-10.4592
▁thick	-10.4593
chi	-10.4593
▁drosophila	-10.4593
▁purposes	-10.4602
▁ecological	-10.4605
▁sustained	-10.4608
ens	-10.4613
▁assessments	-10.4614
ho	-10.4619
▁put	-10.462
▁microglia	-10.4621
▁zebrafish	-10.4622
▁dead	-10.4628
▁foods	-10.4628
em	-10.4636
▁powder	-10.4639
▁libraries	-10.4645
▁offspring	-10.4647
fl	-10.4648
▁op	-10.4649
▁compliance	-10.465
ek	-10.4651
▁preliminary	-10.4654
▁sterile	-10.4657
▁medications	-10.4658
▁resting	-10.4661
▁fungi	-10.4661
histochemistry	-10.4665
fc	-10.4674
▁sound	-10.4677
▁cdk	-10.468
▁endo	-10.4681
▁innate	-10.4684
▁fasting	-10.4689
▁cn	-10.4689
▁angles	-10.4691
▁spleen	-10.4692
un	-10.4694
▁arrest	-10.4694
▁expect	-10.4697
▁biomarker	-10.4697
▁acknowledge	-10.4697
▁plastic	-10.4698
▁attachment	-10.4698
▁difficulties	-10.4699
▁lysis	-10.4701
▁somatic	-10.4707
▁179	-10.4714
▁adipose	-10.4714
▁stay	-10.4718
▁former	-10.4718
▁isoforms	-10.472
▁law	-10.4729
▁hydrophobic	-10.4733
▁brazil	-10.474
▁drought	-10.4742
▁fo	-10.4744
ent	-10.4745
▁exp	-10.4753
▁ages	-10.4753
▁opportunity	-10.4756
▁numerical	-10.4758
293	-10.476
▁challenging	-10.4764
▁screened	-10.4772
▁glutamate	-10.4774
▁participating	-10.4777
▁nb	-10.4782
▁bilateral	-10.4782
▁translocation	-10.4785
▁exception	-10.4785
▁exists	-10.4792
73	-10.4793
▁roche	-10.4796
▁novo	-10.4798
▁dendritic	-10.4802
▁propose	-10.4809
▁overcome	-10.4809
▁hippocampal	-10.4814
▁flies	-10.4817
▁dimension	-10.4819
ai	-10.482
▁belonging	-10.4822
▁demand	-10.4825
▁tetra	-10.4827
▁extreme	-10.4827
▁rm	-10.4831
▁expanded	-10.4836
▁intensities	-10.4837
▁visualization	-10.484
ino	-10.4845
▁disc	-10.4845
▁018	-10.4846
▁comprised	-10.4852
▁su	-10.4853
▁tailed	-10.486
▁apical	-10.486
▁complementary	-10.4873
▁chest	-10.4873
▁hsa	-10.4883
▁combining	-10.4886
▁undergo	-10.4886
▁translational	-10.4887
▁moving	-10.4888
▁dapi	-10.4888
▁engineering	-10.489
▁defense	-10.4892
les	-10.4902
▁island	-10.4907
▁master	-10.4909
▁ny	-10.4911
▁divergence	-10.4921
▁margin	-10.4925
▁assisted	-10.4928
ise	-10.4932
▁foot	-10.4941
71	-10.4941
▁property	-10.4943
▁mtor	-10.4949
▁situations	-10.4954
▁house	-10.4955
▁unlikely	-10.4957
▁transduction	-10.4957
▁mac	-10.4958
97	-10.4959
▁usage	-10.496
▁contamination	-10.496
▁ft	-10.4963
▁geo	-10.4965
▁cx	-10.4968
▁yields	-10.497
▁ss	-10.497
▁scans	-10.4971
▁impacts	-10.4973
▁rnas	-10.4973
tion	-10.4973
▁mf	-10.4974
▁scenarios	-10.4988
▁yielded	-10.4988
▁mh	-10.4992
▁artificial	-10.4995
▁cytotoxic	-10.4996
hs	-10.4997
▁elife	-10.4999
ier	-10.5003
▁acknowledgments	-10.5003
▁overview	-10.5004
▁2019	-10.5008
▁gl	-10.5008
▁insights	-10.5016
549	-10.5016
▁apply	-10.5021
59	-10.5022
▁bleeding	-10.5022
▁cohorts	-10.5028
▁necessarily	-10.503
idae	-10.5037
▁lengths	-10.5037
▁presenting	-10.5039
▁driving	-10.5044
▁reaching	-10.5045
▁helped	-10.5045
▁1993	-10.5045
▁consistency	-10.5049
▁insufficient	-10.5051
▁minute	-10.5052
▁causal	-10.5055
▁carrier	-10.5058
▁proportions	-10.5058
300	-10.506
▁hbv	-10.5062
▁valid	-10.5069
▁night	-10.5074
▁electrophoresis	-10.5074
▁decades	-10.5078
▁call	-10.5079
ting	-10.5079
▁polar	-10.508
▁pediatric	-10.5081
ei	-10.5083
▁transporter	-10.5085
▁helpful	-10.5086
▁questionnaires	-10.5087
▁infiltration	-10.5089
85	-10.5093
▁sox	-10.5094
▁residents	-10.5097
▁crude	-10.51
▁rb	-10.5101
▁017	-10.5102
▁washing	-10.5102
▁epithelium	-10.5107
61	-10.5109
▁meet	-10.511
▁detector	-10.5115
▁emt	-10.5117
▁grants	-10.512
▁route	-10.5127
▁del	-10.5131
▁clearance	-10.5131
▁regeneration	-10.5133
▁competition	-10.5134
▁pla	-10.514
▁tn	-10.5142
▁019	-10.5144
▁atomic	-10.5149
▁activating	-10.5152
pc	-10.5152
▁oc	-10.5153
ki	-10.5153
▁graphene	-10.5156
▁incorporated	-10.5161
▁plasticity	-10.5162
▁conduct	-10.5163
▁apart	-10.5166
ke	-10.5171
▁univariate	-10.5179
▁raised	-10.5182
▁slight	-10.5182
▁hierarchical	-10.5185
▁dx	-10.5186
79	-10.5186
ty	-10.5189
fr	-10.5191
▁publisher	-10.5197
ize	-10.52
▁cam	-10.5202
▁format	-10.5205
▁retained	-10.5207
▁quantity	-10.5207
▁gives	-10.521
▁decay	-10.5214
▁ecm	-10.5216
▁subjective	-10.5218
▁subtype	-10.5218
af	-10.5221
ance	-10.5222
▁chen	-10.5224
▁gst	-10.5225
▁symmetry	-10.5225
▁spectroscopy	-10.5229
▁overweight	-10.5231
▁forces	-10.5234
▁ultimately	-10.5235
▁generating	-10.5238
▁egg	-10.5239
▁repeats	-10.524
▁signature	-10.5245
▁137	-10.5248
▁aids	-10.5251
▁radio	-10.5256
▁views	-10.5257
▁individually	-10.5257
▁accurately	-10.5258
▁structured	-10.5261
▁ri	-10.5268
▁switch	-10.5276
▁split	-10.5279
▁viable	-10.5281
▁gradually	-10.5285
▁emerging	-10.5285
▁conclude	-10.5285
58	-10.5302
▁born	-10.5305
gl	-10.5313
▁spectrometry	-10.5315
▁mab	-10.5315
▁xi	-10.5322
▁132	-10.5325
cd	-10.533
▁precipitation	-10.5335
▁lifestyle	-10.5335
▁treating	-10.5349
oid	-10.535
▁homologous	-10.5356
▁descriptive	-10.5362
bo	-10.5363
▁discuss	-10.5368
▁modules	-10.5372
▁grid	-10.5381
▁acetyl	-10.5386
▁candidates	-10.5387
▁biotechnology	-10.5393
▁polymorphisms	-10.5401
▁cvd	-10.5401
gastrointestinal	-10.5407
pl	-10.541
▁138	-10.5413
▁bt	-10.5415
▁bis	-10.5415
▁gs	-10.5416
▁constraints	-10.5417
▁msc	-10.542
▁fgf	-10.542
▁mutated	-10.5425
▁desired	-10.5429
▁assuming	-10.543
net	-10.5437
▁normalization	-10.544
by	-10.5443
▁drive	-10.5445
▁sharing	-10.5446
▁eating	-10.5446
ative	-10.5448
▁add	-10.5449
▁asian	-10.545
▁lr	-10.545
▁preventing	-10.5461
▁netherlands	-10.5462
▁cyclin	-10.5462
▁automated	-10.5462
▁vital	-10.5462
▁cloned	-10.5462
▁atcc	-10.5468
mer	-10.5471
▁prominent	-10.5478
▁spot	-10.548
▁correlate	-10.5486
▁fs	-10.5488
▁gps	-10.5488
▁231	-10.5492
▁rd	-10.5495
▁cfu	-10.5495
izing	-10.5501
▁assembled	-10.5502
▁ob	-10.5503
▁ccr	-10.5507
▁contacts	-10.551
▁squares	-10.5511
▁trigger	-10.5511
▁shear	-10.5514
▁meaning	-10.5522
▁predicting	-10.553
▁spent	-10.5531
▁155	-10.5534
▁industry	-10.5537
▁reward	-10.5537
▁ro	-10.5543
▁lt	-10.555
gr	-10.5556
▁nursing	-10.5569
▁protect	-10.5576
▁permeability	-10.5581
▁dn	-10.5585
▁experimentally	-10.559
▁cruz	-10.5599
del	-10.5599
▁lactate	-10.5603
ide	-10.5606
▁conversely	-10.5606
▁py	-10.5609
▁conformation	-10.561
if	-10.5619
▁170	-10.5619
▁134	-10.5621
▁affiliations	-10.5622
▁birds	-10.5625
▁buffered	-10.5626
▁trace	-10.5635
▁136	-10.5637
▁undergoing	-10.5638
▁hair	-10.564
▁lys	-10.5641
▁phage	-10.5642
bs	-10.5645
vs	-10.5646
mg	-10.5647
▁request	-10.5648
▁pigs	-10.5648
▁markedly	-10.5651
▁cartilage	-10.5654
▁glycerol	-10.5655
▁hl	-10.5655
▁cadherin	-10.5676
▁canonical	-10.5677
▁roc	-10.5683
▁italy	-10.5683
▁depressive	-10.5692
▁digestion	-10.5693
▁edges	-10.5697
▁critically	-10.5699
▁139	-10.5703
▁rep	-10.5711
tc	-10.572
▁continue	-10.572
▁peroxidase	-10.5721
▁connections	-10.5722
▁sun	-10.5722
▁detecting	-10.5723
az	-10.5723
▁eggs	-10.5735
▁minimize	-10.5736
▁ll	-10.5741
ator	-10.5741
▁geographic	-10.5743
▁hepatitis	-10.5756
▁empty	-10.5758
cat	-10.5763
fi	-10.5766
▁immediate	-10.577
▁fdr	-10.5776
▁shifts	-10.5777
rin	-10.5777
▁densities	-10.5787
▁directions	-10.5789
▁engagement	-10.5789
▁job	-10.579
▁excessive	-10.5791
ini	-10.5792
▁qtl	-10.5792
▁springer	-10.5801
▁covariates	-10.5801
▁hetero	-10.5801
▁293	-10.5804
▁ago	-10.5806
▁bonferroni	-10.5807
▁substance	-10.5808
▁cues	-10.5811
▁attenuated	-10.5812
▁arthritis	-10.5813
▁increasingly	-10.5818
▁tubulin	-10.582
▁papers	-10.5821
mt	-10.5821
▁178	-10.5829
iii	-10.583
▁discovered	-10.5834
▁twenty	-10.5835
▁lee	-10.5837
▁registered	-10.5838
▁cad	-10.5839
▁agree	-10.584
▁efficiently	-10.5841
▁ls	-10.5841
▁chloride	-10.5852
▁inverse	-10.5857
▁chemicals	-10.5858
▁goals	-10.586
▁systolic	-10.586
▁131	-10.5866
▁serine	-10.587
▁metabolite	-10.5874
▁sal	-10.588
ls	-10.588
▁electric	-10.5881
ov	-10.5888
▁gov	-10.5891
itis	-10.5891
▁modulate	-10.5898
osa	-10.5901
▁agarose	-10.5903
▁replicate	-10.5911
▁mesenchymal	-10.5911
oma	-10.5912
hr	-10.5913
▁come	-10.5918
▁rc	-10.5919
▁static	-10.5919
▁helix	-10.5921
▁regulators	-10.5921
▁slices	-10.5924
▁highlight	-10.5926
▁metastases	-10.5927
▁val	-10.5928
▁utility	-10.5934
▁pronounced	-10.5948
ities	-10.595
of	-10.595
gi	-10.5954
▁astrocytes	-10.5956
▁hospitalization	-10.5957
▁extensively	-10.5959
▁spike	-10.5959
▁phosphatase	-10.5962
▁promoters	-10.5963
sc	-10.5968
▁vision	-10.5968
▁bayesian	-10.5971
▁flat	-10.5973
▁tio	-10.5975
▁pn	-10.5976
▁diffuse	-10.5981
▁chromosomal	-10.5983
▁firing	-10.5983
▁concentrated	-10.5988
den	-10.5993
▁inputs	-10.5994
ard	-10.5999
▁nrf	-10.6001
▁med	-10.6005
▁inferred	-10.6012
▁radius	-10.6017
▁7554	-10.602
▁cxcl	-10.6028
▁universal	-10.6032
▁acceptable	-10.6035
▁injuries	-10.6036
▁pk	-10.6039
ron	-10.6039
▁144	-10.6045
▁dh	-10.6047
▁connection	-10.6047
▁named	-10.6051
▁subgroups	-10.6058
▁deficits	-10.6058
▁lineages	-10.6058
▁inserted	-10.6062
▁refers	-10.6066
▁infusion	-10.6067
▁examining	-10.6072
ane	-10.6073
▁move	-10.6081
▁fitc	-10.6083
▁clinicians	-10.6085
dc	-10.6085
io	-10.6085
▁investigating	-10.6094
▁labelled	-10.6096
▁vesicles	-10.6103
▁finger	-10.6108
▁organism	-10.6111
▁1992	-10.6111
▁sulfate	-10.6112
▁completion	-10.6116
▁latency	-10.6116
▁differentiate	-10.6118
▁modern	-10.6122
▁bmp	-10.6126
▁stratified	-10.6131
▁recordings	-10.6133
64	-10.6141
▁held	-10.6141
▁ischemia	-10.6142
▁jurisdictional	-10.615
▁analyzing	-10.6158
▁compartment	-10.6159
▁attempt	-10.6159
▁homology	-10.6159
▁insect	-10.6165
ut	-10.6166
▁airway	-10.6173
▁picture	-10.6177
▁circular	-10.6178
▁anatomical	-10.6179
▁links	-10.618
▁potassium	-10.6182
▁feel	-10.6182
▁coded	-10.6183
▁sam	-10.6192
▁mrnas	-10.6193
▁intron	-10.6194
▁crystals	-10.6197
▁agilent	-10.6205
ari	-10.6205
ong	-10.6205
▁korea	-10.6212
▁glu	-10.6213
▁copper	-10.6214
▁aortic	-10.6216
▁leukemia	-10.6226
78	-10.6227
nn	-10.623
▁january	-10.6232
▁build	-10.6234
▁prevalent	-10.6236
▁equipment	-10.6241
▁carry	-10.6243
▁inferior	-10.6244
▁sector	-10.6245
▁subsets	-10.6251
▁ubiquitin	-10.6251
▁requirement	-10.6252
ft	-10.6256
▁default	-10.6256
▁return	-10.6262
▁girls	-10.6263
▁epidemiological	-10.6266
▁partly	-10.6269
▁sas	-10.627
▁eastern	-10.6271
▁speech	-10.6274
sis	-10.6274
▁radiotherapy	-10.6276
▁trap	-10.628
ks	-10.6282
oh	-10.6289
▁dg	-10.6292
▁supernatants	-10.6295
96	-10.6306
▁lifetime	-10.6307
▁lobe	-10.6308
▁diffraction	-10.6311
▁resuspended	-10.6315
▁gyrus	-10.6317
▁market	-10.6321
▁um	-10.6322
▁rab	-10.6323
▁mer	-10.6324
▁louis	-10.6327
▁orf	-10.6328
▁lf	-10.6328
▁junction	-10.6331
▁wm	-10.6331
▁contrary	-10.6332
▁columns	-10.6337
▁sin	-10.634
▁schizophrenia	-10.634
▁elsewhere	-10.6341
▁atg	-10.635
ix	-10.6357
▁distress	-10.6358
rc	-10.636
▁ultra	-10.6368
▁nsclc	-10.6369
▁colour	-10.6377
▁front	-10.6379
▁tomography	-10.6381
he	-10.6383
▁pdb	-10.6383
▁est	-10.6385
▁clustered	-10.6387
▁smad	-10.6388
▁mesh	-10.6391
▁enhancing	-10.6393
▁giving	-10.6393
▁internet	-10.6394
▁gels	-10.6401
▁shrna	-10.6403
▁chance	-10.6408
▁heating	-10.641
▁creatinine	-10.6411
▁submitted	-10.6413
▁widespread	-10.6414
▁ihc	-10.6415
▁serial	-10.6417
▁av	-10.642
▁denotes	-10.6426
▁exogenous	-10.6437
▁scaffold	-10.6438
▁ig	-10.6441
▁exclusively	-10.6445
▁vaccines	-10.645
▁fund	-10.6455
ht	-10.6457
▁148	-10.6457
▁143	-10.6458
▁genotyping	-10.6458
gt	-10.6462
▁remodeling	-10.6471
▁neo	-10.6473
▁alternatively	-10.6481
▁scattering	-10.649
▁checked	-10.6492
▁incomplete	-10.6498
▁kinases	-10.6501
tt	-10.6502
▁polarization	-10.6506
▁died	-10.6506
▁pixel	-10.6509
▁450	-10.6512
▁inactivation	-10.6512
▁validate	-10.6513
mp	-10.6513
▁narrow	-10.652
▁apc	-10.6524
▁inoculation	-10.6528
▁biosystems	-10.6532
▁adjuvant	-10.6534
▁ja	-10.6535
▁gt	-10.6538
▁topic	-10.6539
▁believed	-10.6541
▁ever	-10.6543
▁terminus	-10.6544
▁prism	-10.6545
▁reader	-10.6548
89	-10.6561
▁setup	-10.6563
ck	-10.6568
▁thresholds	-10.6568
ep	-10.6569
▁letters	-10.657
▁kinetic	-10.6572
▁elongation	-10.6573
▁shell	-10.6581
▁manually	-10.6583
▁cisplatin	-10.6592
ah	-10.6593
▁publications	-10.6594
▁cysteine	-10.6599
go	-10.6602
▁gland	-10.6605
ya	-10.6605
▁varies	-10.6605
▁nutrients	-10.6606
▁agricultural	-10.6606
ang	-10.6606
▁carriers	-10.661
▁emerged	-10.6611
the	-10.6611
▁vas	-10.6624
rp	-10.6624
▁guidance	-10.6625
006	-10.6628
rr	-10.6629
▁passive	-10.6632
▁ethnicity	-10.6635
▁tendency	-10.6636
▁axial	-10.6637
▁winter	-10.6643
▁proven	-10.6643
▁schools	-10.6647
▁profiling	-10.6647
▁triggered	-10.6651
▁tif	-10.6654
▁throughput	-10.6657
▁grow	-10.6658
▁circle	-10.6664
▁175	-10.6665
▁grouped	-10.6666
▁proved	-10.6673
▁toxin	-10.6673
ose	-10.6675
▁vol	-10.6677
▁thr	-10.668
▁reveals	-10.6681
ada	-10.6687
▁silica	-10.6689
▁motility	-10.669
▁socioeconomic	-10.6695
▁requiring	-10.6698
▁promotion	-10.6699
med	-10.6704
98	-10.6705
▁verbal	-10.6707
81	-10.6713
▁equipped	-10.6717
▁maize	-10.6717
▁350	-10.6718
▁stream	-10.6724
▁flexible	-10.6739
▁served	-10.6743
▁haplotype	-10.6745
▁penicillin	-10.6749
▁abuse	-10.6749
▁spine	-10.675
▁considerably	-10.6755
▁incorporation	-10.6756
▁accounted	-10.676
▁kv	-10.676
▁homo	-10.6761
▁promoted	-10.6764
kin	-10.6766
▁households	-10.6769
▁attitudes	-10.678
▁mk	-10.6781
▁counter	-10.6784
▁worse	-10.679
▁verify	-10.679
▁aggressive	-10.6792
▁correctly	-10.6793
▁relaxation	-10.6793
berg	-10.6796
▁lh	-10.6798
rn	-10.6799
▁liu	-10.6803
▁extend	-10.6805
▁downregulation	-10.6807
▁177	-10.6809
▁correlates	-10.6809
▁june	-10.682
▁rehabilitation	-10.6822
▁additive	-10.6825
▁gaussian	-10.6832
▁readily	-10.6834
▁sci	-10.6834
▁excluding	-10.6835
▁nurse	-10.6839
▁implies	-10.6853
▁vo	-10.6855
▁gb	-10.6855
▁segmentation	-10.6857
▁iu	-10.6866
▁operative	-10.6866
▁mammals	-10.6875
▁cutoff	-10.688
▁produces	-10.6883
ee	-10.6885
▁cal	-10.6887
▁references	-10.6889
▁tea	-10.6898
▁147	-10.69
▁principles	-10.6903
▁ethnic	-10.6912
▁saturation	-10.6915
▁dots	-10.6921
▁td	-10.6926
▁ter	-10.693
▁mind	-10.6938
▁reactivity	-10.694
▁asia	-10.6943
▁transcribed	-10.6948
▁rarely	-10.6949
▁149	-10.6951
pd	-10.6955
lan	-10.6957
▁generalized	-10.6957
▁perfusion	-10.696
▁pump	-10.6961
▁fermentation	-10.6962
▁asd	-10.6966
▁sought	-10.6968
03	-10.6968
▁spots	-10.697
lp	-10.6973
▁lungs	-10.6975
▁immunization	-10.6976
▁phenyl	-10.6977
▁expert	-10.698
▁weekly	-10.6982
ey	-10.6982
▁fn	-10.6983
▁opening	-10.6983
▁german	-10.6983
▁motivation	-10.6987
▁simultaneous	-10.6991
▁protected	-10.6994
▁015	-10.7
histochemical	-10.7
▁focusing	-10.7001
▁mediate	-10.7004
▁circuit	-10.7004
▁ear	-10.7006
▁lag	-10.7007
▁march	-10.701
▁collect	-10.7011
▁homozygous	-10.7016
▁emergence	-10.7016
▁nucleotides	-10.7016
wt	-10.7017
bc	-10.7028
eg	-10.7031
▁chose	-10.7034
▁plaque	-10.7036
▁ul	-10.7039
▁seconds	-10.7042
rv	-10.7042
▁title	-10.7046
▁seeking	-10.7047
▁possess	-10.7048
▁tcr	-10.7051
▁registration	-10.7059
▁700	-10.706
ung	-10.7063
▁hazard	-10.7065
amine	-10.7071
▁discussions	-10.7072
▁cattle	-10.7074
▁arms	-10.7076
▁crop	-10.7076
mb	-10.7083
od	-10.7085
▁track	-10.7086
▁1991	-10.7088
▁amp	-10.7093
▁rating	-10.7095
▁ckd	-10.7095
▁slc	-10.7097
ence	-10.7098
sh	-10.7111
▁genera	-10.7114
▁degs	-10.7115
▁policies	-10.7115
▁pneumonia	-10.7117
▁hydrolysis	-10.7119
99	-10.7122
▁felt	-10.7125
ml	-10.7125
▁aims	-10.7126
▁abcam	-10.713
▁categorical	-10.7145
va	-10.7146
▁sequential	-10.7147
▁redox	-10.7149
▁matrices	-10.7151
▁constitute	-10.7152
▁wood	-10.7153
our	-10.7153
▁patch	-10.7154
▁bo	-10.7157
▁oligonucleotide	-10.7158
▁moment	-10.7165
▁somewhat	-10.7169
▁regarded	-10.7172
▁provision	-10.7172
▁answer	-10.7173
▁heterozygous	-10.7173
▁ai	-10.7178
▁icd	-10.7178
▁wells	-10.7178
▁aeruginosa	-10.7182
▁shanghai	-10.7185
▁hearing	-10.7188
▁om	-10.7192
▁leu	-10.7195
om	-10.7198
▁dox	-10.7199
▁insurance	-10.7199
▁seedlings	-10.72
▁pas	-10.7201
ng	-10.7204
▁latent	-10.7204
▁eventually	-10.7207
▁lysine	-10.7208
▁rules	-10.7209
▁works	-10.721
▁teeth	-10.721
▁consumed	-10.7213
▁014	-10.7214
ay	-10.7217
▁mounted	-10.7218
▁graphs	-10.7219
tri	-10.722
▁tukey	-10.7221
▁hosts	-10.7223
▁accessible	-10.7223
▁slice	-10.7224
▁ontology	-10.7226
end	-10.723
86	-10.7242
▁dot	-10.7246
▁aggregates	-10.7248
▁december	-10.7254
▁hh	-10.7254
▁190	-10.7256
▁drafted	-10.7259
▁whilst	-10.726
▁advice	-10.7265
▁elimination	-10.7268
▁meat	-10.7269
▁luc	-10.7278
▁triple	-10.728
▁quickly	-10.7281
▁cho	-10.7282
lu	-10.7282
▁gen	-10.7282
▁projects	-10.7284
▁gg	-10.7287
▁distant	-10.7295
▁spring	-10.7303
▁infarction	-10.7306
▁regimen	-10.7306
▁lymphoma	-10.7307
ala	-10.7308
▁circulation	-10.731
▁yl	-10.731
▁quantum	-10.7311
▁rho	-10.7314
▁suppress	-10.7316
▁bf	-10.7316
rk	-10.7333
▁activates	-10.7333
120	-10.7335
▁var	-10.7339
▁fmri	-10.7343
▁expressions	-10.7344
▁arc	-10.7351
▁cue	-10.7351
▁carbohydrate	-10.7352
ik	-10.7355
▁isoform	-10.7363
▁office	-10.7368
▁windows	-10.7372
▁exhibits	-10.7373
▁relapse	-10.7378
ll	-10.7379
▁enter	-10.738
▁industrial	-10.7383
▁park	-10.7391
▁exclude	-10.7392
▁pollen	-10.7394
▁pin	-10.7398
▁168	-10.74
▁aba	-10.7402
▁tyr	-10.7404
▁agonist	-10.7404
▁dispersion	-10.7407
▁revision	-10.741
▁coa	-10.7412
tz	-10.7415
▁conductivity	-10.7416
▁implant	-10.7418
▁dense	-10.7419
▁hypotheses	-10.7419
▁chemistry	-10.7421
▁offered	-10.7425
bb	-10.7432
▁polymers	-10.7439
▁filtering	-10.7444
▁comprising	-10.7444
▁exponential	-10.7444
▁inactive	-10.7446
▁tap	-10.7447
▁biosciences	-10.7449
▁microorganisms	-10.745
▁gd	-10.745
▁vr	-10.745
▁transform	-10.7451
72	-10.7458
▁categorized	-10.7458
▁142	-10.7463
▁clock	-10.7464
▁sma	-10.7469
precipitation	-10.7472
▁spain	-10.7472
▁enables	-10.7473
▁diastolic	-10.7483
▁opportunities	-10.749
▁introduce	-10.7493
▁summer	-10.7495
▁myo	-10.7495
▁letter	-10.7498
▁probabilities	-10.7502
▁unless	-10.7503
▁transmembrane	-10.7507
▁adenocarcinoma	-10.7521
▁sheet	-10.7521
▁gsh	-10.7524
▁cxcr	-10.7526
hn	-10.7526
▁attack	-10.7527
▁mal	-10.7534
▁greatest	-10.7535
▁ethyl	-10.7546
▁tension	-10.7546
▁taxonomic	-10.7547
▁branches	-10.7555
▁choose	-10.7557
▁sent	-10.7557
▁mixing	-10.7559
▁firstly	-10.7561
▁behavioural	-10.7562
▁modelling	-10.7563
▁sand	-10.7566
▁counting	-10.7567
▁sharp	-10.7571
▁favorable	-10.7581
▁determinants	-10.7585
dt	-10.7587
▁needle	-10.7588
▁alexa	-10.7589
▁graft	-10.7589
▁reviewers	-10.7592
▁july	-10.7596
▁brca	-10.76
▁capillary	-10.7603
▁formulation	-10.7604
▁describes	-10.7605
▁biomedical	-10.7608
▁keep	-10.7619
▁mes	-10.7622
▁alt	-10.7625
▁supervised	-10.7627
▁enhances	-10.7631
ans	-10.7634
▁feasible	-10.7636
▁glutamine	-10.7636
▁bb	-10.7639
▁025	-10.7639
▁gag	-10.7641
▁calculating	-10.7642
▁metrics	-10.7645
▁harm	-10.7647
▁intestine	-10.7649
▁eliminate	-10.765
▁016	-10.7651
▁ot	-10.7652
▁suspected	-10.7656
lc	-10.7658
▁reflecting	-10.7659
▁batch	-10.7663
▁approximate	-10.7668
▁bac	-10.7675
▁dog	-10.7676
▁trna	-10.7678
▁lo	-10.7679
▁lattice	-10.7681
▁agency	-10.7685
▁substances	-10.7687
▁modulated	-10.7687
▁mark	-10.7688
▁stimulate	-10.7695
▁depleted	-10.7697
▁volunteers	-10.77
▁aromatic	-10.7702
▁sy	-10.7704
▁ends	-10.7706
▁geographical	-10.7707
▁dopamine	-10.7712
▁exons	-10.7715
▁discrete	-10.7719
▁ea	-10.7723
▁012	-10.7724
▁triton	-10.7725
▁offers	-10.7727
▁boundaries	-10.7728
▁dosage	-10.773
▁488	-10.7738
▁240	-10.774
▁rock	-10.774
▁arrays	-10.7742
▁gait	-10.7744
▁whom	-10.7747
▁humidity	-10.7748
▁capability	-10.7748
▁want	-10.7751
▁tx	-10.7751
▁allocation	-10.7752
▁ses	-10.7757
▁176	-10.7757
▁mtt	-10.7757
▁assumptions	-10.7758
▁hba	-10.7759
▁autoimmune	-10.7759
▁scope	-10.7759
▁cycling	-10.776
ten	-10.776
mc	-10.7764
▁anesthesia	-10.7765
▁denote	-10.7776
▁gsk	-10.7783
▁statistic	-10.7786
▁hfd	-10.7786
▁mellitus	-10.779
▁sera	-10.7791
▁flexibility	-10.7792
▁emotion	-10.7793
▁complicated	-10.7794
all	-10.7794
▁indication	-10.7795
▁oriented	-10.7801
▁treg	-10.7803
▁bal	-10.7806
▁selectivity	-10.7807
▁pig	-10.7809
▁cor	-10.7809
▁edu	-10.7812
▁pixels	-10.7813
▁confirming	-10.7815
tro	-10.7815
▁evoked	-10.782
▁chicken	-10.7822
▁mel	-10.7826
▁manipulation	-10.7828
▁intravenous	-10.7832
▁165	-10.7837
▁facial	-10.7837
▁paradigm	-10.7838
▁travel	-10.7841
cp	-10.7845
▁cascade	-10.7846
▁venous	-10.7846
gal	-10.7851
▁mpa	-10.7852
▁establishment	-10.7852
▁polyclonal	-10.7852
▁abc	-10.7853
▁charged	-10.7859
▁incident	-10.7861
▁glutathione	-10.7875
▁star	-10.7878
▁aml	-10.7879
eri	-10.788
▁pretreatment	-10.7884
▁worth	-10.7889
▁confounding	-10.7895
▁mood	-10.7896
▁mosquito	-10.7903
▁kegg	-10.7905
▁jnk	-10.7909
▁tumours	-10.791
▁lip	-10.7914
▁156	-10.7915
osis	-10.7916
▁prevented	-10.7919
ica	-10.7921
lic	-10.7922
▁stiffness	-10.793
ura	-10.7933
▁integrin	-10.7934
▁nasal	-10.7936
▁neutrophil	-10.7937
▁closer	-10.7938
▁retrieved	-10.7939
ish	-10.794
ola	-10.7946
▁proximity	-10.7951
▁pad	-10.7953
▁continuously	-10.7955
▁observational	-10.7955
▁germ	-10.796
▁141	-10.7963
▁silver	-10.7964
ef	-10.797
▁estrogen	-10.7976
db	-10.7977
▁behind	-10.7982
▁mos	-10.7984
▁meeting	-10.7986
▁sirt	-10.7986
▁institutions	-10.7987
▁cellulose	-10.7988
▁fruits	-10.7989
▁planned	-10.7991
▁collaboration	-10.7991
▁lens	-10.7994
uc	-10.7994
▁retina	-10.8
▁prescribed	-10.8001
▁usual	-10.8004
▁originally	-10.8013
▁011	-10.8013
▁compression	-10.8014
▁graphpad	-10.8016
▁suspended	-10.8016
▁hydro	-10.8017
450	-10.8025
▁look	-10.8031
▁colonization	-10.8032
ig	-10.8033
▁sac	-10.8043
▁ox	-10.8044
▁senescence	-10.8045
▁fly	-10.8046
vo	-10.8047
▁monthly	-10.8047
aceae	-10.8048
▁interacts	-10.805
np	-10.8052
ff	-10.8052
▁sweden	-10.8053
▁functionally	-10.8055
lv	-10.806
▁genetically	-10.8061
▁kim	-10.8063
▁describing	-10.8067
▁designated	-10.807
▁tooth	-10.8071
▁scaffolds	-10.8075
▁wu	-10.8077
▁concepts	-10.8077
▁said	-10.8079
▁han	-10.8081
▁transmitted	-10.8081
▁seasonal	-10.8082
007	-10.8087
▁bed	-10.8091
▁competitive	-10.8092
▁pten	-10.8093
▁game	-10.8096
▁implantation	-10.8096
ors	-10.8097
▁streptomycin	-10.8104
▁meanwhile	-10.8109
▁hy	-10.811
▁plated	-10.811
▁hemoglobin	-10.8115
▁hdac	-10.8117
▁vis	-10.8118
▁preoperative	-10.8128
▁likewise	-10.8136
ida	-10.8137
▁lot	-10.8137
iz	-10.8138
▁virtual	-10.8138
▁derivative	-10.814
▁parametric	-10.814
▁158	-10.8143
▁mediators	-10.8147
▁benign	-10.8148
microenvironment	-10.8149
▁guided	-10.815
▁attempts	-10.8152
▁rescue	-10.8153
▁implement	-10.8154
▁radial	-10.8154
▁coating	-10.8156
▁amyloid	-10.816
dy	-10.8162
▁hit	-10.8162
▁urea	-10.8168
▁antagonist	-10.817
▁progenitor	-10.8171
▁ampk	-10.8172
▁lake	-10.8175
▁facs	-10.8175
▁episodes	-10.8175
▁deformation	-10.8175
tan	-10.818
▁larval	-10.8182
▁investigators	-10.8185
▁displays	-10.8187
▁boxes	-10.8193
▁ppi	-10.8196
▁constrained	-10.8201
▁gestational	-10.8203
▁propagation	-10.8204
▁hrp	-10.8212
▁wet	-10.8213
▁diets	-10.8216
ids	-10.8217
▁alteration	-10.8217
▁cytochrome	-10.8217
▁sheep	-10.8221
▁mineral	-10.8221
wa	-10.8223
▁removing	-10.8224
▁trade	-10.8224
han	-10.8225
▁aware	-10.8227
▁naturally	-10.8228
▁april	-10.8228
rna	-10.8229
▁str	-10.8231
▁powerful	-10.8231
gene	-10.8234
▁custom	-10.8235
▁suicide	-10.8242
mic	-10.8243
▁ribosomal	-10.8243
▁starch	-10.8248
▁bank	-10.8249
▁endemic	-10.8251
▁coordinate	-10.8254
▁agreed	-10.827
▁haplotypes	-10.8272
▁evolved	-10.8272
ill	-10.8275
▁ambient	-10.8278
▁fire	-10.8279
▁degeneration	-10.828
▁similarities	-10.8281
▁digested	-10.8283
▁strengths	-10.8287
▁conformational	-10.8288
▁owing	-10.8289
sin	-10.8292
▁tokyo	-10.8294
▁dramatically	-10.8295
▁unfortunately	-10.8297
▁inform	-10.8298
ates	-10.8299
133	-10.83
▁clinics	-10.8304
▁proton	-10.8305
wi	-10.8308
▁rac	-10.8313
▁eif	-10.8315
▁delta	-10.8319
▁microbiome	-10.8324
▁dotted	-10.8326
▁wing	-10.8331
▁mut	-10.8332
▁span	-10.8332
▁nac	-10.8332
▁gaps	-10.8337
▁character	-10.8339
▁names	-10.834
▁california	-10.834
▁hrs	-10.8348
▁ratings	-10.835
▁millipore	-10.8352
▁vl	-10.8352
▁lipoprotein	-10.8355
▁studying	-10.8355
▁bad	-10.8361
▁fused	-10.8361
▁diagnoses	-10.8362
▁obtaining	-10.8366
▁wr	-10.8367
▁gross	-10.8372
▁trajectory	-10.8375
▁010	-10.8378
▁estimating	-10.8379
▁jun	-10.8379
▁recognize	-10.838
▁station	-10.8385
▁runs	-10.8388
▁bu	-10.8388
▁suppressor	-10.8392
▁mosquitoes	-10.8393
▁ran	-10.8395
▁linking	-10.8397
▁021	-10.8402
▁159	-10.8405
▁docx	-10.8407
05	-10.8407
▁rated	-10.8407
aria	-10.8407
▁doctors	-10.8408
▁dimer	-10.8408
▁013	-10.8409
▁accumulated	-10.8413
▁projection	-10.8414
▁preserved	-10.8414
▁pellet	-10.8422
▁switching	-10.8426
▁trp	-10.8429
▁mega	-10.8431
▁colored	-10.8433
▁atmosphere	-10.8436
07	-10.8438
84	-10.8442
▁notion	-10.8446
▁lg	-10.8446
▁154	-10.8449
▁encode	-10.845
▁please	-10.8452
▁youth	-10.8454
▁objectives	-10.8456
▁transplant	-10.8461
eb	-10.8464
val	-10.8465
▁oxidase	-10.8465
▁predominant	-10.847
▁feasibility	-10.8471
onic	-10.8476
▁lists	-10.8479
▁pop	-10.8482
▁vacuum	-10.8485
▁semantic	-10.8488
93	-10.8491
▁carefully	-10.8493
▁adjusting	-10.8495
▁declaration	-10.8501
▁creating	-10.8503
▁fas	-10.8504
▁mor	-10.851
▁sar	-10.8513
▁atpase	-10.8516
▁tu	-10.8516
▁cleaved	-10.8522
▁bruker	-10.8523
▁meaningful	-10.8523
▁traffic	-10.8527
▁automatic	-10.8529
▁cerevisiae	-10.8529
08	-10.8531
▁fluor	-10.8535
ham	-10.8537
nc	-10.854
▁chart	-10.8546
▁teaching	-10.8549
▁occupational	-10.8551
low	-10.8555
av	-10.8555
▁inducible	-10.8556
▁bw	-10.8557
▁cognition	-10.8559
▁mucosa	-10.856
▁wa	-10.8564
66	-10.8568
▁instability	-10.857
▁ocean	-10.8583
▁cyclic	-10.8585
▁reviewer	-10.859
▁encodes	-10.859
▁pharmaceutical	-10.8598
▁ib	-10.8598
▁woman	-10.8601
▁provider	-10.8602
09	-10.8605
▁acoustic	-10.861
▁going	-10.861
▁contraction	-10.8612
▁167	-10.8612
▁intended	-10.8616
▁sg	-10.8618
▁experts	-10.862
▁arise	-10.8621
▁injections	-10.8625
▁prone	-10.863
▁exert	-10.8632
06	-10.8639
▁leptin	-10.864
▁insects	-10.8641
▁256	-10.8641
▁adolescent	-10.8641
▁crispr	-10.8643
og	-10.8645
▁transitions	-10.8645
▁reversed	-10.8646
▁020	-10.8649
▁transverse	-10.8651
▁bat	-10.8655
▁marginal	-10.8656
▁company	-10.8657
▁placement	-10.8657
▁cys	-10.8658
▁caregivers	-10.866
ani	-10.8662
▁scaling	-10.8663
form	-10.8669
▁county	-10.8671
▁australian	-10.8672
▁query	-10.8674
▁stresses	-10.8675
▁kaplan	-10.8678
▁taiwan	-10.8679
▁stromal	-10.8682
▁roi	-10.8686
▁currents	-10.8688
▁employment	-10.8691
▁microscopic	-10.87
▁domestic	-10.8706
▁fi	-10.8709
▁mimic	-10.8711
▁bit	-10.8714
▁outpatient	-10.8719
▁022	-10.8724
▁england	-10.8724
▁big	-10.8724
▁hct	-10.8724
▁trypsin	-10.8729
▁mathematical	-10.8735
▁behaviours	-10.8736
▁conception	-10.8743
ib	-10.8748
▁interleukin	-10.8751
▁ws	-10.8752
▁acidic	-10.8755
do	-10.8758
▁classifier	-10.8758
0000000000000000	-10.8759
▁paraffin	-10.8765
▁faces	-10.8773
▁fluctuations	-10.8778
▁dissociation	-10.8784
▁nonlinear	-10.8784
▁clarify	-10.8785
▁border	-10.8787
▁institutes	-10.8787
▁conditional	-10.879
▁mat	-10.8795
▁ie	-10.8797
▁september	-10.8798
▁wind	-10.8799
▁geometric	-10.88
▁transporters	-10.8804
▁brains	-10.8805
▁pu	-10.8808
▁gbm	-10.8808
▁166	-10.8808
▁mating	-10.8811
▁psa	-10.8811
▁bootstrap	-10.8814
_1	-10.8817
▁elastic	-10.8818
▁waves	-10.8821
amide	-10.8824
▁definitions	-10.8828
▁sufficiently	-10.8831
▁nonetheless	-10.8836
▁cur	-10.8837
▁157	-10.8848
94	-10.8854
▁salmonella	-10.8857
cy	-10.8864
▁entered	-10.8868
▁intense	-10.8868
tus	-10.8872
▁nad	-10.8873
▁apo	-10.8874
▁organized	-10.8875
▁ldh	-10.8877
▁resident	-10.8878
▁exploration	-10.888
lab	-10.888
▁rnase	-10.8881
▁indicative	-10.8882
▁august	-10.8886
▁clean	-10.8894
▁169	-10.8895
▁blind	-10.8895
▁resin	-10.8903
▁bs	-10.8905
▁hold	-10.8908
ou	-10.8917
▁beijing	-10.8922
▁retrieval	-10.8923
▁spearman	-10.8923
car	-10.8924
oa	-10.8935
▁belong	-10.8935
▁scc	-10.8935
▁mtdna	-10.8938
▁illustrate	-10.8945
▁biased	-10.8947
▁inset	-10.8948
▁distilled	-10.8954
▁glycine	-10.8955
sr	-10.896
▁purity	-10.8964
▁locally	-10.8964
▁174	-10.8966
▁res	-10.8968
atus	-10.8969
▁pkc	-10.8974
▁oligo	-10.8982
▁adopt	-10.8983
▁elucidate	-10.8983
▁amongst	-10.8989
▁viewed	-10.8989
▁zno	-10.899
▁centered	-10.899
▁foxp	-10.8992
▁exosomes	-10.8993
▁blots	-10.8995
▁adhd	-10.8998
▁bin	-10.8999
▁bases	-10.9
ano	-10.9003
▁mcp	-10.9003
116	-10.9003
▁doctor	-10.9006
▁153	-10.9007
▁abilities	-10.9007
▁bn	-10.9008
▁admitted	-10.9009
▁filters	-10.9009
▁dsm	-10.9015
▁stimulating	-10.9025
ld	-10.9027
▁japanese	-10.9037
400	-10.9039
▁trajectories	-10.9042
▁smart	-10.9044
▁contexts	-10.9044
sa	-10.9049
▁losses	-10.9049
▁220	-10.905
▁src	-10.905
▁mitotic	-10.9051
▁aerobic	-10.9059
▁essentially	-10.9066
▁productivity	-10.9068
▁spectrometer	-10.9069
▁docking	-10.9071
▁vegetation	-10.9072
▁wider	-10.9074
▁supervision	-10.9075
▁prepare	-10.9075
▁esi	-10.9077
▁perceptions	-10.9089
▁activator	-10.9094
▁dia	-10.9095
▁unchanged	-10.9096
▁gly	-10.9097
▁boys	-10.9097
▁eps	-10.9101
▁nitrate	-10.9101
▁denoted	-10.9104
tp	-10.9106
▁ventilation	-10.9107
▁gwas	-10.9109
▁proliferative	-10.911
▁molar	-10.9111
▁homogeneous	-10.9112
nu	-10.9112
▁hm	-10.9115
▁concomitant	-10.9116
ful	-10.9121
▁mdr	-10.9121
men	-10.9122
▁returned	-10.9122
▁immunostaining	-10.9126
▁der	-10.9129
▁improves	-10.9129
▁rely	-10.913
▁152	-10.9133
▁rpmi	-10.9138
rm	-10.9141
▁diarrhea	-10.9143
fp	-10.9143
▁foci	-10.9144
▁engage	-10.9144
▁bdnf	-10.9147
▁referral	-10.9151
▁lncrnas	-10.9153
▁svm	-10.9153
uv	-10.9154
▁circadian	-10.9156
▁meier	-10.9157
▁metric	-10.9158
▁cloning	-10.9163
▁illustrates	-10.9163
▁accounting	-10.9168
▁escape	-10.9168
▁lysed	-10.917
▁modeled	-10.917
▁priority	-10.9173
▁overexpressing	-10.9174
▁cytosolic	-10.9177
▁postnatal	-10.9177
▁looking	-10.9181
▁parp	-10.9182
▁preferences	-10.9188
cm	-10.9188
▁farm	-10.9189
ense	-10.9189
▁indirectly	-10.9198
▁turnover	-10.9199
▁sided	-10.9199
▁frames	-10.9205
ell	-10.9209
▁bioinformatics	-10.9209
▁mucosal	-10.921
▁begin	-10.9213
▁calls	-10.9215
▁stain	-10.9217
que	-10.9227
rf	-10.9236
▁sap	-10.9237
▁reproduction	-10.9239
▁respiration	-10.9239
▁unpaired	-10.924
gp	-10.924
▁citrate	-10.924
▁filtration	-10.9241
▁parietal	-10.9243
▁annealing	-10.9247
▁tandem	-10.9247
▁myeloid	-10.9249
▁fibroblast	-10.925
▁methodological	-10.9251
▁smoke	-10.9252
▁mock	-10.9254
▁conditioned	-10.9256
▁automatically	-10.9257
▁assayed	-10.9259
▁sim	-10.9265
▁catheter	-10.9268
▁landscape	-10.9269
▁echo	-10.9271
▁antiviral	-10.9275
▁decomposition	-10.9286
field	-10.9287
▁undertaken	-10.9287
▁bowel	-10.9289
▁ace	-10.9292
▁enabled	-10.9305
▁covariance	-10.9308
▁break	-10.9308
▁slower	-10.9308
ure	-10.9311
▁aki	-10.9312
▁edema	-10.9317
▁permission	-10.932
▁metals	-10.9321
▁damaged	-10.9323
▁yang	-10.9324
▁tight	-10.9326
▁epidermal	-10.9328
▁highlights	-10.9335
▁began	-10.9336
tin	-10.9338
▁ke	-10.934
▁beliefs	-10.9344
▁optic	-10.935
▁declared	-10.9355
▁zones	-10.9356
▁dha	-10.936
▁switzerland	-10.9363
▁histology	-10.9367
▁tended	-10.9368
▁tl	-10.937
oxy	-10.9371
▁nj	-10.9371
▁qol	-10.9374
▁arginine	-10.9374
▁themes	-10.9376
▁rct	-10.9381
der	-10.9382
▁surprisingly	-10.939
▁contigs	-10.9391
▁ablation	-10.9392
▁say	-10.9394
su	-10.9402
▁outbreak	-10.9404
and	-10.9407
met	-10.9407
▁173	-10.9408
▁280	-10.9409
▁yu	-10.9414
▁presumably	-10.9414
▁website	-10.9417
▁ol	-10.9417
▁october	-10.9418
▁meso	-10.9425
▁glioma	-10.9426
▁ill	-10.9427
▁pollution	-10.943
▁fragmentation	-10.9431
▁asp	-10.9432
▁denv	-10.9434
▁apparatus	-10.9439
▁asymmetric	-10.9439
500	-10.9442
str	-10.9445
▁cav	-10.9448
▁signatures	-10.9449
▁smith	-10.945
▁violence	-10.9452
▁oocytes	-10.9453
▁sle	-10.9454
▁bath	-10.9458
76	-10.9458
▁passage	-10.946
▁symptomatic	-10.9465
▁reconstructed	-10.9466
▁accounts	-10.9474
▁mixtures	-10.9474
▁photon	-10.9475
▁otus	-10.9478
▁saturated	-10.9479
qui	-10.948
▁compartments	-10.948
▁195	-10.9482
▁ball	-10.9484
▁moderately	-10.9488
▁164	-10.9488
▁163	-10.9492
▁elegans	-10.9493
▁irradiated	-10.9494
lt	-10.9496
▁wilcoxon	-10.9497
▁ang	-10.9499
▁ranked	-10.95
ser	-10.9503
▁learn	-10.9504
▁broader	-10.9506
▁gu	-10.9511
▁ram	-10.9512
▁tropical	-10.9515
cn	-10.9524
▁wise	-10.9526
▁compatible	-10.9527
▁die	-10.9529
▁tet	-10.953
▁nl	-10.9531
ology	-10.9537
▁vaginal	-10.9537
bu	-10.9538
▁backbone	-10.9545
▁meal	-10.9545
▁inference	-10.9547
▁physiology	-10.9552
map	-10.9564
cin	-10.9565
cap	-10.9567
▁squared	-10.9567
▁1980	-10.957
▁210	-10.9576
▁influencing	-10.9577
▁islands	-10.9578
▁annexin	-10.9579
▁precursors	-10.958
▁habitats	-10.958
▁surprising	-10.9581
▁epitope	-10.9584
▁0000	-10.9585
▁interested	-10.959
▁falciparum	-10.9592
▁muc	-10.9593
▁ssc	-10.9596
▁utilizing	-10.9598
▁road	-10.9599
▁richness	-10.9601
▁pay	-10.9602
▁differently	-10.9602
▁reductions	-10.9605
▁overexpressed	-10.9606
▁extinction	-10.9607
▁proof	-10.9609
▁remote	-10.9612
▁phe	-10.9613
▁duplication	-10.9615
▁covering	-10.9618
▁deprivation	-10.9623
▁dialysis	-10.9623
▁walk	-10.9624
▁actively	-10.963
▁computing	-10.9632
▁vulnerable	-10.9634
▁deliver	-10.9634
▁security	-10.9635
▁server	-10.9636
▁raman	-10.9636
ome	-10.9637
▁specialized	-10.9638
105	-10.9646
▁rev	-10.9646
▁steel	-10.9648
▁grateful	-10.9652
set	-10.9656
▁fractures	-10.9656
▁eb	-10.9657
▁duplicate	-10.9658
amp	-10.9659
▁abstract	-10.9665
▁gaba	-10.9666
▁nct	-10.9669
▁alignments	-10.9669
sk	-10.9671
▁emotions	-10.9672
▁les	-10.9674
elli	-10.9675
ber	-10.9678
▁valve	-10.9679
▁medicines	-10.9681
▁ebv	-10.9683
▁dpi	-10.9683
▁prey	-10.9684
▁5000	-10.9686
hc	-10.9688
▁rg	-10.9689
▁advances	-10.9689
▁leave	-10.969
▁decade	-10.9691
▁coordinated	-10.9693
▁translated	-10.9698
tu	-10.97
▁solve	-10.9703
▁blank	-10.9708
▁1989	-10.9711
▁catalyst	-10.9711
▁alkaline	-10.9713
▁ia	-10.9715
▁reflection	-10.9716
ectomy	-10.9718
▁commercially	-10.9718
▁pap	-10.9719
▁decided	-10.9724
du	-10.9724
▁defining	-10.9725
▁lymphocyte	-10.9729
▁188	-10.9729
▁relations	-10.9731
▁dengue	-10.9743
art	-10.9746
▁hepg	-10.9746
▁cultivation	-10.9746
▁promega	-10.9746
▁scanner	-10.9754
▁closure	-10.9754
▁ecg	-10.9754
▁recommend	-10.9755
▁trail	-10.9755
▁electrochemical	-10.9756
▁soybean	-10.976
▁attributes	-10.9762
ow	-10.9763
▁tat	-10.9764
▁prescription	-10.9766
▁nhs	-10.9767
dp	-10.9772
▁organizations	-10.9774
ru	-10.978
▁keeping	-10.9784
▁herein	-10.9792
▁189	-10.9793
ero	-10.9796
▁mammary	-10.9796
▁imaged	-10.9798
▁hypothetical	-10.9799
▁pipeline	-10.98
▁remarkably	-10.9801
▁cer	-10.9801
▁imp	-10.9802
▁termed	-10.9805
ves	-10.9813
▁bv	-10.9813
▁solely	-10.9815
▁handling	-10.982
cor	-10.9821
▁potentials	-10.9825
▁asymptomatic	-10.9826
008	-10.9826
▁trafficking	-10.9827
▁bonding	-10.983
▁rec	-10.9831
▁lethal	-10.9832
▁dec	-10.9833
▁assignment	-10.984
▁alzheimer	-10.984
▁024	-10.9841
▁phone	-10.9842
cre	-10.9845
▁ei	-10.9846
▁sediment	-10.9846
▁inadequate	-10.985
ogenic	-10.9852
▁persistence	-10.9853
▁receiver	-10.9853
▁axons	-10.9856
▁egf	-10.9858
▁wc	-10.9858
▁proteasome	-10.986
out	-10.9861
▁analyzer	-10.9864
▁tomato	-10.9867
▁biopsies	-10.9871
▁standing	-10.9872
▁apoe	-10.9873
▁3000	-10.9875
▁185	-10.9875
▁atherosclerosis	-10.9876
▁price	-10.988
▁nearest	-10.9881
▁french	-10.9882
▁icc	-10.9889
▁flight	-10.9892
we	-10.9893
▁phenolic	-10.9896
▁151	-10.9897
ub	-10.9899
▁femoral	-10.9901
▁dimethyl	-10.9903
▁shifted	-10.9905
92	-10.9906
▁elicited	-10.9908
gc	-10.9908
▁preparations	-10.9909
▁hormones	-10.991
▁apex	-10.991
▁mas	-10.9913
▁union	-10.992
▁played	-10.9921
▁900	-10.9922
▁waste	-10.9923
▁collectively	-10.9924
▁indian	-10.9925
▁kcl	-10.9928
▁demands	-10.9932
▁percentile	-10.9933
▁melting	-10.9943
yn	-10.9947
▁prevents	-10.9951
▁faculty	-10.9955
dd	-10.9957
▁subcutaneous	-10.996
▁preterm	-10.9962
▁operated	-10.9971
▁outlined	-10.9973
101	-10.9981
▁hemisphere	-10.9982
▁kcal	-10.9982
▁purple	-10.9985
gy	-10.9989
▁enhancer	-10.999
▁achieving	-10.9993
▁pfs	-10.9994
▁strict	-10.9997
▁reductase	-11.0007
gn	-11.0012
▁stomach	-11.0015
▁innovation	-11.0019
▁conducting	-11.002
led	-11.0022
▁hepatocytes	-11.0024
▁positioning	-11.0028
▁sbp	-11.0032
ries	-11.0036
▁apparently	-11.0038
▁helsinki	-11.0039
ja	-11.0043
▁routinely	-11.0044
▁eukaryotic	-11.0045
▁pneumoniae	-11.0049
▁pocket	-11.0051
cer	-11.0051
▁press	-11.0051
▁infrared	-11.0055
▁expectations	-11.0055
nes	-11.0056
can	-11.0059
▁circumference	-11.0059
▁selectively	-11.006
nh	-11.0066
▁gse	-11.0067
▁residence	-11.007
▁traces	-11.0073
▁synapses	-11.0074
▁tra	-11.0077
▁deletions	-11.0086
▁suffering	-11.0088
▁attractive	-11.0088
▁phd	-11.0091
▁comes	-11.0099
▁023	-11.0103
▁regime	-11.0103
▁rl	-11.0107
▁interferon	-11.0112
▁tca	-11.0113
▁stranded	-11.0114
04	-11.0118
▁withdrawal	-11.0122
▁tfs	-11.0123
▁supplied	-11.0123
▁kingdom	-11.0125
▁repression	-11.0127
▁managed	-11.0128
▁tan	-11.0134
▁zeiss	-11.0138
tal	-11.0138
▁generations	-11.0142
▁sorted	-11.0142
▁jak	-11.0144
▁kinds	-11.0145
83	-11.0146
▁remarkable	-11.0149
▁positioned	-11.0152
▁wb	-11.0154
▁ff	-11.0155
▁voxel	-11.0156
pv	-11.0159
▁exposures	-11.0159
▁differs	-11.0163
▁dominated	-11.0165
▁intention	-11.0169
▁survivors	-11.0169
▁acceleration	-11.0174
▁epidemic	-11.0174
▁genetics	-11.0175
▁pylori	-11.018
74	-11.0182
▁adp	-11.0187
▁atrial	-11.0187
za	-11.0193
▁tween	-11.0199
▁igm	-11.0202
▁pal	-11.0206
▁dys	-11.0206
ists	-11.0207
▁obviously	-11.0209
ris	-11.0212
▁lamp	-11.0213
▁026	-11.0219
ug	-11.022
▁scatter	-11.022
▁ks	-11.0222
▁alanine	-11.0224
▁bile	-11.0228
▁diminished	-11.0229
▁personality	-11.0229
▁diego	-11.0237
▁clonal	-11.024
▁cooling	-11.0242
▁breastfeeding	-11.0245
▁nu	-11.0247
▁substitutions	-11.0251
▁approximation	-11.0254
red	-11.0255
▁vc	-11.0264
▁broth	-11.0269
▁coil	-11.0271
▁becoming	-11.0274
▁balanced	-11.0278
▁plans	-11.0281
▁platelets	-11.0281
▁fd	-11.0282
▁practitioners	-11.0283
▁driver	-11.0285
▁exo	-11.0286
▁recipient	-11.029
▁186	-11.0291
ita	-11.0295
▁institution	-11.0295
▁married	-11.0297
▁stationary	-11.0301
▁hits	-11.0302
nm	-11.0306
▁162	-11.0308
▁plausible	-11.0309
▁histogram	-11.0314
▁annotations	-11.0315
▁fourier	-11.0317
▁music	-11.0318
▁swelling	-11.0321
▁systematically	-11.0326
mar	-11.0331
▁ranking	-11.0332
ile	-11.0333
▁shi	-11.0333
▁genomics	-11.034
▁172	-11.034
▁john	-11.0341
▁axon	-11.0344
▁methylated	-11.0351
▁ste	-11.0352
▁silicon	-11.0357
▁selecting	-11.0358
▁bridge	-11.0358
▁atrophy	-11.0368
▁rn	-11.0369
▁came	-11.037
tag	-11.0374
▁walls	-11.0374
▁sorting	-11.0375
▁alveolar	-11.0377
▁germination	-11.0382
▁intellectual	-11.0386
▁portal	-11.0386
ecs	-11.0387
▁tv	-11.0388
▁ptsd	-11.0391
▁lac	-11.0391
ny	-11.0393
▁solar	-11.0393
▁serves	-11.0394
▁stochastic	-11.0394
▁uni	-11.0397
▁cmv	-11.0398
▁accessibility	-11.0399
▁ordered	-11.04
▁entirely	-11.0403
▁diagnostics	-11.0409
▁nucleic	-11.0412
▁preventive	-11.0416
▁1988	-11.0417
▁rod	-11.0418
▁mouth	-11.042
▁consuming	-11.0421
hb	-11.0422
▁functionality	-11.0423
▁isotropic	-11.0426
▁loops	-11.0427
▁corn	-11.0429
▁pyr	-11.0432
▁olfactory	-11.0436
▁aberrant	-11.0438
ob	-11.0439
▁welfare	-11.0442
▁unrelated	-11.0444
▁fecal	-11.0446
▁considerations	-11.0449
▁conceptual	-11.0452
▁envelope	-11.0452
▁straight	-11.0457
▁hydroxyl	-11.0459
▁acknowledgement	-11.046
▁albicans	-11.0462
▁193	-11.0462
▁anemia	-11.0463
▁nmol	-11.0463
▁035	-11.0465
▁oscillations	-11.0466
▁antibacterial	-11.0468
▁splice	-11.0472
▁ocular	-11.0472
▁stigma	-11.0473
▁updated	-11.0478
▁repetitive	-11.0479
▁bas	-11.048
▁conductance	-11.048
zo	-11.0483
▁sybr	-11.0487
▁permanent	-11.0488
pf	-11.0493
physiological	-11.0494
▁stabilization	-11.0494
▁congenital	-11.0497
ker	-11.0498
▁ee	-11.0499
▁severely	-11.0499
▁capital	-11.0504
▁194	-11.0504
ger	-11.0511
▁260	-11.0512
▁pictures	-11.0514
▁card	-11.0515
▁signed	-11.0516
82	-11.0519
▁deficit	-11.0522
▁fg	-11.0524
gg	-11.0526
▁tbi	-11.0531
▁kr	-11.0532
130	-11.0534
▁searched	-11.0534
▁tac	-11.054
▁responsibility	-11.0543
▁028	-11.0544
▁ammonium	-11.0544
▁impair	-11.0547
par	-11.0549
tes	-11.055
▁synergistic	-11.055
▁inspection	-11.0554
cell	-11.0556
▁eluted	-11.0564
▁premature	-11.0568
▁027	-11.0568
▁pod	-11.0569
▁corporation	-11.0571
▁labor	-11.0571
tor	-11.0574
▁folding	-11.0575
▁registry	-11.0577
▁9300	-11.0584
▁complication	-11.0585
▁traumatic	-11.0585
▁jo	-11.0586
▁ancestral	-11.0587
▁ova	-11.0589
off	-11.0594
▁squamous	-11.0594
▁khz	-11.0597
ken	-11.0598
▁thanks	-11.0599
▁explicit	-11.06
▁arteries	-11.0605
▁hepes	-11.0606
▁neighboring	-11.0608
▁unc	-11.0608
▁lived	-11.062
ws	-11.0621
▁modulating	-11.0623
▁notes	-11.0624
fu	-11.0627
▁vt	-11.0628
▁robustness	-11.0631
ena	-11.0631
▁epilepsy	-11.0632
▁fifth	-11.0632
▁pen	-11.0635
▁concurrent	-11.0636
▁hole	-11.0641
▁deal	-11.0642
▁lumen	-11.0645
▁projections	-11.0647
▁kernel	-11.0648
▁den	-11.0649
▁choices	-11.0651
hd	-11.0652
▁cambridge	-11.0653
▁fh	-11.0655
tra	-11.066
▁monomer	-11.0662
▁symbol	-11.0663
▁192	-11.0665
1_	-11.0667
▁chd	-11.0668
▁cultivated	-11.0672
▁knock	-11.0672
▁fashion	-11.0675
▁rings	-11.0675
▁randomization	-11.0676
▁proinflammatory	-11.0677
▁lncrna	-11.0678
her	-11.0679
▁prime	-11.068
▁mon	-11.0681
▁mcherry	-11.0681
att	-11.0683
▁pulses	-11.0685
▁popular	-11.0685
▁perceptual	-11.0691
▁distinguished	-11.0692
▁reproducibility	-11.0693
▁inverted	-11.0696
▁enabling	-11.0698
ram	-11.0698
▁chemokine	-11.0699
▁cortisol	-11.07
▁pyruvate	-11.0705
▁periodic	-11.0711
▁conservative	-11.0714
▁230	-11.0714
▁mcc	-11.0718
▁superoxide	-11.0718
▁inherent	-11.0718
▁184	-11.0722
gh	-11.0723
▁sio	-11.0725
▁lifespan	-11.0731
▁immunoblotting	-11.0733
▁topology	-11.0734
▁mgcl	-11.0735
▁truncated	-11.0737
▁senior	-11.0738
ulin	-11.0739
▁escherichia	-11.0739
▁thereafter	-11.0739
▁ethylene	-11.0742
▁doing	-11.0742
▁allergic	-11.0748
▁cast	-11.0749
▁slowly	-11.075
▁cooperation	-11.0757
▁acetic	-11.0757
scs	-11.0766
▁scr	-11.0769
▁mediating	-11.0772
▁operations	-11.0772
▁cement	-11.078
▁personnel	-11.0781
▁lod	-11.0782
ze	-11.0783
▁informative	-11.0783
▁offset	-11.0784
ller	-11.0786
▁consultation	-11.079
pod	-11.0794
▁mtb	-11.0794
▁representations	-11.0795
▁passed	-11.0795
▁cage	-11.0796
▁pink	-11.08
paraformaldehyde	-11.0801
ato	-11.0804
▁corneal	-11.0809
▁tertiary	-11.0813
▁facilitated	-11.082
▁polymerization	-11.082
▁ige	-11.0825
▁agriculture	-11.0825
▁legal	-11.0826
▁stand	-11.0832
▁pacific	-11.0832
rg	-11.0832
▁favor	-11.0833
▁attenuation	-11.0837
▁attempted	-11.0841
▁labels	-11.0842
▁centres	-11.0843
▁ut	-11.0848
▁fabricated	-11.0848
▁gained	-11.0848
▁operational	-11.0848
▁fate	-11.0849
▁abi	-11.085
▁che	-11.0851
▁181	-11.0852
▁flowering	-11.0865
ran	-11.0866
▁fox	-11.0867
▁slide	-11.0867
▁adjust	-11.0868
▁bh	-11.0868
▁pax	-11.0869
▁npc	-11.087
▁ionic	-11.087
▁immature	-11.0872
▁dividing	-11.0874
▁homolog	-11.0874
genic	-11.0876
▁researcher	-11.0878
▁pbmcs	-11.088
▁inconsistent	-11.0881
▁anaerobic	-11.0885
▁doc	-11.0893
▁expenditure	-11.0895
▁161	-11.0895
▁sports	-11.0896
ras	-11.0898
▁construed	-11.0901
▁hall	-11.0905
▁phenomena	-11.0908
▁hypoxic	-11.0913
▁refined	-11.0917
log	-11.0919
▁historical	-11.0923
▁imagej	-11.0929
▁comorbidities	-11.093
▁shoot	-11.0931
▁platforms	-11.0934
▁responded	-11.0934
▁secondly	-11.0935
▁sca	-11.0936
▁hundred	-11.0938
▁blockade	-11.0939
▁1987	-11.0943
▁alk	-11.0944
▁challenged	-11.0947
▁unpublished	-11.0947
ius	-11.0951
▁infrastructure	-11.0955
▁imbalance	-11.0955
▁broadly	-11.0956
▁kir	-11.0965
▁angular	-11.0967
▁fabrication	-11.0971
▁taxon	-11.0972
▁leica	-11.0973
▁prp	-11.0974
▁preclinical	-11.0976
▁perfect	-11.0977
▁029	-11.0978
▁malignancy	-11.0981
▁instances	-11.0983
▁interpret	-11.0987
▁falls	-11.0988
▁yi	-11.0988
▁unaffected	-11.0988
▁prove	-11.0992
▁threat	-11.0993
cv	-11.0993
▁dw	-11.0995
▁cotton	-11.0996
mes	-11.1
▁titers	-11.1
py	-11.1
▁aggregate	-11.1004
▁regimens	-11.1009
ich	-11.1009
▁acetylation	-11.1011
▁fellowship	-11.1017
▁modest	-11.1018
▁thoracic	-11.1018
▁planes	-11.1019
▁conditioning	-11.102
▁bright	-11.1022
▁integral	-11.1022
▁exactly	-11.1022
▁confirmation	-11.1023
▁avoidance	-11.1025
▁cop	-11.1026
700	-11.1028
▁hemorrhage	-11.1037
tis	-11.1039
▁modulus	-11.1043
▁evaluations	-11.1043
▁psi	-11.1049
▁fertility	-11.1051
ising	-11.1052
▁responders	-11.1054
▁demographics	-11.1054
▁sur	-11.1054
▁drift	-11.1055
▁soils	-11.1059
▁ibd	-11.1061
▁bay	-11.1063
▁vast	-11.1063
▁generic	-11.1068
▁salinity	-11.1072
▁defective	-11.1075
dia	-11.1075
▁1986	-11.1075
▁comprises	-11.1076
▁discrepancy	-11.1077
▁excitatory	-11.1081
▁cryo	-11.1083
▁rsv	-11.1087
▁entropy	-11.1087
▁contralateral	-11.1089
▁machinery	-11.1092
▁antisense	-11.1096
▁balb	-11.1096
▁accessed	-11.1104
▁sep	-11.1104
▁171	-11.1111
▁executive	-11.1112
pk	-11.1115
▁strongest	-11.1118
▁consist	-11.1121
way	-11.1122
xi	-11.1123
▁coping	-11.113
▁assist	-11.1132
▁cigarette	-11.1133
▁forced	-11.1134
▁constants	-11.1137
▁schedule	-11.114
▁metformin	-11.1141
▁arbitrary	-11.1143
▁shoulder	-11.1143
▁symbols	-11.1147
▁sized	-11.1148
rb	-11.1151
▁033	-11.1154
▁thaliana	-11.1157
▁messages	-11.1159
oni	-11.1159
▁relating	-11.1162
▁modify	-11.1168
▁searches	-11.1169
▁psychosocial	-11.1169
▁dissection	-11.117
▁floor	-11.1179
eo	-11.1179
▁employing	-11.1188
acc	-11.119
▁housing	-11.1192
▁probable	-11.1192
▁quantities	-11.1193
▁notable	-11.1201
▁attributable	-11.1202
▁kl	-11.1203
▁ub	-11.1204
▁acceptance	-11.1204
▁bg	-11.1207
▁flower	-11.1207
▁cited	-11.1209
rus	-11.1211
▁vegetables	-11.1213
▁los	-11.1214
▁negligible	-11.1216
▁187	-11.1218
idine	-11.1219
▁epa	-11.1221
▁moved	-11.1221
mn	-11.1223
▁preferentially	-11.1223
▁ectopic	-11.1228
▁luminal	-11.1229
ud	-11.1232
aq	-11.1235
ven	-11.1235
cal	-11.1236
▁attitude	-11.1238
▁initiate	-11.1243
▁arch	-11.1243
▁compute	-11.1245
▁bax	-11.1251
▁ecosystem	-11.1251
▁kh	-11.1254
▁gmbh	-11.126
▁tss	-11.1265
▁lanes	-11.1265
uk	-11.127
▁junctions	-11.1272
▁lysate	-11.1272
▁360	-11.1275
▁cyst	-11.1277
ole	-11.1278
▁fb	-11.1279
▁epitopes	-11.128
ili	-11.128
hy	-11.128
▁mrsa	-11.1281
▁vm	-11.1282
▁explicitly	-11.1291
▁env	-11.1291
▁leaving	-11.1293
▁adapt	-11.1296
▁silico	-11.13
▁evs	-11.1302
▁hsv	-11.1303
dis	-11.1304
▁niche	-11.1305
▁manage	-11.1305
▁tam	-11.1308
▁amplitudes	-11.1308
▁expertise	-11.1312
▁emissions	-11.1312
type	-11.1313
▁xl	-11.1314
▁cyto	-11.1315
ria	-11.1317
▁mechanistic	-11.1319
▁hk	-11.132
hp	-11.1323
▁cos	-11.1327
▁blinded	-11.1327
ln	-11.1328
▁efflux	-11.133
▁roughly	-11.1331
▁canadian	-11.1332
110	-11.1334
▁glands	-11.1336
df	-11.1337
▁199	-11.1338
▁kappa	-11.1341
▁establishing	-11.1342
▁opposed	-11.1344
▁comp	-11.1345
▁addressing	-11.1346
▁characters	-11.135
▁peroxide	-11.1353
▁xp	-11.1355
▁london	-11.1359
mv	-11.1359
▁1038	-11.1361
▁electrons	-11.1366
▁gibco	-11.1366
009	-11.1366
▁extending	-11.1367
▁iq	-11.1368
▁insert	-11.1375
▁stopped	-11.1378
▁headache	-11.1379
fo	-11.138
▁injured	-11.1389
▁dispersal	-11.1391
▁killing	-11.1395
▁investigator	-11.1396
▁episode	-11.1399
▁energies	-11.14
▁penetration	-11.14
▁filling	-11.1406
▁carlsbad	-11.1407
▁vaccinated	-11.1408
▁convergence	-11.141
▁205	-11.141
▁183	-11.1411
▁export	-11.1414
▁hemi	-11.1415
▁cca	-11.1419
▁spindle	-11.142
▁affective	-11.1421
▁oxidized	-11.1426
▁evidenced	-11.1427
▁je	-11.1431
▁oe	-11.1438
▁precisely	-11.1438
▁facilitates	-11.1442
▁tone	-11.1444
▁sides	-11.1444
▁restoration	-11.1446
▁peritoneal	-11.145
▁drafting	-11.145
▁accelerated	-11.1452
▁subcellular	-11.1452
▁retro	-11.1454
lim	-11.1454
▁stakeholders	-11.1456
▁pcs	-11.1462
▁kras	-11.1462
▁glut	-11.1463
▁mast	-11.1463
▁gestation	-11.1465
▁collecting	-11.147
▁moisture	-11.1471
▁marital	-11.1473
▁freedom	-11.1474
▁november	-11.1475
▁lesser	-11.1481
▁fos	-11.1483
▁supra	-11.1484
▁programmes	-11.1484
▁interquartile	-11.1486
dl	-11.1486
▁axonal	-11.1488
▁ann	-11.1492
▁counterparts	-11.1495
▁sparse	-11.1496
▁autism	-11.1496
eno	-11.1497
ville	-11.1499
▁relate	-11.1499
▁rapamycin	-11.1504
▁dnase	-11.1504
▁missed	-11.1505
▁hematoxylin	-11.1505
▁320	-11.1507
ver	-11.1507
▁crops	-11.1508
▁golgi	-11.1511
▁031	-11.1512
▁pointed	-11.1513
▁imply	-11.1513
▁responding	-11.1515
▁pellets	-11.1515
▁intercept	-11.1516
bf	-11.1517
▁triggers	-11.1517
mr	-11.1517
▁pancreas	-11.1518
▁plateau	-11.1521
▁glial	-11.1521
▁dissected	-11.1528
▁competence	-11.1529
oe	-11.1531
▁chloro	-11.1534
▁pka	-11.1534
nk	-11.1534
▁lignin	-11.1534
eus	-11.1537
▁saliva	-11.1538
▁edited	-11.1538
▁waist	-11.1539
▁hispanic	-11.154
▁arrangement	-11.1541
app	-11.1542
▁proteome	-11.1547
▁generates	-11.1549
▁biotin	-11.1552
zi	-11.1552
▁cerebellum	-11.1554
▁style	-11.1557
▁multivariable	-11.156
▁chitosan	-11.1561
▁wish	-11.1562
▁optimize	-11.1563
▁tar	-11.1566
▁commission	-11.157
▁weaker	-11.1572
▁hope	-11.1574
qu	-11.1575
▁rodent	-11.1576
▁computation	-11.1582
ions	-11.1588
▁eosin	-11.1591
▁cultivars	-11.1591
▁things	-11.1595
ical	-11.1596
▁draw	-11.1596
▁carotid	-11.1598
nb	-11.1599
▁whereby	-11.1603
▁032	-11.1604
▁epidemiology	-11.1605
▁hematopoietic	-11.1605
▁allelic	-11.1605
▁denmark	-11.1605
▁modalities	-11.1605
▁gli	-11.1614
▁glycolysis	-11.1614
▁designs	-11.1614
▁salivary	-11.1616
▁editor	-11.1619
▁immunological	-11.1619
otic	-11.1619
▁examinations	-11.162
▁specialist	-11.1624
▁suffer	-11.1629
▁placenta	-11.163
▁036	-11.163
▁anticancer	-11.1631
▁versions	-11.1633
▁kp	-11.1635
▁curcumin	-11.1636
▁mask	-11.1636
▁aforementioned	-11.1641
▁coherence	-11.1641
▁initiative	-11.1642
▁cone	-11.1646
▁wallis	-11.1648
▁037	-11.165
ogenesis	-11.1652
▁constitutive	-11.1656
▁spherical	-11.1656
▁learned	-11.1656
▁opinion	-11.1657
▁composites	-11.1659
▁039	-11.1661
▁remission	-11.1665
▁acquire	-11.1667
▁gata	-11.1668
▁acetone	-11.1671
▁finite	-11.1671
▁scar	-11.1672
▁afm	-11.1673
fer	-11.1676
▁degraded	-11.168
▁helps	-11.1682
▁waters	-11.1682
▁ortho	-11.1684
▁fda	-11.1687
my	-11.1687
pn	-11.1688
▁nitric	-11.1688
▁exhibiting	-11.1689
▁political	-11.1689
▁heated	-11.1692
▁amygdala	-11.1696
▁physically	-11.17
▁satellite	-11.1702
▁irrespective	-11.1702
▁lasting	-11.1703
▁speculate	-11.1704
ale	-11.1704
oli	-11.1704
▁disturbance	-11.1706
▁endocrine	-11.1711
▁mdm	-11.1716
103	-11.172
▁cdcl	-11.172
▁teachers	-11.1723
▁rpe	-11.1734
▁prenatal	-11.1735
▁vir	-11.1742
▁ala	-11.1742
▁pseudomonas	-11.1746
▁biases	-11.1748
▁tcga	-11.1749
▁hv	-11.1753
eurodegenerative	-11.1757
▁prefrontal	-11.1761
▁cessation	-11.1762
▁auxin	-11.177
▁eliminated	-11.177
▁concrete	-11.1772
over	-11.1777
▁shapes	-11.1778
▁circumstances	-11.1779
mel	-11.1779
▁warm	-11.178
▁lowering	-11.178
▁grains	-11.1781
▁endpoint	-11.1783
▁gate	-11.1785
▁reversible	-11.1785
▁message	-11.1786
▁teams	-11.1789
▁mediates	-11.1789
▁034	-11.1789
ification	-11.1789
▁guideline	-11.1791
▁disrupted	-11.1791
▁preceding	-11.1792
▁advance	-11.1796
▁mag	-11.1796
▁lives	-11.1798
▁optimum	-11.1803
▁bipolar	-11.1806
▁uninfected	-11.1811
▁interfere	-11.1811
▁talk	-11.1815
▁something	-11.1816
▁steroid	-11.1818
▁restored	-11.1819
ew	-11.1826
▁deleted	-11.1828
▁hind	-11.1828
001_	-11.1834
▁nod	-11.1838
▁texture	-11.184
▁players	-11.1842
pre	-11.1843
▁seek	-11.1846
▁regularly	-11.1846
▁smallest	-11.1846
nr	-11.1851
▁associate	-11.1854
▁999	-11.1854
har	-11.1856
▁kt	-11.1857
▁pac	-11.1858
▁038	-11.1858
▁asterisks	-11.1865
▁vesicle	-11.1866
▁kruskal	-11.187
▁ham	-11.1874
ova	-11.1876
▁visualize	-11.1877
ua	-11.1877
▁etiology	-11.1878
mu	-11.1878
▁ward	-11.1891
▁az	-11.1898
▁unstable	-11.1899
▁moi	-11.1901
▁pools	-11.1902
cam	-11.1902
mir	-11.1907
▁observer	-11.1908
alis	-11.1909
▁housed	-11.1911
▁unexpected	-11.1911
▁drying	-11.1912
▁monocyte	-11.1912
▁aorta	-11.1913
▁ccd	-11.1913
▁irf	-11.1913
▁relies	-11.1914
▁olympus	-11.1919
▁dairy	-11.1919
▁tk	-11.192
▁ensemble	-11.1923
sch	-11.1925
▁infer	-11.1932
▁heparin	-11.1933
▁cytoskeleton	-11.1936
▁discarded	-11.1937
▁declined	-11.1938
▁208	-11.1939
▁employees	-11.194
▁mutagenesis	-11.1941
▁mad	-11.1946
uli	-11.1948
▁recommendation	-11.195
▁quartile	-11.1951
▁david	-11.1952
▁1985	-11.1954
77	-11.1955
▁contextual	-11.1958
ao	-11.1961
▁sedentary	-11.1962
▁viscosity	-11.1964
▁song	-11.1966
▁fair	-11.1967
▁monolayer	-11.1969
▁nested	-11.197
▁workflow	-11.197
▁globally	-11.1971
▁exploring	-11.1972
▁rcts	-11.1972
▁colors	-11.1974
▁matches	-11.1976
▁malignancies	-11.1979
ets	-11.1979
▁capsule	-11.198
▁mek	-11.198
▁feeling	-11.1982
▁sil	-11.1984
lf	-11.1985
▁perspectives	-11.1987
▁foster	-11.199
▁fail	-11.1991
109	-11.1997
▁interstitial	-11.1998
157	-11.2006
▁responsiveness	-11.2009
▁204	-11.201
▁icp	-11.2012
▁digit	-11.2013
▁seizures	-11.2016
well	-11.2016
reg	-11.2017
▁engineered	-11.2024
▁nitro	-11.2031
▁checklist	-11.2036
▁illumination	-11.2039
104	-11.2039
▁qc	-11.2039
▁0005	-11.204
▁concerned	-11.2043
▁270	-11.2045
▁tubular	-11.2047
▁gar	-11.2048
▁biologically	-11.2049
▁telephone	-11.2051
▁adenosine	-11.2055
▁proto	-11.2057
▁marks	-11.2059
▁easier	-11.2059
▁radicals	-11.2059
▁kan	-11.2061
▁arising	-11.2062
▁iga	-11.2064
▁village	-11.2064
▁esr	-11.2065
ert	-11.2065
▁ur	-11.2065
▁patches	-11.2069
ori	-11.2072
▁poorer	-11.2081
▁sulfur	-11.2082
▁ester	-11.2088
▁pull	-11.2089
nic	-11.2089
▁administrative	-11.2089
▁accumulate	-11.2094
▁breathing	-11.2095
metric	-11.2095
▁reciprocal	-11.2101
▁196	-11.2104
▁engaged	-11.2106
▁hidden	-11.2106
comp	-11.2107
▁answers	-11.211
hu	-11.2111
▁adipocytes	-11.2113
cf	-11.2114
crystallographic	-11.2114
▁ecs	-11.2115
▁gf	-11.2118
▁atypical	-11.2122
▁manifestations	-11.2123
▁moral	-11.2129
▁solubility	-11.2129
▁irregular	-11.213
▁das	-11.2131
tre	-11.2135
▁182	-11.2136
▁dramatic	-11.2138
▁atlas	-11.2142
▁burn	-11.2143
▁operator	-11.2145
▁coral	-11.2148
▁bioactive	-11.2149
▁dip	-11.215
▁familiar	-11.2155
▁rigid	-11.2167
▁matlab	-11.2168
▁cities	-11.2168
▁nicotine	-11.2172
▁reperfusion	-11.2174
▁kj	-11.2176
▁xenograft	-11.2178
▁pip	-11.2178
▁adulthood	-11.2182
▁qi	-11.2183
▁sat	-11.2183
▁048	-11.2187
▁phylogeny	-11.2187
▁une	-11.2189
▁leakage	-11.2191
▁movie	-11.2191
▁045	-11.2194
▁rejection	-11.2195
▁indoor	-11.2196
istic	-11.2198
▁reservoir	-11.2199
▁pretreated	-11.2203
▁robot	-11.2205
▁soon	-11.2206
▁massive	-11.2209
▁priming	-11.2211
▁vibration	-11.2212
▁dutch	-11.2214
▁nox	-11.2216
▁outbreaks	-11.2217
▁contaminated	-11.2219
▁segregation	-11.2223
▁iran	-11.2224
▁professor	-11.2224
lip	-11.2224
▁loc	-11.2225
▁axes	-11.2227
his	-11.2228
▁flu	-11.2228
▁cloud	-11.223
▁really	-11.2231
106	-11.2235
▁spatially	-11.2235
gf	-11.2236
▁wo	-11.2237
▁train	-11.224
let	-11.224
▁abiotic	-11.2241
▁chemokines	-11.2244
pg	-11.2244
▁ligation	-11.2246
91	-11.2246
base	-11.2247
▁acetonitrile	-11.2247
▁xrd	-11.2248
▁transgene	-11.2248
▁bbb	-11.2248
▁survive	-11.2248
len	-11.225
▁aav	-11.225
▁valence	-11.2253
▁checkpoint	-11.2255
▁linker	-11.2258
▁dilutions	-11.2259
▁worms	-11.2259
▁mur	-11.2262
▁fin	-11.2263
▁topics	-11.2265
▁starvation	-11.2266
▁225	-11.2267
▁ventricle	-11.2274
▁inactivated	-11.2275
▁clades	-11.2278
ping	-11.2282
▁030	-11.2283
▁morning	-11.2284
▁properly	-11.2287
▁electrostatic	-11.229
▁foreign	-11.2292
_2	-11.2292
ible	-11.2292
virus	-11.2294
dh	-11.2294
▁confirms	-11.2295
ue	-11.2306
▁monte	-11.2307
▁friends	-11.2307
▁attending	-11.2307
▁prep	-11.2308
▁cds	-11.2308
▁recover	-11.2308
▁facilitating	-11.2309
▁crossing	-11.231
▁exclusive	-11.2313
▁formalin	-11.2316
▁randomised	-11.2318
ses	-11.232
▁oxy	-11.2322
rum	-11.2324
▁abs	-11.2326
▁divergent	-11.2329
ons	-11.2329
▁creation	-11.2329
▁try	-11.233
▁mediator	-11.2333
▁cocktail	-11.2339
▁pep	-11.2341
▁ibm	-11.2343
▁expand	-11.2347
▁burst	-11.2347
▁mismatch	-11.2349
▁ngs	-11.2354
▁yielding	-11.2354
▁chlorophyll	-11.2358
▁palm	-11.236
▁scientists	-11.2362
▁substituted	-11.2363
▁tensile	-11.2366
▁gfap	-11.2368
▁habits	-11.2369
ular	-11.2372
▁expensive	-11.2376
mat	-11.2377
▁positivity	-11.2378
▁nos	-11.2378
▁mci	-11.2382
▁bor	-11.2383
hal	-11.2383
▁occlusion	-11.2384
▁impedance	-11.2392
era	-11.2392
▁republic	-11.2394
▁exploratory	-11.2399
hv	-11.2402
▁redundant	-11.2403
▁mexico	-11.2404
▁compensation	-11.2409
▁newborn	-11.241
▁lumbar	-11.2413
▁contour	-11.2415
scan	-11.2416
▁brdu	-11.2417
▁por	-11.2417
▁acyl	-11.2424
▁weakly	-11.2424
ified	-11.2425
▁formulations	-11.2428
▁regulations	-11.2437
mod	-11.2437
▁750	-11.2437
▁breath	-11.2438
▁inorganic	-11.2441
▁century	-11.2443
▁recipients	-11.2444
▁got	-11.2444
▁maximize	-11.2447
cb	-11.2456
ros	-11.2458
▁dnmt	-11.2459
▁modality	-11.2461
bv	-11.2468
▁canal	-11.2469
ez	-11.247
▁joints	-11.2471
uff	-11.2473
▁porous	-11.2473
sv	-11.2478
▁reaches	-11.2479
▁incorporating	-11.2482
▁206	-11.2484
ach	-11.2488
▁rows	-11.2489
▁nodules	-11.2492
▁snr	-11.2496
▁harvest	-11.2499
▁rinsed	-11.2501
▁war	-11.2503
▁juvenile	-11.2505
▁lam	-11.2505
ural	-11.2507
▁clients	-11.251
▁fam	-11.2511
ogen	-11.2515
▁accessions	-11.2516
ire	-11.2522
▁simulate	-11.2523
pectrophotometer	-11.2528
▁spanish	-11.2531
dv	-11.2532
▁striatum	-11.2536
▁adhesive	-11.2546
▁bmd	-11.2547
▁paid	-11.2547
▁merck	-11.255
▁1500	-11.2553
▁jan	-11.2555
▁crystalline	-11.2555
▁ctc	-11.2556
▁capabilities	-11.2556
▁biofilms	-11.2559
▁planar	-11.256
▁entries	-11.2568
▁desirable	-11.2572
▁derive	-11.2574
▁phenol	-11.2575
▁toxins	-11.2578
▁046	-11.2578
▁chicago	-11.2578
des	-11.2579
▁pressures	-11.2581
▁dtt	-11.2582
▁telomere	-11.2583
▁cough	-11.2583
▁worker	-11.2584
ara	-11.2589
▁merged	-11.2593
▁reversal	-11.2594
▁saw	-11.2597
▁math	-11.2599
▁otu	-11.26
800	-11.26
rx	-11.2601
▁flowers	-11.2604
▁realistic	-11.2606
▁hypertrophy	-11.2608
▁stool	-11.261
▁martin	-11.2616
dna	-11.2618
▁schemes	-11.2619
107	-11.2622
▁cry	-11.2625
▁cassette	-11.2628
▁cutting	-11.2628
132	-11.2636
mon	-11.2636
▁discriminate	-11.2636
▁endometrial	-11.2637
▁uas	-11.2637
▁agonists	-11.2637
cus	-11.2639
▁dispersed	-11.2641
▁oncology	-11.2643
▁voluntary	-11.2649
180	-11.2649
145	-11.2649
140	-11.2658
▁sole	-11.266
▁hydrogel	-11.2661
▁mcs	-11.2663
▁incision	-11.2663
▁scaled	-11.2667
kl	-11.2668
illa	-11.2669
▁tumorigenesis	-11.2671
▁corresponded	-11.2673
▁utilize	-11.2674
▁stably	-11.2676
▁suggestions	-11.2676
▁tuning	-11.2677
don	-11.2679
▁outliers	-11.268
▁perturbation	-11.2681
▁award	-11.2681
▁flash	-11.2683
▁touch	-11.2684
▁shed	-11.2684
▁closest	-11.2687
▁consortium	-11.2687
▁exit	-11.2687
▁neg	-11.2688
▁searching	-11.2696
▁esophageal	-11.2696
▁microtubule	-11.2697
▁cirrhosis	-11.2703
▁tax	-11.2704
mas	-11.2706
▁pelvic	-11.2709
▁flanking	-11.2711
gel	-11.2715
▁downloaded	-11.2716
▁illustration	-11.2719
gfp	-11.2725
▁albeit	-11.2726
▁feelings	-11.2727
▁tags	-11.2727
methyl	-11.2728
▁immunized	-11.2728
▁uterine	-11.273
▁publicly	-11.273
▁caution	-11.2732
▁dedicated	-11.2734
▁oncogenic	-11.2734
▁sister	-11.2736
150	-11.2738
▁inpatient	-11.2741
▁rodents	-11.2742
▁implementing	-11.2744
och	-11.2746
mus	-11.2747
▁tregs	-11.2748
▁043	-11.2749
▁tim	-11.275
rio	-11.2752
▁glycosylation	-11.2753
▁sirnas	-11.2759
▁cytosol	-11.2759
▁stretching	-11.2759
▁elicit	-11.2762
▁dishes	-11.2763
▁cerebellar	-11.2764
▁proteomic	-11.2766
ami	-11.2767
▁lie	-11.2769
▁compact	-11.2771
▁classic	-11.2771
▁rainfall	-11.2775
aki	-11.2779
▁relatives	-11.278
▁deeper	-11.2781
▁kits	-11.2787
▁eat	-11.2788
▁february	-11.2789
▁bending	-11.2793
time	-11.2794
▁hill	-11.2795
▁foxo	-11.2795
▁worked	-11.2797
▁eligibility	-11.2797
▁dissemination	-11.2799
▁elucidated	-11.2799
▁cag	-11.28
▁microbes	-11.2801
▁ju	-11.2806
▁belongs	-11.2806
▁attenuate	-11.2808
▁weather	-11.2812
▁encountered	-11.2812
▁explaining	-11.2812
▁usp	-11.2813
▁maf	-11.2817
▁disclosure	-11.2818
▁sta	-11.2818
▁scavenging	-11.282
▁044	-11.282
▁fibre	-11.2823
xx	-11.2826
▁titer	-11.2829
▁distinction	-11.2829
▁pam	-11.2831
▁constraint	-11.2833
▁symmetric	-11.2839
▁deleterious	-11.2842
▁pharmacokinetic	-11.2842
▁conduction	-11.2844
▁rectal	-11.2845
▁char	-11.2849
▁today	-11.2853
▁hong	-11.2856
▁filaments	-11.2858
▁transduced	-11.2861
▁controversial	-11.2861
▁comment	-11.2863
▁curvature	-11.2865
▁predicts	-11.2866
▁caudal	-11.2868
▁displaying	-11.2868
▁040	-11.287
▁drivers	-11.2871
▁sphere	-11.2871
▁trim	-11.2876
▁ensuring	-11.2877
▁yfp	-11.2878
▁locality	-11.2879
▁conjunction	-11.2879
tf	-11.2883
▁harmful	-11.2883
▁mbp	-11.2883
ect	-11.2884
▁careful	-11.2885
▁fill	-11.2885
▁seizure	-11.2887
▁pha	-11.2888
▁mutual	-11.2888
▁plaques	-11.2889
▁ligase	-11.2895
▁kc	-11.2895
▁jc	-11.2898
▁staphylococcus	-11.2898
▁chloroform	-11.2898
▁wire	-11.2906
▁fuel	-11.2909
▁interactive	-11.2915
▁pic	-11.2915
wood	-11.2915
▁rps	-11.2919
▁stratification	-11.2919
▁nav	-11.2923
▁scanned	-11.2925
hm	-11.2926
▁dpp	-11.2928
nl	-11.2929
▁dbp	-11.2929
ren	-11.2931
▁emg	-11.2933
▁047	-11.2934
▁ether	-11.2936
aca	-11.2936
▁mcl	-11.2937
▁phantom	-11.2937
▁simplified	-11.2941
nac	-11.2942
▁bra	-11.2943
▁testosterone	-11.2946
▁enrollment	-11.2948
▁041	-11.295
▁cw	-11.2953
▁combine	-11.2956
▁integrate	-11.2958
▁acs	-11.2958
▁ky	-11.2959
▁microglial	-11.296
▁synonymous	-11.2967
▁stabilized	-11.297
▁tightly	-11.2974
▁paths	-11.2975
rad	-11.2978
▁calibrated	-11.2978
▁msm	-11.2978
▁sacrificed	-11.2985
▁antitumor	-11.2987
▁neighbor	-11.2987
▁collaborative	-11.2987
▁supplements	-11.2989
▁odor	-11.299
▁pat	-11.2991
▁tendon	-11.2992
▁207	-11.2994
▁averaging	-11.2996
▁yap	-11.2996
ric	-11.3001
▁polarity	-11.3004
▁heme	-11.3005
▁nadph	-11.3007
▁ribosome	-11.3008
▁fits	-11.3008
▁impossible	-11.301
ides	-11.3016
▁transportation	-11.3017
▁detrimental	-11.3019
▁districts	-11.3019
▁noticed	-11.302
oz	-11.302
▁sj	-11.3022
ink	-11.3023
▁trunk	-11.3023
▁prof	-11.3025
vir	-11.303
stat	-11.303
▁049	-11.3032
▁rupture	-11.3032
ning	-11.3035
▁submission	-11.3036
▁rhythm	-11.3037
▁gift	-11.3037
ys	-11.3038
istopathological	-11.3041
▁argued	-11.3042
▁configurations	-11.3043
tx	-11.3044
ivity	-11.3045
▁mem	-11.3047
link	-11.3051
▁pos	-11.3052
▁implanted	-11.3055
▁cooperative	-11.3061
▁medicinal	-11.3062
▁ankle	-11.3063
▁descriptions	-11.3065
▁solvents	-11.3068
▁asymmetry	-11.3069
▁federal	-11.3069
▁excision	-11.3073
▁swedish	-11.3082
▁thirty	-11.3082
▁bacillus	-11.3085
▁dex	-11.3087
▁myosin	-11.3087
yo	-11.309
▁dss	-11.3092
▁propensity	-11.3095
▁hands	-11.3095
▁commitment	-11.3097
▁ease	-11.3098
▁042	-11.3098
▁kidneys	-11.3103
▁experiencing	-11.3105
▁zikv	-11.3105
▁bird	-11.3105
ble	-11.3106
▁lat	-11.3108
ela	-11.3108
▁duct	-11.3109
gu	-11.3112
▁introducing	-11.3114
ett	-11.3116
▁homogenized	-11.3116
▁fab	-11.3117
▁spi	-11.3121
var	-11.3124
▁incorrect	-11.3127
▁projected	-11.313
▁214	-11.3131
▁births	-11.3134
▁fer	-11.3134
mit	-11.3135
▁stenosis	-11.3137
▁lean	-11.314
▁snap	-11.3143
▁gradients	-11.3146
▁nest	-11.3146
▁visually	-11.3147
▁poisson	-11.3147
▁yr	-11.3147
▁leucine	-11.315
▁cha	-11.3153
▁census	-11.3158
▁potency	-11.3158
▁anticipated	-11.3159
▁moiety	-11.316
▁acknowledged	-11.3161
▁grand	-11.3162
dg	-11.3162
▁execution	-11.3164
ui	-11.3166
▁198	-11.3168
▁debate	-11.317
cos	-11.3172
▁pgc	-11.3174
eng	-11.3175
▁pores	-11.3175
▁cin	-11.3176
lon	-11.3177
▁biosynthetic	-11.3177
▁lim	-11.3181
▁gw	-11.3181
▁cup	-11.3183
▁leukocyte	-11.3184
jo	-11.3185
xa	-11.3185
▁zo	-11.3188
▁nanoparticle	-11.3188
▁femur	-11.3189
▁fatal	-11.3193
▁outputs	-11.3195
▁mrs	-11.3195
▁analyse	-11.3197
▁hexa	-11.3198
▁ua	-11.3198
▁brought	-11.3201
aci	-11.3202
kh	-11.3203
▁264	-11.3205
▁him	-11.3206
▁noteworthy	-11.3207
▁550	-11.3211
▁dv	-11.3212
▁ask	-11.3212
▁placental	-11.3215
▁transplanted	-11.3217
▁differing	-11.3219
▁hop	-11.322
▁sheets	-11.3223
trans	-11.3223
▁clarity	-11.3228
▁highlighting	-11.3229
▁syringe	-11.3229
▁varieties	-11.3237
▁stretch	-11.324
▁destruction	-11.3241
▁superficial	-11.3241
▁instructed	-11.3241
▁argue	-11.3243
sky	-11.3244
▁places	-11.3245
▁germline	-11.3246
▁bead	-11.3247
▁cardiomyocytes	-11.3248
▁pbmc	-11.3249
rate	-11.3249
▁biogenesis	-11.3249
▁sol	-11.3257
▁obstruction	-11.3265
▁gated	-11.3266
▁athletes	-11.3267
▁fractional	-11.3268
▁harboring	-11.3268
▁rbc	-11.3273
▁melatonin	-11.3276
▁jp	-11.3279
▁solving	-11.328
▁implants	-11.3283
▁revealing	-11.3288
oi	-11.3288
▁preservation	-11.3288
▁uganda	-11.3289
▁rem	-11.3292
▁mirror	-11.3294
▁proxy	-11.3299
▁inability	-11.3299
▁fructose	-11.3304
▁nigeria	-11.3304
▁fix	-11.3305
▁wear	-11.3305
▁weighed	-11.3307
uri	-11.3307
▁hypothesize	-11.3309
▁dosing	-11.331
oides	-11.3312
ust	-11.3312
▁indigenous	-11.3312
▁fluids	-11.3314
▁abdomen	-11.3316
▁acceptor	-11.3317
ele	-11.332
▁progeny	-11.3323
▁hsc	-11.3324
▁pubmed	-11.3325
▁taste	-11.3326
emia	-11.3327
▁fus	-11.3327
▁termination	-11.3331
▁pcl	-11.3331
▁proline	-11.3332
cho	-11.3332
▁sort	-11.3334
▁cnt	-11.3336
▁alp	-11.3337
▁incorporate	-11.3338
▁std	-11.3339
▁triglycerides	-11.3339
▁ye	-11.3347
▁lastly	-11.3351
▁chl	-11.3352
▁aaa	-11.3354
▁tick	-11.3357
▁bla	-11.3359
▁photosynthetic	-11.336
▁emphasis	-11.3361
ji	-11.3366
▁register	-11.3366
▁port	-11.3368
▁transported	-11.3369
▁aqp	-11.3371
▁mononuclear	-11.3373
▁routes	-11.3375
▁coronal	-11.3376
▁tab	-11.3377
▁neighborhood	-11.3379
▁wk	-11.338
▁223	-11.3381
▁clamp	-11.3381
▁muscular	-11.3381
▁twelve	-11.3381
▁leukocytes	-11.3386
▁191	-11.3389
▁artifacts	-11.339
▁203	-11.339
▁immobilized	-11.3393
▁stressed	-11.3394
side	-11.3397
high	-11.3403
▁glp	-11.3405
▁satisfied	-11.3405
▁spacing	-11.3405
▁norway	-11.3406
▁replace	-11.3406
▁norm	-11.3409
▁suppresses	-11.3413
▁circuits	-11.3413
▁coagulation	-11.3414
▁corp	-11.3415
▁droplets	-11.3415
▁pieces	-11.3417
▁neu	-11.3421
▁rcc	-11.3423
▁ren	-11.3427
▁setae	-11.3428
▁crt	-11.3428
▁migraine	-11.3432
▁successive	-11.3434
▁ethiopia	-11.3434
▁spr	-11.3435
▁glycoprotein	-11.3436
▁quick	-11.3436
▁earth	-11.3438
▁uncertain	-11.344
▁angiogenic	-11.344
▁fev	-11.3441
▁xu	-11.3442
▁denaturation	-11.3445
▁375	-11.3448
▁wealth	-11.3448
▁sweet	-11.3456
▁bacterium	-11.3457
▁integrating	-11.3458
▁nafld	-11.3458
▁microplate	-11.3465
▁modifying	-11.3465
▁minority	-11.3469
ull	-11.3471
▁scd	-11.3472
▁fw	-11.3474
▁resolve	-11.3474
▁eco	-11.3475
▁inventory	-11.3476
▁occupation	-11.3477
▁staging	-11.348
▁atlantic	-11.3484
▁hep	-11.3485
▁gains	-11.3488
bar	-11.3489
▁probed	-11.349
▁doxorubicin	-11.3491
▁indications	-11.3496
▁flavonoids	-11.3498
▁plasmodium	-11.3499
▁dependency	-11.35
▁histograms	-11.3501
▁za	-11.3502
▁immunoblot	-11.3503
▁nci	-11.3505
▁fad	-11.3505
▁bring	-11.3506
▁ast	-11.3508
▁orders	-11.3516
▁parkinson	-11.352
▁kn	-11.3521
▁pitch	-11.3523
▁abortion	-11.3524
▁abundances	-11.3526
▁update	-11.3527
▁rap	-11.3528
ule	-11.3529
▁kenya	-11.3533
tron	-11.3534
▁stimulates	-11.3535
▁starts	-11.3537
▁programming	-11.3538
aga	-11.354
▁determines	-11.3543
▁occupancy	-11.3543
▁helical	-11.3544
▁coastal	-11.3548
▁quasi	-11.3548
▁esc	-11.355
▁supportive	-11.3551
ster	-11.3552
▁audio	-11.3555
icus	-11.3557
lam	-11.3557
▁huang	-11.3557
▁gad	-11.3561
▁dielectric	-11.3561
▁sustainable	-11.3562
▁graduate	-11.3564
▁deemed	-11.3568
▁irb	-11.357
▁4000	-11.357
▁tw	-11.3572
lr	-11.3573
▁proteases	-11.3574
▁stereo	-11.3575
▁chemo	-11.3577
160	-11.3578
▁ant	-11.3578
▁thinking	-11.3579
▁cla	-11.3579
▁methionine	-11.3583
▁statements	-11.3586
▁mus	-11.3586
▁import	-11.3589
▁mediterranean	-11.3594
▁funds	-11.3598
▁penta	-11.3599
gm	-11.3599
▁caucasian	-11.3602
▁incubator	-11.3605
▁vg	-11.3606
▁backward	-11.3606
▁consumers	-11.3607
▁courses	-11.3608
lm	-11.361
▁allocated	-11.3613
▁official	-11.3615
▁continues	-11.3616
▁replicated	-11.3619
▁mets	-11.3621
00	-11.3623
▁atmospheric	-11.3623
▁hap	-11.3623
▁perpendicular	-11.3625
kt	-11.3628
adi	-11.363
▁organizational	-11.3633
▁septic	-11.3634
▁pss	-11.3637
cas	-11.3637
▁opioid	-11.3638
010	-11.3639
tel	-11.3644
▁chambers	-11.3647
▁340	-11.3648
uf	-11.3652
▁adc	-11.3653
▁thp	-11.3654
▁vulnerability	-11.3654
▁candida	-11.3656
gas	-11.3657
▁222	-11.3662
▁determinant	-11.3662
108	-11.3662
▁quantitatively	-11.3663
▁209	-11.3663
▁1983	-11.3665
rea	-11.3668
▁italian	-11.3668
▁collective	-11.3671
▁cohen	-11.3673
▁lies	-11.3675
▁loads	-11.3675
▁bromide	-11.3676
▁innovative	-11.3679
▁invariant	-11.368
▁215	-11.3683
▁playing	-11.3687
▁anonymous	-11.3688
▁bcr	-11.3688
▁recruit	-11.3689
▁1640	-11.369
▁adherent	-11.369
▁freezing	-11.3695
▁kar	-11.3695
▁eh	-11.3696
▁gelatin	-11.3697
▁waltham	-11.3697
ral	-11.3698
▁fv	-11.3698
ites	-11.3708
▁occipital	-11.3708
▁subtilis	-11.3713
ice	-11.3713
rac	-11.3715
▁1984	-11.372
▁magnesium	-11.3722
▁ya	-11.3723
body	-11.3727
▁impairments	-11.3729
▁designing	-11.3733
▁labour	-11.3738
ski	-11.3742
▁verification	-11.3742
▁216	-11.3743
▁ideas	-11.3744
▁veterinary	-11.3746
▁battery	-11.3749
lar	-11.3749
▁originating	-11.3751
▁analogous	-11.3752
▁anesthetized	-11.3753
▁mj	-11.3755
▁480	-11.3756
▁298	-11.3759
▁ov	-11.376
sson	-11.3764
▁braf	-11.3765
▁colitis	-11.3767
loc	-11.3768
ops	-11.3769
▁electrolyte	-11.3769
▁dropped	-11.3771
▁rip	-11.3774
▁aliquots	-11.3775
206	-11.3776
ctc	-11.3776
▁cure	-11.3779
▁excel	-11.3779
▁enlarged	-11.378
▁inversion	-11.378
▁197	-11.3782
ward	-11.3784
▁ipa	-11.3785
▁definitive	-11.3785
rick	-11.3787
▁drawing	-11.3787
▁york	-11.3787
▁dish	-11.3788
▁homologs	-11.3788
▁breakdown	-11.3789
▁sugars	-11.379
▁holds	-11.3791
▁nlrp	-11.3795
▁fdg	-11.3796
▁gpr	-11.3796
▁poverty	-11.3798
ual	-11.38
▁plc	-11.38
▁gra	-11.38
▁myb	-11.3805
din	-11.3805
ima	-11.3807
▁delays	-11.381
▁doped	-11.3812
▁que	-11.3812
▁sport	-11.3812
▁endothelium	-11.3817
▁compromised	-11.3818
▁transiently	-11.3818
▁bud	-11.3819
▁alloy	-11.3821
▁problematic	-11.3822
▁cats	-11.3827
▁british	-11.383
▁pot	-11.3831
▁priori	-11.3836
▁wanted	-11.3837
▁secretory	-11.3837
▁7717	-11.3841
▁adrenal	-11.3841
▁polymorphic	-11.3845
▁mec	-11.3845
▁testis	-11.3846
atum	-11.3846
▁refractory	-11.3848
▁freely	-11.3849
▁peerj	-11.385
▁surrogate	-11.3851
▁encourage	-11.3854
▁kill	-11.3859
▁erbb	-11.386
▁swiss	-11.386
▁turned	-11.3864
▁androgen	-11.3864
▁certainly	-11.3866
▁bypass	-11.3868
▁arrowheads	-11.3868
▁altitude	-11.3869
eff	-11.3869
bt	-11.3873
▁compensate	-11.3875
▁arranged	-11.3875
▁avoiding	-11.3876
▁attribute	-11.3877
▁amb	-11.3878
▁0002	-11.3879
▁fertilization	-11.388
▁jackson	-11.388
ati	-11.3882
▁polarized	-11.3886
▁sclerosis	-11.3887
▁spikes	-11.3888
▁adam	-11.389
▁voxels	-11.3892
▁theories	-11.3895
▁kin	-11.3895
▁fur	-11.3895
▁las	-11.3899
▁spreading	-11.3902
▁pma	-11.3905
▁minus	-11.3907
▁expectation	-11.3908
▁219	-11.3909
▁clinician	-11.3911
▁contract	-11.3912
▁spaces	-11.3912
▁surgeons	-11.3913
▁classify	-11.3915
▁focuses	-11.3915
▁nmda	-11.3916
▁cyclo	-11.3919
▁spanning	-11.3924
▁sig	-11.3925
▁dominance	-11.3927
▁nir	-11.3931
bd	-11.3931
▁confined	-11.3933
▁microrna	-11.3934
▁excretion	-11.3935
▁dic	-11.3936
▁mention	-11.3939
▁neutralizing	-11.3939
phenyl	-11.3939
mal	-11.3942
▁html	-11.3943
▁documents	-11.3944
ylation	-11.3944
▁academy	-11.3944
▁pharmacy	-11.3945
▁attended	-11.3945
▁client	-11.395
▁progenitors	-11.3951
▁cation	-11.396
▁ok	-11.3962
rl	-11.3964
▁tunel	-11.3965
ales	-11.3965
▁flap	-11.3966
▁sentence	-11.3968
pb	-11.3968
▁analog	-11.3969
▁transferase	-11.3972
▁endocytosis	-11.3974
▁depressed	-11.3976
vis	-11.3976
▁influx	-11.3977
▁borne	-11.3979
▁prot	-11.398
▁aggregated	-11.3982
orf	-11.3985
▁addiction	-11.3986
▁honey	-11.3986
▁transcriptase	-11.3987
▁paclitaxel	-11.3995
▁chloroplast	-11.3996
ack	-11.4
▁lymphoid	-11.4004
non	-11.4006
▁pituitary	-11.4009
▁implying	-11.4012
▁vit	-11.4012
▁ovary	-11.4012
ama	-11.4012
▁strictly	-11.4013
▁concordance	-11.4016
▁baby	-11.4019
▁freeze	-11.4022
▁subtle	-11.4024
▁elution	-11.4025
170	-11.4027
▁publish	-11.4028
▁excited	-11.4028
▁glomerular	-11.4031
▁managers	-11.4033
eal	-11.4034
▁sealed	-11.4038
▁react	-11.4041
▁hypertensive	-11.4041
▁claim	-11.4041
▁comprise	-11.4045
▁cq	-11.4045
▁leadership	-11.4048
▁disturbances	-11.405
▁disulfide	-11.4051
▁irs	-11.4053
▁fgfr	-11.4054
▁correspondence	-11.4054
▁visceral	-11.4055
vp	-11.4058
▁thi	-11.4058
▁originated	-11.4059
▁palliative	-11.406
▁antifungal	-11.4062
oo	-11.4069
▁coarse	-11.407
▁lose	-11.4073
▁filament	-11.4074
▁debris	-11.4079
▁attentional	-11.4081
129	-11.4082
seq	-11.4084
▁von	-11.4085
md	-11.4086
▁coming	-11.4089
▁ubiquitination	-11.4089
▁wp	-11.4091
▁droplet	-11.4092
▁proteomics	-11.4093
▁invited	-11.4093
kb	-11.4097
▁pge	-11.4097
▁allergy	-11.4098
▁guinea	-11.4098
▁rationale	-11.4098
▁iodide	-11.41
iso	-11.4102
▁masses	-11.4103
▁rms	-11.4104
▁resultant	-11.4107
zz	-11.4109
meter	-11.4111
▁ret	-11.4111
▁cent	-11.4114
▁altering	-11.4115
▁ptc	-11.4117
▁farmers	-11.412
▁transparent	-11.4121
264	-11.4124
▁polyacrylamide	-11.4125
▁runx	-11.4126
▁ips	-11.4127
▁vimentin	-11.4128
▁lymphatic	-11.4135
▁ltp	-11.4139
▁tre	-11.4139
▁naive	-11.414
▁instruction	-11.4145
▁ix	-11.415
▁inversely	-11.4151
▁literacy	-11.4151
▁regards	-11.4152
▁cnv	-11.4152
▁sagittal	-11.4153
▁stirred	-11.4153
▁rose	-11.4154
▁initiating	-11.4156
▁corpus	-11.4156
und	-11.4157
▁branching	-11.4157
▁creb	-11.416
▁dk	-11.4163
bin	-11.4163
▁antenna	-11.4164
▁anal	-11.4165
▁pyramidal	-11.4167
▁freshly	-11.4167
pan	-11.4167
▁normality	-11.417
▁mdd	-11.4172
▁diagonal	-11.4175
▁fst	-11.4177
▁taqman	-11.4178
▁store	-11.4181
▁cacl	-11.4182
900	-11.4183
▁entities	-11.4184
▁csa	-11.4187
▁admissions	-11.4189
▁orthogonal	-11.4189
▁twin	-11.4189
▁intraperitoneal	-11.419
▁skull	-11.4194
▁pls	-11.4194
▁thio	-11.4199
▁gradual	-11.4199
▁iterations	-11.4203
ulation	-11.4203
▁career	-11.4204
▁litter	-11.4204
▁thailand	-11.4205
▁vertebrate	-11.4207
nf	-11.4212
▁immunoglobulin	-11.4213
ade	-11.4213
▁foam	-11.4214
▁glioblastoma	-11.4215
▁choosing	-11.4217
▁shaking	-11.4219
oside	-11.4224
▁monomers	-11.4227
▁tms	-11.4227
▁caregiver	-11.4233
▁sitting	-11.4234
▁nlm	-11.4236
▁hpa	-11.4238
▁tbs	-11.4239
▁subpopulations	-11.424
▁codons	-11.4241
▁sanger	-11.4242
▁ahr	-11.4242
▁grass	-11.4242
▁audit	-11.4243
▁cyan	-11.4246
▁vd	-11.4246
▁confer	-11.4247
▁pfa	-11.4247
▁tas	-11.4248
125	-11.4248
▁striking	-11.4248
▁aquatic	-11.4251
▁explanations	-11.4252
▁origins	-11.4254
▁bag	-11.4256
▁holding	-11.4258
▁livestock	-11.426
▁antenatal	-11.4267
▁nat	-11.4269
368	-11.4271
▁bur	-11.4272
ado	-11.4272
▁vice	-11.4272
▁gn	-11.4276
▁adiponectin	-11.4276
▁occupied	-11.4276
▁adoption	-11.4278
▁mtorc	-11.4278
▁introns	-11.4278
▁serotonin	-11.4279
▁subscale	-11.4282
▁hygiene	-11.4283
▁solved	-11.4284
▁infarct	-11.4285
▁cac	-11.4288
ju	-11.429
▁cmr	-11.429
▁horn	-11.4293
▁cutaneous	-11.4295
▁218	-11.4295
▁infect	-11.4296
ological	-11.4297
▁sir	-11.4298
▁xlsx	-11.4299
▁rational	-11.4301
▁forests	-11.431
▁stepwise	-11.431
▁gtp	-11.431
fish	-11.4311
▁topological	-11.4313
▁norms	-11.4321
▁skill	-11.4322
▁arousal	-11.4324
▁swimming	-11.4324
▁waiting	-11.4329
▁isotype	-11.4331
▁eagle	-11.4336
eck	-11.4339
▁drg	-11.4343
▁acr	-11.4343
▁adr	-11.4346
▁absorbed	-11.4346
▁naoh	-11.4348
▁comorbidity	-11.4348
▁tends	-11.4351
pin	-11.4352
▁phyto	-11.4352
▁mrc	-11.4353
▁wash	-11.4354
▁melanogaster	-11.4357
▁fcs	-11.4359
▁osteoporosis	-11.436
▁hemodynamic	-11.4361
▁demonstration	-11.4362
▁flexion	-11.4363
▁handle	-11.4364
▁anion	-11.4369
▁qs	-11.4372
▁fret	-11.4372
▁dev	-11.4372
▁api	-11.4372
▁pole	-11.4378
▁broken	-11.4379
123	-11.4379
ago	-11.4382
▁directional	-11.439
▁retain	-11.4391
▁counseling	-11.4391
▁unusual	-11.4392
▁synapse	-11.4392
▁transfusion	-11.4392
▁ipsilateral	-11.4393
▁ui	-11.4393
▁hormonal	-11.4393
▁reviewing	-11.4394
▁benchmark	-11.4398
some	-11.44
▁threonine	-11.44
▁pose	-11.4407
▁metallic	-11.4414
▁380	-11.4415
▁salmon	-11.4415
▁vii	-11.4416
▁canine	-11.4419
▁companies	-11.442
▁porcine	-11.4422
rap	-11.4424
▁cel	-11.4425
pu	-11.4425
▁discrepancies	-11.4432
▁biodiversity	-11.4434
▁ctrl	-11.4436
▁altogether	-11.4437
cha	-11.4439
▁venom	-11.4439
▁tips	-11.444
ulo	-11.4443
▁periphery	-11.4444
127	-11.4447
▁lox	-11.4452
▁antagonists	-11.4453
▁explains	-11.4454
▁liposomes	-11.4455
▁sti	-11.4456
▁orthologs	-11.4457
▁dsrna	-11.4458
▁sto	-11.4458
cher	-11.446
inae	-11.4461
▁internalization	-11.4461
562	-11.4461
▁triglyceride	-11.4466
▁trizol	-11.4466
▁basin	-11.4469
▁intermittent	-11.4473
▁subfamily	-11.4473
▁phagocytosis	-11.448
▁assemblies	-11.4483
▁lysosomal	-11.4483
▁gaze	-11.4484
▁effectors	-11.4485
▁nn	-11.4485
▁sure	-11.4488
▁missense	-11.449
▁pigment	-11.4493
ido	-11.4494
▁ionization	-11.4496
▁ssr	-11.4498
ira	-11.4499
▁covariate	-11.4501
▁290	-11.4506
▁fidelity	-11.4509
▁resveratrol	-11.4509
tn	-11.4513
▁amplify	-11.4514
▁superfamily	-11.4514
▁adequately	-11.4516
ali	-11.4517
▁224	-11.4518
▁diameters	-11.4521
▁structurally	-11.4522
▁tried	-11.4523
▁mts	-11.4525
px	-11.4525
155	-11.4526
▁omitted	-11.4526
mate	-11.4529
▁joining	-11.4531
▁father	-11.4535
▁zealand	-11.4536
▁orbital	-11.4537
▁ami	-11.4538
▁osmotic	-11.4539
▁cigarettes	-11.4542
▁independence	-11.4543
▁possibilities	-11.4546
ese	-11.4547
▁crf	-11.4549
▁couple	-11.455
sim	-11.455
▁vapor	-11.4553
mmunosuppressive	-11.4556
▁glaucoma	-11.4558
▁write	-11.4565
rat	-11.4566
▁crystallization	-11.4568
▁brazilian	-11.457
▁margins	-11.4573
▁pde	-11.4574
▁email	-11.4579
▁serotype	-11.458
▁catalyzed	-11.4584
▁bos	-11.4584
▁versa	-11.4585
▁contig	-11.4586
▁ug	-11.4586
▁sinus	-11.4587
▁229	-11.4587
▁hearts	-11.4587
▁ultrasonic	-11.459
tom	-11.4591
146	-11.4591
immunoreactivity	-11.4592
▁050	-11.4592
ious	-11.4593
▁zip	-11.4594
▁constituents	-11.4594
▁tur	-11.4596
▁csc	-11.4596
▁phosphorus	-11.4596
tl	-11.4596
▁thrombosis	-11.4597
▁hepatocellular	-11.46
▁assign	-11.46
▁tibia	-11.4603
▁reg	-11.4603
▁pra	-11.4603
▁farms	-11.4606
▁lipo	-11.4607
▁deterioration	-11.4607
▁vegfr	-11.4607
tct	-11.4611
▁connecting	-11.4611
▁calcification	-11.4612
▁pfc	-11.4615
▁amplicon	-11.4617
▁meetings	-11.4621
▁algae	-11.4622
▁heavily	-11.4624
▁inappropriate	-11.4625
avi	-11.4626
▁mil	-11.4627
▁275	-11.463
ret	-11.4633
▁platinum	-11.4634
▁belief	-11.4639
kk	-11.4639
ky	-11.4642
▁pcc	-11.4642
▁spheres	-11.4643
lac	-11.4643
▁reality	-11.4643
▁ammonia	-11.4649
▁cov	-11.465
uz	-11.4651
▁license	-11.4652
▁disrupt	-11.4652
▁hn	-11.4654
exp	-11.4656
sy	-11.4657
▁mx	-11.4657
▁theoretically	-11.4658
▁immunotherapy	-11.4659
▁disordered	-11.466
▁asterisk	-11.4661
▁interviewed	-11.4663
▁angiotensin	-11.4664
xy	-11.4664
▁ppv	-11.4665
lk	-11.4665
▁lamina	-11.4666
omic	-11.4674
thr	-11.4674
▁suppressing	-11.4677
▁multiplex	-11.4679
▁255	-11.4679
rine	-11.4679
ora	-11.4681
▁uniformly	-11.4683
▁erg	-11.4687
ory	-11.4688
▁rpl	-11.4691
▁rounds	-11.4691
▁suggestive	-11.4691
▁pcdna	-11.4692
▁stems	-11.4697
▁rel	-11.4697
▁pil	-11.4701
azine	-11.4702
ku	-11.4707
▁carbohydrates	-11.4708
▁csp	-11.4709
▁linearly	-11.471
▁win	-11.4712
▁tailored	-11.4712
▁maze	-11.4713
▁dopaminergic	-11.4713
rel	-11.4716
▁exceeded	-11.4717
▁dysregulation	-11.4723
duct	-11.4724
▁nadh	-11.4728
▁profound	-11.4729
▁smc	-11.4731
▁repetition	-11.4731
▁pathophysiology	-11.4733
agg	-11.4735
▁sexes	-11.4735
int	-11.4735
elle	-11.4739
▁managing	-11.4741
▁div	-11.4744
▁pivotal	-11.4744
▁217	-11.4745
▁arrival	-11.475
view	-11.475
▁smoker	-11.4751
▁breaks	-11.4752
transferase	-11.4753
▁scn	-11.4754
▁hybrids	-11.4754
▁characterised	-11.4755
▁articular	-11.4755
▁intelligence	-11.4755
▁breed	-11.4755
0000	-11.4756
▁ecosystems	-11.4761
▁technological	-11.4765
▁controller	-11.4767
▁chang	-11.4768
▁quercetin	-11.477
▁obstructive	-11.477
▁hrqol	-11.4771
path	-11.4772
▁dam	-11.4773
▁dab	-11.4774
gb	-11.4779
vert	-11.478
▁pvdf	-11.4782
▁warranted	-11.4783
▁tolerant	-11.4784
▁rdna	-11.4785
▁384	-11.4786
els	-11.4786
▁gating	-11.4791
▁eae	-11.4791
▁pregnancies	-11.4795
▁suspensions	-11.4796
▁getting	-11.4797
▁meoh	-11.4797
▁photosynthesis	-11.4803
▁221	-11.4804
▁repertoire	-11.4805
▁granules	-11.4807
▁drainage	-11.4821
▁wavelengths	-11.4821
▁encounter	-11.4823
mut	-11.4825
▁exercises	-11.4827
▁juice	-11.4828
▁migrate	-11.4829
▁resilience	-11.483
▁anatomy	-11.4831
▁235	-11.4831
▁helices	-11.4834
▁periodontal	-11.4836
▁avoided	-11.4838
▁amide	-11.484
▁228	-11.484
▁coast	-11.4844
▁spores	-11.4848
▁shallow	-11.4848
▁consumer	-11.4849
▁405	-11.4849
para	-11.4851
▁arb	-11.4852
▁226	-11.4854
▁meg	-11.4854
▁454	-11.4855
for	-11.4856
▁colonic	-11.4856
fv	-11.4856
▁0003	-11.4856
▁extends	-11.4857
▁330	-11.4863
▁permit	-11.4865
▁competent	-11.4866
▁spl	-11.4866
▁oocyte	-11.4867
▁compromise	-11.4867
▁oxford	-11.4871
▁gcs	-11.4872
▁mcm	-11.4874
▁antioxidants	-11.4874
▁attend	-11.4876
ulated	-11.4878
aba	-11.4878
▁ended	-11.4881
▁stations	-11.4885
▁manufacturing	-11.4891
▁climatic	-11.4891
▁mip	-11.4894
▁reproducible	-11.4899
▁1982	-11.4899
▁1970	-11.4901
▁trpv	-11.4902
▁amorphous	-11.4904
▁ach	-11.4904
▁trimester	-11.4906
▁confounders	-11.4906
▁encouraged	-11.4907
▁pho	-11.4907
▁appropriately	-11.4908
gar	-11.4909
▁align	-11.4909
▁money	-11.491
▁conflicting	-11.4911
ref	-11.4911
▁mining	-11.4912
▁foraging	-11.4921
▁hsd	-11.4922
▁scattered	-11.4923
▁ica	-11.4923
▁afford	-11.4925
▁korean	-11.4925
▁valley	-11.4926
▁carcinomas	-11.4926
▁sad	-11.4927
▁compositions	-11.4928
▁restore	-11.493
▁johnson	-11.4933
▁performances	-11.4934
▁weakness	-11.4935
ette	-11.4935
▁spa	-11.4937
ants	-11.4937
▁topical	-11.4939
▁pairing	-11.494
gram	-11.4941
▁nearby	-11.4941
rh	-11.4943
▁makers	-11.4944
▁intermediates	-11.4946
▁viewing	-11.4946
▁graphical	-11.4949
▁fan	-11.495
▁bcg	-11.495
▁progressively	-11.4951
▁ty	-11.4952
▁reliably	-11.4954
▁conjugate	-11.4957
▁proteolytic	-11.4957
▁unilateral	-11.4957
▁soc	-11.4959
▁rois	-11.4962
▁coat	-11.4964
tg	-11.4965
▁carcinogenesis	-11.4967
▁traditionally	-11.4968
▁cardio	-11.4969
▁lacz	-11.4969
▁mds	-11.4971
▁avian	-11.4973
▁restrictions	-11.4974
▁interfaces	-11.4975
▁nominal	-11.4976
▁triggering	-11.4976
▁rom	-11.4978
▁carlo	-11.4979
▁tell	-11.4979
▁tryptophan	-11.498
▁excised	-11.4982
eth	-11.4983
▁groove	-11.4985
▁gus	-11.4986
▁hex	-11.4987
▁strands	-11.4989
▁diploid	-11.4989
▁cystic	-11.499
▁chimeric	-11.499
▁pci	-11.4991
▁stroma	-11.4991
▁labelling	-11.4991
▁surgeon	-11.4992
▁ingestion	-11.4993
olin	-11.4993
002_	-11.4995
▁paw	-11.4999
▁ih	-11.4999
ney	-11.5002
▁diamond	-11.5003
▁endpoints	-11.5006
▁vh	-11.5006
▁journals	-11.5009
▁belgium	-11.5013
bra	-11.5015
▁stands	-11.5016
▁fluoride	-11.5017
▁fairly	-11.5021
▁raise	-11.5023
cut	-11.5027
▁lap	-11.5027
▁klf	-11.5033
▁mps	-11.5035
▁volatile	-11.5036
▁ecl	-11.5036
port	-11.5037
ech	-11.5038
205	-11.504
▁alternate	-11.504
▁graded	-11.5042
▁twist	-11.5043
▁locomotor	-11.5044
▁fossil	-11.5044
▁aspartate	-11.5045
▁seasons	-11.5045
▁undergone	-11.5045
▁fibronectin	-11.5054
▁formaldehyde	-11.5055
▁microfluidic	-11.5057
▁speaking	-11.5058
▁apple	-11.5059
sl	-11.5059
▁tga	-11.5064
▁nude	-11.5066
▁har	-11.5067
▁herbal	-11.5069
▁affymetrix	-11.5072
▁pmol	-11.5073
▁positives	-11.5074
▁pcv	-11.5075
▁sick	-11.5079
▁constitutively	-11.508
▁suffered	-11.5088
▁nw	-11.5089
▁exceed	-11.509
onceptualization	-11.5096
▁leaders	-11.5096
▁follicles	-11.5097
emic	-11.5097
▁dep	-11.5097
▁organisation	-11.5099
▁phages	-11.51
▁238	-11.51
▁sul	-11.5104
▁spe	-11.5104
▁dust	-11.5107
▁lar	-11.5109
▁spite	-11.5113
▁genotyped	-11.5114
▁sympathetic	-11.5118
▁sz	-11.5119
sil	-11.512
156	-11.5123
▁familial	-11.5124
▁interfering	-11.5124
▁hes	-11.5124
▁photographs	-11.5125
▁gro	-11.5127
▁templates	-11.5127
▁dissolution	-11.5129
▁conformations	-11.513
▁postpartum	-11.5131
▁ftir	-11.5137
▁killed	-11.5138
▁chondrocytes	-11.5139
▁scene	-11.5142
199	-11.5143
▁violet	-11.5144
▁posture	-11.5146
▁1200	-11.515
▁gdp	-11.515
sol	-11.5154
▁specification	-11.5156
▁plain	-11.5157
▁stent	-11.5165
▁motivated	-11.5168
▁interplay	-11.517
▁markov	-11.5173
▁fault	-11.5175
ona	-11.5175
▁amine	-11.5175
▁carbonate	-11.5178
▁repeatedly	-11.518
▁vigorous	-11.5183
▁coherent	-11.5187
▁distinctive	-11.5187
▁cpt	-11.5189
▁entering	-11.5189
▁tsc	-11.5193
▁tolerated	-11.5195
▁abolished	-11.5195
▁emerge	-11.5197
▁sheath	-11.5199
che	-11.52
▁string	-11.5203
▁perinatal	-11.5209
aw	-11.521
▁subscales	-11.5212
▁occasionally	-11.5212
▁bk	-11.5214
▁maldi	-11.5214
▁chair	-11.5214
▁dmf	-11.5215
▁programmed	-11.5217
▁lactobacillus	-11.5217
▁osteogenic	-11.5217
102	-11.5218
▁convenient	-11.522
▁reticulum	-11.522
▁nets	-11.5223
▁acupuncture	-11.5223
▁workplace	-11.5224
▁mimics	-11.5225
▁peroxidation	-11.5226
▁threatening	-11.5226
▁prop	-11.5227
▁js	-11.5227
▁employ	-11.5229
▁parasitic	-11.5229
▁ltr	-11.5234
▁imputation	-11.5235
▁nov	-11.524
▁deg	-11.5243
220	-11.5245
▁strategic	-11.5246
▁aspirin	-11.5246
▁necrotic	-11.5251
▁operon	-11.5252
▁sst	-11.5255
▁atf	-11.5258
arc	-11.5259
▁thiol	-11.5259
ias	-11.5261
▁pah	-11.5262
▁halo	-11.5267
▁potato	-11.5269
▁deoxy	-11.5271
▁ctx	-11.5273
▁oxo	-11.5274
▁identifies	-11.5275
▁navigation	-11.528
▁ebp	-11.5284
peptide	-11.5285
▁rheumatoid	-11.5285
▁horse	-11.5288
▁smear	-11.5291
▁ile	-11.5291
▁strengthen	-11.5291
▁anomalies	-11.5293
▁refractive	-11.5293
▁vasculature	-11.5293
▁abl	-11.5297
tech	-11.53
▁ctl	-11.5302
▁transcriptomic	-11.5302
▁orthologous	-11.5304
▁glycol	-11.5304
▁printed	-11.5307
▁hydrophilic	-11.5308
▁collections	-11.5314
▁wildtype	-11.5317
▁365	-11.5318
▁wine	-11.5318
▁reasoning	-11.5318
▁0006	-11.5321
▁explanatory	-11.5322
▁tnbc	-11.5323
▁repressed	-11.5325
▁realized	-11.5327
▁mz	-11.5331
▁nodal	-11.5331
▁hub	-11.5331
▁sputum	-11.5333
▁650	-11.5333
▁facing	-11.5336
▁perturbations	-11.5336
▁circ	-11.5336
▁legs	-11.5337
▁homogeneity	-11.534
▁uf	-11.5342
▁limbs	-11.5343
▁cooled	-11.5345
▁bandwidth	-11.5346
▁bell	-11.5346
▁sup	-11.5349
▁bull	-11.535
▁looked	-11.535
▁meth	-11.5353
▁satisfactory	-11.5354
▁transducer	-11.5354
▁arises	-11.5355
▁fak	-11.5356
▁progesterone	-11.536
▁osa	-11.5361
▁documentation	-11.5361
▁texas	-11.5365
▁inos	-11.5365
▁thoroughly	-11.5365
▁pulp	-11.5371
fin	-11.5374
▁sink	-11.5375
128	-11.5377
▁254	-11.538
▁modulates	-11.5388
pm	-11.5392
▁carbonyl	-11.5393
▁huge	-11.5396
▁holes	-11.5398
▁hexane	-11.54
▁finland	-11.5407
▁autonomous	-11.5408
▁og	-11.541
▁portions	-11.5411
▁dioxide	-11.5413
▁precipitated	-11.5414
tta	-11.5415
▁barley	-11.5417
▁crack	-11.5421
169	-11.5424
▁tongue	-11.5426
▁capsid	-11.5427
▁213	-11.5428
▁relief	-11.5428
▁investment	-11.5428
▁mutational	-11.5428
168	-11.543
▁cope	-11.5432
▁dihydro	-11.5433
hel	-11.5433
▁sq	-11.5434
▁desire	-11.5436
▁inherited	-11.544
▁cronbach	-11.5441
▁vertebrates	-11.5442
▁vomiting	-11.5444
▁migratory	-11.5447
▁zi	-11.5447
▁2500	-11.5447
▁huvecs	-11.545
▁mabs	-11.5451
▁kf	-11.5451
▁shr	-11.5451
▁caco	-11.5458
▁incremental	-11.5461
▁qd	-11.5463
▁dan	-11.5463
▁mod	-11.5463
eh	-11.5464
▁disagree	-11.5465
▁residential	-11.5466
▁transwell	-11.5466
▁modelled	-11.5468
code	-11.5468
▁digestive	-11.5468
▁isotope	-11.5471
▁hpf	-11.5472
▁tes	-11.5472
▁informal	-11.5474
▁glycogen	-11.5478
▁esp	-11.5478
▁midline	-11.5481
▁reprogramming	-11.5482
▁jh	-11.5482
▁neurogenesis	-11.5485
▁microwave	-11.5485
▁melt	-11.5485
▁dio	-11.5487
▁psd	-11.5491
▁spines	-11.5491
▁nerves	-11.5492
▁234	-11.5497
▁227	-11.5499
▁stata	-11.5499
▁hydrogels	-11.5502
▁ptx	-11.5502
147	-11.5503
ok	-11.5503
▁accompanying	-11.5505
ened	-11.5506
▁paul	-11.5507
▁psycho	-11.5508
▁afterwards	-11.5515
▁synthesize	-11.5516
▁pao	-11.5516
▁osteo	-11.5517
480	-11.5518
▁monkeys	-11.5518
▁achievement	-11.5519
▁cps	-11.552
▁paediatric	-11.5522
▁amd	-11.5522
ned	-11.5523
▁matrigel	-11.5525
▁ppp	-11.5525
test	-11.553
ges	-11.5536
▁unadjusted	-11.5538
▁pw	-11.5539
▁recessive	-11.5541
▁intracranial	-11.5541
▁212	-11.5541
▁lakes	-11.5545
▁rif	-11.5549
▁straightforward	-11.5549
▁ecology	-11.555
▁gauge	-11.5552
▁prototype	-11.5554
▁billion	-11.5556
▁stressors	-11.5556
nal	-11.5556
▁zm	-11.5557
▁anthropometric	-11.5557
▁argument	-11.5557
vin	-11.5562
▁residuals	-11.5564
▁biotech	-11.5566
▁impacted	-11.5569
▁script	-11.5572
nis	-11.5572
▁instrumental	-11.5572
▁239	-11.5576
▁endoscopic	-11.5582
▁245	-11.5584
▁cows	-11.5585
▁insertions	-11.5589
tar	-11.5589
▁236	-11.559
icular	-11.559
lis	-11.5592
opathological	-11.5593
▁285	-11.5593
▁cog	-11.5594
▁persist	-11.56
▁spontaneously	-11.5601
▁sudden	-11.5601
▁bre	-11.5602
vd	-11.5602
▁sounds	-11.5605
▁summarizes	-11.5608
▁insoluble	-11.5608
ttc	-11.5608
burg	-11.5608
▁warming	-11.5609
▁folate	-11.561
▁sit	-11.5611
▁nikon	-11.5612
ost	-11.5614
▁hazards	-11.5614
atic	-11.5618
▁lacks	-11.5618
▁passing	-11.5619
▁wbc	-11.5619
▁suture	-11.5621
▁catalase	-11.5622
▁tape	-11.5624
▁homes	-11.5624
col	-11.5627
elo	-11.5632
▁bet	-11.5634
▁ageing	-11.5635
ici	-11.5636
til	-11.5637
▁shifting	-11.5638
▁budget	-11.5638
ometer	-11.5638
▁calf	-11.564
▁aor	-11.5642
eu	-11.5642
ations	-11.5642
com	-11.5644
▁convert	-11.5646
▁tanzania	-11.5649
▁emphasized	-11.565
▁possesses	-11.565
▁lithium	-11.5652
▁mate	-11.5654
▁constitutes	-11.5658
▁permutation	-11.566
▁packing	-11.5663
▁bins	-11.5664
eq	-11.5665
▁fibro	-11.5666
▁turkey	-11.5668
▁heatmap	-11.567
▁dulbecco	-11.567
ick	-11.5675
▁evaporation	-11.5679
▁ik	-11.5679
▁glyco	-11.568
▁transforming	-11.5685
▁pathogenicity	-11.5691
▁rfp	-11.5692
▁alive	-11.5693
▁takara	-11.5693
163	-11.5694
▁deposits	-11.5694
▁reproduced	-11.5696
central	-11.5696
▁entity	-11.5696
▁ready	-11.5697
▁intergenic	-11.5697
▁emphasize	-11.5699
▁microsatellite	-11.57
▁expanding	-11.57
375	-11.5701
▁ghana	-11.5702
▁helping	-11.5704
▁dcm	-11.5705
▁fungus	-11.5706
cg	-11.5707
▁pit	-11.5708
▁9600	-11.5708
▁shh	-11.571
▁brand	-11.5712
▁synovial	-11.5712
▁holotype	-11.5712
▁disk	-11.5713
▁agencies	-11.5715
▁1981	-11.5716
▁drops	-11.5716
▁promise	-11.5718
pyr	-11.572
▁sha	-11.5721
▁calling	-11.5722
▁nose	-11.5726
▁mount	-11.5728
▁causative	-11.5728
▁tsa	-11.5729
▁operate	-11.573
▁reproduce	-11.5731
▁titration	-11.5732
work	-11.5732
▁timp	-11.5733
▁autosomal	-11.5734
nia	-11.5736
ics	-11.5742
▁wrong	-11.5746
iae	-11.5747
▁obstetric	-11.575
138	-11.575
▁piece	-11.5753
▁chemically	-11.5755
▁hmgb	-11.5756
▁mitosis	-11.5757
▁cod	-11.5759
▁scarce	-11.576
▁ssa	-11.5761
▁dimers	-11.5765
▁timely	-11.5765
▁def	-11.5765
▁glc	-11.5767
▁arsenic	-11.5767
▁lan	-11.5769
▁rescued	-11.577
pla	-11.5772
▁compensatory	-11.5772
▁xy	-11.5773
▁exerted	-11.5774
nas	-11.5775
▁lay	-11.5776
▁hospitalized	-11.578
▁estradiol	-11.578
syn	-11.578
▁cct	-11.5782
▁295	-11.5784
▁cleaning	-11.5784
▁orally	-11.579
▁reserve	-11.5791
▁releasing	-11.5792
▁membership	-11.5793
▁grades	-11.5793
▁depicts	-11.5793
▁cochrane	-11.5794
▁tamoxifen	-11.5795
▁pea	-11.5795
▁cocaine	-11.5796
▁259	-11.5799
kel	-11.58
wan	-11.58
▁bioavailability	-11.58
▁gpa	-11.5801
▁cdr	-11.5801
▁humidified	-11.5803
▁248	-11.5807
cle	-11.5809
▁snail	-11.581
▁vegetable	-11.581
▁myelin	-11.5811
▁rabbits	-11.5815
▁icam	-11.5815
▁longest	-11.5817
▁secure	-11.5818
▁cms	-11.5818
▁dy	-11.5819
▁ikk	-11.5821
▁nv	-11.5822
▁ggt	-11.5824
tur	-11.5824
▁voice	-11.5831
ock	-11.5834
00000	-11.5839
▁legend	-11.5839
▁fell	-11.584
ection	-11.5843
▁overlapped	-11.5845
▁wd	-11.5847
▁imposed	-11.5847
▁likert	-11.5847
▁paternal	-11.5847
ello	-11.585
▁hat	-11.5853
▁_	-11.5853
▁bundle	-11.5855
▁biotinylated	-11.5856
cul	-11.5858
139	-11.5859
▁mold	-11.5862
▁mef	-11.5865
radi	-11.5866
▁hairpin	-11.5867
▁erp	-11.5868
▁methoxy	-11.5869
▁iterative	-11.5874
▁rising	-11.5874
▁dexamethasone	-11.5875
▁iodine	-11.5878
▁guarantee	-11.588
▁histidine	-11.5881
▁arf	-11.5881
▁bru	-11.5882
▁gln	-11.5883
▁ancestry	-11.5883
▁tang	-11.5886
▁tcf	-11.5886
▁skeleton	-11.5886
▁clo	-11.5888
▁370	-11.5889
▁doppler	-11.5889
▁accomplished	-11.5889
▁pul	-11.589
▁fx	-11.589
▁055	-11.5892
▁dendrites	-11.5894
▁tsh	-11.5898
▁profit	-11.5899
▁sts	-11.5901
▁ces	-11.5901
▁0004	-11.5902
▁dates	-11.5903
▁310	-11.5905
▁kindly	-11.5905
ometry	-11.5907
yr	-11.5911
▁respondent	-11.5912
▁eds	-11.5913
▁caps	-11.5914
itt	-11.5914
▁pdgf	-11.5915
▁ent	-11.5916
▁lipase	-11.5917
▁oscillation	-11.5917
▁conjugation	-11.5918
tum	-11.5921
▁mep	-11.5924
▁connect	-11.5925
▁presynaptic	-11.5926
▁referring	-11.5927
▁px	-11.5929
▁dim	-11.5931
▁gga	-11.5936
▁ara	-11.5943
▁201	-11.5944
▁vv	-11.5947
▁inflammasome	-11.5948
▁tunnel	-11.5952
▁glm	-11.5955
protein	-11.5956
▁fluoro	-11.5958
▁cart	-11.596
▁urgent	-11.5961
▁catalysts	-11.5962
▁dako	-11.5962
159	-11.5962
▁rw	-11.5962
▁harbor	-11.5963
▁laparoscopic	-11.5965
▁collision	-11.5965
▁247	-11.5967
ain	-11.5968
pha	-11.5969
amin	-11.5969
▁kong	-11.597
▁immersion	-11.597
▁420	-11.5971
▁euro	-11.5971
▁chickens	-11.5971
▁cea	-11.5972
▁9500	-11.5974
kar	-11.5974
▁sliding	-11.5976
▁prefer	-11.598
▁homa	-11.5982
▁boost	-11.5983
▁formulated	-11.5984
gat	-11.5986
▁synchronization	-11.599
uria	-11.599
kr	-11.5991
▁daf	-11.5993
icola	-11.5994
▁gem	-11.5995
▁saharan	-11.5996
▁iba	-11.5996
▁ligament	-11.5999
cip	-11.6
▁manager	-11.6003
chin	-11.6003
▁attacks	-11.6003
je	-11.6004
▁villages	-11.6005
echocardiography	-11.6007
▁privacy	-11.6007
sw	-11.6011
▁202	-11.6012
ration	-11.6013
▁differentiating	-11.6015
▁gla	-11.6016
gap	-11.6023
175	-11.6026
▁hpi	-11.6029
▁dehydration	-11.6032
▁dq	-11.6033
▁cages	-11.6035
▁sequentially	-11.6036
▁encouraging	-11.6038
117	-11.6043
▁divide	-11.6044
oy	-11.6044
▁triangle	-11.6045
▁thorough	-11.6045
▁rearrangements	-11.6047
▁implicit	-11.6048
▁iop	-11.605
▁benzene	-11.6051
▁magnet	-11.6051
▁decide	-11.6055
▁tele	-11.6057
▁surviving	-11.6058
▁raises	-11.6058
▁went	-11.6059
king	-11.6059
▁sustain	-11.606
▁alternatives	-11.6061
▁246	-11.6062
idin	-11.6065
▁binomial	-11.6066
▁shaded	-11.6066
▁omega	-11.6067
▁convex	-11.6067
▁237	-11.6069
▁virtually	-11.607
▁fibres	-11.6071
▁accept	-11.6072
▁applicability	-11.6072
▁thousands	-11.6073
▁gall	-11.6073
▁mito	-11.6076
luc	-11.6076
▁233	-11.6077
▁ambiguous	-11.6078
▁mart	-11.6078
▁hor	-11.6079
▁1107	-11.6079
▁prophylaxis	-11.6083
nps	-11.6084
▁058	-11.6084
▁suppressive	-11.6093
▁278	-11.6093
▁torque	-11.6095
▁tert	-11.6097
▁accommodate	-11.6098
▁lind	-11.6099
▁exerts	-11.6099
▁sarcoma	-11.6102
▁accompanies	-11.6103
▁ak	-11.6105
▁partition	-11.6107
▁micrographs	-11.6107
▁296	-11.6108
260	-11.611
▁crossed	-11.6111
▁increment	-11.6112
▁wounds	-11.6112
▁exceeding	-11.6114
▁pcp	-11.6114
▁worst	-11.6115
▁friction	-11.6118
bm	-11.6118
▁kat	-11.6122
▁cranial	-11.6125
▁existed	-11.6127
▁clp	-11.6128
▁hal	-11.613
▁caffeine	-11.6132
enberg	-11.6132
▁pik	-11.6133
▁hrv	-11.6136
▁spo	-11.6136
ians	-11.6138
anti	-11.6139
▁analogue	-11.6139
▁ger	-11.6139
▁housekeeping	-11.6141
▁jump	-11.6142
▁neuroimaging	-11.6143
▁249	-11.6144
▁265	-11.6148
▁wh	-11.615
▁aggression	-11.6155
▁keratinocytes	-11.616
▁slopes	-11.6168
▁bangladesh	-11.6169
▁sensitization	-11.6175
▁cyt	-11.6177
251	-11.6178
zer	-11.6178
▁quarter	-11.6179
▁sic	-11.6182
▁ganglia	-11.6184
▁augmented	-11.6185
▁prc	-11.6185
▁attendance	-11.6187
▁512	-11.6187
▁bones	-11.6189
▁ij	-11.6189
▁psychology	-11.619
▁ole	-11.619
▁eukaryotes	-11.619
▁bees	-11.6191
ash	-11.6191
itic	-11.6192
▁idh	-11.6195
use	-11.6196
▁overload	-11.6204
▁interpersonal	-11.6204
▁aluminum	-11.6207
hf	-11.6207
fm	-11.621
▁radiological	-11.621
▁leak	-11.6212
▁discomfort	-11.6218
▁longevity	-11.6218
▁observers	-11.6219
▁harvesting	-11.622
▁jet	-11.6221
vr	-11.6221
▁excitability	-11.6227
▁proliferating	-11.623
▁ulcer	-11.6231
▁054	-11.6239
▁pathologies	-11.6244
inter	-11.625
▁intraoperative	-11.625
▁capacities	-11.625
▁cgi	-11.625
▁qt	-11.6252
▁micrornas	-11.6252
▁surrounded	-11.6252
▁authority	-11.6256
▁answered	-11.6256
▁giant	-11.6257
▁renewal	-11.6259
▁repository	-11.6259
▁pick	-11.626
▁crest	-11.6262
▁discharged	-11.6264
▁orfs	-11.6264
▁averages	-11.6264
pol	-11.6267
▁ze	-11.6269
▁cow	-11.6269
sta	-11.6269
▁raf	-11.6271
▁breeds	-11.6272
▁serving	-11.6273
▁streptococcus	-11.6273
▁nausea	-11.6273
▁boy	-11.6275
ema	-11.6276
▁king	-11.6277
▁imported	-11.6278
▁son	-11.6279
▁ash	-11.6281
▁ancient	-11.6282
▁oncogene	-11.6284
▁bus	-11.6287
eli	-11.6287
188	-11.6288
▁clay	-11.6288
▁rub	-11.6289
nat	-11.6289
▁survived	-11.6291
▁weighting	-11.6292
▁alongside	-11.6293
2_	-11.6293
▁hypothalamus	-11.6293
▁triangles	-11.6296
cz	-11.6296
▁aldh	-11.6298
calc	-11.6298
▁490	-11.63
▁wiley	-11.6301
xl	-11.6302
▁phylum	-11.6302
▁videos	-11.6304
166	-11.6304
▁conscious	-11.6304
▁usefulness	-11.6305
▁traps	-11.6305
▁bun	-11.6306
▁jones	-11.6307
zen	-11.631
▁sporadic	-11.631
▁huh	-11.6311
group	-11.6311
▁stabilize	-11.6311
▁grew	-11.6311
▁288	-11.6313
▁assumes	-11.6313
▁musculoskeletal	-11.6314
cyst	-11.6314
▁bca	-11.6316
▁capita	-11.6318
▁logarithmic	-11.6319
▁expectancy	-11.632
▁carl	-11.6323
▁horses	-11.6326
▁packaging	-11.6328
▁neutralization	-11.6329
▁tetracycline	-11.6331
ases	-11.6332
▁pipette	-11.6332
▁neonates	-11.6332
▁dap	-11.6332
▁bark	-11.6334
▁specialists	-11.6334
▁forty	-11.6335
▁acceptability	-11.6337
▁resemble	-11.634
▁recycling	-11.634
▁poland	-11.6342
▁elemental	-11.6342
▁diffractometer	-11.6343
▁pdms	-11.6344
wd	-11.6349
▁opt	-11.6351
▁graphite	-11.6354
▁roughness	-11.6355
▁268	-11.6356
▁acuity	-11.6358
▁cbf	-11.6359
▁dar	-11.6359
▁observing	-11.6359
▁noting	-11.6361
▁suited	-11.6361
▁omp	-11.6362
▁pleural	-11.6367
fit	-11.6367
▁065	-11.6372
▁erosion	-11.6375
omer	-11.6376
▁299	-11.6377
▁spm	-11.6377
chemotherapeutic	-11.6377
▁aca	-11.6379
▁cscs	-11.638
▁rounded	-11.6381
▁initiatives	-11.6383
▁myocardium	-11.6387
▁grouping	-11.6387
▁tro	-11.6389
▁analytic	-11.639
▁angiography	-11.639
▁download	-11.6393
▁056	-11.6395
1000	-11.6396
▁ingredients	-11.6397
▁lentiviral	-11.6399
▁worm	-11.64
iana	-11.6402
class	-11.6404
▁taq	-11.6405
▁goodness	-11.6406
▁dsc	-11.6408
▁258	-11.641
▁temporary	-11.641
▁era	-11.6412
mos	-11.6413
▁sheldrick	-11.6413
▁amplicons	-11.6413
_01	-11.6416
▁summarize	-11.6417
▁games	-11.6418
most	-11.6418
▁nucleosome	-11.642
▁oils	-11.642
▁tcm	-11.6422
▁ban	-11.6424
▁hgf	-11.6425
▁chow	-11.6426
460	-11.6428
▁saint	-11.6429
▁trip	-11.643
▁ganglion	-11.6433
▁business	-11.6434
▁ccc	-11.6435
▁zr	-11.6438
▁064	-11.6439
▁authorities	-11.6443
▁sla	-11.6443
▁sediments	-11.6447
kd	-11.6447
▁pointing	-11.6447
▁terrestrial	-11.6452
137	-11.6452
▁pale	-11.6454
▁covalent	-11.6456
onia	-11.6456
▁durations	-11.646
▁prescribing	-11.6461
▁genital	-11.6463
rib	-11.6464
▁silenced	-11.6466
▁rights	-11.647
▁mah	-11.647
ute	-11.6473
119	-11.6476
▁neoplastic	-11.6481
▁211	-11.6482
phen	-11.6484
▁crown	-11.6487
mid	-11.6487
▁benzo	-11.6489
▁vf	-11.6489
▁pur	-11.6489
▁malnutrition	-11.649
▁methane	-11.6492
▁flip	-11.6492
▁epidermis	-11.6496
▁monkey	-11.65
▁macroscopic	-11.6501
▁congruent	-11.6502
rol	-11.6502
gon	-11.6508
▁stone	-11.6513
▁habit	-11.6513
▁austria	-11.6515
▁bak	-11.6517
▁granule	-11.6518
▁superscript	-11.6521
▁rough	-11.6521
▁cbt	-11.6524
▁pts	-11.6525
▁057	-11.6525
▁libitum	-11.6526
▁cingulate	-11.6526
▁reactivation	-11.6527
▁flask	-11.6527
▁antigenic	-11.6528
▁collapse	-11.6529
▁follicular	-11.6533
▁aspiration	-11.6535
▁interneurons	-11.6535
▁attracted	-11.6535
▁eleven	-11.6538
▁simplicity	-11.6538
▁390	-11.6538
▁cores	-11.6539
▁totally	-11.6539
167	-11.6539
▁fsh	-11.654
▁1979	-11.654
▁oligomers	-11.6543
▁replacing	-11.6544
iti	-11.6546
▁hyp	-11.6547
▁postsynaptic	-11.6548
▁yb	-11.6548
nus	-11.6548
▁logic	-11.6549
198	-11.655
ules	-11.6551
▁thalamus	-11.6553
▁outdoor	-11.6554
020	-11.6556
▁mefs	-11.6557
▁compete	-11.6558
ulate	-11.6559
▁nap	-11.6559
▁classifiers	-11.6561
iform	-11.6563
▁segmented	-11.6564
▁poultry	-11.6564
▁titanium	-11.6565
▁lsd	-11.6565
▁jm	-11.6568
▁rim	-11.657
▁parenchyma	-11.6571
tation	-11.6571
▁berg	-11.6573
▁hyperglycemia	-11.6573
▁sectors	-11.6574
pos	-11.658
precipitated	-11.6583
▁bivariate	-11.6585
sel	-11.6588
▁zhao	-11.6588
▁308	-11.6589
▁inhalation	-11.6591
▁manifest	-11.6592
▁neuropathy	-11.6592
▁contrasts	-11.6593
▁244	-11.6594
▁strengthening	-11.6595
▁hundreds	-11.6601
sha	-11.6607
▁nuclease	-11.6609
▁truth	-11.6611
▁ezh	-11.6612
▁pufa	-11.6614
▁ancestor	-11.6617
oph	-11.6621
mers	-11.6622
▁gan	-11.6624
cta	-11.6625
▁neuroprotective	-11.6625
▁performs	-11.6625
▁qu	-11.6625
▁annually	-11.6626
▁provinces	-11.6627
▁266	-11.663
172	-11.6631
eria	-11.6631
▁infiltrating	-11.6636
▁sel	-11.664
▁cul	-11.6641
▁gravity	-11.6642
▁zhou	-11.6643
▁mit	-11.6646
▁contacted	-11.6648
▁greenhouse	-11.6649
▁crosses	-11.665
▁aza	-11.6652
▁cysts	-11.6653
▁ultimate	-11.6654
▁lobes	-11.6654
▁patent	-11.6656
▁postulated	-11.6656
▁289	-11.6657
▁adolescence	-11.6657
▁062	-11.666
▁bam	-11.6665
▁heritability	-11.6667
▁consume	-11.6668
pet	-11.6668
▁evolve	-11.6669
▁visited	-11.667
▁dealing	-11.6671
▁requested	-11.6673
▁scheduled	-11.6673
sociodemographic	-11.6673
▁polysaccharides	-11.6674
▁latest	-11.6676
▁067	-11.6677
▁tin	-11.6677
▁petri	-11.668
lb	-11.6686
▁075	-11.6689
▁begins	-11.6692
▁quit	-11.6692
▁continuing	-11.6694
▁islets	-11.6697
▁atherosclerotic	-11.6697
▁streptavidin	-11.6697
▁theorem	-11.6698
pur	-11.6698
▁267	-11.6699
▁steroids	-11.67
▁276	-11.6704
▁horseradish	-11.6706
▁protecting	-11.6707
▁reflex	-11.6708
▁autologous	-11.6709
▁olive	-11.671
▁parity	-11.6711
▁morphine	-11.6712
▁coll	-11.6714
▁ibs	-11.6715
177	-11.6715
▁creative	-11.6716
itz	-11.6716
etti	-11.6718
wo	-11.6723
▁radiographic	-11.6725
▁heads	-11.6727
aka	-11.6727
ough	-11.6735
▁linguistic	-11.6736
174	-11.6739
▁connective	-11.674
▁catalog	-11.674
▁wrist	-11.6741
cur	-11.6743
▁defines	-11.6747
▁rag	-11.6747
▁bj	-11.6748
▁covers	-11.6749
▁leader	-11.6749
▁pathologic	-11.6751
▁cape	-11.6753
▁drink	-11.6753
▁cubic	-11.6755
▁cargo	-11.6755
▁descending	-11.6757
▁volunteer	-11.6757
▁inoculum	-11.6757
▁277	-11.6759
▁street	-11.6761
▁grip	-11.6761
▁pars	-11.6763
▁abstracts	-11.6764
▁fractionation	-11.6764
▁287	-11.6765
▁io	-11.6766
▁tlc	-11.6767
▁generator	-11.6767
▁malaysia	-11.6769
▁shortest	-11.6775
▁elongated	-11.6776
ators	-11.6776
▁unigenes	-11.6776
▁neighbors	-11.6777
iva	-11.6779
▁religious	-11.6779
▁supposed	-11.6779
▁transmit	-11.6779
▁erythrocytes	-11.678
▁dsb	-11.6781
▁bare	-11.6782
▁thrombin	-11.6783
▁switched	-11.6786
▁gill	-11.6788
158	-11.6791
187	-11.6791
sn	-11.6791
ort	-11.6792
▁059	-11.6794
▁sero	-11.6794
▁alters	-11.6794
▁splitting	-11.6795
▁pq	-11.6795
phosphorylation	-11.6795
▁microsoft	-11.6798
▁perceive	-11.6798
▁productive	-11.6799
▁bilayer	-11.68
▁msp	-11.6805
ency	-11.6805
▁maturity	-11.6806
▁seeding	-11.6807
▁clarified	-11.6807
▁proposal	-11.6808
▁livers	-11.6809
▁enhancers	-11.681
▁osteoblasts	-11.6813
eau	-11.6814
ines	-11.6814
▁spray	-11.6816
▁departments	-11.6817
▁interpreting	-11.6817
aud	-11.6819
▁concentrate	-11.6829
▁mountain	-11.6829
▁lowered	-11.6831
▁willing	-11.6831
▁ou	-11.6836
▁casp	-11.6837
▁286	-11.6837
▁lig	-11.6838
▁toll	-11.6845
280	-11.6845
▁vegetative	-11.6846
▁rmse	-11.6846
etic	-11.6848
sion	-11.685
189	-11.685
▁lasted	-11.6851
▁book	-11.6852
▁pdac	-11.6855
day	-11.6855
▁ncs	-11.6856
tat	-11.6856
▁pda	-11.686
▁speculated	-11.6861
▁rearrangement	-11.6861
▁irrigation	-11.6862
▁engaging	-11.6862
▁galactose	-11.6862
▁therapeutics	-11.6864
▁vivax	-11.6865
▁epo	-11.6865
▁formic	-11.6866
▁vertebral	-11.6867
▁someone	-11.6867
▁affiliated	-11.6869
▁coverslips	-11.6873
▁organelles	-11.6875
▁conference	-11.688
▁thomas	-11.6882
▁refine	-11.6883
090	-11.6883
uchi	-11.6884
▁iteration	-11.6886
▁microtubules	-11.6887
▁uncertainties	-11.6889
▁exome	-11.6892
▁suite	-11.6893
qua	-11.6893
▁pj	-11.6899
▁crossover	-11.6901
▁284	-11.6902
▁microstructure	-11.6902
▁caries	-11.6903
▁variances	-11.6906
arg	-11.6907
▁creates	-11.6907
▁060	-11.6908
▁judgment	-11.6908
▁325	-11.691
rec	-11.6912
▁revising	-11.6914
ogram	-11.6915
tb	-11.6917
▁complaints	-11.6918
▁button	-11.6918
▁263	-11.692
▁232	-11.6921
▁adsorbed	-11.6922
▁observable	-11.6923
▁neighbouring	-11.6926
▁sah	-11.6927
▁koh	-11.6927
▁illnesses	-11.6932
▁066	-11.6932
▁269	-11.6939
▁silent	-11.6939
▁photons	-11.694
▁sexually	-11.6943
▁helper	-11.6944
▁cataract	-11.6945
▁0007	-11.6948
190	-11.6949
▁proteobacteria	-11.6949
▁syndromes	-11.695
▁inequality	-11.6951
▁inheritance	-11.6951
▁lupus	-11.6952
▁pollutants	-11.6953
rie	-11.6953
▁qtls	-11.6953
▁stores	-11.6956
▁ligated	-11.6958
▁meter	-11.6959
▁333	-11.696
▁sons	-11.6962
▁tracer	-11.6963
▁indexes	-11.6966
agc	-11.6966
▁endoplasmic	-11.6967
204	-11.6968
▁cpr	-11.6973
ere	-11.6975
▁dj	-11.6976
▁director	-11.6979
▁universit	-11.6982
▁exploited	-11.6982
▁stirring	-11.6982
▁capacitance	-11.6982
▁aiming	-11.6984
▁preserve	-11.6984
▁nlr	-11.699
▁completing	-11.6992
▁irrelevant	-11.6992
▁paragraph	-11.6995
myc	-11.6997
▁falling	-11.6997
▁illustrating	-11.6998
▁fil	-11.6998
▁roll	-11.6999
▁063	-11.7
▁alcoholic	-11.7001
▁coi	-11.7001
▁hoechst	-11.7001
▁hum	-11.7001
▁dyes	-11.7002
asp	-11.7003
135	-11.701
▁doping	-11.7012
▁rmsd	-11.7013
ography	-11.7018
▁heterologous	-11.702
▁undetectable	-11.702
▁secrete	-11.702
▁contrasting	-11.702
▁pcna	-11.7021
▁vb	-11.7021
▁279	-11.7023
inger	-11.7024
▁microarrays	-11.7027
▁lapse	-11.7027
▁charges	-11.7029
▁dermal	-11.7031
▁teacher	-11.7031
▁sentences	-11.7032
otype	-11.7033
▁methodologies	-11.7034
▁salts	-11.7037
▁offering	-11.7038
▁ownership	-11.7038
▁freshwater	-11.7042
osus	-11.7042
▁originate	-11.7043
▁discover	-11.7044
▁trapping	-11.7045
▁phy	-11.7045
▁floral	-11.7046
▁chaperone	-11.7046
sorb	-11.7047
▁ipsc	-11.7049
ford	-11.7054
▁cbs	-11.7058
sia	-11.7059
ring	-11.7059
▁flt	-11.7061
▁cck	-11.7061
▁cultivar	-11.7062
▁daughter	-11.7065
▁readers	-11.7066
nts	-11.7067
bg	-11.7069
▁convenience	-11.7073
▁lbp	-11.7073
▁judged	-11.7076
▁nonspecific	-11.7079
▁seawater	-11.708
▁und	-11.708
▁adjustments	-11.7081
▁psp	-11.7083
▁pel	-11.7084
▁damaging	-11.7086
▁aes	-11.709
▁minimally	-11.7093
▁fluxes	-11.7098
▁veins	-11.7098
▁command	-11.7098
▁autonomy	-11.7098
▁cip	-11.7104
▁hardware	-11.7105
▁polymeric	-11.7105
aac	-11.7105
▁chief	-11.7106
▁drives	-11.7107
▁zeb	-11.7107
▁discs	-11.7108
▁surfactant	-11.7109
▁polynomial	-11.7111
ped	-11.7112
▁earliest	-11.7114
▁quantitation	-11.7114
aminotransferase	-11.7115
179	-11.7115
▁coffee	-11.7117
▁enos	-11.7118
▁yan	-11.712
san	-11.7121
▁taxonomy	-11.7123
ably	-11.7126
▁wireless	-11.7127
▁exam	-11.713
▁rain	-11.7132
▁fragmented	-11.7134
▁1975	-11.7134
▁condensation	-11.7136
▁surveyed	-11.7137
▁relates	-11.7138
▁ple	-11.714
mcs	-11.714
▁dipole	-11.714
▁miller	-11.7141
▁applies	-11.7145
▁eo	-11.7146
▁lactic	-11.7147
▁257	-11.7149
▁297	-11.715
▁quadratic	-11.715
▁backgrounds	-11.715
▁rot	-11.7152
▁screw	-11.7154
una	-11.7154
gd	-11.716
▁redundancy	-11.7164
126	-11.7169
▁everyday	-11.7169
▁068	-11.717
pal	-11.7172
▁cite	-11.7173
ultidisciplinary	-11.7176
▁curriculum	-11.7177
▁wastewater	-11.7177
▁anchor	-11.7179
▁ics	-11.7179
▁273	-11.7181
▁goes	-11.7183
win	-11.7184
▁mucus	-11.7184
▁qualitatively	-11.7186
▁irreversible	-11.7193
▁tracing	-11.7193
imp	-11.7194
ming	-11.7194
▁ubiquitous	-11.7195
▁autophagic	-11.7196
▁efficiencies	-11.7199
▁confluence	-11.7199
▁tcp	-11.7201
▁leishmania	-11.7206
▁pfu	-11.7206
▁imagery	-11.721
obacter	-11.721
ean	-11.7211
▁extrinsic	-11.7212
▁peers	-11.7215
▁243	-11.7216
115	-11.7216
iel	-11.7218
▁mosaic	-11.7218
▁fluorescein	-11.7218
▁pri	-11.7222
▁pulsed	-11.7222
▁scs	-11.7224
ester	-11.7226
▁catch	-11.7226
▁dislocation	-11.7231
tas	-11.7231
▁stringent	-11.7232
▁indels	-11.7233
474	-11.7234
▁flour	-11.7236
ien	-11.7238
▁porosity	-11.7238
▁nations	-11.7239
lum	-11.7239
immunodeficiency	-11.7241
▁workload	-11.7246
▁packages	-11.7248
▁localize	-11.7249
▁opened	-11.7251
▁aperture	-11.7254
▁distinguishing	-11.7254
▁tal	-11.7254
149	-11.7255
▁polypeptide	-11.7257
▁ticks	-11.7259
▁probabilistic	-11.726
▁adaptor	-11.7261
▁bayes	-11.7261
▁cro	-11.7262
▁recruiting	-11.7264
▁provincial	-11.7266
▁reinforcement	-11.7267
▁stack	-11.7268
▁transit	-11.727
▁frailty	-11.727
stein	-11.727
▁cleaned	-11.7271
aire	-11.7271
▁fibrotic	-11.7273
▁pei	-11.7278
lit	-11.7279
▁vn	-11.7281
▁chlor	-11.7281
▁tj	-11.7281
▁uniquely	-11.7282
▁deionized	-11.7282
165	-11.7287
▁mobilization	-11.7289
▁pandemic	-11.7289
sup	-11.7289
▁liter	-11.729
▁meals	-11.729
▁cfa	-11.7291
▁rib	-11.7291
▁typing	-11.7292
▁unbiased	-11.7292
▁gathered	-11.7293
▁ovaries	-11.7296
▁dfs	-11.7297
aff	-11.7297
▁suicidal	-11.7298
sm	-11.7298
ila	-11.73
▁madison	-11.7302
chem	-11.7303
▁1978	-11.7305
▁distortion	-11.7308
235	-11.7312
▁blockers	-11.7312
oper	-11.7316
nar	-11.7318
▁corner	-11.7319
030	-11.7326
cent	-11.7327
▁meant	-11.7328
▁remainder	-11.7329
▁hyperplasia	-11.7331
▁myr	-11.7331
▁protects	-11.7334
▁consciousness	-11.7335
▁biotic	-11.7337
▁depths	-11.734
▁wl	-11.7344
odi	-11.7344
ind	-11.7349
▁town	-11.7349
rid	-11.735
bw	-11.7352
▁williams	-11.7352
▁degrade	-11.7353
▁wgs	-11.7354
▁ich	-11.7357
▁ideally	-11.7359
▁hscs	-11.7359
iss	-11.736
▁splenic	-11.7363
▁autonomic	-11.7363
▁digest	-11.7366
▁shortening	-11.737
▁mercury	-11.7373
▁friendly	-11.7375
▁ramp	-11.7375
▁cnn	-11.7376
▁willingness	-11.7377
▁thoughts	-11.7377
erman	-11.7377
▁ven	-11.738
▁bulb	-11.7383
rit	-11.7384
▁delivering	-11.7386
oids	-11.7386
▁languages	-11.7388
▁contributor	-11.7389
hen	-11.7389
790	-11.739
▁lsm	-11.7392
▁pups	-11.7393
▁rts	-11.7393
▁nanog	-11.7395
▁cll	-11.7395
▁ampicillin	-11.7395
inal	-11.7396
▁thermodynamic	-11.7397
▁siblings	-11.7398
▁synergy	-11.7399
▁sus	-11.7402
▁player	-11.7402
▁tracks	-11.7404
▁tcs	-11.7406
▁corrosion	-11.7408
▁parentheses	-11.7408
▁velocities	-11.7408
mark	-11.7416
ode	-11.7416
▁nitrite	-11.7419
▁anc	-11.7422
▁campaign	-11.7423
▁chop	-11.7424
▁ejection	-11.7425
▁ketamine	-11.7425
▁316	-11.7425
▁latitude	-11.743
▁bear	-11.7431
▁vehicles	-11.7431
▁terminated	-11.7432
▁rays	-11.7433
▁cytometric	-11.7435
176	-11.7435
▁confusion	-11.7438
dw	-11.7438
▁pak	-11.7439
▁encapsulated	-11.7441
▁disabilities	-11.7441
▁evolving	-11.7442
▁stabilizing	-11.7447
fd	-11.7448
▁bpa	-11.7452
xin	-11.7452
▁pth	-11.7453
▁communicate	-11.7453
▁resp	-11.7453
▁comprehension	-11.7454
▁pierce	-11.7457
▁ireland	-11.7458
▁wolf	-11.7458
▁uniprot	-11.7459
▁520	-11.7463
cac	-11.7465
▁tilt	-11.7466
▁atm	-11.7467
▁570	-11.7468
▁microvascular	-11.7468
▁yo	-11.7469
▁och	-11.7469
rich	-11.747
▁subpopulation	-11.7472
▁islet	-11.7473
▁vicinity	-11.7474
▁lewis	-11.7474
▁feces	-11.7475
▁cml	-11.7478
▁oven	-11.748
▁soma	-11.7482
▁ali	-11.7482
▁cilia	-11.7486
▁representatives	-11.7487
▁dpph	-11.7491
scribed	-11.7491
▁315	-11.7491
▁quin	-11.7493
▁typhimurium	-11.7493
▁sno	-11.7494
148	-11.7495
▁stz	-11.7496
but	-11.7497
▁ror	-11.7503
▁glycan	-11.7505
▁wake	-11.7505
ress	-11.7507
488	-11.7507
▁bilirubin	-11.7512
ska	-11.7513
▁practitioner	-11.7514
▁proteinase	-11.7515
▁alleviate	-11.7515
▁synuclein	-11.7517
▁reform	-11.7519
▁workshop	-11.752
250	-11.7521
▁outline	-11.7523
▁continuity	-11.7523
▁opinions	-11.7528
▁mct	-11.7531
131	-11.7532
▁nas	-11.7533
▁mmse	-11.7533
▁tablets	-11.7536
abc	-11.7538
▁repressor	-11.7538
303	-11.7538
▁spiking	-11.7539
▁curation	-11.754
undifferentiated	-11.7543
▁mca	-11.7547
▁phosphorylate	-11.7549
▁glucan	-11.7553
▁grape	-11.7556
try	-11.7559
▁dsdna	-11.756
▁9800	-11.756
▁lectin	-11.7564
▁sumo	-11.7564
▁regimes	-11.7567
▁immersed	-11.7567
▁msi	-11.757
▁follicle	-11.757
▁volumetric	-11.757
▁plga	-11.7571
▁aspergillus	-11.7572
▁bicarbonate	-11.7572
▁pec	-11.7574
▁calcd	-11.7575
▁540	-11.7575
▁srs	-11.7577
▁rig	-11.7577
▁exploit	-11.7581
logy	-11.7582
▁ascertain	-11.7582
data	-11.7584
▁osteoclast	-11.7585
▁etoh	-11.7589
cq	-11.7589
tec	-11.7589
▁ascending	-11.759
▁jaw	-11.7591
▁305	-11.7591
▁xenografts	-11.7592
▁notice	-11.7594
eurodegeneration	-11.7595
▁tsp	-11.7596
▁polysaccharide	-11.7597
▁idiopathic	-11.7599
▁instar	-11.76
▁attribution	-11.7602
▁conform	-11.7602
hemiluminescence	-11.7603
▁consultant	-11.7605
▁soy	-11.7605
▁wax	-11.7607
ota	-11.7613
▁partnership	-11.7614
▁functionalized	-11.7615
▁euthanized	-11.7615
▁wilson	-11.7615
▁440	-11.7616
ye	-11.7617
▁ost	-11.7617
▁moves	-11.7617
▁regenerative	-11.7619
▁cornea	-11.7628
▁editorial	-11.7629
flow	-11.763
▁equi	-11.763
▁arbor	-11.763
▁antiretroviral	-11.7635
▁hereafter	-11.7635
▁mcd	-11.7636
▁monotherapy	-11.7639
idium	-11.764
▁slip	-11.7643
▁couples	-11.7646
▁orientations	-11.7651
▁anderson	-11.7652
▁alkyl	-11.7654
▁kpa	-11.7657
▁placing	-11.7659
▁hmm	-11.766
▁flor	-11.766
▁lipofectamine	-11.7662
▁xt	-11.7662
▁retest	-11.7662
▁latin	-11.7665
▁advantageous	-11.7665
▁garden	-11.7665
▁minimizing	-11.7668
▁dem	-11.767
▁funders	-11.767
vel	-11.7672
▁ipscs	-11.7672
▁accelerate	-11.7673
▁lib	-11.7674
▁cytometer	-11.7675
▁prion	-11.7676
▁seedling	-11.768
▁quantifying	-11.768
phi	-11.7681
▁tdcs	-11.7681
roc	-11.7682
▁378	-11.7682
▁mtx	-11.7683
▁flavonoid	-11.7683
▁mst	-11.7686
▁309	-11.7686
itch	-11.7686
▁aps	-11.7687
▁gnrh	-11.7688
top	-11.7688
▁deployment	-11.7689
207	-11.7689
▁sen	-11.7689
▁bait	-11.769
mix	-11.769
▁chitin	-11.769
▁bronchial	-11.7691
▁slit	-11.7691
▁mitogen	-11.7692
▁aj	-11.7697
▁dextran	-11.77
▁favour	-11.7704
▁neglect	-11.7706
▁medi	-11.7706
▁335	-11.7707
▁energetic	-11.7708
▁tubules	-11.7708
rez	-11.7711
▁presentations	-11.7711
▁grading	-11.7711
▁stressful	-11.7711
▁fifty	-11.7712
▁barr	-11.7713
▁adhere	-11.7713
nos	-11.7716
ear	-11.7719
▁ngf	-11.7719
uma	-11.7722
▁nsc	-11.7723
▁plos	-11.7723
▁mitigate	-11.7725
cw	-11.7725
▁copyright	-11.7729
air	-11.7734
▁packed	-11.7734
ois	-11.7735
▁tdp	-11.7736
258	-11.7739
▁depolarization	-11.774
▁raising	-11.774
tac	-11.7743
▁wg	-11.7743
▁descriptors	-11.7744
xb	-11.7745
▁mfi	-11.7746
nan	-11.7747
▁bic	-11.7748
▁phylo	-11.7752
473	-11.7752
▁wait	-11.7753
polar	-11.7753
▁sustainability	-11.7756
trophic	-11.7758
inf	-11.7761
▁pros	-11.7762
▁engine	-11.7763
bel	-11.7765
▁physicochemical	-11.7766
▁vertex	-11.7766
▁tensor	-11.7769
▁infertility	-11.7772
▁psychometric	-11.7773
▁statin	-11.7778
▁hierarchy	-11.7779
▁serotypes	-11.778
▁460	-11.7782
ars	-11.7784
yama	-11.7787
308	-11.7787
▁moh	-11.7788
▁laws	-11.7789
▁anisotropy	-11.7789
orum	-11.779
▁duplicates	-11.779
▁permits	-11.7791
▁ttc	-11.7792
▁diagrams	-11.7793
▁trying	-11.7795
lone	-11.7796
▁cst	-11.7797
164	-11.7799
▁discriminant	-11.7799
▁afp	-11.78
▁duplicated	-11.7801
▁339	-11.7802
▁ghz	-11.7802
▁declines	-11.7802
▁cftr	-11.7802
bro	-11.7804
light	-11.7806
▁socs	-11.7807
▁disadvantage	-11.7807
▁tuned	-11.7808
▁industries	-11.781
118	-11.7812
▁passages	-11.7813
▁permeabilized	-11.7814
▁receives	-11.7815
▁hallmark	-11.7816
▁subtracted	-11.7816
▁274	-11.7818
▁rigorous	-11.7819
▁myd	-11.7821
▁pico	-11.7822
▁hsf	-11.7823
▁pdgfr	-11.7825
▁intakes	-11.7826
▁serological	-11.7827
▁530	-11.7828
▁converting	-11.7829
▁gui	-11.7832
▁ura	-11.7832
▁ids	-11.7833
▁lacked	-11.7833
▁aga	-11.7834
▁pgl	-11.7834
185	-11.7835
▁protons	-11.7839
▁logical	-11.7839
▁homogenous	-11.784
▁zhu	-11.7842
nuclear	-11.7846
▁meningitis	-11.7847
▁ontario	-11.7847
▁tank	-11.7847
▁military	-11.785
▁loadings	-11.7851
▁hepatocyte	-11.7853
▁accelerometer	-11.7853
▁lamin	-11.7854
▁beckman	-11.7855
▁locomotion	-11.7857
▁preparing	-11.7857
▁cep	-11.7859
▁culturing	-11.786
▁fibrillation	-11.786
▁tnm	-11.7861
▁approached	-11.7861
dic	-11.7862
lea	-11.7864
plex	-11.7866
▁preferential	-11.7867
▁monolayers	-11.7873
▁rankl	-11.7873
▁flasks	-11.7873
121	-11.7877
▁americans	-11.7878
▁readings	-11.7879
▁fibrinogen	-11.7879
▁hemo	-11.788
fold	-11.7881
▁cleared	-11.7882
▁israel	-11.7888
▁glo	-11.7891
▁universities	-11.7891
▁intersection	-11.7896
▁royal	-11.79
184	-11.7905
ement	-11.7906
▁qui	-11.7907
▁nz	-11.7908
▁468	-11.7909
178	-11.791
▁pva	-11.7911
▁conidia	-11.7912
site	-11.7914
▁asking	-11.7914
▁gdm	-11.7915
▁ji	-11.7916
▁comparatively	-11.7916
▁counteract	-11.7918
▁qds	-11.7921
▁scrambled	-11.7921
▁wellcome	-11.7922
▁primed	-11.7927
▁resuscitation	-11.7929
▁plastid	-11.7932
▁associates	-11.7933
▁gabaergic	-11.7936
vas	-11.7936
▁google	-11.7939
▁propidium	-11.7939
▁adaptations	-11.7941
▁gemcitabine	-11.7942
▁iaa	-11.7943
zy	-11.7944
▁385	-11.7946
dan	-11.7947
▁embedding	-11.7949
▁rejected	-11.7949
▁spore	-11.7949
▁standardised	-11.795
matic	-11.7951
▁tir	-11.7951
▁lrp	-11.7952
▁dbs	-11.7952
▁ridge	-11.7953
▁061	-11.7954
▁michael	-11.7955
lg	-11.7956
▁told	-11.7958
hara	-11.796
▁lpa	-11.7963
▁tcc	-11.7964
aaa	-11.7967
▁rhoa	-11.7967
▁recognizing	-11.797
▁swine	-11.7971
▁addresses	-11.7971
omi	-11.7972
▁indonesia	-11.7973
▁gran	-11.7973
▁gpx	-11.7974
▁spiral	-11.7975
▁tracts	-11.7978
▁mutually	-11.798
▁kw	-11.7983
cyt	-11.7984
▁gca	-11.7984
▁rotational	-11.7984
▁oligodendrocyte	-11.7987
▁cdh	-11.7989
▁dans	-11.7991
▁impression	-11.7991
▁completeness	-11.7992
▁compressive	-11.7994
▁charts	-11.7995
▁430	-11.7995
star	-11.7997
▁interior	-11.7997
▁esteem	-11.7997
xt	-11.8005
▁resist	-11.8005
▁acp	-11.8006
sulf	-11.8009
▁cfs	-11.801
▁nodule	-11.8011
▁deprived	-11.8011
not	-11.8012
▁069	-11.8014
▁carboxyl	-11.8014
▁shedding	-11.8015
dar	-11.8015
▁rio	-11.8015
▁helicase	-11.8019
▁danish	-11.8022
▁characterizing	-11.8022
▁torsion	-11.8025
▁mucin	-11.8026
▁mounting	-11.8031
▁cleft	-11.8031
▁ferritin	-11.8032
▁ptp	-11.8032
▁faced	-11.8036
▁kal	-11.8037
▁nbs	-11.8037
aut	-11.8038
▁flo	-11.8039
trop	-11.8042
▁presumed	-11.8045
▁till	-11.8045
▁intriguing	-11.8049
▁gre	-11.805
▁reflectance	-11.8051
▁alginate	-11.8053
▁donation	-11.8053
▁citation	-11.8054
mont	-11.8056
▁bai	-11.8059
▁detergent	-11.806
▁yrs	-11.806
▁belonged	-11.8061
▁underlie	-11.8061
yan	-11.8063
▁puncture	-11.8064
▁normalised	-11.8066
van	-11.8067
gia	-11.8068
▁beat	-11.807
▁glycolytic	-11.8074
▁balloon	-11.8074
▁resorption	-11.8074
▁artifact	-11.8074
idi	-11.8074
▁lor	-11.8075
▁dimerization	-11.8075
▁merely	-11.8076
▁immunoassay	-11.8077
▁uncontrolled	-11.808
▁outgrowth	-11.8081
▁prompt	-11.8082
209	-11.8083
▁fun	-11.8083
▁phc	-11.8084
▁methylene	-11.8087
▁striatal	-11.8087
▁deduced	-11.8088
▁partitioning	-11.8089
▁snow	-11.809
▁ens	-11.809
▁stocks	-11.8092
erin	-11.8092
▁stick	-11.8093
▁sib	-11.8094
vt	-11.8097
▁294	-11.8099
▁pakistan	-11.8099
▁sensation	-11.81
▁washes	-11.81
▁prl	-11.81
▁disappeared	-11.8101
▁unnecessary	-11.8101
▁1976	-11.8103
lay	-11.8107
▁mul	-11.811
▁psoriasis	-11.8112
▁adds	-11.8112
tv	-11.8116
▁continuum	-11.8119
▁norwegian	-11.8119
▁door	-11.8119
gent	-11.8122
▁355	-11.8125
▁infectivity	-11.8126
▁melan	-11.8127
▁338	-11.8128
▁vietnam	-11.8129
▁uncommon	-11.8129
wl	-11.813
▁xylose	-11.8133
▁lrr	-11.8135
▁suggestion	-11.8141
▁primates	-11.8143
state	-11.8145
▁accumulating	-11.8147
▁sor	-11.8147
mean	-11.8147
▁nucleation	-11.815
sub	-11.8153
▁canopy	-11.8154
▁personalized	-11.8155
288	-11.8156
▁reef	-11.8159
▁carb	-11.816
▁307	-11.816
aden	-11.8163
▁taa	-11.8166
▁074	-11.8168
▁patterning	-11.817
▁grp	-11.8172
▁ineffective	-11.8175
▁counselling	-11.8175
▁sco	-11.8178
lysin	-11.8178
▁vocal	-11.8178
202	-11.818
▁fibrin	-11.8181
▁feet	-11.8182
▁suitability	-11.8182
▁apps	-11.8185
▁transparency	-11.8185
▁umbilical	-11.8185
136	-11.8188
▁story	-11.8189
▁incubating	-11.8189
▁mill	-11.8189
▁shot	-11.819
▁bid	-11.819
▁neglected	-11.8192
▁suv	-11.8195
qi	-11.8196
▁pedigree	-11.8196
▁igfbp	-11.8202
▁hem	-11.8203
▁gentamicin	-11.8206
▁cj	-11.8206
inate	-11.8207
▁nab	-11.8208
▁situated	-11.8209
▁mandibular	-11.821
▁073	-11.821
▁phi	-11.8212
▁condom	-11.8212
▁synchronized	-11.8213
▁meiotic	-11.8217
▁undergoes	-11.8217
▁bap	-11.8218
los	-11.8218
▁prompted	-11.8219
▁epoxy	-11.8221
▁pes	-11.8222
▁jose	-11.8224
▁psychosis	-11.8224
▁curved	-11.8226
▁gfr	-11.8227
▁waveform	-11.8227
late	-11.8227
kan	-11.8228
▁nan	-11.8229
▁lactation	-11.8236
▁053	-11.8237
▁probiotic	-11.8237
morph	-11.8238
▁gently	-11.8238
eva	-11.824
cyclic	-11.8241
▁insensitive	-11.8242
▁lev	-11.8243
▁cannabis	-11.8245
▁outlier	-11.8245
▁accessory	-11.8247
▁luminescence	-11.8248
▁9700	-11.8248
uga	-11.8248
▁dat	-11.8249
zyme	-11.825
uch	-11.8252
▁funnel	-11.8253
▁flex	-11.8254
fen	-11.8254
▁theta	-11.8254
▁aic	-11.8256
cata	-11.8256
▁ductal	-11.8257
band	-11.8257
▁pai	-11.8257
icum	-11.8259
▁isoflurane	-11.8259
uda	-11.826
▁gbs	-11.8264
▁monomeric	-11.8264
▁tactile	-11.8266
ination	-11.8268
▁corticosteroids	-11.8269
lytic	-11.8269
ilin	-11.8271
▁topography	-11.8271
▁quadrant	-11.8272
▁cpp	-11.8274
▁conf	-11.8276
▁exceeds	-11.8277
▁spend	-11.8277
▁consequent	-11.8279
ult	-11.828
▁reflux	-11.8282
▁078	-11.8282
▁warning	-11.8283
nv	-11.8284
▁nickel	-11.8289
▁dehydrated	-11.8291
nell	-11.8292
▁translate	-11.8294
▁adipocyte	-11.8297
xo	-11.8298
▁sativa	-11.8299
▁ctr	-11.83
▁mail	-11.83
▁migrants	-11.8301
▁336	-11.8301
▁aegypti	-11.8305
▁doxycycline	-11.8305
▁cave	-11.8305
dn	-11.831
▁drinks	-11.8313
aro	-11.8317
als	-11.832
ique	-11.8321
▁insecticide	-11.8322
▁herb	-11.8323
▁0008	-11.8324
▁hai	-11.8324
▁definite	-11.8326
▁fertilizer	-11.833
▁328	-11.8331
vc	-11.8331
▁388	-11.8331
ethyl	-11.8331
▁377	-11.8332
▁aryl	-11.8333
▁nar	-11.8335
152	-11.8335
▁adenine	-11.8337
statin	-11.834
dal	-11.8341
▁reactor	-11.8341
ava	-11.8342
▁subcutaneously	-11.8343
▁overlay	-11.8344
aya	-11.8348
▁imm	-11.8348
▁retrograde	-11.8348
▁cations	-11.8348
197	-11.8349
pathy	-11.8351
▁inequalities	-11.8352
▁hydration	-11.8352
▁stx	-11.8352
▁crisis	-11.8355
▁fibrils	-11.8356
▁perfused	-11.8359
▁osteosarcoma	-11.8359
▁nephr	-11.8359
144	-11.8362
▁necessity	-11.8362
▁testes	-11.8363
▁nmdar	-11.8367
▁sponge	-11.8368
▁283	-11.8369
ovirus	-11.8369
▁screens	-11.8371
▁389	-11.8373
▁cuff	-11.8374
▁neighbourhood	-11.8377
937	-11.8377
▁376	-11.8378
odes	-11.838
▁indole	-11.838
▁ssdna	-11.8382
▁appearing	-11.8382
▁076	-11.8383
▁experimentation	-11.8387
▁aerosol	-11.8391
blast	-11.8393
▁integrative	-11.8395
▁dft	-11.8396
228	-11.8396
▁1960	-11.8397
▁analgesic	-11.8398
▁bread	-11.8399
▁phen	-11.84
▁mcr	-11.8401
▁steatosis	-11.8405
▁intercellular	-11.841
▁ars	-11.841
▁biologic	-11.841
▁cool	-11.841
▁toluene	-11.8411
▁ssp	-11.8411
▁analogues	-11.8411
▁bolus	-11.8411
eni	-11.8411
mf	-11.8412
▁horizon	-11.8412
▁osteoblast	-11.8414
▁xps	-11.8414
▁fistula	-11.8414
▁spacer	-11.8415
▁astrocyte	-11.8416
▁pub	-11.8416
bn	-11.8416
▁cdkn	-11.8418
▁executed	-11.842
▁pcb	-11.8421
▁cationic	-11.8422
icin	-11.8423
▁midgut	-11.8423
▁linc	-11.8425
▁yp	-11.8425
▁strip	-11.8427
▁perk	-11.8432
▁blocker	-11.8432
▁pst	-11.8433
195	-11.8433
tca	-11.8433
flu	-11.8434
las	-11.8434
▁647	-11.8434
▁skewed	-11.8435
▁052	-11.8436
▁bot	-11.8441
▁myeloma	-11.8442
▁hypothalamic	-11.8445
▁consultations	-11.8448
▁statins	-11.8449
▁hnscc	-11.8452
▁temperate	-11.8452
▁nanodrop	-11.8452
▁vps	-11.8453
▁multiply	-11.8456
▁386	-11.8457
▁fluctuation	-11.8459
▁lux	-11.8461
▁mev	-11.8461
▁ribo	-11.8461
▁edition	-11.8461
ering	-11.8461
▁subsection	-11.8463
▁reconstruct	-11.8463
▁counterstained	-11.8467
▁gv	-11.847
▁trapped	-11.8471
▁hook	-11.8471
▁470	-11.8471
▁quintile	-11.8472
▁mycobacterium	-11.8474
▁turning	-11.8477
▁southeast	-11.8477
000	-11.8478
▁gastro	-11.8478
▁proceed	-11.8478
▁prophylactic	-11.8479
▁bromo	-11.848
▁pom	-11.8482
▁harmonic	-11.8484
▁cascades	-11.8485
▁costly	-11.8486
▁lncap	-11.8486
moto	-11.8486
▁mitral	-11.8488
▁scid	-11.8491
▁070	-11.8494
▁chemotaxis	-11.8495
▁considers	-11.8496
▁taylor	-11.8499
▁identifier	-11.8499
une	-11.85
▁shares	-11.8502
▁ffa	-11.8504
▁diagnose	-11.851
iga	-11.8512
▁398	-11.8513
▁club	-11.8513
124	-11.8515
▁pfam	-11.8515
▁cnts	-11.8517
▁caf	-11.8517
▁osteoarthritis	-11.8517
▁puncta	-11.852
▁immunosorbent	-11.8521
▁sophisticated	-11.8521
▁leisure	-11.8521
cit	-11.8521
▁colocalization	-11.8523
vol	-11.8526
▁rubber	-11.8528
▁bundles	-11.8529
▁implied	-11.8532
▁cts	-11.8532
▁345	-11.8537
▁bats	-11.8538
▁zt	-11.8538
▁recognised	-11.8538
esis	-11.8539
▁0009	-11.8539
▁rbcs	-11.854
lot	-11.8541
▁viii	-11.8542
▁cardiomyopathy	-11.8543
▁immobilization	-11.8543
▁nomenclature	-11.8543
▁branched	-11.8543
▁ctla	-11.8543
▁assignments	-11.8544
▁rgo	-11.8544
▁quenching	-11.8545
▁1977	-11.8545
▁strikingly	-11.8545
▁tablet	-11.8545
▁cary	-11.8546
▁ctd	-11.8546
▁tfa	-11.8547
▁bx	-11.8548
▁zf	-11.8548
fil	-11.8548
▁dub	-11.8549
tctg	-11.855
▁magenta	-11.855
ching	-11.855
▁ek	-11.8551
▁firmicutes	-11.8554
▁reared	-11.8554
cular	-11.8556
▁generalization	-11.8556
sur	-11.8557
vent	-11.8558
rii	-11.856
phosphate	-11.8562
▁polyphenols	-11.8564
inus	-11.8569
239	-11.8572
wc	-11.8573
▁cylindrical	-11.8576
▁siv	-11.8578
head	-11.8581
▁stria	-11.8581
▁mun	-11.8587
▁paulo	-11.8587
ther	-11.8588
▁fibrous	-11.8589
▁happy	-11.859
▁znf	-11.8595
▁neb	-11.8603
▁abnormality	-11.8604
▁paris	-11.8604
▁pcos	-11.8604
▁parenting	-11.8604
▁pharmaceuticals	-11.8606
▁560	-11.8607
▁evenly	-11.8608
▁vari	-11.861
▁wellbeing	-11.8612
▁sonication	-11.8612
▁ade	-11.8614
▁poses	-11.8615
▁whenever	-11.8615
▁alternating	-11.8616
▁weaning	-11.8616
▁shoots	-11.8616
flex	-11.8619
cx	-11.8619
▁predator	-11.8621
sz	-11.8623
gag	-11.8624
▁diversification	-11.8627
▁rotating	-11.8631
▁supp	-11.8635
▁sterilized	-11.8638
▁306	-11.864
▁specify	-11.8641
▁bou	-11.8643
mis	-11.8643
208	-11.8644
▁mediation	-11.8646
154	-11.8647
▁relatedness	-11.8648
▁mandatory	-11.8649
fg	-11.865
▁narrative	-11.865
▁octa	-11.865
td	-11.865
▁dyslipidemia	-11.8656
▁nec	-11.8658
ein	-11.8658
▁develops	-11.8659
▁malt	-11.8661
▁quartiles	-11.8663
▁subsp	-11.8663
▁phosph	-11.8664
▁elbow	-11.8667
bus	-11.8669
▁endurance	-11.8671
▁polyethylene	-11.8671
▁253	-11.8674
▁387	-11.8675
▁newborns	-11.8676
▁fetus	-11.8676
▁367	-11.8677
▁robotic	-11.8678
▁contraceptive	-11.8679
hua	-11.8683
zu	-11.8685
▁nls	-11.8687
▁tibial	-11.8688
▁beams	-11.8691
▁summed	-11.8691
▁hox	-11.8692
thy	-11.8693
▁penetrate	-11.8693
das	-11.8696
fb	-11.8696
▁educated	-11.8705
▁326	-11.8706
▁gondii	-11.8708
▁apr	-11.871
▁msh	-11.8712
▁mmps	-11.8713
▁constantly	-11.8713
▁inspired	-11.8718
▁manifestation	-11.8718
▁identities	-11.8719
▁simon	-11.872
▁625	-11.8724
▁jin	-11.8724
▁gratefully	-11.8725
▁thf	-11.8727
▁physics	-11.8727
▁carries	-11.8728
fluor	-11.8728
▁wavelet	-11.8729
▁hercules	-11.873
▁genotypic	-11.873
▁consolidation	-11.873
▁bottle	-11.8732
▁depict	-11.8733
aj	-11.8733
▁sav	-11.8735
ih	-11.8736
▁github	-11.8737
etin	-11.8739
eum	-11.8746
▁painful	-11.8748
ttct	-11.8749
urs	-11.8751
▁detoxification	-11.8752
▁337	-11.8755
▁368	-11.8756
▁gct	-11.8756
▁stacking	-11.8757
▁318	-11.8758
▁gat	-11.876
hypersensitivity	-11.8762
▁imidazole	-11.8764
▁lit	-11.8764
▁drb	-11.8766
▁tha	-11.8766
▁speeds	-11.8769
▁downward	-11.877
▁tel	-11.8772
ient	-11.8772
▁washington	-11.8773
▁retrospectively	-11.8774
tine	-11.8774
rous	-11.8775
mscs	-11.8777
▁brainstem	-11.878
▁flows	-11.8781
▁chem	-11.8783
▁relaxed	-11.8784
part	-11.8784
▁435	-11.8785
▁separating	-11.8786
▁neuroblastoma	-11.8786
▁shannon	-11.8786
olytic	-11.8787
▁magnetization	-11.8787
▁inserts	-11.8788
tive	-11.8789
▁noticeable	-11.8791
▁skilled	-11.8792
134	-11.8792
▁discontinuation	-11.8794
▁defence	-11.8794
▁llc	-11.8794
▁contemporary	-11.8797
▁366	-11.8797
▁postural	-11.88
▁077	-11.88
▁rhe	-11.8804
▁diarrhoea	-11.8805
▁bonded	-11.8805
▁metabolomics	-11.8806
▁vancomycin	-11.8808
▁ud	-11.8808
▁natal	-11.881
▁tub	-11.8811
aemia	-11.8811
cyto	-11.8814
▁ignored	-11.8814
eur	-11.8815
▁happen	-11.8816
▁wildlife	-11.8817
rz	-11.8818
▁vent	-11.8819
▁insufficiency	-11.8819
▁tier	-11.882
num	-11.882
2000	-11.8822
mor	-11.8823
▁glycemic	-11.8823
▁dai	-11.8827
▁wat	-11.8827
▁dickinson	-11.8827
ifolia	-11.883
ste	-11.8831
▁confident	-11.8834
▁brackets	-11.8834
▁630	-11.8834
▁complemented	-11.8835
▁410	-11.8836
▁disadvantages	-11.884
▁traf	-11.884
▁glycans	-11.8841
▁anesthetic	-11.8842
▁nsp	-11.8845
ches	-11.8845
ifera	-11.8846
aster	-11.8846
▁pest	-11.8847
▁arid	-11.8848
por	-11.8848
▁qualified	-11.8849
▁proc	-11.8852
▁dynamical	-11.8853
gctt	-11.8853
▁eliminating	-11.8853
▁ups	-11.8855
▁nothing	-11.8855
▁histopathology	-11.8857
▁enamel	-11.8857
▁maxillary	-11.8857
▁thymus	-11.8858
ille	-11.8858
▁hw	-11.8862
▁menstrual	-11.8862
▁cz	-11.8863
bil	-11.8865
iness	-11.8866
▁degrading	-11.8868
▁ensured	-11.8869
▁jar	-11.8871
▁pdt	-11.8872
ones	-11.8874
pho	-11.8874
▁nash	-11.8875
press	-11.8876
▁precipitate	-11.8879
▁379	-11.8879
▁fle	-11.888
▁2020	-11.8882
▁crosstalk	-11.8883
▁homeostatic	-11.8883
▁oval	-11.8884
▁grafts	-11.8885
▁399	-11.8885
▁pack	-11.8886
▁heterozygosity	-11.8887
▁undergraduate	-11.8887
▁predators	-11.889
score	-11.8891
▁trabecular	-11.8891
▁curative	-11.8891
▁ww	-11.8893
▁explants	-11.8895
▁caa	-11.8896
vic	-11.8896
▁bent	-11.8897
omy	-11.8899
▁breaking	-11.8899
thio	-11.8899
▁carboxy	-11.89
lob	-11.8905
▁neuroscience	-11.8906
ej	-11.8908
▁cyano	-11.8912
▁piglets	-11.8912
▁psm	-11.8912
gctg	-11.8912
oro	-11.8914
▁layered	-11.8916
▁fails	-11.8917
▁nil	-11.8918
▁aneurysm	-11.892
▁pesticides	-11.892
▁costa	-11.8921
▁erythrocyte	-11.8924
▁push	-11.8925
▁assemble	-11.8932
▁browser	-11.8932
ope	-11.8935
acca	-11.8936
▁verbatim	-11.8936
▁hiseq	-11.8938
▁locate	-11.8939
▁extremity	-11.894
ethyltransferase	-11.8943
agen	-11.8944
▁worsening	-11.8944
▁benzyl	-11.8944
▁normalize	-11.8945
▁compiled	-11.8947
▁morphogenesis	-11.8948
▁rhythms	-11.8949
far	-11.8949
tttg	-11.8949
wp	-11.8949
▁capturing	-11.8951
▁304	-11.8953
398	-11.8954
▁compares	-11.8955
plus	-11.8959
▁ry	-11.896
▁mers	-11.896
nam	-11.896
chemical	-11.8963
▁314	-11.8963
uropsychological	-11.8963
_3	-11.8964
▁gil	-11.8964
dec	-11.8964
▁mcg	-11.8968
▁florida	-11.8969
▁morphologies	-11.897
ito	-11.8972
▁hev	-11.8973
▁cathepsin	-11.8974
▁contractile	-11.8974
▁348	-11.8976
▁tpa	-11.8977
▁insignificant	-11.8978
▁ccs	-11.8981
izer	-11.8981
▁turns	-11.8982
▁effusion	-11.8982
▁xx	-11.8982
▁iptg	-11.8984
▁therapist	-11.8985
▁didn	-11.8993
003_	-11.8993
yne	-11.8994
wer	-11.8994
ign	-11.8996
▁satisfy	-11.9001
▁ben	-11.9002
▁tz	-11.9003
▁neurite	-11.9004
stra	-11.9004
▁deficiencies	-11.9004
▁choline	-11.9005
▁fk	-11.9006
▁walker	-11.9007
▁072	-11.9008
▁herd	-11.9009
▁send	-11.901
utter	-11.9012
wh	-11.9012
▁doubt	-11.9012
196	-11.9013
▁upr	-11.9014
▁instantaneous	-11.9016
▁rectangular	-11.9016
▁vip	-11.9017
▁poc	-11.9018
gtc	-11.902
248	-11.9022
▁appetite	-11.9024
▁aunps	-11.9024
▁ptb	-11.9028
▁printing	-11.9029
▁derivation	-11.903
ote	-11.903
book	-11.9032
▁combat	-11.9034
pic	-11.9035
azole	-11.9038
▁suboptimal	-11.9039
▁397	-11.9039
▁checking	-11.9045
tree	-11.9049
▁appraisal	-11.905
▁nitrocellulose	-11.905
▁killer	-11.9053
arch	-11.9054
▁categorization	-11.9054
▁dismutase	-11.9054
lus	-11.9055
aagc	-11.9055
▁cruzi	-11.9057
▁spheroids	-11.9057
▁spect	-11.9058
▁lysosomes	-11.9058
▁disparities	-11.9062
▁rk	-11.9064
uca	-11.9068
▁kyoto	-11.907
▁510	-11.907
rup	-11.9071
neurotransmitter	-11.9072
▁rein	-11.9073
▁nematode	-11.9073
▁wheel	-11.9073
opathy	-11.9077
▁antidepressant	-11.9077
▁corrections	-11.9077
▁centroid	-11.9078
▁adl	-11.9078
▁comfort	-11.908
▁shrinkage	-11.9081
▁intermolecular	-11.9081
▁marginally	-11.9084
▁ensures	-11.9085
water	-11.9085
▁mrp	-11.9085
▁analogs	-11.9088
▁ciprofloxacin	-11.9089
kg	-11.909
▁prescriptions	-11.9091
▁minimized	-11.9093
cis	-11.9093
▁485	-11.9095
jc	-11.9096
▁ptv	-11.9096
▁cytoskeletal	-11.9096
▁actors	-11.9097
▁smartphone	-11.9097
▁sms	-11.9098
▁gmp	-11.9098
▁migrated	-11.9099
▁unfavorable	-11.91
▁cholinergic	-11.91
▁colorimetric	-11.9101
▁359	-11.9102
▁adiposity	-11.9104
▁depicting	-11.9104
011	-11.9104
▁071	-11.9109
▁uro	-11.911
▁324	-11.9111
▁implication	-11.9112
▁quantile	-11.9113
ibility	-11.9114
awa	-11.9115
▁242	-11.9116
zn	-11.9117
▁spliced	-11.9118
▁349	-11.9119
▁multidrug	-11.912
tex	-11.9123
pel	-11.9125
▁archive	-11.9126
▁multiplied	-11.9127
▁virulent	-11.9127
▁quartz	-11.9127
▁reinforced	-11.9128
oil	-11.9131
▁emp	-11.9133
▁ascorbic	-11.9135
ben	-11.9135
▁358	-11.9138
uring	-11.9138
▁079	-11.914
▁morph	-11.9141
gatg	-11.9144
plastic	-11.9145
▁milli	-11.9145
▁odd	-11.9146
▁plating	-11.9146
▁262	-11.9146
▁migrating	-11.9147
▁steep	-11.9148
▁329	-11.9149
▁mpo	-11.9153
▁083	-11.9156
ray	-11.9157
▁uiso	-11.9158
▁moments	-11.9158
▁vero	-11.9159
▁comb	-11.9159
▁085	-11.9162
▁nematodes	-11.9162
▁080	-11.9162
173	-11.9163
▁egr	-11.9166
▁mei	-11.9166
▁butyrate	-11.9168
▁economy	-11.9171
ave	-11.9171
▁ards	-11.9172
▁heading	-11.9173
▁incentives	-11.9175
▁phyla	-11.9177
▁trx	-11.9177
▁ctg	-11.9178
▁kor	-11.9182
▁measurable	-11.9185
genes	-11.9186
▁blunt	-11.9187
▁galactosidase	-11.9189
▁attach	-11.9191
▁346	-11.9192
▁cons	-11.9193
▁uterus	-11.9193
ux	-11.9194
▁lethality	-11.9196
▁dihedral	-11.9197
▁constituent	-11.9197
▁underlined	-11.9198
186	-11.9199
▁594	-11.92
▁850	-11.92
▁fuzzy	-11.9201
oon	-11.9201
pq	-11.9204
290	-11.9205
gue	-11.9206
▁anger	-11.9207
▁aliquot	-11.9207
▁ordinary	-11.9209
▁reasonably	-11.9209
▁ber	-11.9211
▁relied	-11.9213
▁airways	-11.9213
▁fvc	-11.9215
▁dor	-11.9216
▁pace	-11.9216
▁396	-11.9218
mac	-11.922
▁thickening	-11.9221
▁firm	-11.9222
▁destination	-11.9224
▁subtracting	-11.9224
▁allergen	-11.9224
umi	-11.9224
anth	-11.9226
▁motivational	-11.9227
▁hardly	-11.9228
▁mission	-11.9228
▁histologic	-11.9229
▁347	-11.9229
▁comorbid	-11.9231
ylated	-11.9231
▁endosomes	-11.9231
▁disequilibrium	-11.9232
▁telomerase	-11.9232
long	-11.9235
▁committees	-11.9235
▁sgrna	-11.9235
▁bloom	-11.9236
▁eosinophils	-11.9236
▁tricho	-11.9239
▁thermofisher	-11.924
ttg	-11.924
▁pectin	-11.924
chrom	-11.9241
pac	-11.9242
▁emitted	-11.9244
▁trophic	-11.9247
▁amazon	-11.9247
▁histamine	-11.9248
▁lec	-11.925
203	-11.925
▁butyl	-11.925
▁gpi	-11.925
▁analyte	-11.9252
143	-11.9253
▁369	-11.9255
▁orbit	-11.9257
▁arv	-11.9262
▁keto	-11.9262
leu	-11.9263
▁pluripotent	-11.9263
▁vestibular	-11.9263
113	-11.9265
▁lis	-11.9265
▁diaphragm	-11.9267
▁singapore	-11.9267
230	-11.9267
▁amylase	-11.9268
▁292	-11.9269
▁conductive	-11.9269
▁trn	-11.9269
▁344	-11.927
▁cbd	-11.9271
▁combines	-11.9273
▁sandwich	-11.9275
▁ict	-11.9275
▁oxidant	-11.9276
▁silk	-11.9277
▁089	-11.9277
▁317	-11.9281
508	-11.9282
▁insula	-11.9283
▁borderline	-11.9284
▁bel	-11.9284
▁ending	-11.9285
sym	-11.9287
hg	-11.9288
▁perfectly	-11.9288
▁restraints	-11.9291
▁restrict	-11.9293
▁dmp	-11.9295
▁bean	-11.9297
point	-11.9299
▁shortly	-11.9299
▁weighing	-11.9301
ander	-11.9302
▁regressions	-11.9303
▁gtpase	-11.9305
▁bill	-11.9306
▁bigger	-11.9307
bank	-11.931
▁priorities	-11.931
▁crosslinking	-11.931
▁memories	-11.931
▁favored	-11.9313
meric	-11.9314
▁smo	-11.9315
▁terminals	-11.9316
▁overt	-11.9318
▁spc	-11.9318
rom	-11.9319
▁testicular	-11.932
111	-11.9323
dx	-11.9327
▁adenovirus	-11.9327
▁swab	-11.9329
▁insomnia	-11.933
▁carp	-11.9333
▁hematological	-11.9334
▁classifications	-11.9337
▁ranks	-11.9337
099	-11.9337
▁underestimated	-11.9339
illo	-11.9339
▁diff	-11.9339
cept	-11.934
▁truly	-11.934
▁cofactor	-11.9341
▁segmental	-11.9343
▁gam	-11.9344
▁spiro	-11.9344
gan	-11.9345
▁moieties	-11.9346
▁infinite	-11.9346
▁normative	-11.9346
▁cooking	-11.9347
▁bioscience	-11.9348
▁sorafenib	-11.935
▁trastuzumab	-11.935
▁packet	-11.9351
▁proteinuria	-11.9351
▁395	-11.9352
pen	-11.9353
▁synchronous	-11.9354
▁mexican	-11.9354
▁causality	-11.9354
▁deer	-11.9355
▁morphologically	-11.9356
▁crs	-11.9357
etes	-11.9358
▁allo	-11.9358
▁ems	-11.9358
▁empathy	-11.9358
▁ortholog	-11.9359
▁percutaneous	-11.936
▁synthetase	-11.9361
▁photoperiod	-11.9362
▁assistant	-11.9365
▁enlargement	-11.9366
ifer	-11.9366
229	-11.9369
▁mandible	-11.9369
yi	-11.937
▁folds	-11.937
anto	-11.9371
▁minerals	-11.9372
▁chiral	-11.9373
▁else	-11.9373
▁detachment	-11.9374
▁ensembl	-11.9374
▁vac	-11.9376
▁chromatographic	-11.9376
▁pharmacists	-11.9376
oba	-11.9377
▁deterministic	-11.9377
647	-11.9378
iu	-11.9379
▁lang	-11.938
▁organisations	-11.9381
▁knowing	-11.9381
▁predation	-11.9382
▁jia	-11.9382
▁shp	-11.9384
079	-11.9384
▁mdc	-11.9386
▁maintains	-11.9386
▁buds	-11.9388
▁laminin	-11.9389
▁datablock	-11.939
▁383	-11.9394
▁happens	-11.9394
▁319	-11.9396
▁dysplasia	-11.9397
▁psychotic	-11.9398
▁triangular	-11.94
▁escc	-11.9401
▁ripa	-11.9401
▁analysing	-11.9401
▁vin	-11.9402
▁hen	-11.9402
▁xyl	-11.9402
▁fis	-11.9404
▁doubling	-11.9405
▁ghrelin	-11.9405
ugu	-11.9407
▁051	-11.9407
▁374	-11.9411
▁preprocessing	-11.9413
▁museum	-11.9413
▁lai	-11.9413
▁drastically	-11.9413
▁granted	-11.9416
▁autocorrelation	-11.9417
▁electromagnetic	-11.9417
418	-11.9418
▁psc	-11.942
▁vitamins	-11.9422
▁303	-11.9425
▁hel	-11.9425
auer	-11.9426
gcc	-11.9426
bac	-11.943
▁racial	-11.943
rim	-11.9431
▁empirically	-11.9432
▁linearity	-11.9432
▁rela	-11.9432
▁crypt	-11.9432
count	-11.9435
mond	-11.9437
▁diode	-11.9437
▁ehr	-11.944
▁resonant	-11.9441
carb	-11.9441
▁lexical	-11.9442
▁modular	-11.9444
▁smoked	-11.9445
▁cognate	-11.9445
270	-11.9446
▁biliary	-11.9449
226	-11.9454
viruses	-11.9457
opsis	-11.946
▁tai	-11.9461
▁photographed	-11.9462
ston	-11.9463
▁purely	-11.9464
▁frameworks	-11.9464
▁nepal	-11.9464
▁disparity	-11.9465
▁dinucleotide	-11.9466
▁trem	-11.9466
atta	-11.9466
▁499	-11.9466
ail	-11.9466
▁ipv	-11.9467
▁contractions	-11.9468
ery	-11.9469
▁compensated	-11.947
▁rendering	-11.9471
▁chu	-11.9471
▁wald	-11.9474
▁rash	-11.9475
▁mam	-11.9475
▁equivalents	-11.9476
genesis	-11.9476
▁ess	-11.9477
▁fission	-11.9477
▁pup	-11.9478
▁expresses	-11.9479
▁phospholipid	-11.9487
▁esters	-11.9489
▁pupil	-11.949
lat	-11.9491
▁metagenomic	-11.9492
▁xm	-11.9493
lines	-11.9493
▁gun	-11.9496
▁relax	-11.9497
▁vic	-11.9498
▁duplex	-11.9498
▁gk	-11.9499
▁dig	-11.95
▁hnrnp	-11.9501
▁escs	-11.9502
illi	-11.9502
pes	-11.9503
▁fellow	-11.9505
▁cook	-11.9506
bert	-11.9509
dor	-11.9509
▁272	-11.9513
▁proliferate	-11.9513
▁venn	-11.9515
[...]
