<unk>	0
▁the	-3.08627
▁of	-3.50165
▁and	-3.65315
▁in	-3.88029
▁to	-4.16141
▁a	-4.29059
▁0	-4.48431
▁1	-4.70716
▁for	-4.75137
▁with	-4.80402
s	-5.02867
▁is	-5.05242
▁was	-5.0636
▁2	-5.06838
▁were	-5.08092
▁that	-5.12383
▁as	-5.22616
▁by	-5.25484
▁	-5.27593
▁3	-5.28089
2	-5.44536
1	-5.46117
▁c	-5.48369
▁5	-5.49671
▁on	-5.5362
▁from	-5.55283
▁are	-5.56785
▁4	-5.59018
▁at	-5.60863
▁or	-5.66185
▁this	-5.66518
▁be	-5.73478
▁s	-5.77376
▁p	-5.83373
▁we	-5.91378
▁6	-5.92333
a	-5.93359
▁an	-5.98978
▁not	-6.06864
▁al	-6.08402
▁cells	-6.08844
▁7	-6.10362
▁10	-6.10618
▁et	-6.13183
3	-6.17945
▁8	-6.20171
▁which	-6.20706
▁n	-6.20749
▁h	-6.23477
▁data	-6.23555
▁study	-6.26567
▁have	-6.28551
▁between	-6.3422
▁using	-6.3424
▁figure	-6.34491
▁these	-6.35903
▁it	-6.35987
▁9	-6.38856
▁b	-6.39887
▁all	-6.40971
▁t	-6.43472
▁e	-6.43746
b	-6.4517
▁also	-6.48904
▁used	-6.5024
d	-6.50922
▁cell	-6.51506
▁patients	-6.53323
▁g	-6.56932
c	-6.5865
▁analysis	-6.59904
▁can	-6.60167
4	-6.61215
▁d	-6.62381
▁no	-6.63369
▁m	-6.64614
▁fig	-6.65692
▁i	-6.65878
▁been	-6.66514
▁has	-6.6714
▁two	-6.68732
▁after	-6.70025
▁each	-6.71933
▁expression	-6.72725
▁than	-6.72817
▁other	-6.74217
▁results	-6.74603
▁their	-6.75494
▁more	-6.75612
e	-6.79803
▁time	-6.79864
▁one	-6.80022
▁table	-6.82099
m	-6.82502
▁12	-6.82989
▁may	-6.83605
▁our	-6.85052
▁different	-6.87307
▁20	-6.88162
▁group	-6.90562
▁both	-6.90879
▁studies	-6.92866
▁μ	-6.92875
▁but	-6.93838
▁l	-6.94502
▁15	-6.94742
▁high	-6.97314
▁protein	-6.98386
▁f	-6.99069
▁based	-6.99367
▁number	-7.00414
▁such	-7.00852
▁r	-7.00955
g	-7.01872
▁treatment	-7.02598
▁control	-7.0307
▁11	-7.04096
▁only	-7.04267
▁however	-7.05068
ing	-7.05808
▁model	-7.05951
▁during	-7.08972
▁13	-7.11845
▁14	-7.12162
▁when	-7.12705
▁30	-7.12809
▁shown	-7.13569
▁into	-7.13795
▁significant	-7.14493
l	-7.14502
▁16	-7.14957
▁gene	-7.15395
▁levels	-7.16096
▁found	-7.1619
▁18	-7.18163
▁compared	-7.18485
▁non	-7.18579
▁genes	-7.19123
h	-7.19809
▁there	-7.20252
5	-7.2037
▁25	-7.22774
▁had	-7.23192
▁three	-7.24244
▁well	-7.24608
▁24	-7.25015
▁they	-7.25316
▁health	-7.26631
▁activity	-7.27027
▁effect	-7.27176
o	-7.28016
▁50	-7.28721
ed	-7.29182
▁observed	-7.29187
n	-7.29421
▁could	-7.29684
▁17	-7.29766
▁most	-7.29789
▁reported	-7.29799
▁associated	-7.30342
▁100	-7.30451
▁performed	-7.30555
▁first	-7.31011
▁test	-7.31595
r	-7.31711
6	-7.32047
▁use	-7.34032
▁level	-7.34752
▁mean	-7.35308
▁total	-7.35419
▁its	-7.3551
▁k	-7.36741
▁higher	-7.37095
▁ml	-7.38023
▁mm	-7.38832
▁19	-7.39605
▁mice	-7.39822
▁increased	-7.4032
▁v	-7.40536
▁samples	-7.406
▁specific	-7.41941
▁cancer	-7.42372
▁x	-7.42558
▁05	-7.42797
▁low	-7.43038
▁research	-7.4336
▁type	-7.4401
▁values	-7.44438
▁age	-7.44826
p	-7.45479
▁within	-7.45679
▁showed	-7.45997
▁effects	-7.46781
▁o	-7.48239
▁while	-7.49749
▁cd	-7.5008
▁significantly	-7.50573
t	-7.50855
▁groups	-7.50933
▁system	-7.51414
i	-7.51927
▁then	-7.53154
▁human	-7.53401
▁min	-7.54338
▁some	-7.54363
▁response	-7.54588
▁disease	-7.54911
f	-7.55352
▁21	-7.557
▁related	-7.55817
▁information	-7.55827
▁further	-7.56519
▁under	-7.5682
▁if	-7.56979
▁up	-7.57432
▁value	-7.57536
▁same	-7.5791
▁will	-7.58117
▁species	-7.5879
▁clinical	-7.58834
▁respectively	-7.58979
7	-7.59157
▁through	-7.59248
▁due	-7.5934
▁over	-7.59834
▁22	-7.5999
▁dna	-7.60374
▁40	-7.60427
▁including	-7.60617
▁those	-7.61648
8	-7.61701
▁rate	-7.62398
▁risk	-7.62405
▁additional	-7.62644
▁years	-7.62825
▁sample	-7.63235
▁co	-7.63848
▁positive	-7.6416
▁similar	-7.64282
▁23	-7.64317
▁where	-7.65027
▁among	-7.65105
▁per	-7.65256
ly	-7.65527
▁95	-7.65581
▁proteins	-7.66815
▁function	-7.67641
▁present	-7.68669
▁increase	-7.68711
▁anti	-7.68873
▁mg	-7.69404
▁obtained	-7.70202
▁methods	-7.70963
▁28	-7.71767
▁factors	-7.72144
▁following	-7.72265
▁patient	-7.72323
▁thus	-7.72581
▁who	-7.73369
9	-7.73558
▁26	-7.74173
▁important	-7.74436
▁001	-7.74446
▁therefore	-7.74515
▁population	-7.75077
▁lower	-7.75134
▁would	-7.75523
k	-7.75537
▁participants	-7.75904
▁described	-7.7668
▁differences	-7.77204
▁27	-7.77417
▁conditions	-7.78145
▁method	-7.78384
▁because	-7.78453
▁size	-7.78544
▁changes	-7.79126
▁induced	-7.79162
▁potential	-7.79348
▁any	-7.79511
▁37	-7.79525
▁treated	-7.79562
▁addition	-7.79913
▁growth	-7.79928
▁did	-7.80149
▁j	-7.8119
▁60	-7.81306
▁identified	-7.81321
▁out	-7.81693
▁role	-7.82024
▁29	-7.82558
▁authors	-7.83215
▁about	-7.83518
▁35	-7.83869
▁development	-7.83878
▁β	-7.84112
▁01	-7.84914
▁single	-7.86116
▁blood	-7.86565
▁day	-7.86643
▁tumor	-7.8749
▁acid	-7.87605
▁il	-7.87997
▁set	-7.89177
10	-7.89264
▁although	-7.89443
y	-7.89448
▁care	-7.89645
▁days	-7.90397
▁case	-7.90571
▁33	-7.90583
▁y	-7.90976
▁several	-7.91046
▁water	-7.91107
▁experiments	-7.91312
▁range	-7.92169
▁according	-7.92343
▁32	-7.92441
▁binding	-7.92801
▁without	-7.92904
▁new	-7.9346
▁measured	-7.93542
▁supplementary	-7.93545
▁work	-7.93878
▁α	-7.94685
▁tissue	-7.94853
▁process	-7.94943
▁previous	-7.95187
▁31	-7.95238
▁structure	-7.96295
▁small	-7.97036
▁36	-7.97118
▁standard	-7.97237
▁included	-7.97409
▁cases	-7.97786
▁48	-7.97868
▁ca	-7.97907
▁de	-7.97965
▁see	-7.97979
x	-7.98156
▁should	-7.98334
▁post	-7.98341
▁file	-7.98775
▁factor	-7.9885
▁presence	-7.99308
▁negative	-7.99974
▁like	-8.00267
▁34	-8.00574
▁large	-8.0069
▁concentration	-8.00779
▁less	-8.01106
▁here	-8.01303
▁nm	-8.01308
▁difference	-8.0132
▁change	-8.02162
▁surface	-8.02195
0	-8.02246
▁many	-8.02706
▁u	-8.02713
▁models	-8.02905
▁four	-8.03126
▁previously	-8.032
▁45	-8.03495
▁region	-8.03791
▁temperature	-8.04289
▁before	-8.046
▁analyses	-8.04675
▁infection	-8.04881
▁sequence	-8.05354
▁order	-8.05384
▁pcr	-8.05962
▁so	-8.05972
▁average	-8.06336
▁pre	-8.0634
▁expressed	-8.06736
▁80	-8.07006
▁00	-8.07106
▁given	-8.07318
▁phase	-8.07322
▁z	-8.07393
▁primary	-8.07468
▁normal	-8.07934
▁line	-8.07951
▁available	-8.08543
▁target	-8.09286
▁rna	-8.09332
▁activation	-8.09463
▁reduced	-8.097
▁individual	-8.10063
▁w	-8.10354
▁considered	-8.10475
▁ci	-8.10486
▁38	-8.10801
▁show	-8.11058
▁distribution	-8.1112
▁vs	-8.11362
_	-8.11433
▁possible	-8.11524
▁area	-8.13235
▁cm	-8.13352
▁do	-8.13554
▁current	-8.142
▁stress	-8.1444
▁multiple	-8.14567
12	-8.14629
▁long	-8.1481
▁analyzed	-8.14816
al	-8.14906
▁known	-8.15086
▁calculated	-8.15125
▁ii	-8.15168
▁since	-8.15238
▁relative	-8.15346
▁very	-8.15641
▁whether	-8.15742
▁being	-8.15826
▁determined	-8.15924
▁result	-8.15945
er	-8.16321
▁000	-8.1638
▁complex	-8.16467
▁39	-8.16661
11	-8.16719
▁indicated	-8.17073
▁ms	-8.1718
▁might	-8.17247
▁ratio	-8.17551
▁usa	-8.1758
▁children	-8.17793
▁evidence	-8.17811
▁containing	-8.18303
▁parameters	-8.18341
▁second	-8.18419
▁statistical	-8.18467
▁90	-8.1852
▁scale	-8.18699
▁ph	-8.18902
▁brain	-8.19164
▁70	-8.19464
es	-8.19468
▁mir	-8.19547
▁women	-8.19683
▁findings	-8.20018
▁either	-8.20172
▁support	-8.20475
▁42	-8.20481
▁involved	-8.2094
▁example	-8.21058
▁state	-8.23149
▁quality	-8.23171
▁weight	-8.23229
▁above	-8.2374
▁body	-8.2409
▁experimental	-8.24286
▁site	-8.24638
▁across	-8.24974
▁75	-8.25031
▁against	-8.25143
▁likely	-8.25466
▁length	-8.25556
▁point	-8.25567
▁detected	-8.25755
▁production	-8.26021
▁43	-8.26054
▁shows	-8.26082
▁regions	-8.26204
▁score	-8.26412
▁presented	-8.26465
▁early	-8.26874
▁year	-8.27285
▁sequences	-8.27369
▁approach	-8.27559
▁44	-8.27638
▁dependent	-8.28043
▁assay	-8.2821
▁even	-8.28228
▁41	-8.28319
▁molecular	-8.28591
▁independent	-8.29252
▁demonstrated	-8.293
▁sd	-8.29352
▁period	-8.29389
▁how	-8.29529
▁comparison	-8.29863
▁left	-8.30105
▁functional	-8.30206
▁lines	-8.30379
▁genome	-8.30597
▁performance	-8.30704
▁least	-8.30754
▁manuscript	-8.30839
▁frequency	-8.31418
▁red	-8.3196
▁interaction	-8.3208
▁pathway	-8.32353
▁sites	-8.32588
▁46	-8.32713
▁overall	-8.32779
▁individuals	-8.32813
▁months	-8.33125
▁family	-8.33639
▁solution	-8.33667
▁part	-8.33731
▁correlation	-8.33755
▁association	-8.33758
▁q	-8.33886
▁medical	-8.33941
▁re	-8.33999
▁genetic	-8.34028
▁concentrations	-8.34059
▁drug	-8.34133
▁free	-8.3421
▁various	-8.34355
▁55	-8.34454
v	-8.34658
▁serum	-8.34755
▁collected	-8.34914
▁common	-8.35231
▁right	-8.35616
▁stage	-8.35815
▁2013	-8.35874
▁47	-8.35885
▁via	-8.36274
▁conducted	-8.364
▁provided	-8.36419
▁life	-8.36466
▁medium	-8.36503
▁defined	-8.36713
▁signaling	-8.36722
▁network	-8.37349
▁characteristics	-8.37392
▁mouse	-8.37415
▁2012	-8.37464
▁formation	-8.38055
▁provide	-8.38385
▁resistance	-8.38613
▁membrane	-8.38705
▁end	-8.38752
▁general	-8.39026
▁signal	-8.39341
▁2014	-8.39526
▁design	-8.39711
▁survival	-8.39758
▁decreased	-8.39844
▁animals	-8.39889
▁loss	-8.39926
▁exposure	-8.40155
▁energy	-8.40264
▁variables	-8.40277
13	-8.40548
▁form	-8.40712
▁followed	-8.40757
▁selected	-8.40818
▁65	-8.41005
▁49	-8.41025
▁contrast	-8.41034
▁light	-8.41176
▁self	-8.41869
▁dose	-8.4188
▁interest	-8.42073
▁times	-8.42265
▁applied	-8.42387
▁major	-8.42519
ic	-8.43005
▁final	-8.43105
▁culture	-8.43212
▁indicate	-8.43593
▁field	-8.43648
▁status	-8.43874
▁images	-8.43917
16	-8.43955
▁72	-8.44074
▁2011	-8.44485
▁flow	-8.44542
▁university	-8.44557
▁responses	-8.44672
▁subjects	-8.44674
14	-8.44708
▁five	-8.44761
▁rates	-8.44837
▁materials	-8.44984
▁reference	-8.45048
▁kg	-8.45504
▁2015	-8.461
▁material	-8.46535
▁2010	-8.46562
α	-8.46786
▁mass	-8.46907
▁reduction	-8.46976
▁another	-8.47129
th	-8.47278
▁content	-8.47405
▁types	-8.47418
▁main	-8.47591
▁required	-8.4779
▁strain	-8.47878
▁wt	-8.47901
▁na	-8.48158
▁derived	-8.48162
▁density	-8.48342
in	-8.48454
β	-8.48654
▁detection	-8.48705
▁56	-8.4871
▁active	-8.48917
▁recent	-8.49155
▁54	-8.49158
▁receptor	-8.49416
▁revealed	-8.49423
▁corresponding	-8.50452
▁whereas	-8.50601
▁domain	-8.50823
▁58	-8.50969
▁52	-8.51026
▁tested	-8.51039
▁social	-8.51156
▁hiv	-8.51243
▁therapy	-8.51304
▁53	-8.51427
▁developed	-8.51438
▁antibody	-8.51903
▁male	-8.52015
▁term	-8.52065
▁furthermore	-8.52113
▁highly	-8.5279
▁64	-8.53327
▁reaction	-8.53708
▁51	-8.53958
▁physical	-8.53982
▁consistent	-8.54026
▁99	-8.5404
▁mrna	-8.54292
▁57	-8.54292
▁67	-8.54401
▁96	-8.54401
▁suggest	-8.54773
▁national	-8.54954
▁baseline	-8.55022
▁impact	-8.55064
▁sub	-8.55128
▁hospital	-8.5535
▁200	-8.5535
▁review	-8.5571
▁determine	-8.55794
15	-8.55979
▁greater	-8.56016
▁systems	-8.56057
▁controls	-8.56065
▁discussion	-8.56161
▁areas	-8.5625
▁training	-8.56381
▁software	-8.56426
▁59	-8.56498
▁prior	-8.56939
▁volume	-8.57031
▁initial	-8.57237
▁weeks	-8.57248
▁experiment	-8.57267
▁strains	-8.57755
▁does	-8.58028
▁index	-8.58379
▁regulation	-8.58709
▁immune	-8.58823
▁better	-8.58888
▁image	-8.59404
18	-8.59762
▁mechanisms	-8.59783
▁female	-8.60032
▁intervention	-8.60176
▁condition	-8.602
▁represent	-8.6082
▁2009	-8.60911
▁local	-8.60957
▁way	-8.60957
▁made	-8.61088
▁moreover	-8.6117
▁plant	-8.61213
▁key	-8.61242
▁inflammatory	-8.61253
▁increasing	-8.61814
▁properties	-8.62274
▁liver	-8.6241
▁animal	-8.62674
▁neurons	-8.62805
▁relationship	-8.62871
▁63	-8.63032
▁pressure	-8.6311
▁inhibition	-8.63128
▁mechanism	-8.63166
▁2016	-8.6317
▁66	-8.63175
▁decrease	-8.63379
▁interactions	-8.63422
q	-8.6352
▁wild	-8.637
▁generated	-8.63957
▁glucose	-8.64236
▁effective	-8.64398
▁follow	-8.64613
17	-8.6468
▁85	-8.64698
▁incubated	-8.64712
▁added	-8.64887
▁diagnosis	-8.64957
▁68	-8.64975
▁mediated	-8.65362
▁us	-8.6557
▁plasma	-8.65579
▁estimated	-8.65611
▁ability	-8.65628
▁tissues	-8.65672
▁food	-8.66044
▁populations	-8.66081
us	-8.66109
▁62	-8.66343
▁biological	-8.66374
▁scores	-8.66412
▁still	-8.67245
▁error	-8.67276
▁cross	-8.67326
▁expected	-8.67356
▁2008	-8.67443
▁sensitivity	-8.67467
▁often	-8.67514
▁points	-8.6753
▁69	-8.6759
▁transcription	-8.67632
▁journal	-8.68068
▁need	-8.6807
▁assessed	-8.68087
▁them	-8.68158
▁features	-8.68196
▁resulting	-8.68538
▁fold	-8.68556
▁amino	-8.68825
▁61	-8.68879
▁limited	-8.69044
▁cellular	-8.69059
▁infected	-8.69132
▁include	-8.69157
▁median	-8.69214
▁people	-8.69292
▁step	-8.69342
▁02	-8.69593
▁full	-8.6973
▁pathways	-8.70077
▁maximum	-8.70091
▁tests	-8.70118
▁symptoms	-8.70131
▁measurements	-8.70137
▁processes	-8.70236
19	-8.70374
▁cycle	-8.70379
▁paper	-8.70463
▁proposed	-8.7049
▁identify	-8.70624
▁source	-8.70791
▁absence	-8.70827
▁sp	-8.70854
▁diseases	-8.70875
▁knowledge	-8.70935
▁vitro	-8.71208
▁antibodies	-8.71272
▁trial	-8.71487
▁assessment	-8.7158
▁short	-8.71688
▁selection	-8.71692
▁outcomes	-8.71727
21	-8.71765
▁pattern	-8.71829
▁program	-8.71984
▁03	-8.72013
▁plants	-8.72015
▁98	-8.72309
▁influence	-8.72323
▁supported	-8.72396
20	-8.72437
▁intensity	-8.72575
▁green	-8.72904
▁muscle	-8.72945
▁pain	-8.73088
▁position	-8.73094
▁staining	-8.73329
▁secondary	-8.73519
▁lung	-8.73833
▁vivo	-8.73959
▁death	-8.74079
▁bone	-8.74122
▁six	-8.74375
▁mutations	-8.7451
▁trials	-8.74534
▁bp	-8.7458
▁whole	-8.74785
▁linear	-8.74812
▁carried	-8.74828
▁combination	-8.74838
▁direct	-8.75031
▁terms	-8.75042
▁blue	-8.75091
▁means	-8.7531
▁collection	-8.75441
▁73	-8.75443
▁78	-8.75489
▁04	-8.75502
▁suggested	-8.7563
▁report	-8.75741
▁mutant	-8.75813
▁76	-8.76063
▁patterns	-8.76086
▁taken	-8.76136
▁power	-8.76278
▁particular	-8.76492
▁rt	-8.7652
▁prevalence	-8.76534
▁measures	-8.76677
▁events	-8.76726
▁future	-8.76733
▁along	-8.76861
▁community	-8.76884
▁buffer	-8.76977
▁mortality	-8.77191
▁evaluated	-8.77237
▁section	-8.77245
▁pro	-8.77314
▁virus	-8.77355
▁outcome	-8.77414
▁structures	-8.77481
▁confirmed	-8.77623
▁examined	-8.77647
▁breast	-8.77949
▁74	-8.7801
▁complete	-8.78047
▁down	-8.7824
▁criteria	-8.78269
▁77	-8.78287
▁percentage	-8.7829
▁distance	-8.78297
▁much	-8.78304
▁chronic	-8.78324
▁components	-8.78408
▁hand	-8.78488
▁bio	-8.78509
▁good	-8.7878
▁approximately	-8.79221
▁matrix	-8.79254
▁97	-8.79266
▁regression	-8.79411
▁showing	-8.79428
▁rs	-8.79662
53	-8.79683
▁79	-8.79796
j	-8.79935
▁seen	-8.79973
▁71	-8.80027
▁iii	-8.80035
▁introduction	-8.80055
▁imaging	-8.80085
▁go	-8.80165
▁western	-8.80178
▁cause	-8.80222
▁note	-8.80274
▁real	-8.80291
▁sex	-8.80383
▁88	-8.80398
▁2007	-8.80434
▁isolated	-8.80446
▁variation	-8.80615
▁able	-8.80734
▁host	-8.80748
▁behavior	-8.80948
▁healthy	-8.81079
▁together	-8.81109
▁peak	-8.81118
▁hours	-8.81238
▁activities	-8.81354
▁compounds	-8.81467
▁measure	-8.81653
▁94	-8.81681
▁amount	-8.81735
▁version	-8.81855
50	-8.81874
▁suggesting	-8.81946
▁larger	-8.81948
▁functions	-8.82162
▁proliferation	-8.82176
▁86	-8.82362
▁indicates	-8.82395
▁investigated	-8.82651
▁recently	-8.82798
▁1371	-8.82846
▁lead	-8.82898
▁ct	-8.83192
▁protocol	-8.83458
▁83	-8.83472
table	-8.83625
▁84	-8.83726
▁variable	-8.83732
▁rats	-8.83758
▁directly	-8.8379
▁increases	-8.84103
▁strong	-8.84108
▁week	-8.84348
▁sequencing	-8.84473
▁bacterial	-8.84529
▁versus	-8.84657
▁93	-8.84725
▁89	-8.84774
▁central	-8.8479
▁finally	-8.84882
▁predicted	-8.85031
▁upon	-8.85039
▁side	-8.851
▁immuno	-8.85439
▁few	-8.85601
▁china	-8.85671
▁87	-8.85679
▁below	-8.85775
▁environment	-8.85896
▁lack	-8.86055
▁approved	-8.86129
▁task	-8.86175
▁multi	-8.86321
▁testing	-8.86364
▁92	-8.86632
▁indicating	-8.86788
▁evaluation	-8.872
▁fact	-8.87216
▁06	-8.87328
▁molecules	-8.87335
▁81	-8.87713
▁received	-8.87901
▁published	-8.87933
is	-8.88059
▁82	-8.8811
▁numbers	-8.88169
▁produced	-8.88214
▁what	-8.88639
▁literature	-8.88727
▁pd	-8.88896
▁natural	-8.88949
▁markers	-8.89015
▁old	-8.89037
▁regulated	-8.89059
▁combined	-8.89703
▁white	-8.89758
▁vector	-8.8978
▁best	-8.89809
▁highest	-8.89884
▁rather	-8.90025
▁severe	-8.90085
▁states	-8.90121
▁pi	-8.90139
▁pbs	-8.90224
▁especially	-8.90251
▁procedure	-8.90465
▁synthesis	-8.90501
▁affect	-8.90518
▁differentiation	-8.9053
▁affected	-8.9055
▁significance	-8.90605
▁designed	-8.90717
▁500	-8.9073
▁apoptosis	-8.90748
▁2006	-8.90778
▁relatively	-8.91072
▁measurement	-8.9115
▁relevant	-8.9129
▁diabetes	-8.91348
▁layer	-8.91455
▁2017	-8.91705
▁fluorescence	-8.91913
▁un	-8.91972
▁around	-8.9217
▁micro	-8.92175
▁background	-8.92572
▁recorded	-8.92698
▁next	-8.92767
▁center	-8.92844
▁assess	-8.93005
▁management	-8.93061
▁surgery	-8.93195
▁click	-8.93224
▁ch	-8.93397
▁duration	-8.93406
▁suggests	-8.93447
▁91	-8.93564
▁education	-8.93677
▁08	-8.9383
▁products	-8.94118
▁cost	-8.94281
▁processing	-8.9437
▁07	-8.9441
▁bacteria	-8.94671
▁top	-8.94887
▁statistically	-8.94905
▁adult	-8.94963
▁critical	-8.95083
▁representative	-8.95325
w	-8.95565
▁studied	-8.95623
▁panel	-8.95628
▁heart	-8.95675
▁release	-8.95687
▁interests	-8.95789
▁cluster	-8.95869
▁ma	-8.961
▁proportion	-8.96108
▁bar	-8.96237
▁kit	-8.965
▁laboratory	-8.96519
▁metabolic	-8.96717
ation	-8.96739
▁project	-8.96767
▁caused	-8.96825
▁ns	-8.96965
▁st	-8.96966
▁represents	-8.96983
on	-8.97095
▁gfp	-8.97183
▁history	-8.97215
▁ng	-8.97274
▁mutation	-8.97295
▁last	-8.97306
▁competing	-8.97535
▁consent	-8.97664
▁yes	-8.97679
▁men	-8.97761
▁fixed	-8.97763
▁reduce	-8.97771
▁improve	-8.98064
▁component	-8.981
▁stimulation	-8.98341
▁acute	-8.98434
25	-8.9844
▁class	-8.98787
▁tumors	-8.98813
▁database	-8.98913
▁pone	-8.99176
▁identification	-8.9919
▁contributions	-8.99589
▁hr	-8.99705
▁open	-8.99715
▁2005	-8.99988
▁location	-9.0004
▁environmental	-9.001
▁third	-9.00107
▁log	-9.00484
22	-9.00497
▁damage	-9.00623
▁prepared	-9.00665
▁despite	-9.00816
▁viral	-9.00817
▁her	-9.00848
▁regarding	-9.00938
▁having	-9.01092
▁novel	-9.0118
▁global	-9.01308
▁remains	-9.01777
▁drugs	-9.01803
▁cohort	-9.01991
▁cognitive	-9.02154
▁injury	-9.0217
▁activated	-9.02299
▁chemical	-9.02336
▁accuracy	-9.02373
▁structural	-9.02442
z	-9.02588
▁he	-9.02634
▁black	-9.02693
▁09	-9.02703
▁algorithm	-9.02827
▁learning	-9.0285
▁random	-9.02871
▁dr	-9.02913
▁degree	-9.03012
▁iv	-9.03204
▁pa	-9.03362
▁120	-9.03378
▁public	-9.0365
▁improved	-9.03669
▁help	-9.03793
▁map	-9.03937
▁application	-9.04076
▁2000	-9.04208
▁every	-9.04289
▁enzyme	-9.04572
▁particularly	-9.046
▁context	-9.0467
▁inhibitor	-9.05064
24	-9.0542
▁metabolism	-9.05552
27	-9.05563
▁established	-9.0576
▁countries	-9.06034
▁er	-9.06163
▁ad	-9.06213
▁understanding	-9.0625
▁essential	-9.06328
▁wide	-9.06395
▁genomic	-9.06502
▁visual	-9.06521
▁leading	-9.0663
▁until	-9.06638
▁correlated	-9.06641
▁quantitative	-9.06789
▁specifically	-9.06862
▁needed	-9.06926
▁nature	-9.07213
▁practice	-9.07698
▁clear	-9.07818
▁poor	-9.08006
▁administration	-9.08349
▁threshold	-9.08376
▁alone	-9.08404
▁hz	-9.08455
▁enhanced	-9.08535
▁se	-9.08682
▁inter	-9.08759
▁core	-9.08866
▁nuclear	-9.08877
▁play	-9.08922
▁peptide	-9.09175
▁capacity	-9.09305
▁mainly	-9.09459
▁access	-9.09541
▁signals	-9.09581
▁adjusted	-9.09586
▁http	-9.09637
▁his	-9.09702
▁insulin	-9.0974
▁sections	-9.09836
▁located	-9.10035
▁skin	-9.10145
▁resulted	-9.10168
▁inflammation	-9.10284
▁diet	-9.10689
▁extracted	-9.10733
▁screening	-9.10929
ers	-9.11253
▁mixed	-9.11371
▁gender	-9.11544
▁stem	-9.11597
▁exposed	-9.11639
▁original	-9.11704
▁figures	-9.11752
▁lipid	-9.11862
▁2004	-9.11912
▁room	-9.11914
▁spatial	-9.11954
▁assays	-9.11968
▁sampling	-9.12077
▁survey	-9.12081
▁0001	-9.12108
▁members	-9.1212
▁you	-9.12139
▁appropriate	-9.12238
▁promoter	-9.12465
▁strategy	-9.12509
▁memory	-9.12653
▁acids	-9.12737
▁generation	-9.12771
▁characterized	-9.12909
23	-9.12967
me	-9.13044
▁bias	-9.13055
ii	-9.13089
▁probability	-9.13103
▁ha	-9.13404
▁sem	-9.13479
▁services	-9.13618
▁evaluate	-9.138
▁action	-9.13824
▁daily	-9.13916
▁phenotype	-9.14192
▁read	-9.1421
▁view	-9.14272
▁series	-9.14418
▁incidence	-9.1466
▁substrate	-9.14691
▁parameter	-9.14722
▁space	-9.14787
▁necessary	-9.14966
▁provides	-9.14978
▁kinase	-9.15084
▁adults	-9.15128
▁classification	-9.15136
▁di	-9.15293
▁progression	-9.15363
▁induction	-9.15606
rs	-9.1567
▁linked	-9.15754
▁additionally	-9.15832
▁stable	-9.15874
▁mitochondrial	-9.15935
▁axis	-9.16208
▁bars	-9.16672
▁subsequent	-9.16695
um	-9.16712
▁marker	-9.16714
▁investigate	-9.17054
▁distinct	-9.17438
▁product	-9.17456
▁residues	-9.17465
▁chain	-9.17509
▁upper	-9.17518
▁transmission	-9.17606
▁injection	-9.17612
▁later	-9.17621
▁science	-9.17663
▁author	-9.17673
▁meta	-9.17701
▁la	-9.17757
▁therapeutic	-9.17794
▁phosphorylation	-9.17875
▁make	-9.18007
▁others	-9.18084
▁reports	-9.18206
▁dataset	-9.1823
▁similarly	-9.1827
▁th	-9.1838
▁focus	-9.18407
▁profile	-9.18444
▁resolution	-9.18619
id	-9.18702
▁generally	-9.18743
▁soil	-9.18788
▁bmi	-9.18859
▁strategies	-9.18893
▁hypothesis	-9.18919
▁1000	-9.19299
▁technology	-9.19314
▁treatments	-9.19348
▁occur	-9.19394
▁efficiency	-9.1945
▁half	-9.19476
▁child	-9.19771
▁modified	-9.19907
▁fe	-9.2003
▁media	-9.20129
▁importance	-9.20181
▁fat	-9.20189
▁scientific	-9.20214
▁females	-9.20252
ia	-9.203
▁unit	-9.2036
▁coli	-9.20401
▁cultured	-9.20464
▁majority	-9.20482
▁109	-9.20896
▁contact	-9.20975
▁interval	-9.20991
▁composition	-9.20994
▁account	-9.21084
▁oxygen	-9.21289
▁stained	-9.21299
▁declare	-9.21329
▁problem	-9.21337
u	-9.21508
▁constant	-9.21524
▁must	-9.21586
▁controlled	-9.2165
▁experience	-9.21659
▁indeed	-9.21832
▁fraction	-9.21837
▁longer	-9.21846
▁search	-9.21861
▁funding	-9.2204
▁sigma	-9.22071
▁internal	-9.22274
▁terminal	-9.22392
▁stages	-9.22454
▁150	-9.22516
▁school	-9.22522
▁approaches	-9.22708
▁tnf	-9.2281
▁receptors	-9.22822
▁finding	-9.22864
▁carbon	-9.22878
ity	-9.22908
▁gel	-9.2297
▁subject	-9.23074
▁contribute	-9.23274
▁cannot	-9.23362
or	-9.23386
st	-9.23449
▁nf	-9.23478
▁sensitive	-9.23505
at	-9.2354
▁poly	-9.23629
▁curve	-9.23738
▁anova	-9.23775
▁compound	-9.23799
▁uk	-9.23819
▁preparation	-9.23888
▁variants	-9.23999
▁variance	-9.24087
▁interestingly	-9.24109
28	-9.24113
▁efficacy	-9.24301
▁expressing	-9.24326
▁reverse	-9.24398
▁estimates	-9.24418
ca	-9.24443
▁off	-9.24566
▁input	-9.24608
▁diversity	-9.247
▁estimate	-9.24708
▁migration	-9.24884
▁si	-9.25007
▁accumulation	-9.25056
▁thank	-9.2515
▁head	-9.25173
▁confidence	-9.25241
▁motor	-9.25257
▁base	-9.2536
▁disorders	-9.25528
▁led	-9.25635
▁targets	-9.25691
26	-9.25693
▁300	-9.25924
▁deviation	-9.26003
▁2003	-9.26169
▁double	-9.26177
▁interventions	-9.26191
▁electron	-9.26213
▁extraction	-9.26277
38	-9.26303
▁moderate	-9.26367
▁exercise	-9.2655
▁degradation	-9.26575
▁mo	-9.26604
▁removed	-9.26668
▁transport	-9.26684
▁depression	-9.26707
▁problems	-9.26775
▁strength	-9.26989
▁young	-9.2701
▁males	-9.27116
▁germany	-9.27132
▁washed	-9.27228
▁domains	-9.2725
▁mental	-9.27267
▁strongly	-9.27363
▁consumption	-9.2744
▁decision	-9.27533
▁conclusion	-9.27621
▁failure	-9.27749
▁elements	-9.27846
▁detect	-9.27992
▁obtain	-9.28004
▁induce	-9.28071
▁cl	-9.28149
▁smaller	-9.28226
▁alcohol	-9.2839
▁represented	-9.28544
▁grade	-9.28571
40	-9.28754
▁ros	-9.28814
▁difficult	-9.2888
▁procedures	-9.28946
▁li	-9.28969
▁items	-9.28972
▁produce	-9.29023
▁onset	-9.29091
▁close	-9.29133
re	-9.29258
▁month	-9.2929
▁pc	-9.2932
▁ko	-9.29331
▁basis	-9.2934
▁stability	-9.2936
▁equation	-9.29376
▁hence	-9.29384
▁normalized	-9.29569
▁delivery	-9.29578
▁actin	-9.29724
▁air	-9.29759
▁done	-9.29761
▁incubation	-9.29792
▁older	-9.2991
▁ifn	-9.29945
▁sets	-9.29994
▁far	-9.30115
▁conflict	-9.30126
▁yield	-9.302
▁relationships	-9.30246
▁cardiac	-9.30354
▁primers	-9.30365
os	-9.30418
▁diagnostic	-9.30546
▁certain	-9.30554
▁transfer	-9.30643
▁cultures	-9.30663
30	-9.30771
ta	-9.30885
▁usually	-9.30962
▁infections	-9.31013
▁minutes	-9.31053
▁solid	-9.31081
▁responsible	-9.3117
▁continuous	-9.31195
▁os	-9.31217
▁unique	-9.31264
en	-9.31301
▁find	-9.31305
▁course	-9.31376
▁clusters	-9.31445
▁root	-9.31507
▁heat	-9.31522
▁alternative	-9.31672
▁reads	-9.31767
▁institute	-9.31839
▁yet	-9.31961
▁prediction	-9.32059
▁networks	-9.32238
▁regulatory	-9.32279
ally	-9.32374
▁elevated	-9.32477
▁intake	-9.3252
▁tb	-9.32628
▁resistant	-9.32679
▁allow	-9.32696
▁placed	-9.32797
▁conclusions	-9.32889
▁oral	-9.32909
▁article	-9.33054
▁almost	-9.33073
▁tree	-9.33093
▁middle	-9.33482
▁contains	-9.33485
▁ir	-9.33504
▁tool	-9.33523
▁ethics	-9.33551
▁excluded	-9.33601
▁mixture	-9.33626
▁pairs	-9.33717
▁follows	-9.33744
▁currently	-9.33763
▁respect	-9.33803
▁students	-9.33893
▁temporal	-9.34087
▁lc	-9.34167
▁extract	-9.3423
▁diameter	-9.34319
▁mode	-9.34331
▁contributed	-9.34423
▁once	-9.34582
▁making	-9.34845
▁transfected	-9.34879
▁leads	-9.34929
▁questionnaire	-9.34941
▁sensor	-9.35244
▁observations	-9.35268
▁towards	-9.35274
▁world	-9.35322
▁coefficient	-9.35337
▁spectra	-9.35391
▁mutants	-9.35398
▁grant	-9.35493
▁subsequently	-9.35564
▁inhibitors	-9.35591
▁igg	-9.35593
▁smoking	-9.35665
▁technique	-9.35751
▁observation	-9.35819
▁www	-9.35833
▁direction	-9.35845
▁potentially	-9.35861
▁abundance	-9.35943
▁isolates	-9.36035
▁techniques	-9.36044
able	-9.36056
▁questions	-9.36141
▁now	-9.362
▁methylation	-9.36223
▁achieved	-9.36363
▁clearly	-9.36381
▁profiles	-9.36421
▁act	-9.36465
▁throughout	-9.36585
▁unknown	-9.36656
▁intracellular	-9.36755
▁rat	-9.3683
▁macrophages	-9.36912
▁none	-9.36965
▁bi	-9.37084
▁feature	-9.37284
▁equal	-9.37324
▁specificity	-9.37395
co	-9.37482
▁2002	-9.37622
▁agreement	-9.37655
▁availability	-9.37721
▁useful	-9.3779
▁me	-9.37907
▁extent	-9.37996
▁except	-9.38067
▁underlying	-9.38084
▁oxidative	-9.38205
▁home	-9.3831
▁genotype	-9.38582
▁channel	-9.38616
▁enzymes	-9.38626
▁noted	-9.38627
▁color	-9.38699
▁repeated	-9.38725
▁band	-9.38823
▁fish	-9.38934
▁supporting	-9.38948
▁grown	-9.39183
▁minimum	-9.39199
ct	-9.39271
▁optimal	-9.39318
▁though	-9.3933
▁column	-9.39551
▁committee	-9.39612
▁mb	-9.39639
▁transition	-9.39693
▁simple	-9.39707
▁detailed	-9.39751
▁improvement	-9.3988
▁late	-9.40056
▁details	-9.40213
▁noise	-9.40255
▁birth	-9.4034
▁coding	-9.40378
▁forms	-9.40583
▁allele	-9.40624
▁neural	-9.40683
▁comparisons	-9.40744
▁dynamics	-9.408
▁limitations	-9.40911
▁vascular	-9.40944
▁occurred	-9.40947
▁medicine	-9.41027
▁nodes	-9.41192
▁summary	-9.41203
▁cortex	-9.41204
▁demonstrate	-9.41269
▁renal	-9.41352
▁sources	-9.41418
▁monitoring	-9.41444
▁attention	-9.41446
▁chromosome	-9.41561
▁comparing	-9.41588
▁node	-9.41593
▁back	-9.41618
▁force	-9.41681
▁formed	-9.41737
▁primer	-9.41927
▁publication	-9.41939
▁causes	-9.41986
▁event	-9.42185
34	-9.42216
▁bound	-9.42232
▁develop	-9.42239
▁participant	-9.42257
▁plates	-9.42409
▁stimuli	-9.42554
▁epithelial	-9.42592
▁uptake	-9.42721
▁microscopy	-9.42895
▁compare	-9.42982
▁occurs	-9.43034
▁developing	-9.43402
▁informed	-9.43539
▁400	-9.43579
▁guidelines	-9.43619
▁radiation	-9.43657
▁gc	-9.43667
▁associations	-9.43788
▁resources	-9.43795
▁reactions	-9.43875
▁seven	-9.43933
▁pregnancy	-9.43991
▁units	-9.44008
▁date	-9.4403
▁working	-9.44119
▁particles	-9.44154
ch	-9.44178
▁near	-9.44204
▁conserved	-9.44261
▁differential	-9.44335
▁eight	-9.44354
▁surgical	-9.44365
▁blot	-9.44369
▁snps	-9.44434
▁lateral	-9.44524
▁2001	-9.44533
▁rapid	-9.44604
▁phosphate	-9.44658
▁providing	-9.447
▁fully	-9.44718
▁take	-9.44723
▁fit	-9.44763
▁2018	-9.44793
▁physiological	-9.44798
▁curves	-9.44847
▁ab	-9.4487
▁lesions	-9.44878
▁exhibited	-9.45014
▁become	-9.45062
▁mirna	-9.45076
▁transcriptional	-9.45199
▁slightly	-9.45243
▁wall	-9.45292
▁little	-9.45311
▁shape	-9.45467
▁ion	-9.4554
▁service	-9.45542
▁examination	-9.45573
▁cu	-9.45578
▁healthcare	-9.45686
▁foundation	-9.45718
▁atp	-9.45765
▁validation	-9.45775
▁labeled	-9.45823
▁cut	-9.45995
▁remaining	-9.46047
▁categories	-9.46067
▁maternal	-9.46137
▁needs	-9.46198
▁already	-9.4636
▁purified	-9.46542
▁spectrum	-9.4668
▁allowed	-9.4672
as	-9.47092
▁setting	-9.47144
▁employed	-9.4715
▁focused	-9.47247
▁106	-9.47258
▁intra	-9.47285
▁depth	-9.47396
▁aged	-9.47399
▁variability	-9.47453
▁movement	-9.47513
▁contained	-9.47543
57	-9.4759
▁widely	-9.4761
man	-9.47703
▁ag	-9.47713
▁plate	-9.47732
▁targeted	-9.47792
▁recovery	-9.47908
▁simulation	-9.47914
▁agents	-9.48213
▁antigen	-9.48234
▁nano	-9.4831
ization	-9.48334
▁gas	-9.48361
▁sodium	-9.48446
▁speed	-9.48487
▁probe	-9.48502
▁question	-9.48504
▁dl	-9.4853
▁kb	-9.4854
▁peripheral	-9.48573
▁humans	-9.48747
▁crystal	-9.48827
▁commonly	-9.4883
ate	-9.48851
▁explained	-9.49064
▁targeting	-9.49073
▁block	-9.4915
▁place	-9.49195
▁considering	-9.49286
▁trans	-9.49334
▁evolution	-9.49496
▁reducing	-9.49511
▁generate	-9.49527
▁lps	-9.49577
▁thickness	-9.49584
▁syndrome	-9.49604
45	-9.49608
▁obesity	-9.49665
▁interpretation	-9.49692
▁south	-9.49701
▁posterior	-9.49727
▁perform	-9.49741
▁list	-9.49799
▁past	-9.49811
▁stroke	-9.49907
ness	-9.49932
▁plus	-9.5011
an	-9.50222
▁basal	-9.5028
▁implementation	-9.50388
▁plasmid	-9.50425
▁mirnas	-9.50472
▁tg	-9.5052
ra	-9.50722
▁external	-9.50723
▁calcium	-9.50784
▁alpha	-9.50945
▁stimulus	-9.50993
▁manner	-9.51079
ve	-9.51114
▁sc	-9.51239
▁plot	-9.51263
▁allows	-9.51282
▁statistics	-9.51292
▁sufficient	-9.51335
▁ap	-9.51337
▁cr	-9.51411
▁quantification	-9.51421
▁living	-9.51447
▁analysed	-9.51671
▁nd	-9.51686
▁neuronal	-9.51822
▁acquisition	-9.51887
ine	-9.51912
▁endothelial	-9.52005
▁manufacturer	-9.52038
▁steps	-9.52147
▁105	-9.52181
ac	-9.52192
▁correlations	-9.52201
▁id	-9.52346
▁classified	-9.52381
▁localization	-9.52523
▁online	-9.52566
▁hydrogen	-9.52702
▁angle	-9.52743
▁instead	-9.52753
▁gain	-9.52802
▁specimens	-9.5296
▁typical	-9.53241
▁reviewed	-9.5325
▁separate	-9.53264
▁en	-9.53331
▁possibility	-9.5338
▁investigation	-9.53394
▁includes	-9.53411
▁pr	-9.53414
▁mmol	-9.53427
▁replication	-9.53465
▁liquid	-9.53473
▁kidney	-9.53598
▁da	-9.53659
▁snp	-9.53662
▁dynamic	-9.53776
▁peptides	-9.53821
▁maintained	-9.53827
▁severity	-9.53942
▁ec	-9.54151
▁divided	-9.54179
▁earlier	-9.54224
31	-9.5427
▁dark	-9.54303
32	-9.54317
▁appears	-9.54382
▁respiratory	-9.54436
▁understand	-9.54453
▁costs	-9.54502
▁transcripts	-9.54563
▁height	-9.54617
▁coverage	-9.54688
▁hyper	-9.54768
▁called	-9.54772
▁true	-9.5497
▁explain	-9.55119
▁displayed	-9.55138
▁examine	-9.55159
▁basic	-9.55363
ns	-9.55377
▁ni	-9.55549
▁met	-9.5557
▁mechanical	-9.55636
▁119	-9.55641
▁bottom	-9.55723
▁just	-9.55799
▁metal	-9.55828
▁tools	-9.55893
▁variety	-9.56063
▁requires	-9.56073
▁magnetic	-9.56087
▁student	-9.56122
▁cytokines	-9.56173
ar	-9.56328
▁org	-9.56569
▁beta	-9.56571
▁inclusion	-9.56592
▁sleep	-9.56595
▁trend	-9.56604
▁molecule	-9.56683
▁institutional	-9.56843
▁forward	-9.56888
▁neutral	-9.56945
▁prevent	-9.56987
▁international	-9.5736
▁promote	-9.57379
▁acquired	-9.57517
▁typically	-9.57579
▁applications	-9.57583
▁datasets	-9.57597
▁ra	-9.57667
▁output	-9.57685
▁eye	-9.57715
▁morphology	-9.57774
▁device	-9.57805
▁contribution	-9.57949
▁families	-9.58055
▁technologies	-9.58204
▁complexes	-9.58322
▁250	-9.58409
▁entire	-9.58468
▁start	-9.58572
▁leaf	-9.58598
▁cdna	-9.58629
▁adverse	-9.58652
36	-9.58691
▁fluid	-9.58764
▁ar	-9.58793
▁pm	-9.58832
▁japan	-9.58951
▁missing	-9.59002
▁extracellular	-9.59042
▁consider	-9.59056
▁discussed	-9.59057
▁ratios	-9.59167
▁department	-9.59192
▁conventional	-9.59337
▁overexpression	-9.5942
▁inhibitory	-9.59467
▁disorder	-9.5949
▁nucleotide	-9.59496
▁mri	-9.59579
▁cholesterol	-9.59696
▁optical	-9.59732
▁require	-9.5979
▁parents	-9.59844
▁fatty	-9.60099
ized	-9.60123
▁regard	-9.60279
▁run	-9.60319
▁nc	-9.60486
▁frequently	-9.60699
▁intervals	-9.60757
▁mentioned	-9.60818
▁distributed	-9.60829
▁fast	-9.60852
▁roles	-9.60857
▁oil	-9.60858
▁partial	-9.6087
▁akt	-9.60908
▁ligand	-9.60974
▁iron	-9.61154
▁maps	-9.61203
▁origin	-9.61308
▁ethanol	-9.61308
▁anterior	-9.61388
▁ensure	-9.61408
▁researchers	-9.61432
▁comparable	-9.61579
▁injected	-9.61619
▁separated	-9.61716
01	-9.6179
▁cardiovascular	-9.62015
▁leaves	-9.62054
▁gp	-9.62126
▁behavioral	-9.62146
▁assembly	-9.62172
▁cc	-9.62184
▁methyl	-9.62208
▁stored	-9.62258
▁category	-9.62277
▁box	-9.62315
▁again	-9.62396
▁pair	-9.62524
▁phylogenetic	-9.62556
▁laser	-9.62562
▁relation	-9.62605
▁contain	-9.62684
▁chi	-9.62715
▁staff	-9.62719
▁safety	-9.62767
te	-9.6277
▁confirm	-9.62828
ma	-9.62918
▁onto	-9.6294
▁my	-9.62949
▁text	-9.62969
▁ref	-9.62976
▁choice	-9.62988
▁deletion	-9.63028
▁nmr	-9.63043
▁appear	-9.63073
▁existing	-9.63087
70	-9.63104
▁enriched	-9.63161
▁differ	-9.63189
▁count	-9.6326
▁prevention	-9.63308
▁written	-9.63383
▁positions	-9.63386
ion	-9.63418
▁fusion	-9.63429
▁benefit	-9.63435
▁md	-9.63555
33	-9.6365
▁shift	-9.63686
▁ten	-9.6383
▁approval	-9.6387
▁oh	-9.63892
▁square	-9.63899
▁remained	-9.63899
29	-9.63903
▁taking	-9.63987
▁encoding	-9.63991
▁chosen	-9.64009
▁chemotherapy	-9.64017
fig	-9.64025
▁reflect	-9.64061
▁sirna	-9.64126
▁characteristic	-9.64128
▁microscope	-9.64158
▁limit	-9.64282
▁anxiety	-9.64297
▁malaria	-9.64559
ne	-9.64564
▁similarity	-9.64638
yl	-9.64643
44	-9.64646
▁zero	-9.64716
▁raw	-9.6475
▁assigned	-9.64787
▁invasion	-9.64851
▁viability	-9.64894
▁ex	-9.64946
▁tgf	-9.65075
▁errors	-9.65108
▁carcinoma	-9.65173
▁recognition	-9.65184
▁pt	-9.65429
▁pe	-9.65557
▁nitrogen	-9.65569
▁communication	-9.65658
cl	-9.65774
▁frequencies	-9.6582
▁correct	-9.65894
▁altered	-9.65908
▁uv	-9.6593
▁face	-9.65957
▁np	-9.66056
▁plots	-9.66085
▁ic	-9.66187
▁aim	-9.66221
▁efficient	-9.66285
▁recombinant	-9.66313
▁seq	-9.6635
▁feedback	-9.66352
▁metastasis	-9.66353
▁united	-9.66362
▁own	-9.66363
▁vaccine	-9.6647
▁cat	-9.66529
▁genomes	-9.66716
▁parallel	-9.6684
▁bd	-9.66876
▁european	-9.66896
▁framework	-9.66901
▁transferred	-9.66961
ps	-9.66994
bl	-9.67029
▁organization	-9.67153
▁aspects	-9.67202
▁cycles	-9.6727
▁nt	-9.67326
▁seems	-9.67403
figure	-9.67492
▁income	-9.67552
▁yeast	-9.67579
▁sizes	-9.6761
▁dietary	-9.67662
▁recruitment	-9.67742
▁mn	-9.68045
▁administered	-9.68089
▁overnight	-9.68304
no	-9.68367
▁thermo	-9.68368
▁challenge	-9.68408
▁completed	-9.68471
▁randomly	-9.68501
▁complications	-9.68578
▁secretion	-9.68686
▁country	-9.68767
▁variant	-9.68797
▁financial	-9.68896
▁enrichment	-9.6891
▁completely	-9.68953
▁diagnosed	-9.68953
▁mapping	-9.69327
▁mi	-9.6935
▁depending	-9.69414
▁arm	-9.69416
▁candidate	-9.69446
▁thermal	-9.69455
▁involving	-9.69466
▁advanced	-9.69486
max	-9.69518
▁array	-9.69574
▁peaks	-9.69581
▁putative	-9.69587
▁alignment	-9.69615
▁participate	-9.69754
▁systematic	-9.69779
▁quantified	-9.69788
▁load	-9.69837
▁fa	-9.69882
▁cortical	-9.70023
▁selective	-9.7007
▁simulations	-9.70091
▁absorption	-9.70234
▁avoid	-9.70291
▁probably	-9.70308
▁she	-9.70366
▁demographic	-9.70382
▁art	-9.7048
▁organic	-9.70498
▁involvement	-9.70541
▁introduced	-9.70547
▁sa	-9.70582
▁stimulated	-9.70592
▁traits	-9.70677
42	-9.70747
▁pet	-9.70795
35	-9.7092
▁team	-9.70958
▁dm	-9.71002
▁subjected	-9.71022
▁yellow	-9.71116
▁settings	-9.71143
▁objective	-9.71311
▁predict	-9.71323
▁hypertension	-9.71377
▁motion	-9.7149
de	-9.71504
▁vehicle	-9.71619
di	-9.71621
▁commercial	-9.71721
▁repair	-9.7173
▁behaviour	-9.7175
▁sh	-9.7181
▁inhibited	-9.71882
it	-9.71928
▁km	-9.71939
▁systemic	-9.71964
▁microbial	-9.71975
▁stat	-9.71993
▁toward	-9.72005
▁amplification	-9.72011
▁qpcr	-9.72012
▁person	-9.72153
▁always	-9.72216
▁membranes	-9.72219
▁lowest	-9.72223
▁computed	-9.72253
▁dry	-9.72324
▁electronic	-9.72357
▁issues	-9.72411
▁sds	-9.72418
▁instance	-9.72422
▁endogenous	-9.72425
ant	-9.7244
▁users	-9.72538
▁solutions	-9.72544
▁exhibit	-9.72567
▁scan	-9.72578
▁toxicity	-9.72579
▁104	-9.72598
▁effectiveness	-9.72632
▁nor	-9.72697
▁plays	-9.72773
▁reason	-9.72794
▁rabbit	-9.72828
▁108	-9.72829
▁pulmonary	-9.72867
001	-9.7287
▁code	-9.72951
▁differentially	-9.72971
▁downstream	-9.73013
▁isolation	-9.73041
▁perceived	-9.73054
na	-9.73112
▁achieve	-9.73147
▁traditional	-9.73204
▁protection	-9.73204
▁vitamin	-9.73222
▁whose	-9.73281
▁address	-9.73313
▁dysfunction	-9.73346
▁tube	-9.73433
▁002	-9.73462
▁channels	-9.73469
▁doses	-9.73495
▁joint	-9.73502
▁saline	-9.73508
▁mt	-9.73609
▁125	-9.7372
▁economic	-9.73755
▁communities	-9.73823
▁scheme	-9.73845
▁supplemented	-9.73897
▁language	-9.73917
▁nevertheless	-9.73928
▁filter	-9.73983
▁remain	-9.7426
▁tlr	-9.74296
▁occurrence	-9.74319
▁tr	-9.7443
▁cold	-9.74455
▁rich	-9.74481
▁reporting	-9.74587
▁integrated	-9.74622
▁correction	-9.74672
▁collagen	-9.74699
▁loop	-9.74721
▁regulate	-9.74738
▁broad	-9.74851
▁immediately	-9.7493
▁inhibit	-9.74935
cs	-9.7507
▁latter	-9.75095
▁inc	-9.75134
▁equivalent	-9.75199
▁ev	-9.75258
▁extracts	-9.75325
bp	-9.75449
▁005	-9.75541
▁fc	-9.75669
▁loci	-9.75697
▁elisa	-9.75751
▁sum	-9.7579
▁nucleus	-9.75848
▁intermediate	-9.76044
▁turn	-9.76144
▁identity	-9.76165
▁feeding	-9.76225
90	-9.76299
▁gal	-9.76386
▁fisher	-9.76484
▁express	-9.76557
▁marked	-9.76625
▁cytokine	-9.76632
▁recommended	-9.76646
▁thereby	-9.76652
ian	-9.76668
▁description	-9.76688
▁br	-9.76701
▁mid	-9.76788
▁reached	-9.76826
▁item	-9.76838
▁genotypes	-9.76897
▁explore	-9.76907
▁identical	-9.76925
▁estimation	-9.76953
▁com	-9.77055
▁respective	-9.7707
▁affinity	-9.77103
▁native	-9.77128
▁ps	-9.77135
▁salt	-9.77161
▁rare	-9.77269
100	-9.77293
▁removal	-9.77364
▁reasons	-9.7743
▁egfr	-9.7746
▁clustering	-9.77514
▁false	-9.7756
▁absolute	-9.77586
▁nh	-9.77636
▁loading	-9.77751
▁1999	-9.77789
▁ranging	-9.77823
▁ac	-9.77986
▁nr	-9.77996
▁asked	-9.78016
▁theory	-9.78019
▁developmental	-9.78036
▁amplitude	-9.7804
min	-9.78042
▁tolerance	-9.78137
▁representation	-9.78162
▁cp	-9.78345
▁110	-9.7842
▁briefly	-9.78493
▁sf	-9.78817
▁invasive	-9.78828
▁gap	-9.78833
▁sexual	-9.78892
▁transgenic	-9.78955
▁ray	-9.78987
ated	-9.79043
▁enhance	-9.79045
▁locus	-9.79072
▁likelihood	-9.79079
▁mr	-9.79235
▁embryos	-9.79481
el	-9.79483
▁technical	-9.79497
▁knockdown	-9.7959
▁accordance	-9.79605
▁ring	-9.79609
▁million	-9.79611
▁policy	-9.79672
▁successful	-9.7971
▁medication	-9.79768
▁intestinal	-9.79806
▁locations	-9.7981
▁suitable	-9.79866
▁accurate	-9.7996
▁gradient	-9.79964
▁rank	-9.79994
▁tasks	-9.79998
▁dc	-9.80071
▁urban	-9.80099
▁agent	-9.80212
▁percent	-9.80287
le	-9.80384
▁pg	-9.80407
▁mol	-9.80457
▁107	-9.80483
▁balance	-9.80638
▁workers	-9.80646
▁mmp	-9.80939
▁ethical	-9.80969
▁benefits	-9.81058
▁starting	-9.81083
▁shared	-9.81105
▁metabolites	-9.81163
▁twice	-9.81254
▁instructions	-9.81381
▁viruses	-9.81382
▁rest	-9.81451
▁american	-9.81496
▁gm	-9.81512
▁clinic	-9.81538
▁great	-9.81707
▁bond	-9.81726
▁experienced	-9.81773
▁voltage	-9.8178
▁listed	-9.81809
▁heterogeneity	-9.81837
▁growing	-9.8185
▁matched	-9.81876
▁construct	-9.81919
▁adhesion	-9.8194
▁fed	-9.81963
▁driven	-9.82052
▁element	-9.82077
▁user	-9.82101
▁devices	-9.82117
▁implemented	-9.82197
▁live	-9.82209
▁fluorescent	-9.82233
ab	-9.82242
▁ga	-9.82272
▁minimal	-9.8234
▁programs	-9.82611
▁am	-9.8268
▁dimensional	-9.82701
▁reach	-9.82731
▁transcript	-9.82805
▁vi	-9.82851
▁interface	-9.82853
▁amounts	-9.82931
▁diverse	-9.82965
▁distributions	-9.82975
▁modification	-9.82988
▁caspase	-9.83055
▁centre	-9.83099
▁rad	-9.83139
▁fiber	-9.83158
▁van	-9.83164
▁extended	-9.83174
▁impaired	-9.83179
▁mc	-9.83186
et	-9.83281
▁tri	-9.83289
▁closely	-9.83303
▁chinese	-9.83307
▁determination	-9.83336
▁respondents	-9.83337
▁thought	-9.83385
▁milk	-9.83458
▁nerve	-9.83466
▁cancers	-9.83505
▁tumour	-9.83527
▁variations	-9.83621
▁seed	-9.83622
▁ht	-9.83672
▁max	-9.83677
▁transfection	-9.83689
▁initiation	-9.83722
▁give	-9.83741
ous	-9.83759
▁library	-9.8376
▁dominant	-9.83767
▁counts	-9.83772
▁mostly	-9.83809
▁integration	-9.83822
▁referred	-9.83921
▁wave	-9.8394
▁primarily	-9.84003
▁cf	-9.84111
▁particle	-9.84113
▁emotional	-9.84152
▁mild	-9.84185
▁abbreviations	-9.84252
▁presentation	-9.84294
▁consequently	-9.84328
pt	-9.84338
▁exact	-9.84404
▁interesting	-9.84411
▁describe	-9.84422
▁aldrich	-9.84501
▁personal	-9.84513
▁eu	-9.84564
▁predictive	-9.84577
▁magnitude	-9.84601
▁matter	-9.84663
▁motif	-9.84677
▁decreases	-9.84731
▁untreated	-9.84791
▁nacl	-9.84801
▁attributed	-9.84814
▁outside	-9.84916
▁validated	-9.84955
▁writing	-9.84963
▁robust	-9.85058
▁cs	-9.8516
▁odds	-9.85242
ts	-9.85244
65	-9.85275
▁fragments	-9.85284
▁plane	-9.85316
▁constructed	-9.85331
▁initially	-9.85384
▁translation	-9.85492
▁diluted	-9.85626
▁crucial	-9.85782
▁burden	-9.85789
▁fragment	-9.85993
▁ti	-9.86077
▁coefficients	-9.86214
▁parts	-9.86395
▁randomized	-9.86424
▁sense	-9.86427
▁diabetic	-9.86496
▁eq	-9.86665
▁participated	-9.86687
▁appeared	-9.86692
▁csf	-9.86695
60	-9.86699
▁link	-9.86979
▁concept	-9.86997
▁possibly	-9.87014
▁cox	-9.87147
▁substantial	-9.87157
ton	-9.8726
▁diffusion	-9.8727
▁103	-9.87271
▁velocity	-9.87343
▁classes	-9.87412
▁hcc	-9.87425
▁measuring	-9.87616
▁net	-9.87671
▁lesion	-9.87724
▁mono	-9.87742
▁page	-9.87742
▁atoms	-9.87856
▁deep	-9.87867
▁neuro	-9.87873
▁reactive	-9.87895
▁positively	-9.87903
▁graph	-9.87957
▁cyp	-9.87987
▁width	-9.88033
▁processed	-9.8804
▁purchased	-9.88063
▁definition	-9.88092
characterization	-9.88114
▁receiving	-9.8823
▁numerous	-9.8836
▁goal	-9.88376
ms	-9.88394
▁platform	-9.88403
▁replicates	-9.88535
▁ice	-9.88727
▁alterations	-9.88741
▁ge	-9.88742
▁prostate	-9.88805
▁minor	-9.88826
▁bc	-9.88846
▁regional	-9.88892
▁invitrogen	-9.88905
▁largely	-9.89018
▁gut	-9.8905
▁cv	-9.89058
▁periods	-9.89099
▁assumed	-9.89261
▁ne	-9.89334
▁hour	-9.89377
▁purpose	-9.89387
▁tc	-9.89445
▁electrode	-9.895
da	-9.89513
▁changed	-9.89569
▁film	-9.89631
▁phenotypes	-9.89712
▁fetal	-9.89741
▁charge	-9.89772
▁participation	-9.89987
▁em	-9.90124
▁words	-9.90137
▁chip	-9.90245
▁layers	-9.9034
▁transformation	-9.90397
▁subunit	-9.90432
▁pp	-9.90443
▁protective	-9.90521
▁separation	-9.90525
▁africa	-9.90619
▁issue	-9.90659
▁simulated	-9.90713
▁nk	-9.90734
▁know	-9.90735
▁copy	-9.90815
▁paired	-9.90822
▁easily	-9.90832
▁induces	-9.90868
▁behaviors	-9.9088
▁actual	-9.90944
▁nine	-9.90946
▁unclear	-9.90949
▁independently	-9.90969
▁zone	-9.91004
▁north	-9.9118
▁tm	-9.91242
▁nanoparticles	-9.91251
▁created	-9.91323
▁session	-9.91393
▁partially	-9.91421
▁1998	-9.91443
▁fl	-9.91499
▁weak	-9.9162
▁apoptotic	-9.91633
▁oxidation	-9.91659
▁synaptic	-9.91706
▁forest	-9.91874
▁tp	-9.91876
▁adjacent	-9.91877
▁rural	-9.91954
▁deficiency	-9.91977
▁varied	-9.92005
▁ser	-9.9206
▁maintenance	-9.92078
▁rice	-9.92178
▁mv	-9.92274
▁pb	-9.92396
▁mature	-9.92423
▁antioxidant	-9.92487
▁delay	-9.92493
▁maintain	-9.92649
▁exist	-9.92688
▁san	-9.92703
▁sensors	-9.92709
▁orientation	-9.92735
▁antibiotic	-9.92768
▁temperatures	-9.92913
▁transformed	-9.92926
▁para	-9.92993
▁cytometry	-9.93111
▁nuclei	-9.93133
▁frame	-9.93215
ga	-9.9326
▁semi	-9.93264
▁importantly	-9.93266
43	-9.93297
▁car	-9.93369
▁arrows	-9.93393
▁amplified	-9.93466
▁influenced	-9.93488
37	-9.93542
▁003	-9.9362
▁facilitate	-9.93673
▁bm	-9.93758
▁ions	-9.93789
▁organ	-9.93795
▁subset	-9.93798
▁success	-9.93917
002	-9.93959
▁wrote	-9.93982
▁gold	-9.93996
ds	-9.94048
▁erk	-9.94129
▁edge	-9.94189
▁display	-9.94212
ci	-9.94254
▁protocols	-9.94264
to	-9.94341
▁glass	-9.94346
▁representing	-9.94358
▁artery	-9.94378
ase	-9.94391
▁slow	-9.94393
▁fields	-9.94423
▁defects	-9.94446
▁dmso	-9.94517
▁donor	-9.94596
▁gi	-9.94622
▁why	-9.94653
▁emission	-9.94784
▁susceptibility	-9.94896
▁frequent	-9.94901
▁extensive	-9.95005
▁exon	-9.95027
▁deficient	-9.95043
▁impairment	-9.95072
▁autophagy	-9.95086
ur	-9.95112
▁colon	-9.95164
▁pf	-9.95261
▁weighted	-9.95263
▁sea	-9.95272
▁te	-9.95369
▁consists	-9.95413
▁bands	-9.95456
▁alleles	-9.95486
▁composed	-9.95511
▁doi	-9.95523
▁screen	-9.95579
▁hsp	-9.95602
▁cas	-9.95605
▁storage	-9.95652
▁restricted	-9.95711
▁beyond	-9.95757
▁chromatin	-9.95766
▁photo	-9.95848
▁object	-9.95864
▁rapidly	-9.9587
▁conjugated	-9.95914
▁successfully	-9.95978
▁comprehensive	-9.95981
▁coupled	-9.96037
▁probes	-9.96042
▁name	-9.96066
▁ip	-9.96143
▁ta	-9.96259
▁microarray	-9.96303
▁segment	-9.96346
▁synthesized	-9.96408
▁lymph	-9.96458
iv	-9.96465
ri	-9.96481
▁dorsal	-9.96497
se	-9.96507
▁expansion	-9.96538
▁articles	-9.96603
▁placebo	-9.96692
▁logistic	-9.96713
▁vertical	-9.96799
▁residue	-9.96813
▁consensus	-9.96819
ti	-9.96888
▁supplement	-9.96966
▁vaccination	-9.96988
▁connected	-9.97037
▁beneficial	-9.97049
▁chamber	-9.97118
▁analyze	-9.9714
▁df	-9.9727
▁separately	-9.97272
▁member	-9.97283
▁residual	-9.97359
▁corrected	-9.97381
▁bind	-9.9752
▁package	-9.97567
▁118	-9.97681
▁tris	-9.97758
▁records	-9.97856
▁myc	-9.979
▁ki	-9.9796
▁lab	-9.98021
▁advantage	-9.9806
▁inside	-9.98097
▁principal	-9.98116
41	-9.98183
▁examples	-9.98223
▁capture	-9.98239
▁fractions	-9.98265
▁con	-9.98304
▁overlap	-9.98369
▁household	-9.98435
▁sciences	-9.98584
▁substrates	-9.9859
▁vegf	-9.98592
▁multivariate	-9.98636
▁ba	-9.98654
▁discovery	-9.9866
▁applicable	-9.98744
▁regular	-9.98887
▁largest	-9.98917
▁resource	-9.9893
▁evolutionary	-9.99053
si	-9.99174
▁hf	-9.99293
▁get	-9.99304
▁sensory	-9.9932
▁rh	-9.99463
▁spinal	-9.99468
▁pulse	-9.99504
▁clinically	-9.99591
▁coated	-9.99605
▁hpv	-9.99613
▁pathogen	-9.99635
▁organisms	-9.99637
▁depends	-9.99654
▁lv	-9.99676
mo	-9.99824
▁signs	-9.99929
▁null	-10
ive	-10.0002
▁apparent	-10.0025
nd	-10.0028
▁upregulated	-10.0043
▁affects	-10.005
▁etc	-10.0051
▁itself	-10.0058
▁qualitative	-10.0059
ul	-10.0064
▁practices	-10.0066
▁parent	-10.0066
▁climate	-10.0068
cr	-10.0072
▁allowing	-10.0074
▁le	-10.0077
▁infants	-10.0082
▁polymer	-10.0082
▁hg	-10.0084
▁pca	-10.0088
▁extension	-10.0103
▁consisted	-10.0103
▁mda	-10.0105
▁hepatic	-10.0112
▁modifications	-10.0115
▁1997	-10.0118
▁plan	-10.0121
▁au	-10.0131
51	-10.0145
▁varying	-10.0146
▁reporter	-10.0147
▁gr	-10.0148
ha	-10.0155
▁modulation	-10.0158
mm	-10.0159
▁identifying	-10.0164
▁mitochondria	-10.0177
▁128	-10.0181
▁conversion	-10.0185
▁synthetic	-10.0186
▁polymerase	-10.019
▁barrier	-10.0191
▁gastric	-10.0192
▁suppression	-10.0198
▁interact	-10.0201
▁soluble	-10.0205
▁psychological	-10.0205
▁entry	-10.0206
▁scanning	-10.0209
▁released	-10.0211
▁nearly	-10.0213
▁reliability	-10.0214
▁biomarkers	-10.0215
▁statement	-10.0218
▁theoretical	-10.022
▁fresh	-10.0227
▁hoc	-10.0228
▁never	-10.0236
▁longitudinal	-10.0237
▁modeling	-10.0245
▁ltd	-10.0245
▁130	-10.0247
▁gray	-10.0248
▁situation	-10.0255
▁window	-10.0255
▁connectivity	-10.026
▁visible	-10.0261
▁hybrid	-10.027
▁zn	-10.0274
▁land	-10.0275
am	-10.0282
po	-10.0287
br	-10.0294
▁abundant	-10.0296
▁abnormal	-10.0297
▁pathological	-10.0303
▁supernatant	-10.0306
▁visit	-10.0314
▁enough	-10.0315
▁cre	-10.0322
▁metastatic	-10.0322
▁decline	-10.0328
▁af	-10.0334
▁par	-10.0341
▁morphological	-10.0342
▁600	-10.0347
mol	-10.0347
▁conflicts	-10.0354
▁efforts	-10.0355
▁influenza	-10.0358
▁negatively	-10.0364
▁180	-10.0371
▁producing	-10.0371
▁fibrosis	-10.0372
▁wound	-10.0372
▁planning	-10.0376
▁ground	-10.0377
▁exclusion	-10.0377
▁dilution	-10.0391
▁makes	-10.0391
▁trained	-10.0398
▁annual	-10.0402
▁recognized	-10.0406
▁aging	-10.0407
67	-10.0413
▁cord	-10.0414
▁your	-10.0421
▁prognosis	-10.043
48	-10.0433
▁directed	-10.0435
▁vectors	-10.0437
▁detail	-10.0443
▁complexity	-10.0445
▁forming	-10.0447
▁biosynthesis	-10.046
▁biomass	-10.0462
▁bovine	-10.0467
bi	-10.047
▁solvent	-10.0475
ae	-10.0482
▁biochemical	-10.0484
est	-10.0485
▁sec	-10.0486
▁otherwise	-10.0487
▁spread	-10.0494
ex	-10.0496
▁exchange	-10.0496
▁challenges	-10.0515
▁figs	-10.0516
▁calculate	-10.052
▁spin	-10.052
▁tables	-10.0526
▁superior	-10.0527
▁ho	-10.0532
▁db	-10.0537
▁parental	-10.0538
▁recruited	-10.0541
▁scales	-10.0544
▁pl	-10.0545
▁distal	-10.0553
▁harvested	-10.0556
▁simultaneously	-10.0558
▁calculation	-10.0562
▁skills	-10.0567
▁path	-10.0577
▁kept	-10.058
▁wnt	-10.0583
▁pure	-10.0587
▁template	-10.0597
▁ld	-10.0602
ba	-10.0602
▁asthma	-10.0607
▁tag	-10.0609
▁brown	-10.0612
▁promising	-10.0614
▁reading	-10.0615
▁algorithms	-10.0619
▁pathogens	-10.062
▁phases	-10.0621
▁od	-10.0623
▁reliable	-10.0624
▁dried	-10.0631
▁standards	-10.0631
▁adaptation	-10.0632
▁pan	-10.0632
▁environments	-10.0634
▁thin	-10.0634
▁limitation	-10.0648
ni	-10.065
▁repeat	-10.0653
▁methodology	-10.0658
▁monitored	-10.0666
▁coupling	-10.067
▁pseudo	-10.0671
▁inner	-10.0677
ler	-10.0678
▁schematic	-10.0686
▁occurring	-10.0694
▁larvae	-10.0697
cc	-10.0697
pa	-10.0698
▁abdominal	-10.0698
▁004	-10.0699
▁140	-10.0706
▁kda	-10.0708
▁shorter	-10.0712
▁cleavage	-10.0713
▁sessions	-10.072
▁illness	-10.072
ap	-10.0722
▁regulating	-10.0723
46	-10.0723
▁special	-10.0723
▁arabidopsis	-10.0729
▁dual	-10.0731
▁cap	-10.0736
▁blocks	-10.0736
▁rise	-10.0741
▁pooled	-10.0742
▁effectively	-10.0767
▁auc	-10.0771
▁perception	-10.0773
▁hla	-10.0773
▁fruit	-10.0773
▁ovarian	-10.0777
▁mothers	-10.0792
▁adaptive	-10.0793
▁receive	-10.0794
son	-10.0797
▁genus	-10.0803
▁recurrence	-10.0803
▁antibiotics	-10.0806
ter	-10.0813
39	-10.0817
▁cg	-10.0821
▁tract	-10.0833
▁rf	-10.0836
▁reduces	-10.0842
▁african	-10.0878
▁hospitals	-10.0888
▁recommendations	-10.089
▁facility	-10.0893
▁urine	-10.0897
▁explored	-10.0907
▁funded	-10.0909
▁absent	-10.0914
▁neuron	-10.0917
▁soft	-10.0919
47	-10.0929
▁composite	-10.0934
▁documented	-10.0934
▁segments	-10.0941
▁rr	-10.0942
ko	-10.0943
▁reagent	-10.0951
▁ranged	-10.096
▁surrounding	-10.0966
▁histone	-10.0976
rd	-10.0978
003	-10.0978
▁fibers	-10.0979
▁prognostic	-10.0981
▁parasite	-10.0984
▁operation	-10.0987
▁infectious	-10.0993
ie	-10.1004
▁electro	-10.1006
▁board	-10.1007
▁too	-10.1008
▁assistance	-10.1008
▁hd	-10.1009
▁distances	-10.1013
▁bl	-10.1015
▁vary	-10.1032
▁notably	-10.1038
▁trees	-10.1038
▁utilized	-10.1041
▁luciferase	-10.1041
▁facilities	-10.1042
56	-10.1046
▁sn	-10.1048
▁cervical	-10.1049
▁extra	-10.1049
▁col	-10.1068
tic	-10.1078
▁namely	-10.1083
vi	-10.1084
▁coronary	-10.1103
▁clones	-10.1106
▁define	-10.1106
▁sm	-10.1108
▁dependence	-10.1109
▁ed	-10.1116
▁standardized	-10.1116
▁beam	-10.1136
▁crc	-10.1154
▁hs	-10.1155
▁es	-10.1158
▁mother	-10.1161
ene	-10.1167
▁adolescents	-10.1168
▁ka	-10.117
▁sr	-10.1175
▁localized	-10.1175
▁video	-10.1176
▁module	-10.1182
▁cerebral	-10.1187
▁pancreatic	-10.1196
▁1996	-10.1207
▁underwent	-10.121
▁sampled	-10.1212
▁city	-10.1218
▁fine	-10.1219
▁reveal	-10.122
▁interviews	-10.1222
▁adherence	-10.1233
▁tip	-10.1236
▁hormone	-10.1239
62	-10.1246
▁horizontal	-10.1247
▁hypo	-10.1254
per	-10.1269
▁combinations	-10.1269
▁scenario	-10.127
▁physicians	-10.1278
▁depletion	-10.1278
▁proximal	-10.1295
▁improving	-10.1296
ij	-10.1302
▁116	-10.1304
▁atom	-10.1306
▁biology	-10.1311
▁precision	-10.132
▁filtered	-10.1323
▁nps	-10.1324
▁remove	-10.1326
▁shock	-10.133
▁computational	-10.1336
▁construction	-10.1337
▁web	-10.1338
▁deposition	-10.1339
▁corresponds	-10.1348
▁share	-10.1349
▁validity	-10.1354
▁nih	-10.1363
▁files	-10.1369
▁instrument	-10.1371
▁complement	-10.1371
▁government	-10.1371
▁create	-10.1375
▁spectral	-10.1377
▁reproductive	-10.1383
▁experiences	-10.1385
▁bcl	-10.1387
▁pathogenesis	-10.1388
▁failed	-10.1393
▁refinement	-10.1396
▁mp	-10.14
il	-10.1412
▁101	-10.1413
▁inhibits	-10.1413
▁spp	-10.1416
▁recombination	-10.142
▁involves	-10.1421
ir	-10.1434
▁tail	-10.1451
▁summarized	-10.1455
▁transient	-10.1456
ry	-10.1456
▁tf	-10.1459
▁pathology	-10.1461
▁computer	-10.1463
▁reflections	-10.1465
▁deaths	-10.1466
▁hcv	-10.1477
▁panels	-10.1479
▁cis	-10.148
▁006	-10.1483
▁115	-10.1488
▁111	-10.1488
▁routine	-10.149
▁phospho	-10.1494
nt	-10.15
▁accession	-10.1506
▁qrt	-10.1509
▁organs	-10.1526
▁observe	-10.1527
▁hypoxia	-10.1528
aa	-10.1532
▁society	-10.1534
▁promoting	-10.1553
▁consequences	-10.1554
acknowledgements	-10.156
▁histological	-10.156
▁consisting	-10.1568
▁toxic	-10.157
▁highlighted	-10.157
▁121	-10.1572
▁du	-10.1573
▁strand	-10.1573
▁cover	-10.1574
▁117	-10.1578
▁epi	-10.158
▁fungal	-10.1581
ol	-10.1583
▁interview	-10.1587
▁evident	-10.1588
▁decreasing	-10.1595
▁trait	-10.1599
▁man	-10.16
▁gave	-10.1607
49	-10.1608
▁annotation	-10.1609
▁capable	-10.1609
ment	-10.1611
dm	-10.1612
▁affecting	-10.1614
▁tau	-10.1614
▁ppm	-10.1615
ata	-10.1622
▁lost	-10.1629
▁adding	-10.1637
▁admission	-10.1641
▁constructs	-10.1645
▁rrna	-10.1647
▁super	-10.1647
▁oa	-10.1651
▁fr	-10.1654
▁started	-10.1655
▁treat	-10.1664
▁promotes	-10.1671
▁malignant	-10.1673
▁signalling	-10.1674
▁hard	-10.1678
▁consequence	-10.1684
▁phenotypic	-10.1697
▁melanoma	-10.1703
▁aimed	-10.1706
pro	-10.1711
▁myocardial	-10.1723
▁mscs	-10.1729
lo	-10.1731
▁colony	-10.1731
▁professional	-10.1734
▁plasmids	-10.1737
▁catalytic	-10.1739
▁susceptible	-10.1741
▁app	-10.1743
▁acetate	-10.1745
▁colleagues	-10.1747
▁hc	-10.175
▁regardless	-10.175
▁loaded	-10.1757
▁causing	-10.1757
▁mobile	-10.1768
▁spss	-10.1777
▁pregnant	-10.1778
▁oxide	-10.1778
▁rp	-10.1787
▁centrifuged	-10.1796
▁explanation	-10.1796
▁correspond	-10.1803
▁upstream	-10.1803
▁mammalian	-10.1804
▁beginning	-10.1809
▁adapted	-10.1812
▁confocal	-10.1816
▁fitness	-10.1824
ling	-10.1824
▁stronger	-10.1834
▁antimicrobial	-10.1841
▁uses	-10.1842
▁dimensions	-10.1845
▁establish	-10.1845
▁clone	-10.1851
▁prospective	-10.1854
▁digital	-10.1861
▁surfaces	-10.1862
▁roots	-10.1867
▁nutrient	-10.1868
▁adequate	-10.1872
▁besides	-10.1873
▁serve	-10.1873
▁outer	-10.1876
▁determining	-10.1878
▁postoperative	-10.188
▁therapies	-10.1882
▁guide	-10.1885
▁https	-10.1888
▁excellent	-10.1892
▁actions	-10.1892
▁covered	-10.1892
▁predictions	-10.1896
▁visits	-10.1897
▁regulates	-10.1906
ro	-10.1913
▁controlling	-10.1918
▁126	-10.1928
ph	-10.1932
lin	-10.1939
▁indirect	-10.1942
hi	-10.1952
▁let	-10.1956
▁plotted	-10.1961
pr	-10.197
▁formula	-10.1971
▁syn	-10.1976
63	-10.1977
▁fixation	-10.1985
▁auto	-10.1988
▁immunity	-10.1996
▁situ	-10.2003
▁blotting	-10.2004
▁neither	-10.2012
ax	-10.2016
▁insertion	-10.202
▁season	-10.2025
▁embedded	-10.2026
▁displacement	-10.2029
ip	-10.2036
▁008	-10.2039
▁obese	-10.2044
▁performing	-10.2046
▁surveillance	-10.2051
▁fibroblasts	-10.2053
▁retention	-10.2058
▁indicators	-10.2065
▁becomes	-10.2067
▁programme	-10.2069
▁sectional	-10.2073
▁fewer	-10.2075
▁arrow	-10.2075
▁indicator	-10.2082
▁methanol	-10.2084
▁el	-10.2088
μ	-10.2091
▁quite	-10.2096
▁aligned	-10.2107
▁vessels	-10.2123
▁mapped	-10.2125
▁sham	-10.2134
▁1995	-10.2134
▁ligands	-10.2139
▁canada	-10.2144
▁phenomenon	-10.2148
▁averaged	-10.215
▁frontal	-10.2156
▁sequenced	-10.2157
▁supply	-10.2163
▁ce	-10.2165
▁gh	-10.2171
▁record	-10.2177
▁differentiated	-10.2177
▁purification	-10.2182
▁129	-10.2182
▁pool	-10.2186
res	-10.2187
▁circulating	-10.2188
▁opposite	-10.2189
▁lineage	-10.219
▁west	-10.2204
▁chromosomes	-10.2204
▁rule	-10.2211
▁trauma	-10.2214
▁blast	-10.2216
ensis	-10.2216
▁intrinsic	-10.2223
ner	-10.2227
▁consistently	-10.2231
80	-10.2247
▁007	-10.2248
▁younger	-10.2252
▁illumina	-10.2259
▁discharge	-10.2261
▁dissolved	-10.2263
▁hip	-10.2269
ary	-10.2272
▁maximal	-10.2276
▁ideal	-10.2276
▁wang	-10.229
▁marrow	-10.2297
▁word	-10.2305
▁intact	-10.231
dr	-10.2313
▁functioning	-10.2316
▁cytoplasmic	-10.2319
▁blocking	-10.2324
▁cdc	-10.234
▁rv	-10.2344
▁122	-10.2344
▁des	-10.2344
▁160	-10.2345
ite	-10.2349
▁enhancement	-10.2358
one	-10.2359
▁102	-10.2363
ge	-10.2366
▁perspective	-10.2369
ability	-10.237
▁hcl	-10.2386
▁implicated	-10.2387
▁excess	-10.239
▁gamma	-10.2396
▁activate	-10.2398
▁irradiation	-10.2401
▁educational	-10.241
▁diagram	-10.242
▁chromatography	-10.2421
▁seeds	-10.2429
▁colonies	-10.243
▁protease	-10.2432
ak	-10.2432
▁easy	-10.2441
▁santa	-10.2443
▁dp	-10.2447
▁excitation	-10.245
▁resonance	-10.2452
▁protect	-10.2452
▁calibration	-10.2456
▁took	-10.2459
ist	-10.2462
▁assessing	-10.2465
▁mix	-10.2468
▁skeletal	-10.247
▁sw	-10.2471
▁hdl	-10.2476
▁considerable	-10.2477
▁recording	-10.2479
ot	-10.2503
▁spontaneous	-10.2506
ce	-10.2508
▁motifs	-10.2514
▁lacking	-10.252
▁sl	-10.2523
ad	-10.2533
▁restriction	-10.2534
▁lp	-10.254
▁mann	-10.2543
▁pathogenic	-10.2547
▁timing	-10.2549
▁im	-10.2552
be	-10.2553
▁electrical	-10.2556
▁hif	-10.2563
▁grey	-10.2563
▁gram	-10.2566
ium	-10.2571
▁microbiota	-10.2582
▁ds	-10.2588
▁select	-10.2588
▁fbs	-10.2591
▁claims	-10.2593
▁australia	-10.2595
▁ef	-10.2595
▁agar	-10.2603
▁movements	-10.2611
▁specimen	-10.2611
▁oct	-10.2611
▁hp	-10.2612
▁124	-10.2614
▁laboratories	-10.262
▁cy	-10.2628
▁college	-10.2632
▁conservation	-10.2632
ox	-10.264
52	-10.2642
▁appendix	-10.2643
▁mcf	-10.2645
▁applying	-10.2652
▁requirements	-10.2659
▁weights	-10.266
▁delayed	-10.2663
54	-10.2666
▁dye	-10.2674
▁ln	-10.2676
▁slope	-10.2676
▁neck	-10.2681
▁transplantation	-10.2685
▁eyes	-10.2686
▁analytical	-10.2687
▁concerns	-10.2693
▁databases	-10.2696
▁ones	-10.2699
▁nurses	-10.2701
▁surprising	-10.2708
▁contents	-10.2709
▁ways	-10.2714
▁heavy	-10.2715
97	-10.2719
005	-10.2721
▁appearance	-10.2723
▁po	-10.2726
▁frozen	-10.2727
▁blocked	-10.2732
▁round	-10.2735
▁wi	-10.2742
▁providers	-10.2762
▁illustrated	-10.2763
▁extremely	-10.2769
▁magnification	-10.2773
▁neurological	-10.2776
▁homeostasis	-10.278
▁optimization	-10.2785
▁manual	-10.2786
▁ldl	-10.2795
land	-10.2795
▁hb	-10.2798
▁iso	-10.2804
▁alter	-10.2812
▁aggregation	-10.2818
▁chains	-10.282
▁idea	-10.282
004	-10.2824
▁123	-10.2827
▁hypothesized	-10.2827
li	-10.2827
▁flux	-10.2827
▁portion	-10.2833
▁arterial	-10.2833
▁division	-10.2839
▁comparative	-10.2839
ley	-10.2841
▁calculations	-10.2842
▁ventricular	-10.2842
▁ep	-10.2845
▁ranges	-10.2846
▁encoded	-10.2849
▁centers	-10.285
▁lb	-10.2851
▁electrodes	-10.2861
▁aureus	-10.2863
▁cumulative	-10.2867
▁normally	-10.2869
▁revised	-10.2873
▁newly	-10.2879
▁interpreted	-10.288
75	-10.2888
▁barriers	-10.2889
▁integrity	-10.289
▁delivered	-10.2892
sp	-10.2898
▁changing	-10.2899
▁acc	-10.2907
▁009	-10.2907
▁predictor	-10.291
▁seem	-10.2913
▁bsa	-10.2914
▁assumption	-10.2916
so	-10.2917
▁obvious	-10.2917
▁retinal	-10.2919
▁ts	-10.2919
▁accordingly	-10.2926
▁subgroup	-10.2926
▁arg	-10.2926
▁tobacco	-10.2938
▁fundamental	-10.2942
▁pol	-10.2952
up	-10.2953
▁maturation	-10.2957
▁closed	-10.296
▁biofilm	-10.2963
▁lymphocytes	-10.2963
▁supports	-10.2963
▁criterion	-10.2967
▁private	-10.2972
▁lysates	-10.2973
▁dt	-10.2973
▁zinc	-10.2973
▁counted	-10.2983
fe	-10.2983
▁ventral	-10.2991
▁camp	-10.2991
▁igf	-10.2992
▁taxa	-10.2993
▁hippocampus	-10.2993
▁carrying	-10.2994
▁respond	-10.2994
▁understood	-10.3003
▁embryonic	-10.3003
▁prolonged	-10.301
▁reconstruction	-10.3011
▁draft	-10.3013
▁dashed	-10.3015
▁southern	-10.3015
▁concern	-10.3015
▁emergency	-10.3016
▁wheat	-10.3018
tr	-10.3025
pe	-10.3027
▁aqueous	-10.3031
▁sensing	-10.3036
▁themselves	-10.3037
▁implications	-10.3038
▁sperm	-10.3039
▁mw	-10.3041
▁peg	-10.3044
▁progress	-10.3045
▁conceived	-10.3051
▁elderly	-10.3052
▁investigations	-10.3061
▁ncbi	-10.307
▁mapk	-10.3076
package	-10.3078
▁row	-10.3082
▁114	-10.3093
▁precursor	-10.3093
▁serious	-10.3093
▁peri	-10.3098
▁boundary	-10.3102
▁necrosis	-10.3105
▁beads	-10.3107
▁macro	-10.3108
▁monoclonal	-10.3119
▁hplc	-10.3122
▁relevance	-10.3124
▁predictors	-10.3137
▁captured	-10.3146
ka	-10.3147
▁cytoplasm	-10.3149
▁demonstrating	-10.3153
87	-10.3154
▁sometimes	-10.3154
▁trends	-10.3156
▁stated	-10.3158
▁smooth	-10.3165
▁specified	-10.3174
▁contributes	-10.3178
▁india	-10.3187
▁murine	-10.3189
▁linkage	-10.319
▁800	-10.3192
▁breeding	-10.3197
▁became	-10.3203
▁cns	-10.3203
▁healing	-10.3205
▁fracture	-10.3211
▁mis	-10.3214
▁dd	-10.3214
▁acknowledge	-10.3216
▁risks	-10.3218
▁effort	-10.3219
▁kind	-10.3222
▁ras	-10.3226
▁gapdh	-10.3228
▁biopsy	-10.3228
▁professionals	-10.3228
▁regulator	-10.3233
▁hybridization	-10.3234
▁abnormalities	-10.3239
02	-10.3244
▁centrifugation	-10.3244
▁presents	-10.3246
ism	-10.3246
▁inducing	-10.3258
▁uncertainty	-10.3261
▁stop	-10.3265
ating	-10.3267
▁tt	-10.3268
ial	-10.3269
▁childhood	-10.3275
▁enable	-10.3285
▁127	-10.3287
▁pore	-10.3296
line	-10.3297
▁binds	-10.3298
▁defect	-10.3299
▁equations	-10.33
▁bonds	-10.3307
▁upregulation	-10.331
▁consideration	-10.3313
▁derivatives	-10.3315
▁addressed	-10.3323
▁112	-10.3324
ised	-10.3326
age	-10.3326
▁sugar	-10.333
▁filled	-10.3336
fs	-10.3336
▁egfp	-10.3337
▁utr	-10.3342
▁symptom	-10.3343
▁resection	-10.3346
▁preference	-10.3346
▁lane	-10.3348
▁interference	-10.3351
▁france	-10.3351
▁urinary	-10.3356
▁awareness	-10.3356
▁morbidity	-10.3357
▁matching	-10.3359
pp	-10.336
▁recovered	-10.3365
▁camera	-10.3373
fluorescence	-10.3373
▁limits	-10.3375
▁absorbance	-10.3376
▁fall	-10.3385
▁pearson	-10.3386
▁wavelength	-10.3395
▁tem	-10.34
▁existence	-10.3401
▁partner	-10.3406
▁machine	-10.3408
▁thyroid	-10.3408
▁province	-10.3409
▁113	-10.3422
▁east	-10.3425
gs	-10.3425
▁walking	-10.3432
▁sb	-10.3433
▁knockout	-10.3434
▁leg	-10.3434
600	-10.3439
▁council	-10.3441
▁potent	-10.3449
▁ccl	-10.3453
▁dis	-10.3454
▁detectable	-10.3456
▁1990	-10.3456
▁europe	-10.3457
▁rpm	-10.3457
▁mini	-10.346
▁kd	-10.3461
▁annotated	-10.3463
▁northern	-10.3463
▁operating	-10.3472
▁icu	-10.3473
▁chr	-10.3473
▁dementia	-10.3474
▁concerning	-10.3479
▁sign	-10.348
▁predominantly	-10.3483
▁visualized	-10.3484
▁replaced	-10.3485
▁slides	-10.3486
▁epigenetic	-10.349
▁english	-10.3498
▁worldwide	-10.3501
▁continued	-10.3501
▁race	-10.351
▁classical	-10.3511
▁muscles	-10.3513
▁rotation	-10.3515
▁labeling	-10.3522
▁physician	-10.3527
▁recurrent	-10.3529
▁greatly	-10.353
▁consecutive	-10.354
▁match	-10.3541
▁eeg	-10.3544
▁ultrasound	-10.3545
▁sod	-10.3545
▁tend	-10.3552
▁macrophage	-10.3554
▁equally	-10.3556
▁recall	-10.3557
▁fitting	-10.3559
▁editing	-10.3559
68	-10.3563
▁document	-10.3563
▁orange	-10.3566
ella	-10.3567
▁valuable	-10.3568
▁drinking	-10.3572
▁proportional	-10.3575
▁fp	-10.3579
▁disability	-10.358
▁flag	-10.3581
▁unable	-10.3594
▁dmem	-10.3595
ek	-10.3596
▁reasonable	-10.3602
▁suspension	-10.3603
▁satisfaction	-10.3606
tm	-10.3607
▁hu	-10.3608
▁faster	-10.3614
▁practical	-10.3614
▁dogs	-10.3618
▁monitor	-10.362
less	-10.3622
▁reviews	-10.3626
pi	-10.3633
▁platelet	-10.3634
la	-10.3638
▁ru	-10.3641
▁supplementation	-10.3642
▁peer	-10.3644
ens	-10.3645
ec	-10.3649
▁iqr	-10.3656
▁replacement	-10.3656
▁safe	-10.3656
▁unlike	-10.3657
▁pv	-10.3662
▁catenin	-10.3672
▁uc	-10.3677
▁gy	-10.3681
▁goat	-10.3691
▁isolate	-10.3692
▁silencing	-10.3699
fl	-10.37
▁films	-10.37
▁partners	-10.3701
▁volumes	-10.3702
▁infant	-10.3704
▁actually	-10.3705
▁bodies	-10.371
▁acts	-10.3715
▁equilibrium	-10.3717
▁maintaining	-10.3717
▁options	-10.3718
isation	-10.372
▁enzymatic	-10.3721
▁ministry	-10.3723
act	-10.3723
▁distinguish	-10.3732
▁indices	-10.3732
ies	-10.3736
▁edta	-10.374
▁disruption	-10.3743
▁initiated	-10.3746
▁river	-10.3748
▁building	-10.3753
▁reflected	-10.3756
▁nutrition	-10.377
ev	-10.3771
▁cb	-10.3789
▁substantially	-10.3792
gen	-10.3795
▁adopted	-10.3798
▁drawn	-10.3799
▁don	-10.38
▁transcriptome	-10.3802
▁pdf	-10.3809
▁lu	-10.3813
▁codes	-10.3814
▁brief	-10.3814
▁adjustment	-10.3815
▁preferred	-10.3816
▁codon	-10.3821
▁dental	-10.3823
▁suppressed	-10.3823
▁tagged	-10.3842
▁hi	-10.3842
▁embryo	-10.3843
im	-10.3846
▁neutrophils	-10.3846
▁objects	-10.3847
▁verified	-10.3849
▁instruments	-10.385
▁progressive	-10.3855
▁attached	-10.3858
▁perhaps	-10.3859
▁albumin	-10.3866
▁away	-10.3869
▁heterogeneous	-10.387
▁reagents	-10.387
▁feed	-10.3871
▁refer	-10.3874
▁rnai	-10.3877
▁nervous	-10.3878
▁mu	-10.3883
▁steady	-10.3884
▁branch	-10.3886
ag	-10.3888
▁grain	-10.3895
▁precise	-10.3897
▁deposited	-10.3901
▁overlapping	-10.3907
▁sk	-10.391
▁seeded	-10.391
▁fourth	-10.3911
▁option	-10.3914
▁135	-10.3917
▁demonstrates	-10.3919
▁persons	-10.3922
▁fu	-10.3923
▁believe	-10.3932
▁mic	-10.3935
▁fatigue	-10.3936
▁cytotoxicity	-10.3936
▁subunits	-10.394
▁focal	-10.3947
▁subtypes	-10.3948
▁triplicate	-10.395
▁think	-10.3953
▁socio	-10.3955
▁architecture	-10.3963
▁mobility	-10.3971
ted	-10.3971
izing	-10.3973
▁uniform	-10.398
▁limiting	-10.3981
▁deviations	-10.3983
▁cpg	-10.3991
▁trust	-10.3993
▁coordinates	-10.3994
oc	-10.3998
▁stock	-10.4
au	-10.4001
▁binary	-10.4004
▁synthase	-10.4013
▁mmhg	-10.4013
▁depend	-10.4018
oid	-10.4024
▁advantages	-10.4029
▁drop	-10.403
▁empirical	-10.403
▁parasites	-10.4031
▁interacting	-10.4031
chi	-10.4031
▁vp	-10.4034
▁shaped	-10.4035
▁concluded	-10.4037
▁retrospective	-10.4037
mann	-10.404
▁label	-10.4046
▁phosphorylated	-10.4047
▁bold	-10.4051
▁habitat	-10.4053
▁lipids	-10.4053
▁mar	-10.4054
▁supplemental	-10.4055
ana	-10.4061
▁fitted	-10.4061
▁ny	-10.4067
ina	-10.4069
▁secreted	-10.407
ins	-10.4071
▁inhibiting	-10.4072
▁limb	-10.4075
▁ischemic	-10.4081
▁influences	-10.4082
▁ongoing	-10.4083
bio	-10.4094
▁vessel	-10.4095
▁proper	-10.4107
▁evaluating	-10.4107
▁rb	-10.4114
▁differed	-10.4115
▁genbank	-10.4116
▁exception	-10.4116
▁sucrose	-10.4118
ai	-10.4127
▁running	-10.4128
sen	-10.4129
▁1994	-10.4129
▁sepsis	-10.4136
▁pass	-10.4138
▁drought	-10.4142
▁cavity	-10.4148
▁aspect	-10.4152
▁microglia	-10.4153
▁145	-10.4154
▁vein	-10.4154
▁optimized	-10.416
▁dehydrogenase	-10.4172
▁difficulty	-10.4184
▁marine	-10.4184
▁ve	-10.4184
▁decisions	-10.4186
▁comments	-10.4188
▁hek	-10.4191
idae	-10.4194
▁donors	-10.42
▁monocytes	-10.4201
▁quantify	-10.4204
▁crp	-10.4204
un	-10.4209
▁configuration	-10.421
fa	-10.4222
▁modes	-10.4224
▁coordination	-10.4225
▁smokers	-10.4225
▁bulk	-10.4231
▁hydroxy	-10.4232
▁involve	-10.4235
▁formal	-10.4236
▁substitution	-10.4237
▁kinetics	-10.4242
200	-10.4242
▁cultural	-10.4244
▁utilization	-10.4246
▁effector	-10.4256
▁mhz	-10.426
▁circles	-10.4261
▁takes	-10.4272
▁assume	-10.4277
▁pharmacological	-10.4282
▁scoring	-10.4286
86	-10.429
▁fever	-10.429
▁geometry	-10.429
▁polymorphism	-10.4303
▁angles	-10.4315
▁va	-10.4317
▁dead	-10.4318
▁bearing	-10.4318
▁persistent	-10.4319
▁fungi	-10.4323
▁elevation	-10.4324
▁intensive	-10.4324
▁angiogenesis	-10.4325
▁aid	-10.4332
▁adsorption	-10.4332
con	-10.4334
▁principle	-10.434
▁pairwise	-10.4355
sis	-10.4362
▁inoculated	-10.4366
▁purposes	-10.4368
▁tubes	-10.4369
▁tyrosine	-10.437
▁eligible	-10.4375
▁glutamate	-10.4376
ide	-10.4378
▁whitney	-10.4387
▁virulence	-10.439
▁medial	-10.4393
▁converted	-10.4394
▁hot	-10.4409
▁check	-10.4411
▁gst	-10.4412
▁accompanied	-10.4417
▁district	-10.4419
▁powder	-10.4421
▁simply	-10.4421
▁knee	-10.4427
▁qiagen	-10.4431
▁improvements	-10.4432
▁colorectal	-10.4433
▁acting	-10.4443
▁somatic	-10.4443
▁fear	-10.4449
▁academic	-10.4451
▁ages	-10.4451
▁hippocampal	-10.4454
▁copies	-10.4457
▁sv	-10.4457
▁america	-10.4458
▁tuberculosis	-10.447
▁enrolled	-10.4471
▁ly	-10.4472
▁brazil	-10.4474
▁pilot	-10.4477
▁bilateral	-10.4478
▁neonatal	-10.4478
▁sterile	-10.4478
▁surveys	-10.4478
▁depicted	-10.4483
▁reflects	-10.4486
▁thick	-10.449
▁radical	-10.4495
55	-10.4497
▁notch	-10.45
▁op	-10.4501
▁resolved	-10.4504
▁ck	-10.4505
▁percentages	-10.4522
▁hsa	-10.4526
cu	-10.4531
histochemistry	-10.4532
▁attachment	-10.4533
▁ppar	-10.4533
▁degrees	-10.4533
▁disc	-10.4535
▁island	-10.454
▁contamination	-10.4543
▁insight	-10.4547
▁responsive	-10.4551
▁zhang	-10.4553
▁drosophila	-10.456
▁poorly	-10.4564
▁fgf	-10.4565
▁spleen	-10.4572
▁146	-10.4574
▁visualization	-10.4574
▁dendritic	-10.4579
▁fm	-10.4579
▁antigens	-10.4584
▁lm	-10.4589
▁ss	-10.4595
▁rm	-10.4595
▁hydrophobic	-10.4596
▁night	-10.4602
▁eg	-10.4605
▁former	-10.4606
▁hela	-10.4607
▁offspring	-10.4607
▁put	-10.4609
▁numerical	-10.4622
▁accepted	-10.4625
▁call	-10.4629
▁endo	-10.463
▁dimension	-10.4632
▁stay	-10.4643
▁discrimination	-10.4646
88	-10.4649
▁scored	-10.4649
▁179	-10.465
▁resting	-10.465
▁translocation	-10.4651
▁copd	-10.4657
▁contributing	-10.4658
▁sustained	-10.466
▁exp	-10.4662
mer	-10.467
▁participating	-10.4673
▁propose	-10.4673
59	-10.468
▁sound	-10.468
▁libraries	-10.4687
▁ecological	-10.469
rt	-10.4697
ari	-10.4698
mi	-10.4702
▁tracking	-10.4707
▁lin	-10.4709
▁built	-10.4712
▁property	-10.4714
71	-10.4716
▁difficulties	-10.472
▁ft	-10.472
▁ob	-10.4726
▁assessments	-10.4728
▁exists	-10.4728
▁preliminary	-10.4728
▁dcs	-10.4735
▁cn	-10.4735
▁dapi	-10.4736
▁innate	-10.4759
▁undergo	-10.476
ron	-10.476
ier	-10.4766
▁yielded	-10.4766
▁novo	-10.4766
▁psychiatric	-10.4772
▁compliance	-10.4775
ei	-10.4779
▁nutritional	-10.4786
▁yields	-10.4791
▁bladder	-10.4793
▁mhc	-10.4794
▁causal	-10.4796
▁auditory	-10.48
▁su	-10.4804
▁cohorts	-10.4805
▁133	-10.4805
▁expanded	-10.4807
▁emt	-10.4809
bo	-10.4813
cd	-10.4818
▁slight	-10.4827
▁challenging	-10.4828
▁foods	-10.4828
▁opportunity	-10.4831
▁fasting	-10.4832
▁lysis	-10.4834
▁arrest	-10.4835
61	-10.4836
293	-10.4836
▁expect	-10.4841
▁crude	-10.4845
▁ver	-10.485
▁biomarker	-10.4852
▁intensities	-10.4855
net	-10.4874
▁law	-10.4875
▁offer	-10.4875
▁clade	-10.4875
▁overcome	-10.4875
▁ku	-10.4877
▁roche	-10.4878
▁moving	-10.4881
▁xi	-10.4882
▁born	-10.4885
az	-10.4885
▁tailed	-10.4891
▁elife	-10.4891
▁electrophoresis	-10.4892
▁margin	-10.4894
▁helped	-10.49
▁acknowledgments	-10.4906
ty	-10.4907
▁transduction	-10.4916
▁cam	-10.4918
▁extreme	-10.4933
▁unlikely	-10.4937
▁minute	-10.4941
▁scenarios	-10.4941
▁comprised	-10.4951
dc	-10.4952
▁flies	-10.496
▁137	-10.4961
▁cfu	-10.4964
▁oc	-10.4971
ula	-10.4971
▁assisted	-10.4972
▁consistency	-10.4974
▁bleeding	-10.4974
▁medications	-10.4983
▁cvd	-10.4985
▁epithelium	-10.4987
▁scans	-10.4997
▁driving	-10.5004
em	-10.5005
▁plastic	-10.5008
▁subjective	-10.5013
▁tetra	-10.5015
▁overweight	-10.5016
95	-10.502
▁lengths	-10.5024
▁house	-10.503
▁apical	-10.5031
▁regeneration	-10.5034
▁155	-10.5039
▁characterize	-10.5041
73	-10.5042
▁adipose	-10.5043
▁accurately	-10.5045
▁isoforms	-10.5047
▁zebrafish	-10.505
▁situations	-10.5053
▁019	-10.5056
▁2019	-10.5057
▁018	-10.5059
▁quantity	-10.506
▁downregulated	-10.5061
▁meet	-10.5068
▁proportions	-10.5072
▁apply	-10.5074
▁washing	-10.5079
▁hbv	-10.5082
▁complementary	-10.5083
▁mutated	-10.5083
▁radio	-10.5084
▁geo	-10.5086
▁artificial	-10.5087
▁helpful	-10.5088
▁impacts	-10.5089
▁questionnaires	-10.5089
▁splicing	-10.509
ki	-10.5092
▁structured	-10.5097
▁mf	-10.5101
▁belonging	-10.5102
▁mtor	-10.5102
▁1993	-10.5103
▁incorporated	-10.5106
▁engineering	-10.5106
▁overview	-10.5111
ks	-10.5112
▁hierarchical	-10.5123
▁gl	-10.5125
▁master	-10.5127
▁divergence	-10.5128
▁gives	-10.5131
▁valid	-10.5138
▁atcc	-10.5139
▁insufficient	-10.514
▁fo	-10.5145
ting	-10.5147
▁ultimately	-10.5148
▁foot	-10.5149
▁demand	-10.5149
▁nb	-10.5155
ea	-10.5156
▁activating	-10.5156
▁insights	-10.5164
▁homologous	-10.5169
▁clearance	-10.517
▁competition	-10.5175
▁descriptive	-10.518
hs	-10.5182
▁infiltration	-10.5184
▁views	-10.5191
▁atomic	-10.5194
▁publisher	-10.5197
▁mh	-10.5198
▁egg	-10.52
▁raised	-10.5201
▁dx	-10.5203
▁017	-10.5206
▁combining	-10.5209
▁symmetry	-10.5209
▁cdk	-10.5211
▁cytotoxic	-10.5212
▁format	-10.5214
▁generating	-10.5215
▁markedly	-10.5216
▁grants	-10.522
▁assuming	-10.5238
▁discuss	-10.524
▁polar	-10.5241
▁lr	-10.5242
ize	-10.5245
▁necessarily	-10.5246
▁detector	-10.5247
▁138	-10.5252
fc	-10.5257
▁switch	-10.5258
300	-10.5259
▁subtype	-10.5269
▁apart	-10.527
ls	-10.5273
▁presenting	-10.5277
▁sox	-10.5292
▁chest	-10.5294
▁carrier	-10.5299
ho	-10.5299
▁ecm	-10.5301
▁univariate	-10.5306
▁squares	-10.5309
▁decades	-10.5315
▁split	-10.5318
rin	-10.5319
▁spectrometry	-10.532
op	-10.5322
▁emerging	-10.5329
▁nursing	-10.5329
▁phage	-10.533
▁plasticity	-10.5333
▁individually	-10.5336
▁qtl	-10.5337
▁meaning	-10.5339
▁candidates	-10.534
▁py	-10.534
▁transporter	-10.5346
▁retained	-10.5346
ance	-10.5348
▁signature	-10.5348
▁minimize	-10.5351
▁spectroscopy	-10.5352
▁usage	-10.5355
▁immediate	-10.5359
▁cyclin	-10.5359
hr	-10.5362
ke	-10.5369
▁screened	-10.5369
▁defense	-10.5375
▁dh	-10.5376
▁reward	-10.5382
▁trace	-10.5386
▁rnas	-10.539
▁msc	-10.539
▁graphene	-10.5391
▁roc	-10.5397
09	-10.54
▁forces	-10.5401
▁pla	-10.5401
▁ultra	-10.5404
▁modules	-10.5404
▁tn	-10.5405
▁desired	-10.5406
▁repeats	-10.541
▁electric	-10.541
▁chen	-10.5424
▁vital	-10.5424
▁drive	-10.5446
▁cruz	-10.5448
▁decay	-10.545
▁pigs	-10.5454
▁sulfate	-10.546
▁grid	-10.5461
▁gradually	-10.5466
▁eating	-10.5467
▁precipitation	-10.547
▁conformation	-10.5471
▁ja	-10.5472
ov	-10.5477
549	-10.5483
ane	-10.5483
▁residents	-10.5489
▁birds	-10.549
▁spot	-10.5492
▁conclude	-10.5494
▁mac	-10.5498
▁136	-10.5506
▁ro	-10.5506
▁conduct	-10.5508
▁treating	-10.5511
▁cloned	-10.5513
▁biotechnology	-10.5514
▁translational	-10.5518
▁sin	-10.552
▁netherlands	-10.552
▁aids	-10.5521
▁viable	-10.5523
▁reaching	-10.5524
▁acetyl	-10.5527
▁preventing	-10.5532
▁dn	-10.5533
▁italy	-10.5534
▁178	-10.5536
▁cartilage	-10.5536
den	-10.5537
▁helix	-10.554
▁ago	-10.5545
▁route	-10.5548
the	-10.5551
▁polymorphisms	-10.5551
▁constitute	-10.5551
if	-10.5553
▁rd	-10.5556
▁pediatric	-10.5559
▁hair	-10.5563
▁edges	-10.5567
▁contacts	-10.5567
▁constraints	-10.5569
▁trigger	-10.5569
▁assembled	-10.5572
▁add	-10.5575
▁mab	-10.5577
▁industry	-10.5577
▁connections	-10.5581
▁cadherin	-10.5582
▁normalization	-10.5583
▁predicting	-10.5588
▁glycerol	-10.5598
▁correlate	-10.5608
▁ri	-10.5611
▁canonical	-10.5613
▁131	-10.5619
▁affiliations	-10.562
▁prominent	-10.5621
▁lactate	-10.5626
▁slices	-10.563
▁request	-10.5633
▁293	-10.5634
bs	-10.5637
▁cues	-10.5638
▁eggs	-10.5644
▁automated	-10.5648
ini	-10.5655
▁systolic	-10.566
▁asian	-10.5662
▁132	-10.5663
▁inverse	-10.5664
▁134	-10.5664
gastrointestinal	-10.5672
▁recordings	-10.568
▁sam	-10.5684
78	-10.5686
mt	-10.5689
fr	-10.5692
▁gs	-10.5693
▁depressive	-10.5694
▁toxin	-10.5701
▁permeability	-10.5702
▁sun	-10.5705
▁continue	-10.5705
▁170	-10.571
▁agilent	-10.5712
▁empty	-10.5716
▁critically	-10.5717
▁gps	-10.572
▁hl	-10.572
▁144	-10.5728
▁cx	-10.5735
▁val	-10.5738
▁spent	-10.5738
les	-10.574
rp	-10.5744
▁ll	-10.5748
▁rc	-10.575
▁139	-10.575
ence	-10.5751
▁undergoing	-10.5752
of	-10.5756
▁bis	-10.5757
ator	-10.5761
▁diffuse	-10.5766
▁metabolite	-10.5767
▁densities	-10.5769
▁peroxidase	-10.5772
▁lee	-10.5774
▁tubulin	-10.5775
▁rab	-10.5776
▁springer	-10.5776
▁pronounced	-10.5777
▁231	-10.5779
▁fdr	-10.578
▁connection	-10.5782
▁chloride	-10.5782
▁sch	-10.5783
▁regulators	-10.5793
▁engagement	-10.5798
▁papers	-10.5804
▁metastases	-10.5804
▁attenuated	-10.5807
amine	-10.581
▁phosphatase	-10.5811
▁experimentally	-10.5813
by	-10.5813
▁excessive	-10.5813
▁conversely	-10.5818
▁del	-10.5819
nn	-10.5826
▁geographic	-10.5832
▁sharing	-10.5832
▁stratified	-10.5835
▁static	-10.5837
dt	-10.5838
▁mesh	-10.5838
sc	-10.584
▁modulate	-10.5844
af	-10.5846
▁cxcl	-10.5854
▁latency	-10.5865
▁shear	-10.5867
▁spike	-10.5868
▁detecting	-10.5874
▁feel	-10.5879
▁compartment	-10.5885
ck	-10.5886
▁mer	-10.5886
▁examining	-10.5891
pc	-10.5892
▁replicate	-10.5894
▁shifts	-10.5895
del	-10.5897
▁flat	-10.5898
▁chromosomal	-10.5899
▁arthritis	-10.5903
osa	-10.5903
▁resuspended	-10.5914
▁universal	-10.5914
▁held	-10.5915
▁firing	-10.5917
▁lifestyle	-10.5919
▁cad	-10.5923
▁narrow	-10.5924
iii	-10.5925
▁agree	-10.5927
fi	-10.593
▁prevalent	-10.5931
▁ls	-10.5933
▁hospitalization	-10.5933
▁7554	-10.5936
hl	-10.5936
▁subsets	-10.5936
▁job	-10.5937
▁pk	-10.5938
▁gyrus	-10.5938
69	-10.5943
▁est	-10.5948
▁anatomical	-10.595
▁registered	-10.5951
▁clinicians	-10.5962
▁utility	-10.5965
▁inserted	-10.5974
▁investigating	-10.5984
▁distant	-10.5985
▁airway	-10.5997
▁bt	-10.5999
▁lt	-10.6013
▁bonferroni	-10.6013
▁tio	-10.6014
▁concentrated	-10.6015
▁refers	-10.6016
▁efficiently	-10.6017
▁infusion	-10.6023
▁vision	-10.6023
▁glu	-10.6024
▁goals	-10.6025
▁named	-10.6031
▁directions	-10.6032
▁mesenchymal	-10.6033
▁ig	-10.6033
▁mrnas	-10.6035
▁highlight	-10.6035
▁ccr	-10.6037
gl	-10.6042
▁analyzing	-10.6047
▁korea	-10.6049
▁serine	-10.6054
▁covariates	-10.6054
▁radiotherapy	-10.6055
▁attempt	-10.6058
▁bmp	-10.6065
▁lobe	-10.6069
▁completion	-10.6072
▁hepatitis	-10.6073
▁inferred	-10.6079
tt	-10.608
▁move	-10.6082
oh	-10.6082
▁equipment	-10.609
▁organism	-10.6097
▁ul	-10.6099
▁jurisdictional	-10.6099
▁chemicals	-10.6101
▁discovered	-10.6102
▁deficits	-10.6104
▁subgroups	-10.6105
mg	-10.6106
▁differentiate	-10.6115
▁extensively	-10.6116
▁fitc	-10.6119
▁digestion	-10.6121
▁aortic	-10.6129
▁twenty	-10.6136
▁gels	-10.6137
▁agarose	-10.6144
▁pdb	-10.6145
▁bayesian	-10.6146
▁buffered	-10.6149
▁sector	-10.6153
▁increasingly	-10.6157
▁substance	-10.6162
▁louis	-10.6168
▁lys	-10.6172
▁build	-10.6176
▁carriers	-10.618
▁1992	-10.618
▁elsewhere	-10.6181
▁gt	-10.6182
▁promoters	-10.6186
▁intron	-10.619
▁genotyping	-10.6193
▁axial	-10.6196
▁links	-10.6196
▁lf	-10.6197
▁schizophrenia	-10.62
▁148	-10.6206
ose	-10.621
▁gov	-10.6214
▁lineages	-10.6215
▁homo	-10.6224
▁denotes	-10.6224
▁winter	-10.6225
▁eastern	-10.6225
▁inputs	-10.623
▁leukemia	-10.6232
▁exogenous	-10.6236
▁thresholds	-10.6237
ent	-10.6237
▁colour	-10.6242
▁come	-10.6253
▁january	-10.6254
▁labelled	-10.6256
▁partly	-10.6258
▁vesicles	-10.6261
vs	-10.6262
▁tomography	-10.6263
▁potassium	-10.6266
▁fs	-10.6268
▁homology	-10.627
▁143	-10.6271
▁coa	-10.6271
▁wm	-10.6276
▁junction	-10.6276
▁tyr	-10.6278
wt	-10.628
rr	-10.629
▁astrocytes	-10.6292
▁pn	-10.6298
▁injuries	-10.63
▁carry	-10.6302
▁elongation	-10.6302
▁inactivation	-10.6302
tc	-10.6305
▁guidance	-10.6305
▁ischemia	-10.6307
▁inferior	-10.6309
▁acceptable	-10.6311
58	-10.6312
▁shrna	-10.6313
▁nrf	-10.6317
▁serial	-10.632
▁mal	-10.6321
▁columns	-10.6322
▁modern	-10.6324
▁dg	-10.6327
▁diffraction	-10.6329
▁throughput	-10.6332
▁insect	-10.6336
▁neo	-10.6336
▁polarization	-10.6337
▁terminus	-10.634
▁kinases	-10.6343
▁incomplete	-10.6343
ise	-10.6349
▁gaussian	-10.6352
▁front	-10.6358
▁orf	-10.6359
▁supernatants	-10.6359
▁additive	-10.6359
▁ubiquitin	-10.6361
▁giving	-10.6364
▁nsclc	-10.6367
▁coded	-10.6369
▁smad	-10.637
▁gland	-10.6382
▁requirement	-10.6383
▁submitted	-10.6383
▁answer	-10.6387
▁checked	-10.6387
▁widespread	-10.6389
▁creatinine	-10.6395
▁default	-10.6409
▁validate	-10.6413
▁exclude	-10.6416
▁crystals	-10.6423
▁triggered	-10.6426
▁distress	-10.6428
▁promoted	-10.6431
▁copper	-10.6445
▁prism	-10.6452
▁radius	-10.6454
▁phenyl	-10.6461
▁verbal	-10.6464
▁pneumonia	-10.6465
▁ever	-10.6465
▁chance	-10.6468
▁passive	-10.6472
ll	-10.6475
▁setup	-10.6479
go	-10.648
tion	-10.6481
▁shell	-10.6485
od	-10.6491
▁amp	-10.6492
▁return	-10.6495
▁trap	-10.6498
▁reader	-10.6499
ft	-10.6501
▁epidemiological	-10.6503
▁sas	-10.6504
▁spine	-10.6508
76	-10.6509
ah	-10.6516
▁manually	-10.6518
▁circular	-10.6523
▁saturation	-10.6525
▁vas	-10.6525
▁pin	-10.6526
▁enhancing	-10.6527
▁biosystems	-10.653
▁believed	-10.6534
▁exclusively	-10.6535
▁177	-10.6535
▁died	-10.6536
64	-10.6543
▁agricultural	-10.6544
▁fund	-10.6546
▁speech	-10.655
▁varies	-10.6552
gr	-10.6553
▁clustered	-10.6553
he	-10.6555
ities	-10.6555
▁adjuvant	-10.6555
ee	-10.6558
▁market	-10.6558
▁gb	-10.6566
▁picture	-10.6567
▁finger	-10.657
▁penicillin	-10.6587
▁scaffold	-10.659
▁pixel	-10.6592
▁correlates	-10.6593
▁rehabilitation	-10.6594
ell	-10.6595
▁correctly	-10.6599
▁cisplatin	-10.6601
▁socioeconomic	-10.6608
▁maize	-10.6616
▁hazard	-10.6616
▁tendency	-10.6624
▁equipped	-10.6632
▁nutrients	-10.6639
▁office	-10.664
▁450	-10.6643
▁kv	-10.6643
rc	-10.6645
▁inoculation	-10.6648
▁liu	-10.6659
▁alternatively	-10.6668
▁fn	-10.6669
▁ethnicity	-10.6672
▁abuse	-10.6677
▁girls	-10.6679
io	-10.668
▁title	-10.6681
▁served	-10.6682
rn	-10.6684
▁ihc	-10.6688
osis	-10.6694
▁remodeling	-10.6695
▁requiring	-10.6703
▁vol	-10.6704
▁homozygous	-10.6707
▁147	-10.6714
▁vaccines	-10.6716
ung	-10.6725
▁cysteine	-10.673
gi	-10.6735
▁mk	-10.6737
▁emerged	-10.6738
▁lungs	-10.6742
▁verify	-10.6743
72	-10.6745
▁scattering	-10.6747
▁households	-10.6749
▁reveals	-10.6751
▁grouped	-10.6754
▁dot	-10.6761
ht	-10.6762
▁var	-10.6765
▁extend	-10.6767
▁tif	-10.6767
▁ear	-10.6768
▁med	-10.6769
▁149	-10.6772
▁worse	-10.6773
▁circle	-10.6774
▁contrary	-10.6775
▁march	-10.6777
▁aggressive	-10.678
▁considerably	-10.6781
▁topic	-10.6782
▁implies	-10.6786
▁opening	-10.6794
▁promotion	-10.6795
006	-10.6795
▁cutoff	-10.6795
ik	-10.6797
▁seeking	-10.6801
▁profiling	-10.6804
sh	-10.6807
ut	-10.6808
▁june	-10.6811
▁readily	-10.6816
▁attitudes	-10.6817
mp	-10.6817
▁hearing	-10.6817
▁motility	-10.682
▁heating	-10.6825
berg	-10.6826
▁transcribed	-10.6828
▁schools	-10.6835
▁kinetic	-10.6837
▁flexible	-10.684
▁matrices	-10.6842
▁um	-10.6855
▁publications	-10.6856
▁letters	-10.6857
▁atg	-10.6861
▁proven	-10.6864
▁counter	-10.6868
▁seconds	-10.6871
▁sy	-10.6872
▁015	-10.6872
▁dots	-10.6874
▁wells	-10.6882
▁proved	-10.6882
▁focusing	-10.6887
ep	-10.6888
pl	-10.6895
▁haplotype	-10.6898
▁perfusion	-10.69
▁excluding	-10.6903
▁sought	-10.6905
▁generalized	-10.6905
▁700	-10.6906
▁sal	-10.6907
▁internet	-10.6907
▁grow	-10.6912
ef	-10.6915
▁references	-10.6919
▁collect	-10.6919
▁175	-10.6919
▁weekly	-10.692
▁spots	-10.6924
▁rep	-10.693
▁hosts	-10.693
▁nurse	-10.6931
▁mounted	-10.6931
▁ontology	-10.6931
96	-10.6936
▁meat	-10.6938
▁possess	-10.694
su	-10.6943
▁windows	-10.6944
▁apc	-10.6945
▁icd	-10.6946
▁asia	-10.6947
▁immunization	-10.6951
▁vo	-10.6952
▁hdac	-10.6953
ml	-10.6954
▁190	-10.6955
▁tea	-10.6963
▁luc	-10.6965
itis	-10.6965
oma	-10.6966
▁incorporation	-10.6969
▁rules	-10.6971
▁aims	-10.6972
▁mammals	-10.6973
▁expert	-10.6975
▁registration	-10.6976
▁segmentation	-10.6979
▁protected	-10.6979
▁abcam	-10.6981
▁thr	-10.6994
▁sequential	-10.6997
▁ethnic	-10.6999
▁german	-10.7002
▁mediate	-10.7002
▁genera	-10.7015
▁reactivity	-10.7019
ld	-10.7021
▁ox	-10.7021
▁cue	-10.7022
tri	-10.7028
▁rating	-10.7033
▁sci	-10.7036
ino	-10.7036
ey	-10.7038
▁arms	-10.7038
▁brca	-10.7041
▁arc	-10.7042
▁iu	-10.7045
▁chose	-10.7048
ng	-10.7055
120	-10.7058
▁redox	-10.7058
▁categorized	-10.7077
▁1991	-10.7078
▁nucleotides	-10.7081
▁latent	-10.7081
▁whilst	-10.7085
▁gg	-10.7089
▁wood	-10.7091
▁rarely	-10.7091
▁policies	-10.7098
▁downregulation	-10.7098
74	-10.7099
▁silica	-10.7101
▁works	-10.7103
▁tukey	-10.7105
histochemical	-10.7108
▁td	-10.7109
▁infarction	-10.7113
▁produces	-10.7114
hn	-10.7116
98	-10.7117
▁heterozygous	-10.712
▁accounted	-10.712
▁wa	-10.7121
▁principles	-10.7121
▁discussions	-10.7123
lan	-10.7126
▁advice	-10.7127
08	-10.7133
▁hydrolysis	-10.7133
▁attack	-10.7139
▁350	-10.7143
▁operative	-10.7144
▁emergence	-10.7146
▁simultaneous	-10.7147
▁felt	-10.7147
▁triple	-10.7148
▁014	-10.7152
▁cal	-10.7153
▁categorical	-10.7155
▁ckd	-10.7166
▁dox	-10.717
▁leu	-10.7172
▁track	-10.7181
▁motivation	-10.7184
▁want	-10.7188
▁oligonucleotide	-10.7189
▁fermentation	-10.7193
▁eventually	-10.7201
▁lifetime	-10.7204
▁aggregates	-10.7208
▁crop	-10.7208
▁somewhat	-10.7209
gene	-10.721
▁teeth	-10.7212
▁pump	-10.7225
▁lh	-10.7226
▁ends	-10.7228
▁probabilities	-10.723
▁consumed	-10.7234
▁graphs	-10.7238
▁patch	-10.7239
▁biosciences	-10.7243
▁elimination	-10.7245
▁016	-10.7252
▁regimen	-10.7261
▁bac	-10.7262
▁sheet	-10.7268
▁gag	-10.7274
▁slc	-10.7277
▁lysine	-10.7279
▁hfd	-10.7286
▁circulation	-10.7287
▁relaxation	-10.7287
om	-10.729
▁activates	-10.729
▁carbohydrate	-10.7293
▁rho	-10.7296
▁cattle	-10.7297
▁agonist	-10.7298
▁regarded	-10.7305
▁fmri	-10.7306
▁taxonomic	-10.7307
▁sirt	-10.7311
▁ai	-10.7313
▁quickly	-10.7314
▁hy	-10.7314
▁counting	-10.732
▁spring	-10.7325
lp	-10.733
ada	-10.7331
▁december	-10.7334
▁shanghai	-10.7338
▁moment	-10.7349
▁circuit	-10.7352
▁stimulate	-10.7353
▁alexa	-10.736
▁microorganisms	-10.737
▁488	-10.7371
▁insurance	-10.7372
▁expressions	-10.7372
▁alt	-10.738
pd	-10.7382
▁autoimmune	-10.7383
▁sma	-10.7385
▁exhibits	-10.7389
▁projects	-10.7393
03	-10.7398
▁behavioural	-10.74
▁av	-10.7401
▁aeruginosa	-10.7402
▁drafted	-10.7405
▁yl	-10.7408
▁graft	-10.7411
▁mind	-10.7412
our	-10.7417
ang	-10.7421
▁quantum	-10.7426
ura	-10.7426
85	-10.7433
▁modelling	-10.7433
▁aba	-10.7434
▁filtering	-10.7435
▁unless	-10.7448
▁trna	-10.745
▁plaque	-10.7451
▁allocation	-10.7453
▁revision	-10.7459
▁provision	-10.7469
99	-10.747
▁accessible	-10.7472
▁offered	-10.7473
▁tcr	-10.7481
▁isoform	-10.7482
▁statistic	-10.7482
▁knock	-10.7484
▁inactive	-10.7486
▁lag	-10.7487
▁lymphoma	-10.7498
▁dog	-10.75
▁exponential	-10.7502
▁assumptions	-10.7506
▁enhances	-10.7514
mb	-10.7515
bc	-10.7519
▁ib	-10.7523
▁edu	-10.7523
▁mark	-10.7524
▁arrays	-10.7525
▁dispersion	-10.7529
▁mes	-10.7537
▁hetero	-10.7538
▁branches	-10.7539
▁needle	-10.7544
▁seedlings	-10.7545
han	-10.7547
▁implant	-10.7548
79	-10.7552
▁mixing	-10.7553
▁july	-10.7554
▁240	-10.7556
▁greatest	-10.7558
▁opportunities	-10.7558
▁ter	-10.7561
▁capillary	-10.7563
▁025	-10.7564
db	-10.7567
▁asd	-10.7575
▁firstly	-10.7576
▁neutrophil	-10.7582
▁intestine	-10.7583
▁denote	-10.7584
ya	-10.7585
▁usual	-10.7586
▁lens	-10.7587
▁conductivity	-10.7592
▁suppress	-10.7592
▁calculating	-10.7593
▁substances	-10.7596
▁metrics	-10.7598
▁fluor	-10.7598
wi	-10.7598
▁sharp	-10.7598
▁cxcr	-10.76
▁nasal	-10.76
▁diastolic	-10.7603
▁142	-10.7606
▁comprising	-10.7609
ix	-10.761
▁travel	-10.7613
▁enables	-10.7615
▁hypotheses	-10.7617
np	-10.7618
▁cho	-10.7626
▁discrete	-10.7627
▁spain	-10.7635
▁transmembrane	-10.7636
▁012	-10.7639
▁relapse	-10.7641
▁park	-10.7642
▁mtt	-10.7643
▁glutathione	-10.765
lu	-10.7655
▁keep	-10.7672
▁reviewers	-10.7673
tz	-10.7673
▁adenocarcinoma	-10.7679
▁suspected	-10.7681
▁formulation	-10.7684
▁implantation	-10.7693
▁collaboration	-10.7699
▁modulated	-10.7701
vo	-10.7703
▁larval	-10.7703
▁star	-10.7707
tro	-10.7708
▁coating	-10.7713
▁165	-10.7713
▁graphpad	-10.7715
▁tension	-10.7716
▁selectivity	-10.7719
▁summer	-10.7723
▁geographical	-10.7725
▁evoked	-10.7726
▁whom	-10.7728
▁tooth	-10.7728
▁runs	-10.7735
▁mor	-10.7737
▁confirming	-10.7744
007	-10.7744
▁clock	-10.7745
▁glutamine	-10.7748
▁176	-10.7748
rv	-10.7748
▁enter	-10.7752
▁chemistry	-10.7757
▁feasible	-10.7766
▁describes	-10.7769
▁suspended	-10.7782
gt	-10.7788
▁retrieved	-10.7788
▁168	-10.7791
▁paradigm	-10.7796
▁triton	-10.7798
bb	-10.7806
▁dense	-10.7808
▁complicated	-10.7811
▁volunteers	-10.7812
ative	-10.7813
▁scope	-10.7814
▁urea	-10.7819
▁continuously	-10.782
▁worth	-10.7823
aria	-10.7824
▁seasonal	-10.7826
▁hh	-10.7828
ica	-10.783
▁boxes	-10.7833
▁cellulose	-10.7835
▁industrial	-10.7837
▁radial	-10.7837
ala	-10.7841
▁jnk	-10.7844
▁treg	-10.7847
der	-10.7849
▁meeting	-10.7852
▁bal	-10.7853
▁scaffolds	-10.7854
▁mellitus	-10.7854
▁establishment	-10.7855
▁hba	-10.7858
▁shi	-10.7862
▁pixels	-10.7866
▁describing	-10.7866
▁depleted	-10.7867
▁om	-10.7867
▁stiffness	-10.7868
wa	-10.7868
▁letter	-10.7868
▁amyloid	-10.7869
▁approximate	-10.787
▁polymers	-10.787
▁abc	-10.7875
▁pretreatment	-10.788
▁aromatic	-10.7881
nc	-10.7882
▁colonization	-10.7886
▁indication	-10.7887
▁pollen	-10.7891
▁offers	-10.7892
ber	-10.7897
▁incident	-10.7899
and	-10.7905
▁supervised	-10.7909
▁pig	-10.7909
▁intravenous	-10.7909
▁hemoglobin	-10.791
▁ethyl	-10.7911
▁vr	-10.7914
▁likewise	-10.7917
▁gd	-10.7917
sin	-10.7917
ani	-10.7918
▁gait	-10.7925
▁diagnoses	-10.7925
▁emotion	-10.7929
▁look	-10.7937
▁episodes	-10.7937
▁monthly	-10.7939
ib	-10.794
▁choose	-10.7942
▁boundaries	-10.7944
▁facial	-10.7945
81	-10.7946
▁charged	-10.7948
▁gsh	-10.7949
microenvironment	-10.795
▁ot	-10.795
▁lg	-10.7954
va	-10.7955
▁manipulation	-10.7956
▁humidity	-10.7958
▁observational	-10.7958
84	-10.7958
▁156	-10.7961
▁prevented	-10.7963
▁dia	-10.7968
▁preoperative	-10.797
▁cascade	-10.797
▁agreed	-10.797
▁tx	-10.7971
▁der	-10.7972
▁mpa	-10.7975
▁gestational	-10.7977
▁originally	-10.7978
▁wing	-10.7985
▁polyclonal	-10.7987
sa	-10.7988
▁bf	-10.7992
▁coordinate	-10.7993
▁mood	-10.7995
kin	-10.7997
▁fas	-10.8
ff	-10.8002
▁virtual	-10.8002
▁slice	-10.8005
ong	-10.8005
▁studying	-10.8006
▁favorable	-10.8012
▁flexibility	-10.8013
▁biomedical	-10.8017
▁tumours	-10.8022
▁unfortunately	-10.8023
▁aml	-10.8023
▁agency	-10.8026
▁011	-10.8027
▁oriented	-10.8028
▁determinants	-10.8029
▁game	-10.8031
▁planned	-10.8031
▁dosage	-10.804
▁proximity	-10.8041
▁rated	-10.8043
▁pas	-10.8046
▁propagation	-10.8052
▁germ	-10.8055
▁chicken	-10.8056
▁displays	-10.8057
▁streptomycin	-10.806
▁sent	-10.806
▁derivative	-10.8064
▁lot	-10.8073
ten	-10.8076
▁custom	-10.8078
mc	-10.808
▁genetically	-10.808
▁aware	-10.8082
▁prescribed	-10.8083
▁sera	-10.8085
▁pu	-10.8087
▁sheep	-10.8087
▁functionally	-10.8089
▁bed	-10.8089
▁bath	-10.809
▁kim	-10.8091
aceae	-10.8097
93	-10.81
▁anesthesia	-10.8105
▁antagonist	-10.8105
▁ses	-10.811
ay	-10.8111
do	-10.8113
cat	-10.8114
▁attempts	-10.8115
▁reflecting	-10.8116
▁han	-10.812
▁cycling	-10.812
▁ambient	-10.8121
▁switching	-10.8122
▁senescence	-10.8123
▁said	-10.8127
▁capability	-10.8132
▁kegg	-10.8134
▁facs	-10.8134
▁concepts	-10.8138
▁dopamine	-10.814
▁141	-10.8142
▁lattice	-10.8144
cp	-10.8144
▁alteration	-10.8146
▁constrained	-10.8147
▁delta	-10.815
▁owing	-10.8165
▁tap	-10.8165
▁closer	-10.8166
▁eif	-10.8168
▁mediators	-10.8168
▁benign	-10.8168
▁fly	-10.8175
▁guided	-10.8176
▁stream	-10.8176
▁ribosomal	-10.8177
av	-10.8177
▁plated	-10.8177
▁compression	-10.8179
▁ratings	-10.818
▁bank	-10.8184
▁ran	-10.8185
ans	-10.8187
▁feasibility	-10.8191
lab	-10.8192
▁ste	-10.8193
pv	-10.8196
▁sand	-10.8197
▁pad	-10.82
▁transform	-10.8201
▁evolved	-10.8201
▁silver	-10.8202
▁big	-10.8204
▁venous	-10.8206
▁geometric	-10.8215
▁parametric	-10.8215
▁competitive	-10.8221
▁exons	-10.8228
▁mos	-10.8228
▁atmosphere	-10.8231
▁021	-10.8231
▁rescue	-10.8232
▁158	-10.8233
▁integrin	-10.8234
▁predominant	-10.8235
▁starch	-10.8238
▁atpase	-10.8243
▁investigators	-10.8243
▁behind	-10.8245
▁fruits	-10.8253
▁tokyo	-10.8256
▁colored	-10.8261
▁batch	-10.8263
▁semantic	-10.8269
▁declaration	-10.827
▁implement	-10.8272
▁suppressor	-10.8275
▁cytochrome	-10.8276
▁confounding	-10.8278
▁leptin	-10.828
▁hrs	-10.8282
▁gen	-10.8285
▁fi	-10.8286
▁accumulated	-10.8287
▁vacuum	-10.8289
▁transverse	-10.8291
▁myo	-10.8292
tus	-10.8299
ogenic	-10.83
▁similarities	-10.8301
▁interacts	-10.8303
cm	-10.8304
▁crispr	-10.8305
▁010	-10.8306
▁objectives	-10.8308
▁recognize	-10.8313
▁conformational	-10.8325
▁ws	-10.8329
▁adhd	-10.8329
cer	-10.8333
▁013	-10.8335
▁scaling	-10.8339
▁159	-10.8342
▁sweden	-10.8343
▁pellet	-10.8345
bu	-10.8347
▁dramatically	-10.8354
▁hit	-10.836
▁april	-10.8363
▁mosquito	-10.8363
▁cys	-10.8365
450	-10.837
▁character	-10.8371
▁trajectory	-10.8373
▁institutions	-10.8376
▁meanwhile	-10.8377
▁vis	-10.8385
▁psa	-10.8388
▁154	-10.8388
▁powerful	-10.8394
ven	-10.8398
▁encode	-10.84
▁projection	-10.8401
▁digested	-10.8401
▁automatic	-10.8401
▁pten	-10.8406
▁estimating	-10.8412
▁mineral	-10.8413
▁removing	-10.8413
▁docx	-10.8416
▁arise	-10.842
▁estrogen	-10.8422
▁california	-10.8423
▁haplotypes	-10.8423
▁wu	-10.8425
▁167	-10.8425
▁degs	-10.8427
▁bb	-10.8427
▁ace	-10.8427
▁placement	-10.8429
▁mimic	-10.8431
▁rnase	-10.8432
▁lake	-10.8434
▁please	-10.8434
▁obtaining	-10.8435
▁traffic	-10.8436
▁wr	-10.8442
89	-10.8454
▁dimer	-10.8457
▁rac	-10.846
▁designated	-10.8461
▁vegetation	-10.8464
▁youth	-10.8465
▁fire	-10.8468
▁apo	-10.8468
▁linking	-10.8469
▁acidic	-10.847
▁degeneration	-10.8476
ger	-10.8479
▁suicide	-10.8483
ard	-10.8485
▁inducible	-10.8485
ors	-10.8487
▁bdnf	-10.8487
▁bat	-10.8488
▁pkc	-10.8489
▁fused	-10.8493
▁going	-10.8499
▁naturally	-10.8501
▁ampk	-10.8503
▁gaps	-10.8503
▁022	-10.8508
▁experts	-10.8509
▁preserved	-10.851
▁australian	-10.8511
▁sac	-10.8511
▁tet	-10.8512
▁strengths	-10.8518
▁paraffin	-10.8519
▁currents	-10.8522
▁lipoprotein	-10.8524
acc	-10.8526
▁cytosolic	-10.8528
▁clinics	-10.8529
▁span	-10.8533
dy	-10.8533
▁cognition	-10.8534
▁diets	-10.854
▁wet	-10.8543
▁interleukin	-10.8546
fer	-10.855
▁marginal	-10.855
▁transmitted	-10.8551
▁dotted	-10.8551
▁bad	-10.8558
▁oocytes	-10.856
▁salmonella	-10.856
▁contraction	-10.8561
iz	-10.8566
lc	-10.8569
▁woman	-10.8569
▁vl	-10.8574
gy	-10.8578
▁oxidase	-10.8579
▁millipore	-10.8581
▁trade	-10.8584
▁injections	-10.8584
▁waves	-10.8595
▁elastic	-10.8598
▁reviewer	-10.86
▁bruker	-10.8605
tes	-10.8605
eg	-10.8605
▁names	-10.8606
▁clean	-10.8607
▁instability	-10.8611
ish	-10.8613
▁carefully	-10.8614
▁trp	-10.8621
▁ppi	-10.8621
▁retrieval	-10.8626
▁bases	-10.8629
▁res	-10.8632
▁meaningful	-10.8633
og	-10.8635
▁kaplan	-10.8635
▁provider	-10.8637
▁deformation	-10.8639
ida	-10.8641
▁docking	-10.8645
▁157	-10.8646
▁gsk	-10.8648
▁mucosa	-10.8648
▁cleaved	-10.8651
▁station	-10.8651
▁256	-10.8652
▁institutes	-10.8652
ola	-10.8656
▁adjusting	-10.8657
we	-10.8663
▁retina	-10.8664
tp	-10.8671
▁nac	-10.8672
lv	-10.8673
▁intended	-10.8673
amide	-10.8674
ano	-10.8674
▁prone	-10.8678
133	-10.8681
▁lists	-10.8688
116	-10.8693
▁lo	-10.87
▁nonetheless	-10.8707
▁august	-10.8709
▁gly	-10.871
▁scc	-10.871
▁cerevisiae	-10.8711
▁ocean	-10.8714
▁nonlinear	-10.8716
que	-10.8721
▁organized	-10.8723
06	-10.8732
▁wider	-10.8735
▁transporters	-10.8735
▁bo	-10.8737
▁bootstrap	-10.8739
▁proton	-10.8741
ids	-10.8743
▁mosquitoes	-10.8744
▁chart	-10.8745
▁microscopic	-10.8745
▁viewed	-10.8747
▁mut	-10.8748
▁dissociation	-10.875
▁exert	-10.8758
▁teaching	-10.8758
▁inform	-10.8766
▁occupational	-10.8766
▁notion	-10.8769
val	-10.8771
▁nad	-10.8772
end	-10.8773
out	-10.8774
▁faces	-10.8776
▁blots	-10.8776
▁rec	-10.8777
▁220	-10.8781
▁september	-10.8783
▁fluctuations	-10.8784
▁sar	-10.8785
▁contexts	-10.8785
▁clarify	-10.8787
▁company	-10.8787
rk	-10.8788
▁behaviours	-10.8789
▁encodes	-10.8792
▁definitions	-10.8792
met	-10.8799
▁mega	-10.8801
▁str	-10.8801
▁begin	-10.8804
▁spearman	-10.8807
eb	-10.8811
ert	-10.8811
▁153	-10.8811
▁entered	-10.8813
▁purity	-10.8814
▁acknowledgement	-10.8817
rna	-10.8824
▁svm	-10.8825
▁outpatient	-10.883
▁cyclic	-10.8831
▁endemic	-10.8834
▁domestic	-10.8834
▁jun	-10.8835
ure	-10.8841
▁stain	-10.8845
▁cor	-10.8852
▁assist	-10.8854
ates	-10.8865
▁border	-10.8868
▁concomitant	-10.8869
▁transitions	-10.8874
05	-10.8875
▁belong	-10.8875
▁eps	-10.8877
▁conception	-10.8878
▁aerobic	-10.888
▁blind	-10.8883
▁classifier	-10.8886
▁sap	-10.889
▁pharmaceutical	-10.8891
▁ea	-10.8893
▁exploration	-10.8893
▁174	-10.8896
▁wind	-10.89
▁lip	-10.8902
▁sided	-10.8905
▁ol	-10.8906
▁progenitor	-10.8908
▁exosomes	-10.8913
▁distilled	-10.8913
▁gbm	-10.8913
▁referral	-10.8917
▁postnatal	-10.8918
▁query	-10.8918
▁bit	-10.8926
▁hrp	-10.8928
▁county	-10.8931
▁ldh	-10.8934
▁unpaired	-10.8938
▁mucosal	-10.8942
▁resident	-10.8946
▁resin	-10.8949
83	-10.895
▁illustrate	-10.8953
▁sufficiently	-10.8954
▁bw	-10.8957
0000000000000000	-10.8958
▁england	-10.8969
▁doctors	-10.8977
▁meal	-10.8983
▁caregivers	-10.8985
▁abilities	-10.8986
▁mathematical	-10.8991
▁adolescent	-10.8993
▁denoted	-10.8997
▁hydro	-10.9
▁violence	-10.9005
▁tandem	-10.9005
▁islands	-10.9008
gal	-10.9008
▁beijing	-10.9009
▁improves	-10.901
▁acoustic	-10.901
▁stromal	-10.9011
▁losses	-10.9015
▁reversed	-10.9022
▁modeled	-10.9026
▁saturated	-10.9029
▁metals	-10.9029
▁fd	-10.903
▁166	-10.9032
▁abstract	-10.9032
▁citrate	-10.9034
▁filters	-10.9043
▁supervision	-10.9048
▁taiwan	-10.905
▁trajectories	-10.9052
▁glycine	-10.9052
▁mdr	-10.9056
▁stresses	-10.9056
▁antiviral	-10.9057
▁metric	-10.9061
▁195	-10.9061
▁landscape	-10.9066
car	-10.9069
▁transplant	-10.9069
▁employment	-10.9072
▁foci	-10.9075
hp	-10.9081
▁unchanged	-10.9084
▁zno	-10.9085
▁annealing	-10.9086
▁diarrhea	-10.9088
▁gwas	-10.9091
▁trypsin	-10.9093
▁sediment	-10.9094
▁ventilation	-10.9097
▁compartments	-10.9098
▁arginine	-10.9099
▁rct	-10.9099
▁dha	-10.9103
ou	-10.9104
▁decomposition	-10.9106
low	-10.911
▁proliferative	-10.9116
▁creating	-10.9123
▁filtration	-10.9125
▁lysed	-10.9127
▁activator	-10.9127
_1	-10.9133
▁169	-10.9137
▁ke	-10.9138
▁brains	-10.9141
▁ssc	-10.9144
▁gross	-10.915
▁intense	-10.9152
▁locally	-10.9152
▁meier	-10.9152
▁optic	-10.9157
▁sim	-10.9159
▁broader	-10.9161
▁ang	-10.9162
▁lncrnas	-10.9163
▁asymmetric	-10.9165
▁mating	-10.917
ome	-10.9171
fp	-10.9172
▁mtdna	-10.9173
▁microbiome	-10.9174
▁homogeneous	-10.9174
▁covariance	-10.9177
▁5000	-10.9178
▁amongst	-10.9178
▁enabled	-10.9178
▁apparatus	-10.9181
▁switzerland	-10.9186
▁oligo	-10.9189
▁indicative	-10.919
▁hct	-10.9193
▁elucidate	-10.9196
▁stimulating	-10.9197
▁perceptions	-10.9198
▁insects	-10.9199
▁hm	-10.9207
▁boys	-10.9209
▁returned	-10.9211
▁ie	-10.9216
▁undertaken	-10.9219
▁152	-10.9221
ug	-10.9222
▁symptomatic	-10.9225
▁pop	-10.9229
▁break	-10.923
▁frames	-10.9231
ow	-10.9234
▁looking	-10.9234
▁164	-10.9235
▁bioinformatics	-10.924
▁roi	-10.9244
▁proof	-10.9245
▁zones	-10.9246
▁spectrometer	-10.9248
▁cloning	-10.9248
▁conditional	-10.9256
▁assayed	-10.9257
▁permission	-10.926
66	-10.9262
▁security	-10.9264
▁myeloid	-10.9269
uc	-10.9278
▁fibroblast	-10.9281
▁admitted	-10.9282
ology	-10.9284
▁accounting	-10.9288
cn	-10.9292
▁hold	-10.9292
▁began	-10.9297
▁turnover	-10.9301
500	-10.9305
▁dengue	-10.9305
▁parietal	-10.9306
▁sg	-10.9308
▁doctor	-10.931
▁die	-10.9311
▁glioma	-10.9313
▁signatures	-10.9314
▁japanese	-10.9315
▁tight	-10.9319
▁compatible	-10.9319
eri	-10.9321
▁accounts	-10.9322
▁productivity	-10.9322
▁tended	-10.9323
▁highlights	-10.9326
400	-10.9328
▁eliminate	-10.9328
▁inference	-10.9333
▁parp	-10.9333
▁immunostaining	-10.9333
▁210	-10.9336
▁annexin	-10.9338
▁essentially	-10.9338
▁slower	-10.9338
▁methodological	-10.934
▁dsm	-10.9342
▁vaginal	-10.9342
▁ee	-10.9343
▁asymptomatic	-10.9347
▁october	-10.9347
▁mat	-10.9352
▁respiration	-10.9356
▁calls	-10.9362
▁centered	-10.9367
▁prepare	-10.9367
▁biased	-10.9367
▁femoral	-10.9367
▁beliefs	-10.9372
▁molar	-10.9375
uv	-10.9376
▁yu	-10.9377
▁pipeline	-10.9379
▁1989	-10.9385
▁phe	-10.9389
▁smart	-10.9392
▁elegans	-10.9393
▁rg	-10.9396
app	-10.9397
▁illustrates	-10.9399
▁rock	-10.9399
▁src	-10.9402
▁rely	-10.9402
▁contigs	-10.9402
▁foxp	-10.9405
▁damaged	-10.9407
▁coordinated	-10.9408
▁outbreak	-10.941
▁learn	-10.942
▁inset	-10.9421
▁preferences	-10.9435
▁mitotic	-10.9436
▁influencing	-10.944
▁edema	-10.944
▁ranked	-10.9445
▁overexpressing	-10.9449
▁nitrate	-10.9449
▁rpmi	-10.9449
▁imp	-10.945
▁automatically	-10.9451
▁squared	-10.9453
▁asp	-10.9465
▁conditioned	-10.9468
▁histology	-10.9468
▁epidermal	-10.9469
▁fg	-10.9469
▁specialized	-10.947
▁valve	-10.9473
▁indirectly	-10.9476
▁presumably	-10.9478
▁bin	-10.9481
▁attributes	-10.9481
▁yang	-10.9484
tu	-10.9485
▁walk	-10.9488
▁engage	-10.9488
▁bowel	-10.9492
▁sle	-10.9492
▁axons	-10.9493
▁utilizing	-10.9495
▁advances	-10.9499
▁road	-10.9505
▁mon	-10.9505
▁deliver	-10.9505
▁electrochemical	-10.9511
▁farm	-10.9513
▁dialysis	-10.9513
cin	-10.9517
rf	-10.9517
▁nl	-10.9523
▁website	-10.9523
▁declared	-10.9527
▁falciparum	-10.9532
▁genetics	-10.9534
▁280	-10.9536
▁bu	-10.9537
▁pollution	-10.9537
art	-10.9537
▁0000	-10.9541
▁qol	-10.9545
▁precursors	-10.9546
▁tropical	-10.9549
▁closure	-10.9551
▁overexpressed	-10.9554
▁reproduction	-10.9556
▁covering	-10.9558
▁introduce	-10.9561
ole	-10.9561
par	-10.9561
▁priority	-10.9562
▁020	-10.9562
▁photon	-10.9572
field	-10.9573
▁promega	-10.9575
▁ebv	-10.9578
▁incorporate	-10.9579
▁actively	-10.9583
▁solely	-10.9585
gp	-10.9585
tal	-10.9591
▁173	-10.9595
▁smith	-10.9595
▁otus	-10.9597
▁catheter	-10.96
▁say	-10.96
▁mcp	-10.9601
tor	-10.9604
▁circadian	-10.961
her	-10.961
▁cer	-10.9612
▁defining	-10.9613
▁ill	-10.9613
▁computing	-10.962
▁duplicate	-10.9621
▁151	-10.9623
▁lamp	-10.9627
▁smoke	-10.9628
▁synapses	-10.9629
▁mammary	-10.9629
men	-10.9633
▁apex	-10.9636
▁medicines	-10.9636
▁standing	-10.9637
▁bridge	-10.9637
▁differently	-10.9637
▁1980	-10.9643
▁alkaline	-10.9644
med	-10.9644
all	-10.9644
▁substitutions	-10.9647
▁harm	-10.9653
▁remote	-10.9653
▁price	-10.9659
ense	-10.966
▁ball	-10.966
▁innovation	-10.9662
▁mixtures	-10.9663
▁assignment	-10.9665
▁meso	-10.9666
▁moderately	-10.9677
▁eb	-10.9679
▁handling	-10.9685
▁mock	-10.9688
▁recommend	-10.9688
atus	-10.969
▁egf	-10.9697
▁lymphocyte	-10.9698
▁duplication	-10.9701
▁cmv	-10.9702
▁wise	-10.9704
▁icc	-10.9705
▁163	-10.9705
▁bv	-10.9707
▁rod	-10.9707
▁grateful	-10.9708
92	-10.9709
▁physiology	-10.9713
▁methylated	-10.9715
▁gu	-10.9718
▁dys	-10.9721
▁echo	-10.9723
mes	-10.9723
▁wilcoxon	-10.973
▁3000	-10.9731
▁188	-10.9731
▁tl	-10.9734
▁habitats	-10.9736
▁rl	-10.9738
ists	-10.9739
▁leave	-10.9739
▁pap	-10.9739
▁nct	-10.9745
▁lethal	-10.9747
▁hepg	-10.9747
▁persistence	-10.9752
ue	-10.9754
▁bs	-10.976
▁mel	-10.9761
map	-10.9766
▁keeping	-10.9769
▁server	-10.977
▁acceleration	-10.9774
▁translated	-10.9785
▁cultivation	-10.9786
▁pfs	-10.9786
▁escape	-10.9791
▁uni	-10.9792
▁survivors	-10.9796
▁ecg	-10.9799
▁kcl	-10.98
▁zeiss	-10.98
▁atrial	-10.9802
▁regime	-10.9804
▁apoe	-10.9807
▁fragmentation	-10.9809
▁decided	-10.9811
▁reconstructed	-10.9812
▁nearest	-10.9812
dp	-10.9818
▁kcal	-10.9824
▁alzheimer	-10.9825
▁hypothetical	-10.9827
▁prescription	-10.9832
▁themes	-10.9833
▁ff	-10.9838
▁imaged	-10.9838
▁vc	-10.9841
▁passage	-10.9847
▁termed	-10.9848
▁hepes	-10.9849
▁potentials	-10.9851
▁reductions	-10.9856
▁189	-10.9862
▁esi	-10.9866
▁ia	-10.9868
▁waste	-10.987
▁vulnerable	-10.9871
▁extinction	-10.9874
008	-10.9875
▁prevents	-10.9879
▁reductase	-10.988
▁alignments	-10.9885
▁fractures	-10.9886
▁french	-10.9888
▁024	-10.9898
▁bonding	-10.9899
▁generations	-10.9899
▁hits	-10.9899
▁union	-10.99
▁supplied	-10.99
▁catalyst	-10.9901
▁olfactory	-10.9903
▁ectopic	-10.9908
▁differs	-10.9911
▁commercially	-10.9912
▁herein	-10.9915
▁mas	-10.9916
▁interested	-10.9917
▁pneumoniae	-10.9919
cy	-10.992
▁sbp	-10.9927
nes	-10.9931
▁rev	-10.9933
▁positioned	-10.9933
▁steel	-10.9934
▁decade	-10.9938
▁percentile	-10.9943
▁stranded	-10.9948
▁operated	-10.9948
dd	-10.9949
▁apparently	-10.995
ectomy	-10.9952
▁relations	-10.9955
▁suffering	-10.9957
▁reflection	-10.9958
▁purple	-10.9962
▁kr	-10.9965
▁solve	-10.9966
pk	-10.9967
▁hemisphere	-10.9968
▁gse	-10.9972
▁fecal	-10.9973
▁nj	-10.9979
▁deprivation	-10.9979
▁backbone	-10.9984
▁wc	-10.9987
▁ablation	-10.9988
▁alveolar	-10.9989
za	-10.999
▁aki	-10.9991
101	-10.9991
▁les	-10.9991
▁irradiated	-10.9994
▁helsinki	-10.9994
▁raman	-11.0001
04	-11.0001
▁emotions	-11.0002
gn	-11.0004
▁residence	-11.0004
▁conducting	-11.0007
▁mag	-11.0012
▁axon	-11.0018
▁outlined	-11.0019
▁press	-11.0021
▁tfs	-11.0026
▁nhs	-11.0027
▁organizations	-11.0031
▁elicited	-11.0031
▁dpi	-11.0034
mar	-11.0035
dis	-11.0035
ile	-11.0036
sk	-11.0036
▁remarkably	-11.0041
▁broth	-11.0042
▁selectively	-11.0043
▁played	-11.0045
105	-11.0045
▁receiver	-11.0047
▁faculty	-11.0051
▁choices	-11.0055
▁intention	-11.0059
▁pylori	-11.0066
tin	-11.0069
▁allergic	-11.007
▁tomato	-11.0077
▁registry	-11.0086
▁collectively	-11.0087
yn	-11.0087
▁oscillations	-11.009
▁185	-11.0093
▁bn	-11.0102
▁dominated	-11.0111
▁analyzer	-11.0113
▁interpret	-11.0113
▁tv	-11.0114
sr	-11.0115
▁exo	-11.0115
▁systematically	-11.0117
▁alanine	-11.012
▁bile	-11.0121
▁comes	-11.0121
▁indian	-11.0122
▁loops	-11.0124
▁blank	-11.0128
▁stationary	-11.0129
▁interferon	-11.0134
▁rn	-11.0134
▁023	-11.0135
▁consuming	-11.0139
▁trail	-11.014
tra	-11.0142
▁900	-11.0144
▁obviously	-11.0148
▁biopsies	-11.0149
▁dw	-11.0149
▁achieving	-11.0151
▁selecting	-11.0155
▁kingdom	-11.0159
▁wb	-11.0159
▁eukaryotic	-11.0164
▁trafficking	-11.0169
lic	-11.0172
▁repression	-11.0174
ig	-11.0179
▁hormones	-11.0179
▁subcutaneous	-11.0179
tan	-11.0182
▁cav	-11.0184
▁jak	-11.0186
▁richness	-11.0187
▁gaba	-11.0187
▁162	-11.0193
▁denv	-11.0196
▁demands	-11.02
▁ei	-11.0201
▁withdrawal	-11.0202
xi	-11.0204
▁atherosclerosis	-11.0204
▁melting	-11.0212
▁circumference	-11.0214
▁traces	-11.0215
▁solar	-11.0217
▁tween	-11.0217
▁permanent	-11.022
▁plans	-11.022
▁jo	-11.0221
▁congenital	-11.0222
▁cooling	-11.0223
ful	-11.0224
▁pocket	-11.0225
ser	-11.0227
▁sorted	-11.0229
nm	-11.0232
▁phone	-11.0234
▁cambridge	-11.0234
▁ptsd	-11.0238
▁strict	-11.0239
▁recipient	-11.024
▁phd	-11.0241
▁clonal	-11.0242
▁diminished	-11.0249
▁ram	-11.0249
▁preparations	-11.0249
▁welfare	-11.025
▁exposures	-11.0251
▁capital	-11.0251
▁172	-11.0253
▁prey	-11.0256
▁epidemic	-11.0258
mic	-11.0259
▁tu	-11.026
▁epitope	-11.026
▁ks	-11.0263
▁squamous	-11.0268
▁came	-11.0273
▁1988	-11.0273
▁entropy	-11.0275
▁stomach	-11.0279
▁230	-11.0279
gc	-11.028
▁dec	-11.0281
ham	-11.0282
▁vast	-11.0283
▁personality	-11.0291
▁nucleic	-11.0291
▁traumatic	-11.0292
▁swelling	-11.0296
▁aberrant	-11.0296
gg	-11.0299
ato	-11.03
▁atrophy	-11.0301
▁updated	-11.0301
▁stochastic	-11.0307
▁genomics	-11.0311
▁unc	-11.0315
▁challenged	-11.0317
▁026	-11.0319
▁voxel	-11.0322
▁proteasome	-11.0324
▁adp	-11.0325
▁serves	-11.0328
▁preventive	-11.0328
▁shifted	-11.033
▁expectations	-11.0333
▁193	-11.0336
▁folding	-11.0336
▁192	-11.0337
▁028	-11.034
▁cage	-11.034
▁igm	-11.034
▁considerations	-11.0344
▁fifth	-11.0344
▁married	-11.0344
▁diego	-11.035
▁labor	-11.035
▁anemia	-11.0354
▁notes	-11.0356
▁dimethyl	-11.0359
form	-11.036
▁soybean	-11.0367
▁platelets	-11.0368
▁premature	-11.037
▁kernel	-11.0373
▁leica	-11.0374
▁driver	-11.0375
▁stabilization	-11.0377
▁john	-11.0379
▁conceptual	-11.0379
▁ordered	-11.0379
▁9300	-11.0379
▁cos	-11.0383
▁conductance	-11.0383
▁positioning	-11.0384
▁tca	-11.0384
▁remarkable	-11.0388
▁practitioners	-11.0389
▁deletions	-11.0391
▁infrared	-11.0396
ob	-11.0397
ita	-11.0399
_0	-11.04
▁inadequate	-11.0401
▁walls	-11.0402
▁doing	-11.0408
ach	-11.041
▁flight	-11.042
▁silicon	-11.042
▁card	-11.043
▁straight	-11.0432
▁bh	-11.0432
▁annotations	-11.0434
▁consultation	-11.0436
▁pink	-11.0437
▁institution	-11.0443
▁coil	-11.0443
tag	-11.0444
▁conservative	-11.0445
▁kinds	-11.0446
▁fourier	-11.045
▁phenolic	-11.0453
▁deficit	-11.0454
▁hepatocytes	-11.0454
▁superoxide	-11.0458
▁splice	-11.0458
▁mouth	-11.046
▁reproducibility	-11.0463
▁mgcl	-11.0463
▁attractive	-11.0467
lt	-11.0468
▁tan	-11.0475
off	-11.0476
▁deal	-11.0477
hb	-11.0477
▁pictures	-11.0481
▁stand	-11.0488
ew	-11.0489
df	-11.0491
▁hypoxic	-11.0494
▁routinely	-11.0498
▁ocular	-11.0505
▁accessibility	-11.051
▁pcs	-11.0511
▁preterm	-11.0513
▁nmol	-11.0516
▁pyruvate	-11.0518
cre	-11.0524
▁becoming	-11.0525
▁entirely	-11.0527
▁operations	-11.0535
▁scatter	-11.0536
▁portal	-11.0537
▁breastfeeding	-11.0544
▁periodic	-11.0545
▁eluted	-11.0547
▁slowly	-11.055
▁psi	-11.0553
▁thoracic	-11.0556
▁immunoblotting	-11.0565
▁sorting	-11.0568
▁unrelated	-11.057
▁labels	-11.0571
▁ige	-11.0574
▁balanced	-11.0577
can	-11.0583
009	-11.0583
tis	-11.0588
▁antibacterial	-11.0591
▁intellectual	-11.0591
1_	-11.0591
▁managed	-11.0599
▁ammonium	-11.0606
▁functionality	-11.0606
physiological	-11.0608
▁integral	-11.0608
▁gibco	-11.0612
ze	-11.0613
▁agriculture	-11.0614
▁cyto	-11.062
▁unpublished	-11.062
▁stigma	-11.0622
▁enhancer	-11.0625
ja	-11.0627
my	-11.063
reg	-11.063
att	-11.0632
▁ur	-11.0634
▁hall	-11.0635
▁symbol	-11.0635
▁lncrna	-11.0644
elli	-11.0646
▁027	-11.0648
▁signed	-11.0649
▁escherichia	-11.0651
▁tat	-11.0657
130	-11.0662
▁falls	-11.0662
▁perfect	-11.0664
ill	-11.0666
▁evs	-11.0667
▁pax	-11.0672
red	-11.0672
▁projections	-11.0676
▁polymerization	-11.0677
▁cur	-11.0678
▁attempted	-11.068
ena	-11.0683
▁germination	-11.0683
led	-11.0683
▁representations	-11.0685
eo	-11.0685
▁taxon	-11.0686
▁cortisol	-11.0686
▁hundred	-11.0686
▁approximation	-11.0686
▁pulses	-11.0694
zo	-11.0695
▁repetitive	-11.0696
cap	-11.0697
▁severely	-11.0698
▁abi	-11.0699
▁den	-11.07
▁inverted	-11.0704
▁corporation	-11.0707
▁lumen	-11.0707
▁concurrent	-11.0708
▁260	-11.0708
▁thereafter	-11.0718
▁operational	-11.0718
▁thaliana	-11.072
onic	-11.0721
▁albicans	-11.0734
▁music	-11.0734
▁explicit	-11.074
▁slide	-11.0742
▁balb	-11.0743
▁npc	-11.0744
▁fashion	-11.0747
▁inspection	-11.0747
▁distinguished	-11.075
▁topology	-11.0751
▁ionic	-11.0757
▁cultivated	-11.076
▁quantities	-11.076
▁mtb	-11.0762
▁doc	-11.0762
▁lysate	-11.0762
▁tertiary	-11.0768
▁anaerobic	-11.0768
▁corneal	-11.0773
▁defective	-11.0775
▁mad	-11.0782
▁khz	-11.0785
▁194	-11.0786
▁informative	-11.0787
▁lived	-11.0789
paraformaldehyde	-11.079
▁titers	-11.0792
▁187	-11.0792
▁gained	-11.0795
▁malignancy	-11.0795
▁acetic	-11.0797
pf	-11.0801
▁acetylation	-11.0803
ius	-11.0803
▁035	-11.0805
rus	-11.0814
▁tar	-11.0814
▁legal	-11.0819
▁tbi	-11.0822
▁comorbidities	-11.0822
▁consist	-11.0824
▁adjust	-11.0824
▁epilepsy	-11.0825
▁modulus	-11.0825
▁initiate	-11.0825
▁181	-11.0825
▁cyst	-11.0825
▁neighboring	-11.0826
▁mcherry	-11.0827
▁plausible	-11.0828
▁sybr	-11.0831
▁intercept	-11.0836
▁pacific	-11.0838
ws	-11.0839
▁homolog	-11.0839
▁186	-11.084
▁soils	-11.0841
▁centres	-11.0841
▁confirmation	-11.0842
▁steroid	-11.0845
▁pen	-11.0851
▁illustration	-11.0852
sv	-11.0853
▁fellowship	-11.0854
▁184	-11.0856
zi	-11.0857
▁isotropic	-11.0861
hu	-11.0862
▁ecosystem	-11.0864
▁synergistic	-11.087
▁searched	-11.0876
▁diagnostics	-11.0879
▁nu	-11.088
▁prime	-11.088
▁facilitated	-11.0882
▁yi	-11.0883
▁senior	-11.0884
▁aggregate	-11.0892
▁passed	-11.0895
▁tac	-11.0896
▁irf	-11.0897
▁rings	-11.0903
▁evaluations	-11.0905
▁1987	-11.0906
▁bay	-11.0911
cor	-11.0918
▁robustness	-11.0927
ara	-11.0928
▁complication	-11.0932
▁modest	-11.0939
▁sports	-11.0948
▁pbmcs	-11.0953
rb	-11.0954
ren	-11.0955
▁broadly	-11.0956
▁popular	-11.0959
▁secondly	-11.0962
▁proinflammatory	-11.0963
▁cooperation	-11.0963
▁silico	-11.0966
▁randomization	-11.0966
ru	-11.0967
▁mcc	-11.0967
▁compute	-11.0967
▁arteries	-11.0968
▁personnel	-11.0968
▁conditioning	-11.0971
▁phenomena	-11.0971
▁moisture	-11.0971
▁emissions	-11.0974
▁fertility	-11.0974
▁war	-11.0974
str	-11.0976
▁enabling	-11.0979
▁imagej	-11.0981
▁chemokine	-11.0983
▁responsibility	-11.0985
▁peritoneal	-11.0985
▁machinery	-11.0985
▁subcellular	-11.0988
▁tra	-11.0989
mon	-11.0993
▁hk	-11.0995
ical	-11.0999
mel	-11.1
▁attenuation	-11.1001
▁construed	-11.1001
▁electrons	-11.1002
▁hemorrhage	-11.1004
du	-11.1009
▁modulating	-11.1009
▁scanner	-11.1011
▁truncated	-11.1013
ris	-11.1018
▁floor	-11.1019
▁ibd	-11.1023
▁executive	-11.1026
▁metformin	-11.1026
ili	-11.1027
▁searches	-11.1031
▁cotton	-11.1031
▁responded	-11.1032
▁fate	-11.1033
▁extending	-11.1036
▁excitatory	-11.1037
▁symbols	-11.1039
▁golgi	-11.104
▁1986	-11.1041
▁cement	-11.1041
▁cigarette	-11.1042
▁november	-11.1042
▁housing	-11.1042
▁che	-11.1043
▁pod	-11.1044
▁thanks	-11.1047
▁infrastructure	-11.1048
▁inherent	-11.1048
▁relating	-11.1051
▁comprises	-11.1054
precipitation	-11.1057
▁immature	-11.1059
▁199	-11.1061
▁ancestral	-11.1061
▁generic	-11.1063
▁hole	-11.1064
▁moved	-11.1065
▁characters	-11.1067
way	-11.1069
▁lac	-11.107
▁explicitly	-11.1072
nk	-11.1077
▁fos	-11.1077
over	-11.1078
▁inconsistent	-11.1078
▁probable	-11.1078
▁mask	-11.108
▁ortho	-11.1087
▁offset	-11.1092
▁kir	-11.1095
▁axonal	-11.1097
▁muc	-11.1099
▁discrepancy	-11.11
▁favor	-11.1101
▁schedule	-11.1102
▁blockade	-11.1106
nic	-11.111
▁glands	-11.111
▁accelerated	-11.1111
▁refined	-11.1111
▁histogram	-11.1112
▁mediating	-11.1113
▁mdm	-11.1115
▁salinity	-11.1117
▁dividing	-11.1122
▁vt	-11.113
▁lanes	-11.1133
▁monomer	-11.1136
▁hydroxyl	-11.1138
▁preclinical	-11.1139
oni	-11.114
▁instances	-11.115
▁bright	-11.1152
▁planes	-11.1154
▁strongest	-11.1154
▁hematoxylin	-11.1156
▁investigator	-11.1158
▁hv	-11.1159
mn	-11.1159
▁sio	-11.1161
fu	-11.1162
cal	-11.1163
▁negligible	-11.1167
▁blinded	-11.117
▁flowering	-11.1171
ster	-11.1172
▁oe	-11.1172
▁leaving	-11.1175
▁antisense	-11.1181
▁forced	-11.1181
▁dissection	-11.1184
▁flower	-11.1184
▁avoidance	-11.1184
▁drafting	-11.1186
▁029	-11.1191
▁prenatal	-11.1192
▁historical	-11.1193
▁threat	-11.1193
▁los	-11.12
▁messages	-11.1203
▁preferentially	-11.1205
ver	-11.1207
▁spindle	-11.1208
▁curcumin	-11.1208
▁drift	-11.1209
▁hsv	-11.121
▁programmes	-11.1212
rm	-11.1213
▁exactly	-11.1214
▁accessed	-11.1218
▁regimens	-11.1219
▁expenditure	-11.1221
dia	-11.1222
▁angular	-11.1223
▁fox	-11.1223
rum	-11.1227
▁roughly	-11.1228
▁cry	-11.123
▁marital	-11.1237
▁kl	-11.1239
▁pay	-11.1245
▁opposed	-11.1246
▁hill	-11.125
▁modify	-11.1256
▁psychosocial	-11.1256
▁033	-11.1258
▁wallis	-11.1258
▁attitude	-11.126
▁dispersal	-11.1262
▁heated	-11.1263
▁edited	-11.1264
▁320	-11.1265
cam	-11.1267
▁biotin	-11.1268
gh	-11.127
▁fabrication	-11.1271
110	-11.1272
▁optimum	-11.1273
▁contralateral	-11.1273
▁sedentary	-11.1276
▁sparse	-11.1277
▁envelope	-11.1283
lar	-11.1286
▁sep	-11.1292
▁amplitudes	-11.1296
▁peroxide	-11.1297
cos	-11.1299
▁sized	-11.1305
▁notable	-11.1307
era	-11.1307
▁prefrontal	-11.131
▁imbalance	-11.1313
▁lifespan	-11.1318
▁perceptual	-11.1318
▁researcher	-11.1319
▁kt	-11.1325
▁sulfur	-11.1326
bt	-11.1326
▁bg	-11.1327
▁epa	-11.1331
▁cast	-11.1335
▁seemed	-11.1335
▁env	-11.135
▁demographics	-11.135
▁171	-11.135
▁chd	-11.1352
pn	-11.1355
▁arbitrary	-11.1355
▁housed	-11.1357
▁acceptance	-11.1358
▁kappa	-11.1359
▁stopped	-11.1361
▁gmbh	-11.1363
▁xp	-11.1367
▁circumstances	-11.137
▁tam	-11.1371
py	-11.1377
log	-11.1378
ification	-11.1378
▁evidenced	-11.1379
ural	-11.138
▁counterparts	-11.138
▁pointed	-11.1381
▁disrupt	-11.1383
▁hind	-11.1383
▁ub	-11.1391
▁aforementioned	-11.1392
▁examinations	-11.1392
▁harvest	-11.1394
▁kp	-11.1394
scs	-11.1396
▁glial	-11.1397
ny	-11.1397
▁ova	-11.1402
▁efflux	-11.1403
mv	-11.1403
▁facilitates	-11.1405
▁unaffected	-11.1409
▁attributable	-11.1412
jo	-11.1416
▁cryo	-11.1418
▁teachers	-11.1419
▁plateau	-11.1419
▁grains	-11.142
▁allelic	-11.1422
ski	-11.1429
▁corn	-11.1429
▁iq	-11.1431
pod	-11.1435
▁glut	-11.1441
▁shoot	-11.1442
▁gestation	-11.1443
▁scr	-11.1443
hd	-11.1446
▁restoration	-11.1447
▁comp	-11.145
ons	-11.1451
▁competence	-11.1455
▁bbb	-11.1457
▁999	-11.1457
▁manage	-11.1457
▁kruskal	-11.1458
07	-11.1458
▁cited	-11.1459
nu	-11.1461
94	-11.1462
▁gate	-11.1463
▁preceding	-11.1463
fo	-11.1463
▁employing	-11.1466
▁crops	-11.1466
▁vegetables	-11.1472
▁kras	-11.1472
cell	-11.1474
001_	-11.148
▁fabricated	-11.1482
▁carlsbad	-11.1483
▁tone	-11.1484
▁mrsa	-11.1488
▁constitutive	-11.1499
▁ensemble	-11.1499
▁insert	-11.1503
▁adapt	-11.1504
▁pellets	-11.151
ice	-11.1517
▁touch	-11.152
▁xl	-11.152
▁vm	-11.1522
▁editor	-11.1525
▁nitric	-11.1528
uk	-11.1528
▁freedom	-11.153
▁cca	-11.153
▁360	-11.1531
▁triggers	-11.1534
ria	-11.1536
▁asterisks	-11.1539
▁oxidized	-11.1541
▁unstable	-11.1544
▁responding	-11.1547
▁shapes	-11.1548
▁imply	-11.155
▁energies	-11.1553
▁finite	-11.1553
▁cop	-11.1553
▁epidemiology	-11.1555
▁lignin	-11.1555
▁ut	-11.1558
▁scar	-11.156
▁texture	-11.1571
▁heparin	-11.1574
▁headache	-11.1574
amp	-11.1574
▁kh	-11.1574
▁placenta	-11.1575
▁tubular	-11.1579
▁036	-11.1583
▁ky	-11.1583
▁eosin	-11.1585
bf	-11.159
▁prove	-11.159
▁205	-11.1591
▁disturbance	-11.1591
▁rsv	-11.1593
hc	-11.1594
ising	-11.1597
cf	-11.16
▁responders	-11.16
▁interquartile	-11.1601
▁bax	-11.1604
▁weaker	-11.1605
len	-11.1605
▁183	-11.1608
▁waist	-11.1609
▁precisely	-11.1609
▁relate	-11.161
▁rpe	-11.161
▁penetration	-11.1611
▁expertise	-11.1611
▁ccd	-11.1613
▁computation	-11.1614
▁remission	-11.1617
▁hope	-11.1617
ram	-11.1619
▁things	-11.162
▁032	-11.1621
▁cultivars	-11.1623
▁biologically	-11.1625
▁priming	-11.1628
▁filling	-11.1628
▁dip	-11.1631
▁hematopoietic	-11.1632
▁rodent	-11.1632
▁affective	-11.1635
▁ethylene	-11.1636
oli	-11.1636
▁versions	-11.1641
▁mediates	-11.1643
▁killing	-11.1644
▁helps	-11.1644
▁tax	-11.1645
▁lowering	-11.1645
ulin	-11.1647
▁constants	-11.165
▁mechanistic	-11.1653
▁por	-11.1654
▁generates	-11.1655
▁warm	-11.1657
▁arrangement	-11.1661
▁dnase	-11.1665
▁observer	-11.1665
▁talk	-11.1666
aq	-11.167
ras	-11.1672
▁interfere	-11.1676
▁opinion	-11.1676
▁waters	-11.1676
▁saliva	-11.1678
▁moi	-11.1678
▁learned	-11.168
▁uninfected	-11.1681
▁1038	-11.1681
▁guideline	-11.1683
▁visualize	-11.1685
ori	-11.1685
uli	-11.1686
▁sides	-11.1686
▁injured	-11.1692
ecs	-11.1698
▁responsiveness	-11.1699
▁establishing	-11.1709
▁endpoint	-11.171
▁export	-11.171
▁loc	-11.171
▁ward	-11.1711
well	-11.1711
oe	-11.1712
▁addressing	-11.1717
▁038	-11.1718
▁advance	-11.1722
dl	-11.1725
▁vaccinated	-11.1726
109	-11.1726
▁transfusion	-11.1728
▁nested	-11.1731
▁speculate	-11.1736
ova	-11.1737
▁associate	-11.1738
▁declined	-11.1739
▁exploring	-11.1739
▁qc	-11.1742
rac	-11.1748
▁song	-11.1749
▁prp	-11.1749
din	-11.1752
ub	-11.1754
▁collecting	-11.1756
▁interstitial	-11.1757
▁political	-11.1757
▁rapamycin	-11.1757
ez	-11.1757
▁wo	-11.1759
106	-11.1761
▁031	-11.1764
▁episode	-11.1765
▁lasting	-11.1767
▁iga	-11.1767
▁gar	-11.1767
▁arising	-11.177
▁draw	-11.177
▁pyr	-11.1773
▁designs	-11.1775
▁chitosan	-11.1775
▁london	-11.1775
91	-11.1776
▁manifestations	-11.1777
▁gata	-11.1779
gf	-11.1783
▁satellite	-11.1783
▁concrete	-11.1787
▁mutagenesis	-11.1787
▁acetone	-11.179
mr	-11.179
▁stakeholders	-11.1791
▁dissected	-11.1791
ses	-11.1795
▁canadian	-11.1796
▁digit	-11.1797
▁suffer	-11.1801
▁junctions	-11.1801
▁cessation	-11.1802
▁fda	-11.1802
▁161	-11.1807
▁eliminated	-11.1807
ud	-11.1807
crystallographic	-11.1808
▁dnmt	-11.181
▁platforms	-11.181
▁tcga	-11.1812
▁reperfusion	-11.1813
▁pretreated	-11.1814
▁0005	-11.182
82	-11.1822
▁optimize	-11.1822
▁multivariable	-11.1823
▁solubility	-11.1827
▁facilitating	-11.1828
▁properly	-11.183
▁accumulate	-11.1831
103	-11.1835
▁afm	-11.1837
▁mem	-11.1838
▁exhibiting	-11.1838
▁drying	-11.1838
▁182	-11.1844
▁proteome	-11.1846
▁transgene	-11.1847
▁lesser	-11.1848
▁denmark	-11.1849
ys	-11.1856
▁ala	-11.1862
▁shoulder	-11.1864
▁lod	-11.1865
▁spherical	-11.1867
▁specialist	-11.1869
ogenesis	-11.1869
dh	-11.1872
▁bra	-11.1872
▁vir	-11.1876
▁carotid	-11.1876
▁mast	-11.1878
▁aav	-11.1879
▁disrupted	-11.1883
▁whereby	-11.1885
▁physically	-11.1886
▁reversible	-11.1888
▁grand	-11.1889
▁mci	-11.1895
▁204	-11.1902
▁irrespective	-11.1903
▁engaged	-11.1904
▁unexpected	-11.1904
▁inactivated	-11.1905
▁pha	-11.1905
▁something	-11.1906
▁globally	-11.1909
▁endocrine	-11.1909
▁niche	-11.191
mu	-11.1913
▁train	-11.1915
▁message	-11.1915
▁hispanic	-11.1915
▁ester	-11.1918
▁moral	-11.1919
▁hidden	-11.1921
▁chlorophyll	-11.1921
157	-11.1922
▁cone	-11.1926
▁fw	-11.1927
▁196	-11.1927
▁foster	-11.1929
▁workflow	-11.1932
▁msm	-11.1938
▁confirms	-11.194
▁lives	-11.194
▁anticancer	-11.1941
▁nod	-11.1943
▁cloud	-11.1945
▁cerebellum	-11.1945
▁infer	-11.1945
▁nitro	-11.1948
ire	-11.1949
▁canal	-11.195
▁coherence	-11.1954
▁patches	-11.1956
▁yielding	-11.1957
▁convergence	-11.1957
▁feeling	-11.1958
▁pools	-11.1963
▁tk	-11.1971
▁atlas	-11.1972
▁atypical	-11.1972
▁750	-11.1974
▁fair	-11.1974
cv	-11.1976
▁045	-11.1979
▁ham	-11.1979
▁fail	-11.1985
▁electrostatic	-11.1987
▁autism	-11.199
ln	-11.1992
▁1985	-11.1993
▁irregular	-11.1993
▁missed	-11.1996
▁xenograft	-11.1997
▁coping	-11.1998
▁got	-11.1998
104	-11.1998
▁biases	-11.1998
▁ranking	-11.1998
ogen	-11.1998
▁pancreas	-11.2002
▁retro	-11.2004
▁checklist	-11.2005
▁players	-11.2007
▁republic	-11.2008
▁pseudomonas	-11.2012
▁gfap	-11.2012
tg	-11.2015
▁initiative	-11.2018
▁restored	-11.2019
▁monocyte	-11.2021
▁034	-11.2022
▁degraded	-11.2023
▁acquire	-11.2023
77	-11.2024
▁auxin	-11.2029
▁commission	-11.2029
▁leakage	-11.203
▁matlab	-11.203
▁marks	-11.2035
▁luminal	-11.2036
▁270	-11.2037
▁immunological	-11.2038
▁gf	-11.204
▁pka	-11.2043
▁style	-11.2044
eurodegenerative	-11.2051
▁olympus	-11.2051
▁chemo	-11.2052
▁icp	-11.2052
lf	-11.2052
▁composites	-11.2054
▁breathing	-11.2056
▁impedance	-11.2056
▁contaminated	-11.2059
▁adipocytes	-11.206
▁nicotine	-11.2066
▁easier	-11.2066
▁das	-11.2066
▁quartile	-11.2067
▁discarded	-11.207
▁answers	-11.2071
▁ngs	-11.2074
▁rps	-11.2076
▁saw	-11.2081
▁phylogeny	-11.2081
▁monte	-11.2088
▁deleted	-11.209
▁hemodynamic	-11.209
▁joints	-11.2092
▁aorta	-11.2096
▁relies	-11.2097
150	-11.21
nl	-11.2102
▁village	-11.2104
ale	-11.2104
▁cytoskeleton	-11.2106
▁recommendation	-11.2106
▁juvenile	-11.2107
▁039	-11.2114
▁professor	-11.2115
▁rigid	-11.2119
▁etiology	-11.2121
▁ligation	-11.2125
▁colors	-11.2126
▁dairy	-11.213
nr	-11.2131
▁lumbar	-11.2133
▁poorer	-11.2136
▁randomised	-11.2136
▁cds	-11.2137
▁dutch	-11.2138
▁formalin	-11.2139
▁really	-11.214
▁agonists	-11.2143
▁bioactive	-11.2143
▁exclusive	-11.2144
▁yfp	-11.2144
▁037	-11.2148
▁modalities	-11.2149
▁epitopes	-11.2154
▁contour	-11.2156
ric	-11.2156
▁sil	-11.2159
aga	-11.2167
▁fh	-11.2168
kl	-11.2175
▁soon	-11.2175
▁weather	-11.2176
▁david	-11.2177
▁gli	-11.2178
▁intriguing	-11.2179
▁illumination	-11.218
▁porous	-11.218
▁viscosity	-11.2192
▁fb	-11.2194
▁pal	-11.2194
▁capsule	-11.2196
lip	-11.2198
_2	-11.2199
dv	-11.22
▁clades	-11.22
▁salivary	-11.2201
▁regularly	-11.2205
qui	-11.2205
▁cdcl	-11.2208
▁february	-11.221
▁supra	-11.2215
▁worms	-11.2218
▁reservoir	-11.2218
▁dramatic	-11.2219
▁mek	-11.222
▁toxins	-11.2224
▁merck	-11.2226
▁survive	-11.2226
▁spatially	-11.2227
▁biofilms	-11.223
▁try	-11.2234
his	-11.2239
▁tregs	-11.2239
ami	-11.2239
▁208	-11.224
▁seek	-11.2244
▁indoor	-11.2251
▁ok	-11.2263
▁outbreaks	-11.2266
▁nox	-11.2277
▁bor	-11.2277
▁abiotic	-11.2289
▁030	-11.2291
▁smallest	-11.2293
ken	-11.2293
▁administrative	-11.2297
▁xrd	-11.2298
▁chemokines	-11.2299
▁rcts	-11.2305
▁inorganic	-11.231
180	-11.231
▁axes	-11.2312
▁pep	-11.2313
▁wish	-11.2313
▁symmetric	-11.2315
▁movie	-11.2318
▁az	-11.232
▁esr	-11.2325
▁encourage	-11.2325
▁employees	-11.2326
▁amygdala	-11.2327
▁rejection	-11.2332
▁225	-11.2332
▁crossing	-11.2333
▁merged	-11.2335
▁newborn	-11.2335
▁closest	-11.2335
▁chloroform	-11.2341
▁lat	-11.2342
▁expensive	-11.2347
▁rinsed	-11.2347
▁stereo	-11.2348
▁contextual	-11.2348
▁regulations	-11.2348
▁cities	-11.235
▁glycolysis	-11.2353
▁prep	-11.2356
orf	-11.2356
▁telomere	-11.2359
▁cirrhosis	-11.236
ero	-11.2361
alis	-11.2362
▁vesicle	-11.2362
▁discriminate	-11.2364
▁foxo	-11.2369
▁exploratory	-11.2372
▁expand	-11.2376
mir	-11.238
▁perspectives	-11.2384
▁radicals	-11.2385
▁substituted	-11.2388
▁kits	-11.2393
▁dilutions	-11.2393
har	-11.2394
▁iran	-11.2394
▁starvation	-11.2394
che	-11.2398
▁paid	-11.2398
▁valence	-11.2401
▁206	-11.2401
▁048	-11.2403
▁hypertrophy	-11.2404
▁malignancies	-11.2404
▁operator	-11.2407
▁bipolar	-11.2407
▁voluntary	-11.241
dna	-11.2412
▁teams	-11.2412
▁ecs	-11.2415
▁flu	-11.2418
eck	-11.242
▁ann	-11.2421
▁compensation	-11.2423
▁port	-11.2423
▁topics	-11.2425
▁mexico	-11.2426
▁abs	-11.243
ele	-11.2431
▁striatum	-11.2432
▁familiar	-11.2437
eal	-11.2439
▁spanish	-11.2442
▁bmd	-11.2442
▁restore	-11.2442
▁seizures	-11.2444
▁synonymous	-11.2445
▁morning	-11.2445
▁chicago	-11.2448
▁drivers	-11.2449
▁dtt	-11.2449
▁engineered	-11.245
▁pressures	-11.245
▁checkpoint	-11.2451
▁pat	-11.2456
▁cutting	-11.2459
ain	-11.2459
▁mediator	-11.2461
▁habits	-11.2461
▁mbp	-11.2463
time	-11.2465
aw	-11.2466
▁oncology	-11.2467
▁classic	-11.2467
▁concerned	-11.2468
▁corresponded	-11.2471
▁explaining	-11.2472
▁searching	-11.2473
▁stool	-11.2478
▁mur	-11.2479
▁matches	-11.248
▁ibm	-11.248
▁crystalline	-11.2481
▁une	-11.2482
▁mismatch	-11.2483
▁myosin	-11.2484
▁cocktail	-11.2486
132	-11.2487
145	-11.2487
▁recover	-11.2488
▁formulations	-11.249
▁telephone	-11.2492
▁acetonitrile	-11.2495
▁modality	-11.2499
▁cassette	-11.2499
▁thio	-11.2503
oa	-11.2504
▁microglial	-11.2514
▁clients	-11.2515
▁martin	-11.2518
▁homogenized	-11.2521
▁flowers	-11.2522
▁occlusion	-11.2524
▁snr	-11.2524
▁breath	-11.2525
hy	-11.2533
▁foreign	-11.2534
emia	-11.2534
800	-11.2534
▁proto	-11.2535
▁lean	-11.2537
otic	-11.2539
comp	-11.2539
▁reaches	-11.2543
▁redundant	-11.2543
▁stretching	-11.2545
tum	-11.2545
▁linker	-11.2547
▁stably	-11.2548
uri	-11.2548
▁esophageal	-11.255
▁placental	-11.2551
▁interactive	-11.2552
▁1500	-11.2552
▁sol	-11.2552
▁locality	-11.2554
▁perturbation	-11.2554
▁bag	-11.2554
▁nos	-11.2556
▁adenosine	-11.2559
pg	-11.2563
▁simulate	-11.2564
▁tumorigenesis	-11.2566
▁vibration	-11.2567
▁adopt	-11.2569
▁corpus	-11.2574
▁cytosol	-11.2575
▁integrate	-11.2578
▁cerebellar	-11.2578
▁adulthood	-11.2579
▁microtubule	-11.2579
▁chloro	-11.2581
▁derive	-11.2581
▁incision	-11.2582
ker	-11.2582
107	-11.2589
▁cin	-11.2591
▁bla	-11.2591
▁mcs	-11.2594
▁tuning	-11.2595
▁049	-11.2597
▁scaled	-11.2598
▁phenol	-11.2601
▁fill	-11.2603
▁burst	-11.2606
▁implementing	-11.2608
▁utilize	-11.2609
▁nest	-11.2609
▁heme	-11.261
▁burn	-11.2611
▁proline	-11.2614
▁neu	-11.2615
▁arch	-11.2615
▁controversial	-11.2617
▁planar	-11.2619
▁deleterious	-11.262
▁attending	-11.2624
▁hemi	-11.2624
▁aqp	-11.2625
gfp	-11.2625
▁compact	-11.2627
▁rows	-11.2627
▁fin	-11.2628
nh	-11.2629
▁maximize	-11.2631
▁titer	-11.2633
mus	-11.2635
hm	-11.2637
▁acyl	-11.2639
▁cooperative	-11.264
▁flanking	-11.264
▁047	-11.2642
▁cag	-11.2644
▁segregation	-11.2645
▁divergent	-11.2646
vir	-11.2648
▁wk	-11.2648
eno	-11.2655
▁monolayer	-11.2657
▁germline	-11.2663
oside	-11.2666
▁wire	-11.2672
▁dedicated	-11.2672
▁kj	-11.2673
▁kan	-11.2675
eus	-11.2676
▁outliers	-11.2677
▁gift	-11.268
oz	-11.2681
pectrophotometer	-11.2683
▁fv	-11.2687
▁dex	-11.2688
▁react	-11.2689
▁deeper	-11.2689
▁bending	-11.2691
▁pam	-11.2691
▁ant	-11.2694
▁uterine	-11.2695
▁kc	-11.2698
yo	-11.2698
don	-11.2699
▁distinction	-11.2701
▁transduced	-11.2703
▁264	-11.2703
▁caudal	-11.2704
ua	-11.2706
rad	-11.2708
▁maf	-11.271
▁alk	-11.2712
▁tab	-11.2716
▁localize	-11.2718
▁creation	-11.2719
▁pip	-11.272
▁caution	-11.2721
▁incorporating	-11.2724
▁nafld	-11.2724
idine	-11.2725
▁downloaded	-11.2725
▁noticed	-11.2726
▁tss	-11.2728
▁encountered	-11.2729
▁tags	-11.273
▁046	-11.2731
▁rhythm	-11.2732
▁conduction	-11.2735
▁elicit	-11.2736
▁comment	-11.2737
▁trunk	-11.2737
des	-11.274
▁pores	-11.2743
oides	-11.2746
▁ankle	-11.2746
▁kenya	-11.275
▁lie	-11.2751
▁federal	-11.2754
▁fibre	-11.2756
▁staphylococcus	-11.2756
▁microbes	-11.2756
▁nodules	-11.2757
▁palm	-11.2758
▁dispersed	-11.276
var	-11.2762
▁acceptor	-11.2762
▁pelvic	-11.2763
▁mus	-11.2763
▁solvents	-11.2763
▁pac	-11.2764
▁desirable	-11.2766
▁positivity	-11.2766
▁hydrogel	-11.2768
▁displaying	-11.2772
▁tim	-11.2776
▁043	-11.278
▁sphere	-11.2781
▁ctc	-11.2788
▁cyclo	-11.2788
▁eat	-11.2793
beit	-11.2795
▁fev	-11.2796
▁rodents	-11.2798
▁consortium	-11.2799
▁jp	-11.2801
▁experiencing	-11.2809
ros	-11.2809
▁recipients	-11.2812
▁filaments	-11.2813
metric	-11.2814
▁cha	-11.2817
▁publicly	-11.282
ping	-11.2821
▁endometrial	-11.2822
▁duct	-11.2825
700	-11.2828
▁multiplex	-11.2831
ust	-11.2835
▁042	-11.2836
ries	-11.2843
▁wear	-11.2845
▁reversal	-11.2848
▁elucidated	-11.2853
▁districts	-11.2853
▁dishes	-11.2854
▁pull	-11.286
sson	-11.2863
▁varieties	-11.2868
▁enrollment	-11.2868
ves	-11.2869
▁ligase	-11.2871
▁stratification	-11.2871
▁shed	-11.2872
▁207	-11.2883
▁neg	-11.2889
▁immunoblot	-11.2893
▁tightly	-11.2894
▁bead	-11.2897
▁proteomic	-11.2897
oph	-11.2901
▁rainfall	-11.2901
▁award	-11.2902
▁exit	-11.2905
▁198	-11.2906
▁suggestions	-11.2907
▁glycosylation	-11.2916
▁ensuring	-11.2918
140	-11.2918
▁scientists	-11.292
▁nigeria	-11.2923
▁oxy	-11.2925
▁leukocyte	-11.2931
▁termination	-11.2931
▁adc	-11.2931
▁pgc	-11.2932
sch	-11.2936
▁fan	-11.2941
▁antenna	-11.2944
▁oncogenic	-11.2948
▁yr	-11.2948
▁neighbor	-11.295
▁solving	-11.2951
▁ventricle	-11.2957
▁weakly	-11.2959
bv	-11.296
▁sirnas	-11.2967
▁setae	-11.2968
ller	-11.2969
▁044	-11.297
▁eligibility	-11.2974
▁fam	-11.2975
▁emg	-11.2976
ible	-11.2978
▁lam	-11.298
▁swedish	-11.2981
▁freezing	-11.2981
▁analyse	-11.2982
▁ask	-11.2984
uff	-11.2984
▁careful	-11.2989
▁040	-11.2989
ular	-11.2996
ides	-11.2998
▁brdu	-11.2999
▁realistic	-11.2999
▁fits	-11.2999
▁melatonin	-11.3001
▁phantom	-11.3001
▁nav	-11.3007
▁rectal	-11.3007
▁tensile	-11.3007
tf	-11.3008
▁revealing	-11.3008
▁sister	-11.301
▁bird	-11.301
▁otu	-11.301
▁instructed	-11.3011
▁debate	-11.3015
gu	-11.3019
▁bacillus	-11.302
▁acknowledged	-11.3021
▁feelings	-11.3024
▁immunized	-11.3028
▁magnesium	-11.3031
▁immunoprecipit	-11.3031
▁stabilized	-11.3032
▁robot	-11.3032
▁supplements	-11.3033
▁dss	-11.3038
rea	-11.3038
▁resolve	-11.304
▁argued	-11.304
▁dissemination	-11.3041
▁reciprocal	-11.3043
▁kidneys	-11.3047
▁rap	-11.3049
scan	-11.305
base	-11.3051
▁jan	-11.3052
▁prop	-11.3052
▁paths	-11.3053
dg	-11.3054
▁leucine	-11.3054
▁sole	-11.3055
▁quasi	-11.3055
▁ether	-11.3067
▁moiety	-11.3068
▁capabilities	-11.3068
▁destruction	-11.3071
▁sacrificed	-11.3073
▁hong	-11.3075
gel	-11.3076
▁massive	-11.3077
▁orders	-11.3078
▁denaturation	-11.3078
▁excision	-11.3081
▁harmful	-11.3085
▁worker	-11.3085
▁weighed	-11.3086
▁snap	-11.3086
▁clamp	-11.3088
▁antitumor	-11.309
▁probed	-11.3091
▁leukocytes	-11.3092
▁acs	-11.3092
▁ethiopia	-11.3093
▁adhesive	-11.3095
▁nadph	-11.3095
▁century	-11.3098
▁homologs	-11.31
und	-11.31
aca	-11.3101
▁satisfied	-11.3105
▁implanted	-11.3107
rg	-11.3109
▁predicts	-11.3111
▁execution	-11.3112
▁cent	-11.3112
▁scanned	-11.3112
istopathological	-11.3113
code	-11.3114
▁gradients	-11.3115
▁circuits	-11.3116
▁consumers	-11.3117
▁simplified	-11.3123
▁indications	-11.3124
▁coral	-11.3124
▁averaging	-11.3129
▁crt	-11.3129
▁gw	-11.313
▁cup	-11.3131
▁noteworthy	-11.3132
▁introducing	-11.3135
▁fuel	-11.3139
bin	-11.314
▁stressed	-11.3143
▁dpp	-11.3145
▁friends	-11.3145
▁xu	-11.3147
▁zikv	-11.3149
nb	-11.3152
▁mirror	-11.3154
▁cardiomyocytes	-11.3155
▁bacterium	-11.3155
▁submission	-11.3156
▁esc	-11.3159
ets	-11.3159
▁disclosure	-11.3159
▁scavenging	-11.3159
▁inpatient	-11.3163
bar	-11.3164
▁polarity	-11.3165
▁glp	-11.3167
▁203	-11.3168
▁sj	-11.3171
cent	-11.3172
▁cw	-11.3175
▁adherent	-11.3176
ule	-11.3178
▁tre	-11.3179
ich	-11.3183
▁elution	-11.3183
▁enlarged	-11.3185
▁schemes	-11.3186
▁supportive	-11.3186
▁pharmacokinetic	-11.3186
ants	-11.3187
cb	-11.319
▁collaborative	-11.319
wood	-11.3191
▁wp	-11.3193
▁differing	-11.3199
▁sinus	-11.32
▁041	-11.32
▁hsc	-11.3201
tre	-11.3202
set	-11.321
▁char	-11.3211
▁combine	-11.3211
▁analog	-11.3212
▁rupture	-11.3212
▁asymmetry	-11.3214
▁freeze	-11.3214
mit	-11.3215
▁coronal	-11.3217
▁ju	-11.3219
▁braf	-11.322
▁places	-11.3221
▁550	-11.3223
rx	-11.3223
▁corp	-11.3224
let	-11.3224
▁biogenesis	-11.3226
▁accessions	-11.3227
▁bcr	-11.3229
cho	-11.3229
rine	-11.323
▁impossible	-11.3231
▁vg	-11.3233
▁uas	-11.3233
ui	-11.3234
▁integrating	-11.3234
loc	-11.3235
▁mrs	-11.3239
▁rbc	-11.3239
▁transported	-11.3242
▁dielectric	-11.3245
▁ease	-11.3246
▁cq	-11.3248
▁fab	-11.3249
▁tick	-11.3251
▁mec	-11.3252
▁harboring	-11.3254
▁perpendicular	-11.3255
ink	-11.3255
▁constraint	-11.3259
▁norm	-11.326
▁plaques	-11.3265
▁pos	-11.3268
▁biosynthetic	-11.3269
▁him	-11.3271
▁mets	-11.3273
ela	-11.3273
▁alp	-11.3275
▁brought	-11.3275
▁stenosis	-11.3275
▁suppresses	-11.3277
▁transiently	-11.3277
▁ov	-11.3277
▁gad	-11.3281
▁emphasis	-11.3282
▁hexa	-11.3284
▁calibrated	-11.3285
▁methionine	-11.3289
▁pma	-11.3291
▁coagulation	-11.3293
▁projected	-11.3295
▁curvature	-11.3296
▁prof	-11.3298
▁relatives	-11.33
▁syringe	-11.3303
▁argue	-11.3305
▁belongs	-11.3312
▁staging	-11.3312
▁adrenal	-11.3313
▁inventory	-11.3314
▁implants	-11.3315
▁abundances	-11.3317
▁cla	-11.3317
▁parkinson	-11.3319
▁pot	-11.3324
▁sur	-11.3326
▁worked	-11.3327
ified	-11.3329
▁pubmed	-11.3331
▁descriptions	-11.3332
▁testosterone	-11.3334
▁today	-11.3334
▁norway	-11.3335
▁athletes	-11.3336
00	-11.3337
▁doxorubicin	-11.3344
160	-11.3349
▁superficial	-11.335
▁register	-11.3351
▁muscular	-11.3352
▁collective	-11.3354
▁transportation	-11.3355
▁septic	-11.3357
eff	-11.336
▁480	-11.336
▁branching	-11.3363
▁197	-11.3365
mat	-11.3366
▁inversion	-11.3366
▁configurations	-11.3367
▁organizational	-11.337
▁births	-11.337
▁detrimental	-11.3371
gm	-11.3371
▁caucasian	-11.3371
▁migraine	-11.3372
uz	-11.3373
▁medicinal	-11.3373
▁ribosome	-11.3375
▁mcl	-11.3376
▁contract	-11.3379
▁trim	-11.3381
▁aaa	-11.3383
▁huang	-11.3385
▁tunel	-11.3386
▁thirty	-11.3386
▁odor	-11.3388
▁successive	-11.339
▁chambers	-11.339
▁incorrect	-11.3391
▁census	-11.3393
▁214	-11.3393
▁fractional	-11.3395
▁hop	-11.3396
▁vit	-11.3397
bd	-11.3401
▁voxels	-11.3402
▁usp	-11.3402
▁dosing	-11.3406
▁commitment	-11.3407
▁allocated	-11.3413
▁veterinary	-11.3414
▁fatal	-11.3421
▁halo	-11.3426
nac	-11.3427
sf	-11.3431
▁photosynthetic	-11.3431
▁plc	-11.3432
tel	-11.3434
▁artifacts	-11.3435
▁atlantic	-11.3435
▁191	-11.3444
ivity	-11.3446
▁inability	-11.3446
▁yap	-11.3448
▁fructose	-11.3449
▁pbmc	-11.3449
▁eco	-11.345
▁determines	-11.3451
▁hep	-11.3452
▁fur	-11.3454
▁conjunction	-11.3456
▁stretch	-11.3459
▁kn	-11.3459
▁hands	-11.3462
▁rational	-11.3462
▁1640	-11.3462
▁sagittal	-11.3466
kr	-11.3468
exp	-11.3471
▁glomerular	-11.3473
▁4000	-11.3476
▁lim	-11.3476
▁surrogate	-11.3477
▁triglycerides	-11.3477
ett	-11.3481
▁fdg	-11.3486
▁taste	-11.3486
▁poisson	-11.3487
▁1983	-11.3489
▁classify	-11.349
▁spr	-11.349
▁sir	-11.3491
tron	-11.3493
sky	-11.3495
▁disturbances	-11.3497
▁dic	-11.3498
▁starts	-11.35
▁spacing	-11.3501
▁influx	-11.3501
▁entries	-11.3501
▁222	-11.3503
▁223	-11.3503
▁progeny	-11.3505
▁programming	-11.3505
▁abdomen	-11.3508
▁anonymous	-11.3508
▁bas	-11.3509
▁proxy	-11.3512
▁implying	-11.3512
▁quantitatively	-11.3512
▁vd	-11.3513
▁pic	-11.3514
▁340	-11.3516
▁problematic	-11.3519
▁aliquots	-11.3522
▁innovative	-11.3522
▁csa	-11.3524
tx	-11.3525
▁cohen	-11.3525
010	-11.3526
▁dbp	-11.3527
▁british	-11.3533
▁attended	-11.3535
▁ltp	-11.354
▁potency	-11.354
▁continues	-11.3541
▁mutual	-11.3542
▁immobilized	-11.3544
▁visually	-11.3551
▁pieces	-11.3552
▁anticipated	-11.3553
▁shallow	-11.3554
high	-11.3557
body	-11.3557
▁breakdown	-11.3558
▁arranged	-11.3563
▁lastly	-11.3566
▁twelve	-11.3568
▁proteases	-11.3573
▁qi	-11.3575
▁nlrp	-11.3576
▁testis	-11.3577
▁209	-11.3577
illa	-11.3578
▁fluids	-11.3584
▁transplanted	-11.3589
▁droplets	-11.359
▁opioid	-11.359
▁uncertain	-11.3596
▁indigenous	-11.3597
▁leadership	-11.3597
▁anesthetized	-11.3597
▁borne	-11.36
thr	-11.3601
xx	-11.3602
trans	-11.3602
▁pge	-11.3603
▁1984	-11.3603
hv	-11.3604
▁replicated	-11.3604
▁delays	-11.3606
▁sustainable	-11.3608
▁brand	-11.3609
▁handle	-11.361
▁hypothesize	-11.3611
▁0002	-11.3612
▁poverty	-11.3614
▁recruit	-11.3617
oo	-11.3617
▁update	-11.3617
ati	-11.3624
▁propensity	-11.3625
▁obstruction	-11.3625
och	-11.3629
▁waltham	-11.3636
▁fus	-11.3638
▁freely	-11.364
▁incubator	-11.3643
▁pituitary	-11.3643
▁microplate	-11.3644
pre	-11.3645
▁expectation	-11.3647
▁dv	-11.3647
▁histograms	-11.3653
▁gla	-11.3655
▁bromide	-11.3657
▁dsrna	-11.3659
▁vh	-11.3661
▁ptc	-11.3662
▁excel	-11.3663
▁flash	-11.3663
▁sclerosis	-11.3664
▁uganda	-11.3671
▁ubiquitination	-11.3678
▁seizure	-11.368
▁bring	-11.3683
▁femur	-11.3684
▁resultant	-11.3684
▁ast	-11.3686
▁transparent	-11.3686
▁comorbidity	-11.3686
▁definitive	-11.3688
▁375	-11.3688
▁scd	-11.3689
▁lies	-11.3689
▁alternate	-11.369
▁stimulates	-11.369
pin	-11.369
▁cough	-11.3692
▁refractory	-11.3697
▁glycoprotein	-11.3698
▁turned	-11.3698
▁ent	-11.3698
▁rem	-11.3699
▁gated	-11.3701
▁electrolyte	-11.3702
▁sugars	-11.3703
▁angiogenic	-11.3704
▁modifying	-11.3704
▁anal	-11.3704
▁visceral	-11.3704
▁alloy	-11.3706
▁routes	-11.3707
▁mj	-11.3708
▁helical	-11.3712
▁sheets	-11.3714
▁replace	-11.3714
▁gelatin	-11.3715
▁sort	-11.3716
▁irb	-11.3717
▁subtilis	-11.3718
▁rcc	-11.372
▁std	-11.3725
▁lymphoid	-11.3727
▁clarity	-11.3729
▁invariant	-11.3729
▁funds	-11.3729
▁gall	-11.3729
▁cacl	-11.3729
▁clinician	-11.3736
▁minus	-11.3741
mut	-11.3742
cus	-11.3743
▁polyacrylamide	-11.3743
atum	-11.3745
▁adiponectin	-11.3747
▁highlighting	-11.3747
cul	-11.3747
▁masses	-11.3748
▁flavonoids	-11.3752
▁ips	-11.3754
▁allergy	-11.3761
path	-11.3761
▁plasmodium	-11.3765
lus	-11.3771
206	-11.3772
▁theories	-11.3776
▁outputs	-11.3777
▁gradual	-11.3782
▁dominance	-11.3782
▁courses	-11.3783
▁mononuclear	-11.3783
▁naive	-11.3784
▁originated	-11.3786
▁transferase	-11.3786
▁entities	-11.3787
▁wanted	-11.3789
▁naoh	-11.3791
▁tendon	-11.3793
▁neutralizing	-11.3796
▁298	-11.3799
▁mrc	-11.3801
▁dropped	-11.3801
vis	-11.3803
phor	-11.3807
▁occupation	-11.381
▁spanning	-11.3813
▁chloroplast	-11.3817
▁cats	-11.3819
oxy	-11.3821
▁analogous	-11.3822
▁battery	-11.3823
▁deemed	-11.3823
▁focuses	-11.383
▁rip	-11.3832
▁york	-11.3834
gram	-11.3835
cas	-11.3837
non	-11.3839
▁earth	-11.384
▁vulnerability	-11.3845
▁subtle	-11.3846
▁flap	-11.3846
▁mediterranean	-11.3849
▁verification	-11.3849
▁prot	-11.385
▁venom	-11.3852
▁honey	-11.3856
▁immunotherapy	-11.3856
iso	-11.3856
▁dish	-11.3857
▁compromised	-11.3858
▁nmda	-11.3861
ora	-11.3864
▁arrowheads	-11.3864
▁thinking	-11.3864
▁ideas	-11.3868
▁progenitors	-11.3868
istic	-11.3873
▁quick	-11.3874
108	-11.3877
▁occupancy	-11.3881
▁preservation	-11.3881
▁iodide	-11.3881
▁correspondence	-11.3882
▁farmers	-11.3882
aci	-11.3883
▁aggregated	-11.3883
▁designing	-11.3883
▁nanoparticle	-11.3884
▁confined	-11.3885
▁publish	-11.3889
▁irs	-11.3889
▁sweet	-11.3895
▁certainly	-11.3897
▁attribute	-11.3897
▁erbb	-11.3898
170	-11.3898
▁antagonists	-11.3899
▁import	-11.39
▁kar	-11.39
▁microrna	-11.39
▁polarized	-11.3901
▁215	-11.3904
▁claim	-11.3906
▁melanogaster	-11.3907
▁neighborhood	-11.3909
▁originating	-11.3912
▁impairments	-11.3913
▁gtp	-11.3916
▁je	-11.3918
▁trpv	-11.3919
▁monomers	-11.3921
▁fertilization	-11.3921
▁myb	-11.3922
▁sealed	-11.3925
▁candida	-11.3928
▁autonomous	-11.3929
▁backward	-11.3929
▁fgfr	-11.3931
▁skill	-11.3934
▁exercises	-11.3935
▁italian	-11.3936
▁216	-11.3938
▁disulfide	-11.394
▁filament	-11.3941
▁compensate	-11.3945
▁bypass	-11.395
▁strictly	-11.395
▁skull	-11.3951
▁xlsx	-11.3952
▁father	-11.3952
▁holds	-11.3953
▁documents	-11.3956
▁mention	-11.3957
▁hormonal	-11.3958
▁loads	-11.3961
▁pss	-11.3963
genic	-11.3967
▁adequately	-11.397
▁tw	-11.3972
seq	-11.3973
▁dependency	-11.3973
▁rose	-11.3973
▁hearts	-11.3976
▁comprise	-11.3979
▁audio	-11.3982
▁norms	-11.3984
▁anion	-11.3988
▁cel	-11.3989
▁baby	-11.3991
▁tbs	-11.3991
▁eds	-11.3992
▁avoiding	-11.3993
▁que	-11.3996
nf	-11.3997
▁client	-11.3999
▁sport	-11.4
▁excretion	-11.4002
▁7717	-11.4004
▁sca	-11.4009
▁antenatal	-11.401
▁holding	-11.4012
hf	-11.4013
▁droplet	-11.4013
▁peerj	-11.4014
▁polymorphic	-11.4014
▁phyto	-11.4021
▁antifungal	-11.4021
▁coastal	-11.4021
▁sig	-11.4021
▁forests	-11.4025
▁sta	-11.4026
▁wash	-11.4028
▁androgen	-11.403
pb	-11.4032
but	-11.4033
▁colitis	-11.4038
▁determinant	-11.4043
▁initiating	-11.4043
129	-11.4045
▁internalization	-11.405
▁ger	-11.405
▁380	-11.405
▁solved	-11.405
368	-11.4054
▁couple	-11.4054
▁secretory	-11.4057
▁statements	-11.4058
els	-11.4061
▁dep	-11.4061
▁shaking	-11.4062
phenyl	-11.4062
▁foam	-11.4063
▁jc	-11.4063
▁arousal	-11.4065
▁invited	-11.4068
▁horn	-11.407
▁occipital	-11.407
port	-11.4075
com	-11.408
▁synapse	-11.408
▁sti	-11.4081
▁phagocytosis	-11.4084
▁endocytosis	-11.4084
▁minority	-11.4085
▁pitch	-11.4086
int	-11.4086
▁cation	-11.4088
▁swimming	-11.4088
▁livestock	-11.4088
▁fix	-11.4088
▁218	-11.4089
ran	-11.4091
▁hap	-11.4091
▁rms	-11.4094
▁ty	-11.4095
▁cnt	-11.4098
▁meg	-11.4109
▁intraperitoneal	-11.4109
▁assemblies	-11.4116
lm	-11.4116
▁224	-11.4116
▁ahr	-11.4118
▁cyan	-11.4121
▁orthogonal	-11.4121
▁lysosomal	-11.4121
mod	-11.4122
▁store	-11.4132
▁pfc	-11.4133
▁instruction	-11.4137
▁endothelium	-11.414
264	-11.4141
▁erg	-11.4142
▁audit	-11.4144
▁ovary	-11.4145
▁absorbed	-11.4147
▁sentence	-11.4148
rl	-11.4149
▁cutaneous	-11.415
▁nat	-11.4151
▁striking	-11.4154
▁mps	-11.4154
▁stirred	-11.4155
tl	-11.4156
205	-11.4161
▁hpa	-11.4166
▁johnson	-11.4167
▁gra	-11.4169
▁litter	-11.417
▁wealth	-11.4171
▁lymphatic	-11.4171
▁hypertensive	-11.4174
▁soc	-11.4176
▁inversely	-11.4177
▁cnv	-11.4178
▁labour	-11.4178
▁priori	-11.4179
▁html	-11.4181
▁tends	-11.4181
▁transcriptase	-11.4188
▁attentional	-11.4189
▁altogether	-11.4189
▁jackson	-11.4189
▁pcc	-11.4192
▁las	-11.4195
▁pcl	-11.4196
▁deterioration	-11.4196
▁literacy	-11.42
▁ya	-11.4203
▁origins	-11.4203
▁kin	-11.4203
▁dan	-11.4204
▁cure	-11.4205
▁sat	-11.4205
146	-11.4211
▁topological	-11.4216
zz	-11.4217
▁basin	-11.4217
▁von	-11.4219
▁restrict	-11.422
▁depressed	-11.4221
▁coarse	-11.4223
▁surgeons	-11.4223
▁normality	-11.4224
▁margins	-11.4226
▁290	-11.4229
ble	-11.4229
esis	-11.4235
eng	-11.4236
pan	-11.4237
▁orthologs	-11.4237
▁drawing	-11.4239
fv	-11.4239
▁excited	-11.4242
tn	-11.4242
▁fluoro	-11.4243
▁ammonia	-11.4245
127	-11.4248
▁infarct	-11.4253
▁admissions	-11.4253
▁coll	-11.4255
▁codons	-11.4256
▁threonine	-11.4257
▁cmr	-11.4258
▁zi	-11.4259
▁ui	-11.426
▁taqman	-11.4261
▁adoption	-11.4262
▁ua	-11.4263
▁vimentin	-11.4264
▁bre	-11.4271
▁reg	-11.4276
▁hygiene	-11.428
155	-11.428
ions	-11.4281
▁rationale	-11.4281
▁pigment	-11.4282
omic	-11.4282
▁atmospheric	-11.4283
▁drg	-11.4286
▁coming	-11.4287
▁repertoire	-11.4287
▁subfamily	-11.4287
vp	-11.4288
▁vice	-11.4288
▁permit	-11.429
▁choosing	-11.4291
▁independence	-11.4291
▁academy	-11.4295
▁thp	-11.4295
▁gains	-11.4296
ido	-11.43
▁altitude	-11.4302
▁suspensions	-11.4304
▁contig	-11.4304
▁mip	-11.4309
▁explanations	-11.431
▁clo	-11.431
▁labelling	-11.4311
▁lamina	-11.4313
▁gpr	-11.4315
▁cac	-11.4319
▁confer	-11.4319
▁csc	-11.432
▁guinea	-11.4322
rate	-11.4325
▁spikes	-11.4326
▁rdna	-11.4335
▁introns	-11.4336
▁sitting	-11.4341
▁managers	-11.4341
▁porcine	-11.4348
▁debris	-11.4348
▁altering	-11.4349
olin	-11.4349
ops	-11.4351
▁tms	-11.4353
▁swiss	-11.4353
▁ctrl	-11.4354
▁lose	-11.4355
▁proteomics	-11.4356
cher	-11.4356
▁cardio	-11.4358
▁addiction	-11.436
▁ipsilateral	-11.436
▁possibilities	-11.436
▁trimester	-11.436
▁nov	-11.4365
▁infect	-11.4367
▁gus	-11.4373
▁unusual	-11.4374
▁broken	-11.4375
ade	-11.4379
▁pls	-11.4386
▁periphery	-11.4387
▁freshly	-11.4387
▁dk	-11.4387
▁covariate	-11.4389
▁strands	-11.4389
▁trizol	-11.4391
▁vertebrate	-11.4393
▁penta	-11.4393
▁ica	-11.4393
▁nci	-11.4394
▁fcs	-11.4395
▁juice	-11.4398
▁regards	-11.4401
▁csp	-11.4401
▁salmon	-11.4402
kt	-11.4404
▁fst	-11.4404
▁metallic	-11.4404
lk	-11.4407
▁printed	-11.4409
idi	-11.441
▁entering	-11.4411
562	-11.4415
▁repetition	-11.4416
▁spreading	-11.4417
▁doped	-11.442
▁stepwise	-11.4422
▁spaces	-11.4422
123	-11.4424
▁384	-11.4424
▁ach	-11.4425
ias	-11.4427
ulo	-11.4428
▁chl	-11.4431
▁subpopulations	-11.4434
▁amplify	-11.4436
mmunosuppressive	-11.4437
ect	-11.4437
▁structurally	-11.4439
▁spi	-11.4441
▁kill	-11.4444
▁consumer	-11.4446
▁api	-11.4448
▁fret	-11.4449
▁ix	-11.445
▁rot	-11.4452
▁cigarettes	-11.4452
▁bud	-11.4454
▁intelligence	-11.4456
▁dysregulation	-11.4456
▁meoh	-11.4458
▁asterisk	-11.4458
▁eae	-11.4458
▁microfluidic	-11.446
agg	-11.4463
▁sq	-11.4463
▁affymetrix	-11.4464
▁encounter	-11.4467
▁lap	-11.447
0000	-11.4472
▁resveratrol	-11.4475
▁ssr	-11.4476
▁joining	-11.4476
▁flank	-11.4477
▁za	-11.4479
sim	-11.4479
▁arrival	-11.448
▁platinum	-11.4483
▁sha	-11.4484
▁playing	-11.4484
▁sanger	-11.4484
▁reality	-11.4485
▁diameters	-11.4491
▁discrepancies	-11.4491
▁heavily	-11.4491
▁constituents	-11.4492
▁mtorc	-11.4492
▁retain	-11.4494
pu	-11.4497
ash	-11.4501
▁amplicon	-11.4501
▁superfamily	-11.4502
▁nlm	-11.4505
▁fidelity	-11.451
▁mx	-11.4512
▁ccc	-11.4514
▁intermittent	-11.4514
▁oocyte	-11.4515
▁effectors	-11.4517
▁carcinomas	-11.4522
▁ionization	-11.4528
▁occupied	-11.453
▁osmotic	-11.453
▁ecosystems	-11.4531
▁demonstration	-11.4534
▁iterations	-11.4534
▁rif	-11.4539
▁235	-11.454
▁align	-11.4541
▁versa	-11.4542
▁concordance	-11.4545
156	-11.4546
ales	-11.4552
▁stroma	-11.4553
▁ultrasonic	-11.4553
▁glioblastoma	-11.4553
▁suggestive	-11.4553
▁positives	-11.4556
▁gating	-11.4557
▁rois	-11.4558
▁money	-11.4558
immunoreactivity	-11.4562
▁rel	-11.4566
▁tryptophan	-11.4569
▁disordered	-11.4569
▁appropriately	-11.4574
▁adam	-11.4577
▁amide	-11.4578
▁counseling	-11.4582
ago	-11.4583
▁330	-11.4585
▁ren	-11.4586
▁catalyzed	-11.4587
125	-11.459
▁specification	-11.459
▁korean	-11.4592
▁colonic	-11.4592
▁lox	-11.4595
▁runx	-11.4596
▁229	-11.4596
▁twin	-11.4598
▁organisation	-11.4598
▁immunoglobulin	-11.46
▁career	-11.4601
▁eagle	-11.4604
▁cov	-11.4605
ute	-11.4606
▁assign	-11.4608
▁pathophysiology	-11.4608
▁theoretically	-11.4608
aba	-11.4608
▁tas	-11.4609
▁rpl	-11.4609
▁undergone	-11.4614
▁crystallization	-11.4616
▁dopaminergic	-11.4616
002_	-11.4619
▁275	-11.4621
▁exceeded	-11.4622
test	-11.4622
▁219	-11.4625
▁orbital	-11.4625
▁connecting	-11.4627
▁waiting	-11.463
▁topical	-11.4631
▁pharmacy	-11.4631
▁volatile	-11.4631
▁pyramidal	-11.4632
▁conformations	-11.4632
▁zip	-11.4633
▁eh	-11.4633
ju	-11.4634
▁companies	-11.4635
▁weakness	-11.4636
aki	-11.4638
▁brazilian	-11.4638
▁sure	-11.464
▁ug	-11.4641
▁paw	-11.4641
▁inappropriate	-11.4643
▁ipa	-11.4643
ned	-11.4643
▁zealand	-11.4647
▁uniformly	-11.4649
▁tibia	-11.4649
▁tongue	-11.4651
▁vii	-11.4652
etic	-11.4657
▁suppressing	-11.4657
▁tried	-11.4658
▁aquatic	-11.4661
▁238	-11.4662
▁ppv	-11.4662
▁liposomes	-11.4663
▁gaze	-11.4667
icus	-11.4669
▁hepatocellular	-11.4675
ret	-11.4678
▁calcification	-11.4679
▁grass	-11.4684
▁linearly	-11.4687
▁caregiver	-11.4691
▁1970	-11.4692
mal	-11.4692
▁profound	-11.4694
ji	-11.4698
▁oxo	-11.4702
cha	-11.4712
▁horse	-11.4712
lam	-11.4713
▁biodiversity	-11.4715
▁omitted	-11.4719
fish	-11.472
▁diagonal	-11.4722
▁coast	-11.4727
▁nir	-11.4729
▁benchmark	-11.473
▁mts	-11.4735
▁myelin	-11.4736
▁microsatellite	-11.4739
▁stems	-11.474
▁ye	-11.4742
▁vv	-11.4742
▁sad	-11.4743
▁smoker	-11.4743
▁454	-11.4743
▁spheres	-11.4744
▁compromise	-11.4747
▁email	-11.475
▁spa	-11.4751
▁sporadic	-11.4754
▁reticulum	-11.4755
▁tips	-11.4756
▁qs	-11.4756
inae	-11.4758
▁breed	-11.4759
▁subscale	-11.476
▁ami	-11.4762
▁climatic	-11.4762
▁official	-11.4764
ometer	-11.4766
oyl	-11.4767
▁articular	-11.4769
▁ret	-11.477
▁sexes	-11.4771
▁technological	-11.4778
ull	-11.4779
▁meetings	-11.4781
▁finland	-11.4783
▁markov	-11.4784
▁cog	-11.4785
▁write	-11.4786
▁glaucoma	-11.479
▁serotype	-11.4791
▁pairing	-11.4793
▁arsenic	-11.4798
▁hexane	-11.4801
▁pul	-11.4802
▁pfa	-11.4804
▁seasons	-11.4805
▁nominal	-11.481
▁plain	-11.481
emic	-11.481
▁serotonin	-11.481
▁nn	-11.481
▁217	-11.4814
▁proteolytic	-11.4814
▁pde	-11.4816
▁nerves	-11.4821
▁sarcoma	-11.4821
▁explains	-11.4823
ean	-11.4826
▁paclitaxel	-11.4826
▁palliative	-11.4826
▁unilateral	-11.4826
▁hsd	-11.4827
▁extends	-11.4829
mid	-11.4832
▁confounders	-11.4833
▁manufacturing	-11.4834
sw	-11.4837
▁zo	-11.4838
ref	-11.4839
▁algae	-11.4841
▁dust	-11.4841
▁glycogen	-11.4842
▁anatomy	-11.4846
▁thrombosis	-11.4847
▁sup	-11.4847
▁gcs	-11.4852
▁string	-11.4856
▁abolished	-11.4859
_01	-11.4859
▁graphical	-11.4859
▁1200	-11.4866
view	-11.4866
▁deg	-11.4868
▁fibronectin	-11.4871
▁cooled	-11.4871
▁coat	-11.4873
▁familial	-11.4875
▁license	-11.4876
kb	-11.4879
uria	-11.4881
▁convenient	-11.4883
▁thailand	-11.4883
▁belief	-11.4884
▁conjugate	-11.4885
▁nude	-11.4887
▁dam	-11.4889
▁365	-11.4891
▁crf	-11.4896
▁avoided	-11.4899
▁programmed	-11.4899
▁lactobacillus	-11.4899
lr	-11.4899
▁templates	-11.49
▁missense	-11.4903
▁managing	-11.4903
▁postpartum	-11.4904
▁apple	-11.4905
▁hybrids	-11.4906
▁221	-11.4907
▁graded	-11.4909
▁photographs	-11.4911
▁rounds	-11.4913
▁hpi	-11.4914
▁pregnancies	-11.4915
▁gn	-11.4916
syn	-11.4918
▁competent	-11.4918
▁reliably	-11.4919
▁vegfr	-11.4921
▁specify	-11.4925
▁hn	-11.4926
▁characterised	-11.4928
▁tnbc	-11.4928
▁interviewed	-11.4928
▁breaks	-11.493
▁sympathetic	-11.4931
▁nets	-11.4932
▁mcm	-11.4933
▁tolerated	-11.4933
▁warranted	-11.4934
▁turkey	-11.4935
▁workplace	-11.4941
▁exceed	-11.4942
▁aor	-11.4943
▁js	-11.4943
▁sputum	-11.4943
▁cea	-11.4944
▁fairly	-11.4946
▁stands	-11.4948
▁excised	-11.4949
▁repeatedly	-11.495
▁win	-11.495
▁canine	-11.4954
▁conflicting	-11.4955
▁pulp	-11.4958
▁mdd	-11.4959
ima	-11.4959
▁aspartate	-11.496
▁pcdna	-11.4961
omer	-11.4969
▁nw	-11.4969
▁creb	-11.497
▁hub	-11.4972
▁carbohydrates	-11.4974
▁obstetric	-11.4974
▁privacy	-11.4976
▁carbonyl	-11.4977
nas	-11.4977
▁mds	-11.4978
▁pole	-11.4978
▁405	-11.4985
▁emphasized	-11.4986
▁acupuncture	-11.4987
▁255	-11.4988
▁compositions	-11.4991
▁pose	-11.4991
▁chimeric	-11.4997
▁bur	-11.4999
▁228	-11.5002
▁amine	-11.5003
▁raise	-11.5003
▁cpt	-11.5003
▁chang	-11.5004
▁coherent	-11.5004
▁carlo	-11.5006
▁wine	-11.5006
▁periodontal	-11.5009
▁pra	-11.5012
onceptualization	-11.5013
▁directional	-11.5014
▁occasionally	-11.5016
▁formaldehyde	-11.5018
▁aspirin	-11.5021
▁vapor	-11.5027
▁0003	-11.5028
▁sit	-11.5028
▁carl	-11.503
ky	-11.5031
wo	-11.5032
▁locomotor	-11.5033
▁obstructive	-11.5033
147	-11.5033
▁granules	-11.5034
▁phosphorus	-11.5035
▁nearby	-11.5035
▁convert	-11.5037
▁spores	-11.5039
▁tolerant	-11.504
▁capsid	-11.504
▁har	-11.5042
▁benzo	-11.5042
▁achievement	-11.5042
▁mining	-11.5043
▁strategic	-11.5045
▁ptx	-11.5046
▁scattered	-11.5048
▁stations	-11.5048
▁afterwards	-11.5051
▁bet	-11.5055
col	-11.5057
▁makers	-11.5058
▁wavelengths	-11.5059
mas	-11.506
▁phages	-11.5061
▁osteoporosis	-11.5062
pm	-11.5062
▁isotype	-11.5062
▁distinctive	-11.5075
▁killed	-11.5077
▁rfp	-11.5078
▁genotyped	-11.5087
▁mimics	-11.5094
▁refractive	-11.5095
▁interfaces	-11.5095
▁chair	-11.5097
▁getting	-11.5099
side	-11.51
▁antioxidants	-11.5101
idin	-11.5109
▁spl	-11.511
▁isotope	-11.511
▁encouraged	-11.511
▁precipitated	-11.5111
▁biotech	-11.5111
▁migrate	-11.5113
▁nadh	-11.5115
▁subscales	-11.5115
▁amb	-11.5115
▁pah	-11.5115
▁imputation	-11.5115
tar	-11.5119
▁mabs	-11.5119
▁osteogenic	-11.512
ado	-11.512
▁graduate	-11.512
▁constitutively	-11.5122
▁fibro	-11.5124
▁farms	-11.5124
▁investment	-11.5127
▁236	-11.5127
▁ze	-11.5128
▁tur	-11.5131
▁bins	-11.5131
▁intermediates	-11.5131
▁necrotic	-11.5132
▁254	-11.5135
▁incremental	-11.5135
▁drainage	-11.5136
▁avian	-11.5139
▁interplay	-11.514
▁reprogramming	-11.514
▁ingestion	-11.514
▁tailored	-11.5142
pat	-11.5143
▁osa	-11.5145
▁pcv	-11.515
▁melt	-11.515
for	-11.5151
pla	-11.5154
▁pvdf	-11.5154
▁ole	-11.516
▁operon	-11.516
pol	-11.5162
▁journals	-11.5162
pet	-11.5164
ual	-11.5165
▁modulates	-11.5168
▁performances	-11.5168
▁spines	-11.5168
▁pmol	-11.5169
▁hydrophilic	-11.5172
▁viewing	-11.5174
▁sink	-11.5174
▁parasitic	-11.5175
▁ended	-11.5176
ku	-11.5178
rat	-11.5181
sl	-11.5182
▁pivotal	-11.5183
▁business	-11.5186
▁hpf	-11.5186
▁ulcer	-11.5186
▁intersection	-11.5187
▁fluoride	-11.5188
480	-11.5189
▁psd	-11.519
▁inos	-11.5193
▁violet	-11.5194
▁herbal	-11.5197
▁endpoints	-11.5201
▁reviewing	-11.5201
▁osteo	-11.5201
▁surgeon	-11.5202
▁cronbach	-11.5203
nia	-11.5204
ira	-11.5209
▁cystic	-11.521
▁belgium	-11.5211
▁quercetin	-11.5211
▁resilience	-11.5211
▁fossil	-11.5211
▁spo	-11.5213
▁endoscopic	-11.5216
▁smc	-11.522
ulation	-11.5223
▁documentation	-11.5224
▁glc	-11.5224
▁passing	-11.5224
▁dab	-11.5224
▁follicles	-11.5225
▁226	-11.5227
ack	-11.5228
▁hrqol	-11.5228
▁holes	-11.523
arc	-11.5237
▁050	-11.5237
▁pci	-11.5237
▁anomalies	-11.5244
▁vigorous	-11.5244
ring	-11.5244
▁oxford	-11.5245
protein	-11.5245
▁afford	-11.5245
▁catalyze	-11.5246
▁dmf	-11.5246
▁smear	-11.5249
cyt	-11.5249
pen	-11.5255
▁hazards	-11.5256
▁flexion	-11.5257
▁prototype	-11.5259
▁bell	-11.526
methyl	-11.5261
▁gdp	-11.5261
▁era	-11.5263
▁diploid	-11.5264
▁explanatory	-11.5265
159	-11.5266
▁progressively	-11.5267
▁px	-11.5269
▁evaporation	-11.527
▁ltr	-11.527
▁ecl	-11.5271
▁scn	-11.5278
▁maze	-11.5279
▁attend	-11.528
ama	-11.5281
▁ban	-11.5282
▁twist	-11.5283
tta	-11.5283
▁259	-11.5285
ville	-11.5285
▁tell	-11.5286
▁amorphous	-11.5286
ites	-11.5288
link	-11.5289
▁angiotensin	-11.529
▁helices	-11.5291
▁ftir	-11.5292
▁245	-11.5292
▁photosynthesis	-11.5295
▁foraging	-11.5297
kar	-11.5297
▁speaking	-11.5299
▁voice	-11.53
▁accompanying	-11.5301
▁agencies	-11.5303
▁1982	-11.5303
▁motivated	-11.5304
▁threatening	-11.5305
px	-11.5305
ese	-11.5306
▁0006	-11.5307
▁matrigel	-11.5307
▁cocaine	-11.5308
▁employ	-11.5309
167	-11.5313
_001	-11.5314
▁ctx	-11.5317
▁pik	-11.5317
hal	-11.5319
▁triglyceride	-11.5319
▁kf	-11.5322
▁dap	-11.5322
▁interfering	-11.5324
▁sick	-11.5329
ics	-11.5335
▁reproducible	-11.5337
▁pit	-11.5339
▁valley	-11.5339
▁transcriptomic	-11.5342
▁carcinogenesis	-11.5342
▁reasoning	-11.5342
▁pri	-11.5344
▁secure	-11.5344
▁bos	-11.5345
▁prophylaxis	-11.5345
auer	-11.535
uch	-11.5352
logy	-11.5352
▁leaders	-11.5354
▁dexamethasone	-11.5358
▁aldh	-11.5359
▁stent	-11.5366
▁tga	-11.5366
▁energetic	-11.5366
▁abortion	-11.5371
▁dev	-11.5372
169	-11.5374
▁intracranial	-11.5375
▁cod	-11.538
▁ile	-11.5381
oi	-11.5384
azine	-11.5385
kk	-11.5386
▁govern	-11.5389
▁qd	-11.539
▁strengthen	-11.5392
▁unadjusted	-11.5392
▁maldi	-11.5399
▁perturbations	-11.5399
▁traditionally	-11.54
▁facing	-11.54
▁vomiting	-11.54
▁amd	-11.5401
▁ssa	-11.5403
▁restrictions	-11.5404
▁yo	-11.5405
gb	-11.5407
▁sliding	-11.5409
gar	-11.541
▁heatmap	-11.541
▁ikk	-11.5411
▁shifting	-11.5419
luc	-11.5426
▁rheumatoid	-11.543
▁thoroughly	-11.543
▁cochrane	-11.5432
▁bundle	-11.5435
sil	-11.5438
▁legs	-11.5439
▁dioxide	-11.5443
▁diamond	-11.5444
▁emerge	-11.5446
▁residuals	-11.5447
▁potato	-11.5449
▁limbs	-11.545
▁identifies	-11.5456
▁dcm	-11.546
▁inflammasome	-11.546
138	-11.546
▁till	-11.5464
▁239	-11.5466
▁tsh	-11.5467
▁sheath	-11.5469
▁billion	-11.547
▁wildtype	-11.547
rel	-11.5473
▁sts	-11.5474
▁wbc	-11.5475
▁impacted	-11.5475
▁insoluble	-11.5477
▁mountain	-11.5477
▁inherited	-11.5478
▁triggering	-11.5479
▁carbonate	-11.5485
▁orthologous	-11.5486
▁mutational	-11.5489
▁disagree	-11.5494
▁sensitization	-11.5494
▁recessive	-11.5494
▁fault	-11.5494
▁acr	-11.5496
adi	-11.5497
uf	-11.5498
▁bandwidth	-11.5499
▁compensatory	-11.5499
▁meth	-11.55
▁abl	-11.55
▁lacz	-11.5501
▁mod	-11.5503
▁satisfactory	-11.5503
▁spe	-11.5505
bro	-11.551
▁ebp	-11.5511
▁370	-11.5511
▁shaded	-11.5511
burg	-11.5512
▁ik	-11.5513
▁sudden	-11.5514
▁timely	-11.5516
▁glycol	-11.5519
▁stressors	-11.552
eh	-11.5521
rip	-11.5521
yr	-11.5524
▁peroxidation	-11.5526
▁sst	-11.5529
▁worst	-11.5529
▁boost	-11.5532
▁likert	-11.5534
lob	-11.5534
▁ecology	-11.5535
102	-11.5538
rid	-11.5539
▁vertebrates	-11.5539
▁desire	-11.554
▁icam	-11.5544
stat	-11.5544
▁snail	-11.5545
avi	-11.5548
▁midline	-11.5548
▁homogeneity	-11.555
▁227	-11.5551
▁videos	-11.5552
opathological	-11.5552
128	-11.5553
▁hmgb	-11.5553
▁collections	-11.5555
▁suffered	-11.5556
▁grew	-11.5558
▁persist	-11.5559
▁slopes	-11.556
▁informal	-11.5561
▁bcg	-11.5564
ette	-11.5565
▁scene	-11.5565
▁reserve	-11.5567
sy	-11.5569
▁timp	-11.5573
190	-11.5575
ward	-11.5576
▁binomial	-11.5576
▁coffee	-11.5576
▁bk	-11.5578
▁nv	-11.5578
ali	-11.5579
▁tape	-11.5579
type	-11.5581
tech	-11.5581
▁portions	-11.559
day	-11.5591
▁fell	-11.5596
▁caffeine	-11.5598
▁biotinylated	-11.5598
▁emphasize	-11.5602
▁attendance	-11.5607
▁summarizes	-11.5607
▁cdr	-11.5608
▁wd	-11.5612
▁wounds	-11.5614
▁texas	-11.5615
▁tes	-11.5622
ened	-11.5623
▁ih	-11.5624
▁progesterone	-11.5624
ick	-11.5625
ind	-11.5628
lis	-11.5629
▁zr	-11.5634
▁hrv	-11.5635
▁calf	-11.5637
▁fungus	-11.5637
▁pale	-11.5637
▁xy	-11.5639
rap	-11.5641
▁favour	-11.5642
echocardiography	-11.5645
▁sz	-11.5646
▁calling	-11.5647
▁mit	-11.5648
▁insertions	-11.5648
▁chondrocytes	-11.5651
▁suppressive	-11.5651
▁humidifie	-11.5654
▁spite	-11.5654
199	-11.5654
▁causative	-11.5654
▁accomplished	-11.5657
▁uf	-11.5661
itt	-11.5663
▁exerted	-11.5663
▁disk	-11.5666
▁hex	-11.5667
▁doppler	-11.5667
▁crack	-11.5668
▁math	-11.5668
▁operate	-11.5668
▁iba	-11.5671
ello	-11.5676
▁lacks	-11.5676
▁fibres	-11.5678
▁micrornas	-11.5678
163	-11.5682
▁huge	-11.5684
▁chemically	-11.5684
▁synovial	-11.5685
▁digestive	-11.5685
▁2500	-11.5686
▁cps	-11.5687
▁gpa	-11.5688
▁nikon	-11.569
▁dihydro	-11.5693
▁fad	-11.5695
▁ctl	-11.5696
▁202	-11.5697
▁hyp	-11.5699
▁drops	-11.5703
▁intergenic	-11.5704
some	-11.5704
eq	-11.5704
▁transducer	-11.5706
▁233	-11.5706
▁jones	-11.5711
▁mil	-11.5714
bra	-11.5715
▁ganglia	-11.5716
168	-11.5716
▁holotype	-11.5716
117	-11.5717
▁navigation	-11.572
ement	-11.572
▁promise	-11.5721
▁lithium	-11.5724
▁neuroimaging	-11.5724
▁pea	-11.5725
▁237	-11.5725
elle	-11.5726
▁synthesize	-11.5731
▁shr	-11.5732
▁surviving	-11.5734
▁quin	-11.5735
ech	-11.5737
▁248	-11.5739
▁cscs	-11.574
ford	-11.574
▁650	-11.5741
▁intraoperative	-11.5742
▁glo	-11.5742
▁looked	-11.5743
▁relief	-11.5746
kel	-11.5747
sn	-11.5747
▁realized	-11.5749
gap	-11.5751
▁gln	-11.5751
▁paul	-11.5752
▁opt	-11.5753
▁paternal	-11.5755
▁perinatal	-11.5755
▁1981	-11.5759
▁ready	-11.5761
▁klf	-11.5762
▁9600	-11.5763
▁packing	-11.5763
▁dimers	-11.5765
▁dq	-11.5765
▁285	-11.5765
▁flask	-11.5767
▁pur	-11.5768
▁budget	-11.5768
▁dako	-11.577
▁decide	-11.5772
ylation	-11.5773
asp	-11.5774
▁accept	-11.5774
▁bioavailability	-11.5777
kh	-11.5788
vin	-11.5792
▁erp	-11.5795
▁div	-11.5796
▁observers	-11.5797
script	-11.5797
▁huvecs	-11.5799
▁tetracycline	-11.5799
175	-11.58
▁jh	-11.5802
▁instrumental	-11.5803
▁depicts	-11.5804
▁ak	-11.581
▁247	-11.5811
▁nodal	-11.5813
▁serving	-11.5816
▁harvesting	-11.5817
▁276	-11.5818
▁pick	-11.5818
▁transwell	-11.5818
▁deposits	-11.5819
▁script	-11.5819
▁dulbecco	-11.5819
▁grades	-11.5822
▁titration	-11.5822
ila	-11.5824
▁tele	-11.5825
▁cct	-11.5826
ney	-11.5827
▁310	-11.5828
▁tro	-11.583
▁rescued	-11.5831
▁pipette	-11.5835
ient	-11.5835
▁argument	-11.5838
▁def	-11.5838
▁ppp	-11.584
▁flip	-11.5841
▁permutation	-11.5844
▁estradiol	-11.5848
▁anthropometric	-11.5848
▁histidine	-11.5849
▁conjugation	-11.5853
▁dates	-11.5854
▁lipase	-11.5855
▁transforming	-11.5856
ici	-11.5857
ona	-11.5858
▁streptococcus	-11.5861
▁neurogenesis	-11.5862
▁villages	-11.5864
nat	-11.5865
▁cataract	-11.5866
▁immersion	-11.5866
▁caco	-11.5867
md	-11.5867
▁arises	-11.587
▁213	-11.5872
fin	-11.5873
iana	-11.5874
▁288	-11.5874
▁iodine	-11.5875
▁nausea	-11.5884
▁straightforward	-11.5884
▁arf	-11.5884
▁residential	-11.5884
▁265	-11.5885
▁takara	-11.5885
▁analogue	-11.5888
ped	-11.5891
▁glm	-11.5894
220	-11.5896
anti	-11.5896
▁referring	-11.5898
▁presynaptic	-11.5902
▁vasculature	-11.5904
▁stata	-11.5905
▁cows	-11.5909
▁ara	-11.591
vd	-11.591
▁234	-11.591
▁spontaneously	-11.5911
▁barley	-11.5911
▁micrographs	-11.5913
▁autosomal	-11.5915
▁dehydration	-11.5919
▁migratory	-11.5919
▁stabilize	-11.5924
▁analytic	-11.5924
▁reproduced	-11.5925
▁cow	-11.5929
▁patent	-11.5929
▁ghana	-11.593
ast	-11.593
ending	-11.5933
▁psycho	-11.5933
▁adr	-11.5937
▁dissolution	-11.5937
▁lay	-11.5939
ological	-11.5941
375	-11.5942
itic	-11.5942
▁rising	-11.5942
▁sic	-11.595
▁iterative	-11.5951
▁paediatric	-11.5951
▁pao	-11.5952
▁reproduce	-11.5958
▁thi	-11.596
transferase	-11.596
▁torque	-11.596
tb	-11.596
▁skeleton	-11.5969
▁saharan	-11.5969
▁synchronization	-11.5973
▁054	-11.5981
▁cep	-11.5982
▁pdms	-11.5982
▁dendrites	-11.5983
▁sustain	-11.5984
▁catalase	-11.5987
▁atf	-11.5989
▁kindly	-11.599
▁lakes	-11.5996
▁vegetable	-11.6
▁musculoskeletal	-11.6
▁alive	-11.6001
▁sto	-11.6001
▁formulated	-11.6004
radi	-11.6004
▁dio	-11.6006
ars	-11.6006
▁modelled	-11.6007
por	-11.6007
stra	-11.6009
▁crest	-11.6009
▁gauge	-11.601
rec	-11.6016
mate	-11.6017
▁repository	-11.6019
▁specialists	-11.602
▁420	-11.602
logical	-11.6022
▁releasing	-11.6023
▁295	-11.6024
▁possesses	-11.6025
▁prefer	-11.6029
ases	-11.6031
▁follicular	-11.6032
▁profit	-11.6035
▁bull	-11.6037
▁tert	-11.6039
▁orally	-11.6039
▁wrong	-11.6042
▁zm	-11.6042
▁pdgf	-11.6046
elo	-11.6048
▁worm	-11.6048
00000	-11.6049
▁058	-11.6052
qu	-11.6053
▁chickens	-11.6055
▁entity	-11.6056
▁cranial	-11.6057
▁repressed	-11.606
▁classifiers	-11.6062
▁vivax	-11.6064
▁201	-11.6066
▁cages	-11.607
▁implicit	-11.6073
▁monkeys	-11.6076
nal	-11.6076
▁fak	-11.6077
▁tanzania	-11.6082
▁urgent	-11.6082
▁tcm	-11.6084
ious	-11.6086
▁rounded	-11.6089
nis	-11.6093
▁cms	-11.6093
▁spm	-11.6094
▁ambiguous	-11.6096
▁tsc	-11.6099
▁eo	-11.6099
▁alternatives	-11.6102
sia	-11.6107
xy	-11.6107
ency	-11.611
▁postsynaptic	-11.611
▁kat	-11.6111
▁wh	-11.6112
▁9500	-11.6113
ough	-11.6113
▁encouraging	-11.6114
▁discomfort	-11.6118
▁harbor	-11.612
▁autologous	-11.6123
▁erosion	-11.6123
▁respondent	-11.6124
▁helping	-11.6125
▁libitum	-11.6128
▁expanding	-11.6131
▁bees	-11.6132
▁warming	-11.6132
lon	-11.6132
▁hospitalized	-11.6133
▁collision	-11.6133
▁magnet	-11.6133
▁divide	-11.6138
▁aza	-11.6138
▁fulfill	-11.6141
rie	-11.6145
▁kw	-11.6146
▁attacks	-11.615
▁tcf	-11.6151
▁pathogenicity	-11.6154
▁296	-11.6154
▁nose	-11.6156
▁king	-11.6156
▁mold	-11.6157
▁mz	-11.6162
▁catalysts	-11.6163
▁rearrangements	-11.6166
▁211	-11.6167
▁esp	-11.6168
▁weighting	-11.6173
▁drink	-11.6176
▁055	-11.6177
▁daf	-11.6177
▁ncs	-11.6178
▁homes	-11.6178
020	-11.6181
▁forty	-11.6181
▁durations	-11.6183
▁cleaning	-11.6187
▁acceptability	-11.6188
▁lipo	-11.6189
▁triangles	-11.619
▁neonates	-11.6191
▁connect	-11.6191
▁accompanies	-11.6192
▁249	-11.6194
▁manager	-11.6195
▁scarce	-11.6196
▁partition	-11.6199
▁anc	-11.62
▁mitosis	-11.6202
▁hydrogels	-11.6203
177	-11.6203
▁prc	-11.6205
251	-11.6206
zer	-11.6206
▁logic	-11.6207
▁alongside	-11.6207
▁pathologies	-11.6215
▁vf	-11.6217
▁applicability	-11.6219
▁longest	-11.622
▁aca	-11.6221
▁dar	-11.6222
▁keratinocytes	-11.6224
▁epidermis	-11.6224
▁housekeeping	-11.6224
▁ligament	-11.6224
▁pars	-11.6225
▁wiley	-11.6225
ok	-11.6227
▁aluminum	-11.6233
▁diffractometer	-11.6233
▁psychology	-11.6233
▁radiological	-11.6237
▁io	-11.6237
▁terrestrial	-11.6238
▁aggression	-11.6238
▁visited	-11.6239
▁benzene	-11.6241
ique	-11.6242
▁abstracts	-11.6242
▁congruent	-11.6242
▁imposed	-11.6243
▁homa	-11.6246
▁oncogene	-11.6246
▁tin	-11.6246
▁quarter	-11.6249
▁rabbits	-11.6255
▁grip	-11.6255
▁mount	-11.626
▁tal	-11.626
▁methoxy	-11.6262
▁excitability	-11.6266
▁268	-11.6266
▁ageing	-11.6269
▁elemental	-11.627
▁proliferating	-11.627
119	-11.6272
▁dy	-11.6274
▁mail	-11.6276
cz	-11.628
▁oligomers	-11.628
king	-11.6283
▁oscillation	-11.6286
eu	-11.6287
▁kong	-11.6293
xl	-11.6294
▁lobes	-11.6298
▁exceeding	-11.6299
900	-11.6301
▁bru	-11.6303
▁friction	-11.6303
▁tunnel	-11.6308
▁collapse	-11.6311
rio	-11.6314
▁triangle	-11.6314
▁creative	-11.6318
▁observing	-11.6319
▁thiol	-11.632
▁fluxes	-11.6323
▁elongated	-11.6325
▁ancestry	-11.6326
▁phylum	-11.6326
▁cyt	-11.6326
▁hat	-11.6327
▁cgi	-11.6332
▁299	-11.6333
▁sediments	-11.6335
▁genital	-11.6338
▁adolescence	-11.634
▁endoplasmic	-11.634
▁microwave	-11.634
▁virtually	-11.6342
▁bou	-11.6342
▁257	-11.6344
▁catalog	-11.6344
▁rmse	-11.6345
▁og	-11.6348
▁thousands	-11.635
ations	-11.6352
▁crosses	-11.6353
▁212	-11.6353
▁0004	-11.6354
▁ancient	-11.6354
▁discs	-11.6358
▁overlapped	-11.6359
▁increment	-11.6362
▁lev	-11.6363
▁ibs	-11.6364
▁outdoor	-11.6366
▁iop	-11.6366
189	-11.6372
▁nuclease	-11.6373
▁064	-11.6373
▁morphine	-11.6373
cis	-11.6374
eau	-11.6374
▁pathologic	-11.6374
▁osteoblasts	-11.6376
▁games	-11.6376
▁pack	-11.6377
▁eukaryotes	-11.6377
▁olive	-11.6378
▁266	-11.6378
▁cope	-11.6379
▁ultimate	-11.6382
▁pei	-11.6383
▁austria	-11.6384
▁thorough	-11.6387
▁segmented	-11.639
▁imported	-11.6391
▁exome	-11.6392
▁begins	-11.6395
▁rag	-11.6396
▁tlc	-11.6398
▁goodness	-11.64
139	-11.6401
▁packaging	-11.6401
▁superscript	-11.6401
vert	-11.6402
▁060	-11.6402
▁rw	-11.6405
▁idh	-11.6406
▁ou	-11.6407
▁ehr	-11.6408
▁conscious	-11.641
dic	-11.641
▁consume	-11.6411
▁gill	-11.6411
▁cart	-11.6411
▁pleural	-11.6413
▁lan	-11.6413
▁euro	-11.6414
▁taa	-11.6418
▁titanium	-11.642
▁existed	-11.6424
lim	-11.6426
polar	-11.6427
▁averages	-11.6428
▁bones	-11.6431
▁qt	-11.6433
▁omega	-11.6435
▁pw	-11.6436
▁predator	-11.6438
▁063	-11.6439
▁nap	-11.644
▁512	-11.6441
▁horses	-11.6443
▁fx	-11.6445
▁hairpin	-11.6446
▁pointing	-11.6446
wan	-11.6448
▁augmented	-11.6449
▁sah	-11.6452
▁gan	-11.6453
nus	-11.6454
▁piece	-11.6456
▁390	-11.6457
▁067	-11.6458
erman	-11.6459
▁son	-11.646
▁286	-11.6461
▁oils	-11.6466
▁hyperglycemia	-11.6467
▁phos	-11.6468
▁sequentially	-11.647
▁278	-11.647
▁initiatives	-11.6471
▁survived	-11.6471
▁246	-11.6473
▁suited	-11.6474
▁bangladesh	-11.6476
▁anchor	-11.6477
▁ash	-11.6478
▁usefulness	-11.648
▁guarantee	-11.6481
▁eleven	-11.6481
▁lentiviral	-11.6481
▁244	-11.6482
eth	-11.6483
▁breeds	-11.6485
▁1107	-11.6486
▁nucleosome	-11.6486
▁059	-11.6488
▁289	-11.6488
▁creates	-11.6488
▁surrounded	-11.6489
▁myocardium	-11.6491
▁075	-11.6491
▁cysts	-11.6494
▁zhao	-11.6495
▁inoculum	-11.6495
▁transit	-11.6499
▁ggt	-11.65
▁convex	-11.65
▁tsa	-11.6504
▁lowered	-11.6504
▁unigenes	-11.6504
▁dfs	-11.6505
▁folate	-11.6505
▁myr	-11.6505
ema	-11.6506
class	-11.6511
▁dsb	-11.6511
1000	-11.6513
▁attracted	-11.6514
▁bulb	-11.6515
174	-11.6516
ulate	-11.6519
▁258	-11.6521
ore	-11.6521
▁graphite	-11.6526
▁sentences	-11.6528
▁pcp	-11.6529
▁267	-11.653
▁went	-11.6533
▁epo	-11.6533
gas	-11.6533
187	-11.6535
▁coverslips	-11.6535
▁interneurons	-11.6537
▁caps	-11.6538
▁defines	-11.6538
▁recycling	-11.6538
▁button	-11.6539
▁descending	-11.6541
▁someone	-11.6541
▁replacing	-11.6543
▁temporary	-11.6543
▁greenhouse	-11.6544
▁279	-11.6544
▁chow	-11.6545
▁microtubules	-11.6546
▁cores	-11.6547
▁therapeutics	-11.655
▁hes	-11.655
▁rearrangement	-11.6551
▁silenced	-11.6551
▁cbt	-11.6552
▁continuing	-11.6552
▁differentiating	-11.6552
▁neutralization	-11.6554
▁autonomy	-11.6557
▁authority	-11.6559
▁exerts	-11.6561
▁poultry	-11.6562
▁pda	-11.6565
etti	-11.6566
▁crossed	-11.6566
most	-11.6566
ple	-11.6567
▁renewal	-11.6567
▁accommodate	-11.657
▁amplicons	-11.6574
172	-11.6574
▁deoxy	-11.6575
▁slit	-11.6576
▁answered	-11.6576
▁cpr	-11.6579
▁legend	-11.6581
▁acuity	-11.6581
▁uncertainties	-11.6581
nps	-11.6582
▁covalent	-11.6583
▁wrist	-11.6584
ess	-11.6585
▁ij	-11.6588
188	-11.659
▁hypothalamus	-11.6591
▁manifest	-11.6591
▁gga	-11.6593
aut	-11.6601
▁truth	-11.6602
260	-11.6603
▁shortening	-11.6604
▁microstructure	-11.6605
▁drives	-11.6608
▁lar	-11.6608
▁grouping	-11.6608
▁leader	-11.6609
▁logarithmic	-11.6613
▁pel	-11.6613
▁raf	-11.6613
abc	-11.6616
sta	-11.6617
▁annually	-11.6619
▁longevity	-11.6619
▁streptavidin	-11.6619
▁sul	-11.6624
sha	-11.6632
▁bak	-11.6633
▁hal	-11.6635
ien	-11.6638
198	-11.6638
▁giant	-11.6639
eria	-11.6647
ometry	-11.6648
▁pufa	-11.6648
▁orfs	-11.6649
▁angiography	-11.6653
▁horseradish	-11.6658
▁reactivation	-11.6659
▁coi	-11.6661
▁trip	-11.6664
▁raises	-11.6665
▁grading	-11.6666
▁impair	-11.6666
▁1979	-11.6667
▁membership	-11.6668
▁277	-11.6668
virus	-11.6669
280	-11.6669
▁spray	-11.667
▁peers	-11.6673
▁gem	-11.6674
▁lig	-11.6675
▁stirring	-11.6677
aka	-11.6678
▁ura	-11.6678
▁cul	-11.6678
▁bca	-11.6681
▁concentrate	-11.6682
▁leak	-11.6683
▁056	-11.6683
ral	-11.6684
▁rain	-11.6685
▁cfs	-11.6686
▁switched	-11.6689
▁microarrays	-11.6691
▁lactic	-11.6691
▁cultivar	-11.6691
▁clarified	-11.6693
▁pts	-11.6695
▁casp	-11.6695
▁granule	-11.6699
▁reform	-11.6701
▁ganglion	-11.6707
xa	-11.6709
▁macroscopic	-11.671
▁taq	-11.6713
til	-11.6713
rol	-11.6713
▁pollutants	-11.6713
▁condensation	-11.6716
▁postulated	-11.6716
▁stores	-11.6722
scope	-11.6724
▁download	-11.6725
▁helper	-11.6725
▁outline	-11.6726
▁alcoholic	-11.6728
▁tamoxifen	-11.673
▁assumes	-11.6731
pha	-11.6731
ota	-11.6731
▁parenchyma	-11.6732
▁mef	-11.6733
▁huh	-11.6734
yne	-11.6735
135	-11.6735
▁irreversible	-11.6735
▁tcs	-11.6743
▁nlr	-11.6744
▁discharged	-11.6745
▁capita	-11.6745
▁sounds	-11.6746
work	-11.6747
▁fragmented	-11.6748
zen	-11.6749
▁judged	-11.675
group	-11.6751
▁universit	-11.6751
166	-11.6753
▁alters	-11.6754
trophic	-11.6755
▁reflex	-11.6759
▁infiltrating	-11.676
▁cargo	-11.6764
▁chaperone	-11.6765
▁297	-11.6765
▁compete	-11.6765
▁snow	-11.6765
▁pdac	-11.6768
▁thalamus	-11.6769
▁methodologies	-11.6771
▁falling	-11.6773
sociodemographic	-11.6777
▁director	-11.6778
▁nonspecific	-11.6779
▁hoechst	-11.6779
▁religious	-11.6779
▁indexes	-11.6783
▁ezh	-11.6785
cata	-11.6786
▁porosity	-11.6789
▁pico	-11.679
▁ces	-11.6792
▁neighbors	-11.6792
▁ancestor	-11.6794
▁gre	-11.6796
▁sel	-11.6797
minotransferase	-11.6797
▁surveyed	-11.6798
▁pierce	-11.6799
▁bilayer	-11.6799
▁clay	-11.6799
▁authorities	-11.6802
▁cbf	-11.6802
▁neighbouring	-11.6802
icola	-11.6804
cyst	-11.6805
itz	-11.6811
air	-11.6812
▁bai	-11.6813
▁capacities	-11.6813
▁malaysia	-11.6814
165	-11.6814
▁saint	-11.6815
▁neoplastic	-11.6816
▁fractionation	-11.6817
▁mito	-11.6822
gia	-11.6822
▁volunteer	-11.6824
vr	-11.6827
▁omp	-11.6827
▁curriculum	-11.6828
▁simplicity	-11.6828
▁stone	-11.683
250	-11.6832
▁mca	-11.6833
▁erythrocytes	-11.6833
▁recruiting	-11.6835
▁062	-11.6836
▁autonomic	-11.6838
▁lind	-11.6839
iva	-11.684
▁ens	-11.684
▁sco	-11.6841
aud	-11.6841
▁inhalation	-11.6843
central	-11.6846
▁sectors	-11.6847
▁speculated	-11.6848
▁308	-11.685
▁proteinase	-11.685
▁232	-11.6853
▁1975	-11.6854
▁hgf	-11.6858
▁connective	-11.6858
cta	-11.686
▁unbiased	-11.6862
▁suture	-11.6864
▁provinces	-11.6864
▁cite	-11.6865
▁transmit	-11.6865
137	-11.6867
▁cubic	-11.6868
▁heads	-11.687
▁generator	-11.6873
▁bus	-11.6877
▁490	-11.6878
▁lupus	-11.6878
▁summarize	-11.6879
oids	-11.6881
▁neuroprotective	-11.6882
2_	-11.6883
▁287	-11.6883
▁dealing	-11.6884
van	-11.6884
bus	-11.6885
ogram	-11.6886
▁cml	-11.6886
▁imagery	-11.6887
▁velocities	-11.6887
▁dim	-11.6887
115	-11.6889
▁poland	-11.689
▁ven	-11.6892
▁caries	-11.6892
▁ligated	-11.6893
mos	-11.6894
enberg	-11.6894
▁typhimurium	-11.6897
▁msp	-11.6897
▁ovaries	-11.6897
▁bro	-11.6899
▁ingredients	-11.6901
▁latest	-11.6904
cut	-11.6905
▁pai	-11.6911
▁cnn	-11.6912
▁uniquely	-11.6913
▁refine	-11.6914
▁cape	-11.6915
▁hundreds	-11.6916
▁bivariate	-11.6917
▁feces	-11.6918
▁leishmania	-11.6921
▁qtls	-11.6924
▁organelles	-11.6926
pal	-11.6926
▁parity	-11.6927
▁evolve	-11.6928
▁tdp	-11.6928
▁perceive	-11.6932
▁quantitation	-11.6932
▁exam	-11.6935
▁overload	-11.6939
▁contrasts	-11.6941
▁mart	-11.6942
▁distinguishing	-11.6944
▁polymeric	-11.6944
▁333	-11.6944
▁soma	-11.6945
488	-11.6948
▁interpreting	-11.6948
▁illnesses	-11.6951
▁applies	-11.6951
▁paragraph	-11.6952
chemotherapeutic	-11.6956
▁petri	-11.6956
▁completing	-11.6956
▁psychometric	-11.6957
▁prescribing	-11.6957
▁protects	-11.6957
▁everyday	-11.6958
▁sexually	-11.6958
▁tracer	-11.6959
▁0007	-11.6961
▁gravity	-11.6961
▁laparoscopic	-11.6961
▁qualitatively	-11.6962
▁theorem	-11.6962
▁digest	-11.6964
▁autophagic	-11.6966
▁rom	-11.6966
▁cingulate	-11.6967
▁freshwater	-11.6967
tom	-11.697
▁qu	-11.6973
▁illustrating	-11.6976
▁stringent	-11.6977
▁suite	-11.6979
▁reactor	-11.6979
▁totally	-11.698
▁vegetative	-11.6981
lac	-11.6982
▁islets	-11.6983
aire	-11.6984
▁rough	-11.6986
▁ampicillin	-11.6986
▁zhou	-11.699
▁rib	-11.6993
▁book	-11.6994
▁antigenic	-11.6995
▁miller	-11.6997
▁mosaic	-11.7001
▁quit	-11.7002
ning	-11.7004
▁complaints	-11.7006
▁mefs	-11.7006
▁maturity	-11.7006
▁crown	-11.7006
▁circ	-11.7006
▁gdm	-11.7007
fit	-11.7007
▁263	-11.7011
▁monkey	-11.7013
ska	-11.7013
▁probabilistic	-11.7016
▁mate	-11.7017
▁tablets	-11.7021
▁confusion	-11.7021
▁057	-11.7021
▁nanog	-11.7022
▁exploited	-11.7023
▁rub	-11.7023
phosphorylation	-11.7026
▁sheldrick	-11.7026
▁vari	-11.7026
▁prion	-11.7028
▁fsh	-11.703
178	-11.7034
▁delivering	-11.7034
126	-11.7035
ress	-11.7036
▁doping	-11.7036
▁rmsd	-11.7036
▁microsoft	-11.7037
▁glycan	-11.7038
▁traps	-11.7038
▁covers	-11.704
▁grp	-11.7042
▁dyes	-11.7044
▁hor	-11.7044
▁player	-11.7045
▁nitrite	-11.7047
ines	-11.7049
je	-11.705
▁meter	-11.705
▁steroids	-11.7054
▁lsm	-11.7057
▁charges	-11.7058
ester	-11.706
▁interpersonal	-11.7061
▁enhancers	-11.7063
▁325	-11.7066
▁surfactant	-11.7068
▁expectancy	-11.7071
▁269	-11.7072
rick	-11.7072
▁dsdna	-11.7072
179	-11.7076
▁capacitance	-11.7076
▁aperture	-11.7076
▁seeding	-11.7077
▁scheduled	-11.7078
▁silent	-11.7082
cg	-11.7084
▁productive	-11.7087
▁judgment	-11.7089
▁570	-11.7089
158	-11.7091
▁parentheses	-11.7091
▁tcp	-11.7094
▁polypeptide	-11.7095
pos	-11.7095
▁noting	-11.7096
▁conference	-11.7104
plex	-11.7105
▁adaptations	-11.7106
▁polysaccharides	-11.7107
▁fluorescein	-11.7108
▁dj	-11.7108
▁shh	-11.7109
▁volumetric	-11.7113
▁undetectable	-11.7117
▁workload	-11.7119
▁daughter	-11.7119
▁chief	-11.7119
pore	-11.712
▁catch	-11.7121
▁irrelevant	-11.7122
▁redundancy	-11.7122
▁offering	-11.7122
▁consciousness	-11.7122
▁semiconductor	-11.7123
▁flt	-11.7125
▁euthanized	-11.7127
▁heterologous	-11.7127
▁bam	-11.713
▁243	-11.713
▁exploit	-11.713
▁aiming	-11.7133
▁273	-11.7134
▁relates	-11.7137
▁roughness	-11.7138
▁lsd	-11.714
▁dbs	-11.7142
▁convenience	-11.7142
▁inequality	-11.7142
▁military	-11.7142
▁contributor	-11.7142
dan	-11.7143
▁pdgfr	-11.7144
▁chem	-11.7144
▁hemo	-11.7147
▁ketamine	-11.7147
▁methane	-11.7148
▁thermodynamic	-11.7148
▁roll	-11.7148
▁readers	-11.7149
▁packed	-11.7149
▁proposal	-11.715
▁williams	-11.7151
▁thrombin	-11.7154
▁corr	-11.7156
iae	-11.7157
ration	-11.7157
▁friendly	-11.716
▁gathered	-11.7161
▁linguistic	-11.7162
▁engaging	-11.7162
▁335	-11.7163
▁remainder	-11.7164
▁consultant	-11.7165
▁ngf	-11.7165
▁toll	-11.7166
▁seawater	-11.7168
arg	-11.7168
▁hmm	-11.7169
▁town	-11.717
▁bare	-11.7172
▁rights	-11.7172
ory	-11.7175
tv	-11.7181
▁originate	-11.7182
▁deionized	-11.7182
▁hardware	-11.7183
als	-11.7184
▁thomas	-11.7186
▁immersed	-11.7187
▁vertebral	-11.7189
illo	-11.719
▁languages	-11.719
bm	-11.7192
▁tnm	-11.7193
▁synchronous	-11.7198
▁firm	-11.7201
▁teacher	-11.7202
▁sons	-11.7203
▁engine	-11.7203
▁synergy	-11.7208
▁meals	-11.7209
▁adjustments	-11.7209
▁revising	-11.7213
▁flex	-11.7214
▁distortion	-11.7216
▁malnutrition	-11.7218
▁ubiquitous	-11.7218
inter	-11.722
▁vent	-11.722
▁069	-11.7221
san	-11.7222
win	-11.7224
iss	-11.7225
▁pups	-11.7225
▁duplicates	-11.7226
▁advantageous	-11.7226
▁radiographic	-11.7229
▁srs	-11.7233
▁efficiencies	-11.7233
▁lipofectamine	-11.7233
▁adsorbed	-11.7235
▁mst	-11.724
▁dermal	-11.7242
▁syndromes	-11.7244
▁readings	-11.7244
460	-11.7245
▁dislocation	-11.7247
▁aspiration	-11.7249
▁controller	-11.7251
▁supposed	-11.7254
▁spiking	-11.7254
▁street	-11.7254
▁corner	-11.7259
▁regimes	-11.7259
▁bun	-11.726
▁tracts	-11.7261
▁campaign	-11.7262
▁osteoclast	-11.7268
▁cfa	-11.7268
▁mobilization	-11.7269
▁chitin	-11.7272
▁latin	-11.7272
▁practitioner	-11.7272
▁reinforcement	-11.7275
▁minimally	-11.728
▁reflectance	-11.7282
orum	-11.7284
▁koh	-11.7287
▁follicle	-11.7288
unc	-11.7288
080	-11.7291
▁pgl	-11.7291
▁psp	-11.7292
▁cons	-11.7292
▁065	-11.7293
▁screw	-11.7294
immunodeficiency	-11.7295
▁trapping	-11.7295
▁cleaned	-11.7295
▁pth	-11.7296
▁stack	-11.7302
▁gro	-11.7304
▁tilt	-11.7307
▁striatal	-11.7309
sion	-11.7311
▁305	-11.7311
▁formic	-11.7313
▁preserve	-11.7315
xt	-11.7319
▁departments	-11.732
▁plug	-11.732
▁lectin	-11.732
090	-11.732
▁regenerative	-11.7321
▁quadratic	-11.7321
▁meant	-11.7321
▁jm	-11.7324
▁subpopulation	-11.7325
▁aspergillus	-11.7326
▁frailty	-11.7326
▁strengthening	-11.7326
▁requested	-11.7327
▁raising	-11.7327
icin	-11.7329
▁wl	-11.7331
▁tdcs	-11.7333
yan	-11.7335
pyr	-11.7335
▁beat	-11.7335
▁floral	-11.7336
▁pulsed	-11.7338
▁bj	-11.7338
▁uniprot	-11.7339
▁placing	-11.7339
▁receives	-11.734
▁polynomial	-11.7341
▁quantifying	-11.7342
▁affiliated	-11.7342
gd	-11.7344
▁pandemic	-11.7346
▁vicinity	-11.7346
star	-11.7347
▁socs	-11.7349
▁latitude	-11.735
▁shortest	-11.735
bre	-11.7351
▁irrigation	-11.7351
▁378	-11.7352
▁representatives	-11.7352
stein	-11.7353
▁460	-11.7353
▁extrinsic	-11.7362
▁bic	-11.7362
▁crossover	-11.7365
press	-11.7366
vel	-11.7367
▁splenic	-11.7372
▁dat	-11.7372
▁fil	-11.7373
▁microvascular	-11.7373
▁dipole	-11.7373
▁communicate	-11.7375
▁salts	-11.7376
▁monomeric	-11.7377
▁zhu	-11.738
lg	-11.7381
▁atherosclerotic	-11.7383
meter	-11.7386
▁proteobacteria	-11.7386
rom	-11.7387
▁cortico	-11.7387
▁fibrillation	-11.7388
▁pj	-11.739
474	-11.7393
204	-11.7396
▁indels	-11.7397
use	-11.7397
▁gabaergic	-11.7398
▁aps	-11.7399
▁flor	-11.7402
▁385	-11.7403
▁vancomycin	-11.7403
lith	-11.7407
▁repressor	-11.7414
▁dsc	-11.7414
▁gbs	-11.7416
▁siblings	-11.7418
▁neuropathy	-11.7419
▁comprehension	-11.7424
▁ontario	-11.7424
▁instar	-11.7424
▁dextran	-11.7425
▁primed	-11.7435
▁wireless	-11.7435
▁photons	-11.7435
▁mep	-11.7436
ably	-11.7438
▁synuclein	-11.7439
▁scs	-11.7443
▁mct	-11.7444
▁earliest	-11.7445
473	-11.7445
▁nsp	-11.7445
sol	-11.7445
▁vertex	-11.7445
▁resorption	-11.7446
iel	-11.7449
▁tank	-11.745
▁anisotropy	-11.745
207	-11.745
▁520	-11.7454
▁bark	-11.7458
▁willing	-11.746
▁wgs	-11.7461
▁9800	-11.7464
▁confluence	-11.7466
▁cytometric	-11.7466
▁ticks	-11.7468
▁evolving	-11.7469
▁066	-11.7469
bel	-11.7469
▁aryl	-11.7471
▁cannabis	-11.7471
▁heritability	-11.7471
▁propidium	-11.7471
▁wastewater	-11.7471
▁canopy	-11.7473
▁backgrounds	-11.7473
▁och	-11.7474
▁wax	-11.7476
▁madison	-11.7476
▁galactose	-11.7477
icular	-11.7477
tat	-11.7478
▁observable	-11.7482
▁variances	-11.7483
lb	-11.7484
▁groove	-11.7486
▁cytometer	-11.7487
▁sustainability	-11.7487
▁goes	-11.7489
▁continuum	-11.7492
▁partnership	-11.7492
▁livers	-11.7494
calc	-11.7496
▁inheritance	-11.7502
▁intakes	-11.7505
▁440	-11.7506
▁suitability	-11.7508
▁polysaccharide	-11.7508
▁accelerate	-11.7508
▁duplicated	-11.7509
▁309	-11.7511
184	-11.7511
▁tuned	-11.7512
▁resuscitation	-11.7513
▁probiotic	-11.7513
▁degrade	-11.7515
zy	-11.7519
▁cornea	-11.7522
▁encapsulated	-11.7526
▁1978	-11.7526
ort	-11.7528
▁274	-11.753
nam	-11.7531
phi	-11.7534
▁tracing	-11.7534
▁074	-11.7534
▁repress	-11.7535
▁cst	-11.7539
▁curation	-11.754
▁terminated	-11.7541
▁functionalized	-11.7545
▁willingness	-11.7545
▁etoh	-11.7546
▁posture	-11.7547
▁counteract	-11.7549
▁iteration	-11.755
▁xylose	-11.755
▁ctd	-11.7551
▁lbp	-11.7551
ges	-11.7552
▁subtracted	-11.7555
▁prompted	-11.7556
▁bri	-11.7556
▁ali	-11.7559
▁hsf	-11.7559
▁xenografts	-11.7565
▁ireland	-11.7566
▁keto	-11.7566
tas	-11.7566
kd	-11.7567
▁orientations	-11.7567
uchi	-11.7569
ultidisciplinary	-11.7571
▁cations	-11.7571
▁tang	-11.7572
ock	-11.7573
▁stocks	-11.7574
▁partitioning	-11.7575
▁belonged	-11.7576
▁ww	-11.7577
▁adhere	-11.7581
▁artifact	-11.7582
▁oven	-11.7586
▁msi	-11.7586
hemiluminescence	-11.7587
▁pfu	-11.7587
lay	-11.7589
▁pil	-11.7589
030	-11.759
ection	-11.7592
yama	-11.7592
▁secrete	-11.7596
▁contrasting	-11.7597
▁mmse	-11.7597
▁lewis	-11.7597
▁bear	-11.7598
▁tma	-11.7598
late	-11.7599
122	-11.7599
▁hscs	-11.7603
▁068	-11.7603
▁rays	-11.7604
▁mucus	-11.7606
▁pedigree	-11.7608
▁ich	-11.7611
▁google	-11.7613
▁stabilizing	-11.7613
▁ejection	-11.7613
▁ownership	-11.7613
blast	-11.7614
▁workshop	-11.7615
▁tj	-11.7619
ators	-11.762
▁spore	-11.7622
▁loadings	-11.7626
ava	-11.7628
▁splitting	-11.763
▁mill	-11.7632
303	-11.7633
▁grape	-11.7633
▁sen	-11.7635
thio	-11.7635
osus	-11.7642
data	-11.7642
eli	-11.7643
▁told	-11.7643
▁tsp	-11.7644
etin	-11.7647
▁blockers	-11.7649
eurodegeneration	-11.765
▁preferential	-11.7651
▁cilia	-11.7652
▁061	-11.7652
▁qds	-11.7654
▁provincial	-11.7656
▁preparing	-11.7656
▁balloon	-11.7656
▁logical	-11.7658
opathy	-11.7659
▁bundles	-11.766
▁sla	-11.7661
mcs	-11.7662
▁royal	-11.7663
▁meiotic	-11.7666
▁taxonomy	-11.7667
▁fibrotic	-11.7667
▁typing	-11.767
▁fibrinogen	-11.7671
▁294	-11.7673
▁pcna	-11.7673
aaa	-11.7674
▁plos	-11.7675
▁tir	-11.7675
▁editorial	-11.7678
▁command	-11.7679
000	-11.7682
▁rim	-11.7685
▁vehicles	-11.7686
dn	-11.7686
▁nations	-11.7688
▁depths	-11.7688
sub	-11.769
▁serological	-11.7691
▁steatosis	-11.7693
▁homogenous	-11.7693
▁opened	-11.7694
rist	-11.7695
▁tubules	-11.7699
flex	-11.7699
▁ascending	-11.77
▁wolf	-11.77
▁antiretroviral	-11.7704
▁enos	-11.7706
▁moves	-11.7708
▁standardised	-11.7708
▁hepatocyte	-11.771
▁bilirubin	-11.7714
▁neglect	-11.7718
▁ars	-11.772
▁infectivity	-11.772
omi	-11.772
▁biotic	-11.7724
nuclear	-11.7727
wc	-11.7728
▁mfi	-11.7728
▁316	-11.7729
▁islet	-11.7733
▁lrr	-11.7734
▁uncontrolled	-11.7736
▁beckman	-11.7736
cw	-11.7736
▁characterizing	-11.7737
▁mutually	-11.7738
111	-11.7738
▁discover	-11.7739
▁retest	-11.774
▁fifty	-11.7741
▁detergent	-11.7747
▁wellcome	-11.7747
▁berg	-11.7751
fm	-11.7752
▁gemcitabine	-11.7752
▁situated	-11.7755
▁caf	-11.7757
▁_	-11.7758
▁iaa	-11.776
▁locomotion	-11.7763
▁tub	-11.7768
▁attribution	-11.7768
▁packages	-11.7769
▁apps	-11.7769
▁spacer	-11.7769
▁gently	-11.777
▁468	-11.7772
ians	-11.7773
▁minimizing	-11.7774
▁deployment	-11.7774
▁tracks	-11.7775
xo	-11.7775
▁atm	-11.7775
▁presentations	-11.778
mis	-11.7781
▁yan	-11.7782
▁damaging	-11.7784
▁converting	-11.7785
▁scrambled	-11.7786
▁afp	-11.7787
site	-11.7789
▁cck	-11.7792
mers	-11.7794
▁mercury	-11.7801
▁gnrh	-11.7803
ifer	-11.7806
rit	-11.7808
195	-11.7814
▁cleared	-11.7815
▁bronchial	-11.7815
▁galactosidase	-11.7817
▁cbs	-11.7817
rh	-11.7817
▁zeb	-11.7819
far	-11.7822
▁funders	-11.7822
▁msh	-11.7832
▁presumed	-11.7835
▁540	-11.7836
▁ferritin	-11.7839
▁primates	-11.7839
▁gpx	-11.7839
rich	-11.7841
▁315	-11.7843
▁prophylactic	-11.7844
▁scratch	-11.7844
rez	-11.7848
pur	-11.785
▁contacted	-11.7851
▁vocal	-11.7853
▁307	-11.7855
▁hereafter	-11.7855
tac	-11.7855
▁lib	-11.7857
bn	-11.7858
▁prolong	-11.7859
▁dpph	-11.786
▁notice	-11.7862
▁ost	-11.7862
▁gui	-11.7862
▁sus	-11.7862
▁insecticide	-11.7862
▁530	-11.7863
hara	-11.7863
▁insensitive	-11.7866
xb	-11.7866
▁recognised	-11.7869
▁hyperplasia	-11.7871
▁lacked	-11.7871
peptide	-11.7872
tine	-11.7872
head	-11.7872
▁carp	-11.7874
▁anderson	-11.7876
fold	-11.7876
▁osteosarcoma	-11.7877
▁methylene	-11.7877
▁coincide	-11.7878
▁flasks	-11.7878
▁pcb	-11.7882
▁counselling	-11.7882
idium	-11.7882
▁diagrams	-11.7884
▁alkyl	-11.7885
▁citation	-11.7886
▁holo	-11.7889
▁soy	-11.789
▁alginate	-11.7893
▁diversification	-11.7893
▁hydration	-11.7893
▁stx	-11.7896
hua	-11.7896
▁ascertain	-11.7896
▁aes	-11.7899
▁barcode	-11.7903
▁vn	-11.7906
▁zf	-11.7909
▁hierarchy	-11.7909
308	-11.791
▁clp	-11.7913
wl	-11.7915
▁284	-11.7915
▁printing	-11.7916
▁spect	-11.7917
▁shares	-11.7919
▁rein	-11.7921
▁permeabilized	-11.7921
▁washes	-11.7921
▁story	-11.7924
▁zt	-11.7926
▁nz	-11.7927
▁cll	-11.793
▁undergoes	-11.7931
▁wilson	-11.7931
▁ipscs	-11.7934
209	-11.7935
ery	-11.7935
▁allo	-11.7935
▁sib	-11.7937
▁warning	-11.7937
▁condom	-11.794
▁rotational	-11.794
197	-11.7941
▁uro	-11.7942
ethyl	-11.7944
▁sonication	-11.7948
▁interior	-11.7948
▁send	-11.7951
▁augment	-11.7952
▁lapse	-11.7952
ovirus	-11.7953
mac	-11.7953
▁accumulating	-11.7953
struct	-11.7954
▁barr	-11.7955
▁470	-11.7955
▁outlier	-11.7958
149	-11.7959
▁wake	-11.7962
▁faced	-11.7963
▁rankl	-11.7964
▁corrosion	-11.7964
▁monolayers	-11.7967
▁idiopathic	-11.797
148	-11.7973
▁moh	-11.7973
▁medi	-11.7974
▁personalized	-11.7974
▁rubber	-11.7975
ear	-11.7976
▁underlie	-11.7977
dw	-11.7978
oil	-11.798
onia	-11.7981
▁647	-11.7981
▁bayes	-11.7983
▁opinions	-11.7984
▁copyright	-11.7992
▁resist	-11.7993
▁cleft	-11.7994
sulf	-11.7996
▁behave	-11.7996
▁discriminant	-11.7997
▁torsion	-11.8001
▁myeloma	-11.8003
▁mitigate	-11.8004
▁veins	-11.8008
▁drinks	-11.8008
▁hnscc	-11.8008
▁garden	-11.8009
▁laws	-11.801
awa	-11.8011
mark	-11.8012
▁nsc	-11.8012
▁nematodes	-11.8013
▁oligodendrocyte	-11.8014
nts	-11.8019
▁nmdar	-11.8019
▁dehydrated	-11.8019
▁compressive	-11.8019
▁rig	-11.8022
▁deprived	-11.8025
▁morphologies	-11.8025
▁couples	-11.8025
▁pst	-11.8028
▁comparatively	-11.803
dal	-11.803
▁adaptor	-11.803
ylated	-11.803
chem	-11.8031
▁neurite	-11.8034
▁luminescence	-11.8036
ture	-11.8036
lia	-11.8041
▁danish	-11.8042
▁israel	-11.8042
▁embedding	-11.8047
▁tad	-11.8047
▁arb	-11.8049
▁igfbp	-11.8049
▁yp	-11.805
▁jose	-11.8053
▁yb	-11.8057
▁agg	-11.8057
▁lamin	-11.8057
▁synchronized	-11.8061
ography	-11.8064
▁ple	-11.8066
▁thy	-11.8066
▁430	-11.8067
arries	-11.8067
▁umbilical	-11.8069
ulated	-11.8069
▁070	-11.807
▁alleviate	-11.807
olo	-11.807
▁reef	-11.8073
▁ineffective	-11.8074
202	-11.8075
ono	-11.8076
▁calcd	-11.8076
▁consultations	-11.8077
▁ttc	-11.8078
▁drb	-11.8078
ometric	-11.808
▁horizon	-11.808
▁executed	-11.8081
▁chop	-11.8084
▁bon	-11.8091
▁outgrowth	-11.8092
▁michael	-11.8095
▁jaw	-11.8099
▁lux	-11.81
▁fluctuation	-11.81
ye	-11.8102
▁suggestion	-11.8106
▁flavonoid	-11.8106
▁adenine	-11.8108
▁merely	-11.811
nv	-11.811
▁transparency	-11.8113
▁spiral	-11.8115
▁ji	-11.8116
▁vb	-11.8117
▁definite	-11.812
▁phy	-11.8124
▁mounting	-11.8124
▁physicochemical	-11.8125
hen	-11.8126
▁declines	-11.813
▁appearing	-11.8133
▁branched	-11.8136
288	-11.8136
aff	-11.8141
▁immunoassay	-11.8141
▁whenever	-11.8142
176	-11.8142
▁aic	-11.8143
▁nar	-11.8145
▁industries	-11.8147
▁perfused	-11.8147
▁mucin	-11.8151
▁statin	-11.8151
▁prompt	-11.816
▁sumo	-11.8161
164	-11.8164
▁infertility	-11.8164
▁cool	-11.8165
pathy	-11.8168
790	-11.8172
pho	-11.8174
▁implied	-11.8175
▁ridge	-11.8175
▁seedling	-11.8176
▁parenting	-11.8177
▁quenching	-11.8178
▁hir	-11.818
▁stz	-11.818
▁dimerization	-11.8183
▁stria	-11.8185
▁reflux	-11.8185
▁passages	-11.8186
▁mandibular	-11.819
▁depolarization	-11.8192
▁funnel	-11.8193
dec	-11.8194
los	-11.8194
▁9700	-11.8194
vt	-11.8195
mean	-11.8203
▁newborns	-11.8204
▁topography	-11.8205
▁nodule	-11.8205
▁temperate	-11.8209
▁rbcs	-11.8211
aya	-11.8212
▁recognizing	-11.8214
▁indole	-11.8215
▁vac	-11.8216
uma	-11.8219
uga	-11.8219
▁suicidal	-11.8219
iform	-11.8223
▁exceeds	-11.8223
▁tcc	-11.8225
▁magenta	-11.8231
▁ipv	-11.8234
▁swine	-11.8236
▁llc	-11.8236
▁impression	-11.8237
▁grafts	-11.8237
▁disappeared	-11.824
▁cdh	-11.8242
▁hum	-11.8242
▁immobilization	-11.8243
▁mcd	-11.8244
▁approached	-11.8245
▁corticosteroids	-11.8246
▁336	-11.8247
undifferentiated	-11.8248
▁caa	-11.8249
▁mitogen	-11.825
das	-11.8251
▁thoughts	-11.8252
▁crisis	-11.8254
▁brackets	-11.8256
▁accelerometer	-11.8259
▁imidazole	-11.8264
▁stressful	-11.8264
▁migrants	-11.8265
▁meningitis	-11.8265
lum	-11.8266
258	-11.8271
▁cuff	-11.8275
▁nucleation	-11.8276
▁tactile	-11.8277
ifolia	-11.8277
▁ids	-11.8279
▁linc	-11.8281
▁hallmark	-11.8282
▁rejected	-11.8282
▁heterozygosity	-11.8282
▁306	-11.8283
inger	-11.8283
▁adds	-11.8285
bil	-11.8287
viridae	-11.8289
▁counterstained	-11.8289
▁bicarbonate	-11.8293
▁osteoarthritis	-11.8293
▁habit	-11.8294
▁sero	-11.8294
▁helicase	-11.8295
▁1976	-11.8295
▁skilled	-11.8298
roc	-11.8301
▁depict	-11.8303
▁sensation	-11.8305
▁develops	-11.8307
136	-11.8308
▁076	-11.8309
▁sponge	-11.831
▁github	-11.8311
▁monotherapy	-11.8311
▁conf	-11.8312
▁xps	-11.8312
▁associates	-11.8314
aro	-11.8315
▁viii	-11.8315
▁traf	-11.8316
▁ramp	-11.8316
▁wait	-11.8316
ccc	-11.8318
▁poc	-11.832
qua	-11.832
▁necessity	-11.8322
▁psychosis	-11.8322
▁hw	-11.8323
▁suv	-11.8326
▁incubating	-11.8328
▁052	-11.8328
▁glycans	-11.8331
▁ghz	-11.8334
▁trying	-11.8338
▁relaxed	-11.8339
▁cardiomyopathy	-11.8339
▁trapped	-11.8339
▁relatedness	-11.8341
▁dft	-11.8342
▁flows	-11.8343
▁wildlife	-11.8346
gon	-11.8346
▁387	-11.8347
▁shot	-11.8348
▁puncta	-11.8348
▁deduced	-11.8349
▁morph	-11.8349
2000	-11.835
▁norwegian	-11.835
▁neglected	-11.8352
▁nbs	-11.8353
▁simon	-11.8355
▁herd	-11.8358
▁mah	-11.8361
▁gratefully	-11.8362
▁lrp	-11.8362
▁identifier	-11.8362
▁glyco	-11.8364
▁1960	-11.8365
▁permits	-11.8365
▁subsp	-11.8366
▁tensor	-11.8366
▁subcutaneously	-11.8367
mine	-11.8367
▁xt	-11.8371
▁dans	-11.8372
121	-11.8374
▁spend	-11.8375
▁fibrous	-11.8376
▁pak	-11.8376
catc	-11.8379
▁znf	-11.838
▁descriptors	-11.838
▁376	-11.8384
▁hai	-11.8385
band	-11.8387
▁078	-11.8391
▁universities	-11.8391
▁qui	-11.8393
▁boy	-11.8394
▁bromo	-11.8395
▁silk	-11.8396
▁quadrant	-11.8396
▁indonesia	-11.8396
▁southeast	-11.8396
▁neuroblastoma	-11.8396
▁thf	-11.8403
▁walker	-11.8403
▁maintains	-11.8404
▁quantile	-11.8405
▁culturing	-11.8408
▁wellbeing	-11.8408
▁morphogenesis	-11.8408
▁protons	-11.8409
eni	-11.841
▁lec	-11.841
are	-11.8411
▁cro	-11.8411
▁339	-11.8414
lysin	-11.8417
▁vero	-11.8419
▁rigorous	-11.842
▁phi	-11.8421
ult	-11.8425
▁ptp	-11.8427
▁analgesic	-11.843
▁speeds	-11.843
▁aegypti	-11.8431
▁telomerase	-11.8431
▁phc	-11.8431
tec	-11.8435
▁genotypic	-11.8436
196	-11.8442
▁fvc	-11.8443
▁nil	-11.8444
cip	-11.8445
flow	-11.8448
▁dyslipidemia	-11.8448
▁epoxy	-11.8448
▁sterilized	-11.8449
▁testes	-11.845
▁367	-11.845
▁fra	-11.8451
▁vip	-11.8452
185	-11.8453
▁glucan	-11.8453
▁charts	-11.8455
▁fibrin	-11.8456
▁attenuate	-11.8456
▁stick	-11.8457
morph	-11.8457
▁translate	-11.8457
▁considers	-11.8458
state	-11.8458
▁paris	-11.846
▁acp	-11.846
una	-11.8463
▁siv	-11.8465
▁washington	-11.8467
▁pir	-11.8468
ois	-11.8474
para	-11.8475
▁2020	-11.8475
▁dmp	-11.8476
▁curved	-11.8477
▁283	-11.8477
235	-11.8478
▁physics	-11.8478
wp	-11.8478
▁gat	-11.8479
▁kpa	-11.8482
▁donation	-11.8484
▁theta	-11.8485
▁aga	-11.8485
▁completeness	-11.8487
▁ud	-11.8488
▁carboxyl	-11.8489
▁pakistan	-11.8491
tip	-11.8492
▁ipsc	-11.8493
▁bx	-11.8494
▁psoriasis	-11.8494
▁ssp	-11.8497
urs	-11.8498
▁cathepsin	-11.85
▁dag	-11.8502
yi	-11.8503
▁heading	-11.8504
▁gfr	-11.8504
▁educated	-11.8504
▁turning	-11.8505
▁firmicutes	-11.8506
▁measurable	-11.8506
fb	-11.8509
▁biologic	-11.8509
▁cbd	-11.851
▁073	-11.8511
▁lpa	-11.8515
▁tablet	-11.8517
phosphate	-11.8517
▁qualified	-11.8517
▁plastid	-11.8517
▁brainstem	-11.8519
▁didn	-11.8519
inus	-11.8519
▁rts	-11.852
▁normalised	-11.852
▁0009	-11.852
▁fibrils	-11.8522
ethyltransferase	-11.8522
▁subsection	-11.8523
▁heterodimer	-11.8524
▁fk	-11.8524
▁conc	-11.8525
▁serotypes	-11.8528
▁338	-11.8529
gata	-11.853
▁jin	-11.8532
▁083	-11.8532
fg	-11.8532
ules	-11.8533
▁pho	-11.8534
▁narrative	-11.8536
▁cnts	-11.8537
▁ortholog	-11.8537
▁ror	-11.8538
rot	-11.8539
▁bolus	-11.854
▁natal	-11.854
▁separating	-11.8541
▁piglets	-11.8541
▁fun	-11.8545
▁taylor	-11.8546
nell	-11.8548
▁hook	-11.8548
▁inserts	-11.8549
▁nash	-11.855
▁painful	-11.8551
▁560	-11.8552
ux	-11.8553
144	-11.8553
▁chromatographic	-11.8556
▁killer	-11.8556
▁committees	-11.8557
▁cholinergic	-11.8558
▁ics	-11.8558
▁constantly	-11.856
▁capturing	-11.8564
▁gentamicin	-11.8564
▁mandatory	-11.8564
▁contractile	-11.8564
▁reside	-11.8568
▁trn	-11.8568
▁ribo	-11.8569
▁mtx	-11.857
▁identities	-11.857
▁346	-11.8571
▁nematode	-11.8571
▁gca	-11.8574
▁patterning	-11.8574
▁nitrocellulose	-11.8576
bert	-11.858
ther	-11.859
▁aj	-11.8592
▁nanodrop	-11.8593
▁vietnam	-11.8599
937	-11.86
dx	-11.8602
▁lysosomes	-11.8602
▁399	-11.8604
▁retrograde	-11.8605
▁ek	-11.8605
▁tpa	-11.8605
▁assignments	-11.8607
ere	-11.8608
▁0008	-11.8609
▁continuity	-11.8611
▁doxycycline	-11.8611
203	-11.8612
▁scid	-11.8612
▁poses	-11.8615
vol	-11.8615
▁ductal	-11.8616
▁gondii	-11.8617
▁abnormality	-11.8617
▁ctla	-11.8619
▁club	-11.862
▁053	-11.862
▁sophisticated	-11.8622
dor	-11.8625
▁asking	-11.8627
▁388	-11.8628
graph	-11.8628
▁isoflurane	-11.8628
▁arid	-11.863
▁aerosol	-11.863
▁integrative	-11.8634
▁rotating	-11.8635
118	-11.8635
oxi	-11.8637
▁pcos	-11.8637
▁cts	-11.8638
azole	-11.8638
▁alarm	-11.864
▁alternating	-11.864
▁esteem	-11.864
▁337	-11.8641
▁mediation	-11.8642
▁precipitate	-11.8642
▁normalize	-11.8645
▁polyphenols	-11.8645
▁cationic	-11.8646
▁curative	-11.8646
▁psm	-11.8647
tinib	-11.8648
tru	-11.8649
gat	-11.8649
▁osteoblast	-11.8651
▁ptb	-11.8652
▁pec	-11.8656
▁ciprofloxacin	-11.8658
▁overlay	-11.8659
imp	-11.866
illi	-11.8662
▁ascribed	-11.8664
▁sor	-11.8666
▁manifestation	-11.8667
▁shannon	-11.867
▁door	-11.867
154	-11.867
▁355	-11.8672
▁yrs	-11.8675
odes	-11.8675
▁shedding	-11.8676
▁cruzi	-11.8679
ching	-11.8681
▁husband	-11.8681
▁hiseq	-11.8683
124	-11.8684
▁rhoa	-11.8686
cyclic	-11.8687
▁pfam	-11.8688
▁bot	-11.8688
▁rio	-11.8688
▁377	-11.869
▁intercellular	-11.8694
▁lethality	-11.8695
iti	-11.8696
▁americans	-11.8696
▁ignored	-11.8698
▁feet	-11.8698
▁addresses	-11.8699
▁apr	-11.87
part	-11.8701
▁389	-11.8703
▁328	-11.8703
water	-11.8704
▁glycemic	-11.8705
▁accessory	-11.8706
▁wg	-11.8708
▁pharmaceuticals	-11.8709
▁mycobacterium	-11.8711
▁ascorbic	-11.8717
ordinary	-11.8717
ifera	-11.8717
▁cip	-11.8723
▁glycolytic	-11.8723
▁incentives	-11.8724
kan	-11.8725
▁blocker	-11.8725
▁thymus	-11.8729
ille	-11.8729
ctc	-11.8732
▁386	-11.8732
▁allergen	-11.8732
▁chlor	-11.8732
▁diagnose	-11.8733
▁plga	-11.8733
▁adiposity	-11.8735
▁chemotaxis	-11.8735
▁myd	-11.8735
ering	-11.8735
▁therapist	-11.8737
▁prl	-11.8739
▁ffa	-11.8739
▁lai	-11.8739
▁bpa	-11.8741
▁neuroscience	-11.8747
152	-11.8747
degrading	-11.8747
▁jet	-11.8748
cq	-11.8751
▁assistant	-11.8751
▁assemble	-11.8752
▁strikingly	-11.8754
ude	-11.8754
▁ache	-11.8754
las	-11.8755
atic	-11.8755
▁077	-11.8756
une	-11.8756
▁ems	-11.8756
▁empathy	-11.8759
▁mitral	-11.8759
gra	-11.8761
▁398	-11.8763
▁leisure	-11.8764
▁ctr	-11.8768
qi	-11.8768
▁marginally	-11.8769
▁fission	-11.877
▁368	-11.8772
▁ssdna	-11.8772
▁625	-11.8773
▁egcg	-11.8773
▁stacking	-11.8774
▁skewed	-11.8775
▁rk	-11.8776
▁carboxy	-11.8776
▁thickening	-11.8776
▁nickel	-11.8777
▁scha	-11.878
▁072	-11.8781
▁compares	-11.8781
▁elbow	-11.8782
▁hypothalamic	-11.8782
▁toluene	-11.8788
▁endurance	-11.8788
▁hercules	-11.8788
▁harmonic	-11.8788
▁680	-11.8789
▁testicular	-11.879
▁318	-11.8792
▁worsening	-11.8793
▁supp	-11.8793
▁comfort	-11.8793
▁actors	-11.8794
▁crosstalk	-11.8794
▁unnecessary	-11.8794
290	-11.8797
▁fistula	-11.8799
td	-11.88
▁penetrate	-11.88
xn	-11.8802
▁pros	-11.8806
▁diarrhoea	-11.8806
▁disabilities	-11.8806
▁consequent	-11.8807
▁pon	-11.881
▁cytoskeletal	-11.8812
▁fis	-11.8813
hypersensitivity	-11.8814
▁histologic	-11.8814
▁triplicates	-11.8816
▁steep	-11.8816
▁gct	-11.8817
▁strip	-11.8819
score	-11.8821
▁mam	-11.8825
▁345	-11.8829
208	-11.883
▁sno	-11.8831
▁triangular	-11.8833
▁satisfy	-11.8833
▁flo	-11.8834
▁rectangular	-11.8836
▁tel	-11.8838
▁aneurysm	-11.8839
▁262	-11.8841
▁304	-11.8841
▁cook	-11.8842
▁appraisal	-11.8842
▁swab	-11.8842
▁303	-11.8844
angi	-11.8844
▁ry	-11.8846
▁499	-11.8848
▁vin	-11.8848
▁hem	-11.8848
▁granted	-11.8849
▁phylo	-11.8849
▁choline	-11.885
mag	-11.885
▁chiral	-11.8853
genesis	-11.8854
▁aac	-11.8854
▁shp	-11.8854
▁pva	-11.8855
▁costa	-11.8856
▁tibial	-11.8856
▁lei	-11.8857
▁pes	-11.8859
iu	-11.8861
▁happen	-11.8861
bw	-11.8861
▁tha	-11.8863
▁migrated	-11.8863
▁sav	-11.8868
▁locate	-11.8869
gan	-11.8872
▁uncommon	-11.8872
▁verbatim	-11.8872
▁odd	-11.8873
▁kel	-11.8874
▁beams	-11.8875
003_	-11.8875
▁kra	-11.8877
▁colorimetric	-11.8878
▁fails	-11.8879
▁cpp	-11.8882
flu	-11.8884
▁fetus	-11.8885
▁summed	-11.8886
▁downward	-11.8886
▁astrocyte	-11.8887
▁mof	-11.8888
▁317	-11.8888
▁subtracting	-11.889
▁enlargement	-11.889
▁pdx	-11.8891
▁conductive	-11.8892
▁630	-11.8892
▁laminin	-11.8892
nos	-11.8892
osine	-11.8894
▁bol	-11.8895
▁tricho	-11.8896
▁impairs	-11.8897
▁analogues	-11.8897
▁knowing	-11.8898
▁pct	-11.8899
▁pesticides	-11.89
▁deficiencies	-11.8902
▁jump	-11.8903
▁metabolomics	-11.8903
▁lang	-11.8905
▁quartiles	-11.8907
▁comb	-11.8907
▁virulent	-11.8908
▁vps	-11.8909
sorb	-11.8912
mont	-11.8914
▁flour	-11.8916
▁cylindrical	-11.8916
▁pdt	-11.8916
186	-11.8917
sup	-11.8919
▁statins	-11.8919
▁bait	-11.892
▁instantaneous	-11.892
▁sativa	-11.8921
▁insignificant	-11.8922
398	-11.8922
pir	-11.8923
▁pharmacists	-11.8923
▁anger	-11.8925
▁nab	-11.8926
▁paulo	-11.8926
uropsychological	-11.8927
134	-11.8928
173	-11.8929
chin	-11.8929
▁329	-11.8931
▁vic	-11.8931
▁inequalities	-11.8932
▁ghrelin	-11.8932
▁defence	-11.8933
▁bent	-11.8933
_3	-11.8933
▁shortly	-11.8936
▁bap	-11.8937
▁colocalization	-11.894
▁rhe	-11.8946
▁pest	-11.8946
▁robotic	-11.8948
▁lactation	-11.8952
▁antidepressant	-11.8954
▁slip	-11.8956
230	-11.8959
▁mcr	-11.8962
▁359	-11.8962
▁conidia	-11.8963
▁browser	-11.8964
▁esters	-11.8965
▁253	-11.8966
▁centroid	-11.8967
▁mun	-11.8968
▁shoots	-11.8969
▁suc	-11.897
▁tz	-11.897
▁cary	-11.8973
▁wei	-11.8975
▁dihedral	-11.8975
▁proceed	-11.8975
▁postural	-11.8976
▁mse	-11.8977
▁850	-11.8977
▁comorbid	-11.898
nan	-11.8981
abe	-11.8982
nar	-11.8983
▁383	-11.8985
▁immunosorbent	-11.8987
ijk	-11.8988
▁cdkn	-11.8991
▁arrowhead	-11.8991
▁histopathology	-11.8993
▁truly	-11.8996
▁difficile	-11.8999
▁noticeable	-11.9
▁combines	-11.9002
143	-11.9003
▁pq	-11.9004
bol	-11.9004
▁ensured	-11.9005
▁mev	-11.9005
▁arv	-11.9007
▁fj	-11.9011
▁dismutase	-11.9011
▁mandible	-11.9011
▁bifurcation	-11.9012
▁generalization	-11.9012
▁326	-11.9013
▁410	-11.9014
chemical	-11.9015
▁costly	-11.9016
▁puncture	-11.9021
▁saa	-11.9029
▁cci	-11.9034
▁gk	-11.9035
▁anesthetic	-11.9036
tttt	-11.9036
▁consolidation	-11.9042
▁ess	-11.9043
▁mcg	-11.9044
▁uterus	-11.9048
cx	-11.9049
▁lytic	-11.9049
count	-11.905
▁314	-11.9051
▁xyl	-11.9051
▁nec	-11.9051
▁379	-11.9056
▁nan	-11.9058
▁1977	-11.9059
▁ptv	-11.9062
▁analogs	-11.9064
▁migrating	-11.9066
▁emitted	-11.9066
▁push	-11.9067
eva	-11.9067
▁screens	-11.9067
▁bevacizumab	-11.9072
▁cognate	-11.9072
▁polyethylene	-11.9073
▁constituent	-11.9077
▁bonded	-11.9078
▁contemporary	-11.9079
▁multidrug	-11.9079
tosis	-11.9082
▁herb	-11.9082
nz	-11.9082
▁mei	-11.9082
▁nls	-11.9082
▁enamel	-11.9084
▁disadvantages	-11.9084
248	-11.9085
▁singapore	-11.9085
▁harbour	-11.9085
▁rendering	-11.9085
▁priorities	-11.9085
▁bigger	-11.9085
▁edition	-11.9086
▁compiled	-11.9088
aac	-11.9088
cur	-11.9089
▁reasonably	-11.9092
lytic	-11.9092
▁museum	-11.9097
▁happens	-11.9099
ander	-11.9101
statin	-11.9103
▁multiplied	-11.9103
▁homeostatic	-11.9103
▁kanamycin	-11.9103
▁lncap	-11.9105
▁bottle	-11.9106
long	-11.9106
▁attach	-11.9106
osyl	-11.9106
▁369	-11.9106
▁ups	-11.9107
▁071	-11.9108
▁doubling	-11.9109
▁neighbourhood	-11.9109
▁terminals	-11.9109
▁cascades	-11.9111
▁rhythms	-11.9112
▁pom	-11.9114
vit	-11.9118
▁594	-11.912
▁breaking	-11.912
▁experimentation	-11.9121
▁suboptimal	-11.9122
▁magnetization	-11.9123
ttg	-11.9124
▁depicting	-11.9125
▁wavelet	-11.9127
oke	-11.9127
▁periodontitis	-11.9128
aj	-11.9129
▁inspired	-11.913
▁contraceptive	-11.9132
▁perfectly	-11.9133
▁485	-11.9134
ont	-11.9135
▁manufacturers	-11.9136
▁bpd	-11.9136
▁analyte	-11.9139
▁zeta	-11.9139
▁imrt	-11.9142
hel	-11.9145
plus	-11.9146
▁bread	-11.9148
▁pie	-11.915
pel	-11.915
▁tracked	-11.9156
▁085	-11.9158
▁waveform	-11.9159
▁agitation	-11.9165
▁arbor	-11.9166
stin	-11.9166
▁advisory	-11.9166
▁purchase	-11.9169
▁pace	-11.9171
▁insufficiency	-11.9171
▁kor	-11.9171
▁hen	-11.9176
▁beverages	-11.9177
▁analysing	-11.9177
▁unfavorable	-11.9177
▁ards	-11.9178
▁relie	-11.918
▁else	-11.9181
▁bean	-11.9183
▁detachment	-11.9184
▁435	-11.9188
▁columbia	-11.919
ej	-11.919
▁linearity	-11.9194
▁tinnitus	-11.9196
131	-11.9196
▁psychotic	-11.9197
▁uric	-11.9198
▁stm	-11.9199
▁manipulated	-11.9201
▁pine	-11.9202
▁doubt	-11.9202
▁mrp	-11.9202
▁confident	-11.9203
uca	-11.9207
▁destination	-11.9208
wer	-11.9208
▁sms	-11.9209
▁stimulatory	-11.9211
▁equi	-11.9212
▁349	-11.9213
▁iptg	-11.9214
▁retrospectively	-11.9217
▁327	-11.9218
▁trem	-11.922
▁racial	-11.9222
▁combat	-11.9225
▁tier	-11.9226
▁corrections	-11.9227
▁derivation	-11.9227
228	-11.923
obacter	-11.9231
▁adipocyte	-11.9232
▁sag	-11.9234
▁octa	-11.9235
▁hollow	-11.9235
▁348	-11.9237
▁clc	-11.9238
▁underlined	-11.924
▁weaning	-11.924
▁aunps	-11.9243
▁324	-11.9245
hold	-11.9246
chy	-11.9247
top	-11.9247
ston	-11.9247
not	-11.9251
▁eliminating	-11.9252
▁agro	-11.9253
▁turns	-11.9254
▁favored	-11.9255
▁neb	-11.9259
▁xm	-11.9259
▁ada	-11.9259
lig	-11.926
▁dent	-11.9262
▁frank	-11.9264
▁395	-11.9265
▁plating	-11.9266
▁nothing	-11.9267
hydr	-11.9268
▁biliary	-11.9271
▁fellow	-11.9271
▁constituted	-11.9273
298	-11.9274
▁desorption	-11.9278
▁gj	-11.9279
▁366	-11.9281
301	-11.9282
▁1974	-11.9283
▁357	-11.9283
via	-11.9283
inate	-11.9285
num	-11.9285
▁moments	-11.9285
▁carb	-11.9287
▁emp	-11.9288
▁gv	-11.9289
▁phyla	-11.9294
▁347	-11.9295
▁fuzzy	-11.9296
▁jia	-11.9297
▁dynamical	-11.9297
▁anaemia	-11.9298
▁folds	-11.9299
▁legislation	-11.9302
tive	-11.9302
▁trabecular	-11.9303
tree	-11.9304
jc	-11.9304
▁motivational	-11.9307
▁358	-11.9307
▁088	-11.9309
▁gun	-11.9314
▁convolution	-11.9315
▁reflective	-11.9319
▁benzyl	-11.932
▁eosinophils	-11.9321
▁mexican	-11.9321
ign	-11.9321
▁probiotics	-11.9321
▁shunt	-11.9323
try	-11.9324
▁dodecyl	-11.9328
uring	-11.9333
▁cylinder	-11.9333
▁menstrual	-11.9333
▁airways	-11.9334
phy	-11.9334
▁gtpase	-11.9334
▁ending	-11.9337
▁rgo	-11.9337
▁layered	-11.9339
▁trimer	-11.9339
▁meiosis	-11.934
▁amylase	-11.934
▁ship	-11.9341
▁minimized	-11.9343
osin	-11.9343
▁reared	-11.9344
▁397	-11.9345
mix	-11.9346
▁272	-11.9349
▁pup	-11.935
▁purely	-11.9352
▁354	-11.9352
emp	-11.9354
imotor	-11.9354
▁xx	-11.9356
▁lep	-11.9357
neurotransmitter	-11.9358
▁discontinuation	-11.9359
▁nephropathy	-11.9359
▁bid	-11.9359
▁convergent	-11.9359
▁ceramide	-11.9359
▁mdc	-11.936
▁079	-11.9361
thophysiological	-11.9367
▁florida	-11.9368
▁erythrocyte	-11.9371
uti	-11.9372
▁bioscience	-11.9372
▁wald	-11.9373
fluor	-11.9373
▁disparity	-11.9378
▁proliferate	-11.9378
▁classifications	-11.9378
▁failures	-11.938
▁encompassing	-11.9383
▁proc	-11.9384
ison	-11.9384
▁unbound	-11.9384
▁pectin	-11.9387
tia	-11.9387
ito	-11.9388
▁opn	-11.9389
pers	-11.9389
▁cooking	-11.9389
▁deeply	-11.9389
▁disequilibrium	-11.939
▁memories	-11.939
▁uiso	-11.9391
▁disp	-11.9391
▁dentin	-11.9391
▁080	-11.9394
tgc	-11.9395
▁diode	-11.9395
▁modular	-11.9396
▁anticoagulant	-11.9397
▁thermofisher	-11.9397
▁monocytogenes	-11.9403
▁starved	-11.9403
▁maxillary	-11.9403
▁374	-11.9404
▁appetite	-11.9409
▁undergraduate	-11.9409
▁explants	-11.941
▁shelf	-11.941
ches	-11.9414
▁keratin	-11.9416
▁midgut	-11.9416
▁vestibular	-11.9416
▁089	-11.9416
▁cofactor	-11.9418
▁segmental	-11.9419
▁alloys	-11.942
▁conjugates	-11.9421
▁ensures	-11.9422
▁neuromuscular	-11.9422
▁mers	-11.9423
▁homogenates	-11.9427
508	-11.9427
atta	-11.9428
▁plk	-11.9429
troph	-11.943
▁orbit	-11.943
augh	-11.9431
▁grafting	-11.9431
▁attained	-11.9433
rium	-11.9434
▁disparities	-11.9435
▁mindfulness	-11.9435
▁implication	-11.9436
▁nas	-11.9437
▁hematological	-11.9438
▁pupil	-11.9441
genes	-11.9441
112	-11.9441
oto	-11.9441
uy	-11.9442
▁proteinuria	-11.9443
▁histamine	-11.9446
▁archive	-11.9447
373	-11.9447
229	-11.9447
▁footprint	-11.9448
oba	-11.945
gent	-11.945
▁bel	-11.9452
▁dropout	-11.9455
▁disadvantage	-11.9458
lumin	-11.9459
▁bloom	-11.946
▁kyoto	-11.946
▁dem	-11.9461
▁lor	-11.9461
▁425	-11.9462
▁ctcs	-11.9466
▁ceramic	-11.9466
pac	-11.9467
▁autocorrelation	-11.9467
▁checking	-11.9467
▁upr	-11.9467
▁predators	-11.9469
▁thirds	-11.947
eta	-11.9471
rachi	-11.9472
▁dai	-11.9472
▁effusion	-11.9473
▁normative	-11.9473
▁humoral	-11.9475
▁oscillatory	-11.9475
▁compensated	-11.9476
▁nepal	-11.9477
lea	-11.9479
▁aliquot	-11.948
▁pim	-11.9485
▁sandwich	-11.9486
▁singular	-11.9486
▁cri	-11.9486
226	-11.9488
▁rneasy	-11.9492
▁intermolecular	-11.9493
089	-11.9494
▁golden	-11.9495
▁ilc	-11.9496
▁gua	-11.9497
▁trpm	-11.9497
▁084	-11.9497
▁amazon	-11.9498
▁trastuzumab	-11.9499
▁colombia	-11.9499
▁vel	-11.9499
▁reinforced	-11.9499
▁510	-11.95
sur	-11.95
lated	-11.95
▁aug	-11.9501
utter	-11.9501
multidimensional	-11.9504
▁640	-11.9505
▁enrolment	-11.9505
▁predation	-11.9506
▁equivalents	-11.9506
▁nts	-11.9506
▁wheel	-11.9507
iness	-11.9508
uck	-11.951
▁cfp	-11.9512
▁reacted	-11.9512
▁smartphone	-11.9513
289	-11.9513
oon	-11.9514
▁hev	-11.9517
▁quintile	-11.9517
▁organisations	-11.9519
▁calves	-11.9519
▁marc	-11.9522
▁synthetase	-11.9524
sma	-11.9525
▁tai	-11.9525
fil	-11.9529
▁splenocytes	-11.9531
▁transformations	-11.9531
rim	-11.9531
▁economy	-11.9532
▁packet	-11.9532
▁farming	-11.9537
999	-11.9539
iri	-11.9542
▁adl	-11.9542
▁perk	-11.9542
dent	-11.9543
▁uncover	-11.9544
▁051	-11.9544
▁adh	-11.9545
▁diseased	-11.9546
jan	-11.9547
▁hybridized	-11.9548
▁frameworks	-11.9549
uro	-11.9549
▁hydroxide	-11.955
▁happy	-11.955
239	-11.955
▁gpi	-11.9551
▁algal	-11.9553
▁cbp	-11.9554
▁532	-11.9555
▁ade	-11.9555
▁356	-11.9555
▁scalp	-11.9556
▁bats	-11.9556
mx	-11.9556
▁categorization	-11.9556
▁somatosensory	-11.9556
oral	-11.9557
▁rash	-11.9557
[...]
